{"ĠEFF": 33659, "Ġarrogance": 35033, "akra": 38004, "oried": 42058, "CVE": 31436, "ĠCurrently": 16888, "ĠYourself": 42132, "Ġ351": 44417, "ĠFeature": 27018, "ALD": 44071, "tele": 46813, "ĠRoc": 13545, "Ġaboard": 15500, "ĠTreatment": 21415, "ĠRemove": 17220, "Ġanth": 26794, "Typ": 31467, "Ġcups": 14180, "Ġresearchers": 4837, "ĠTop": 5849, "Ġsuperior": 9098, "Ġunauthorized": 22959, "Ġbombed": 34221, "ĠKendall": 36779, "ĠPau": 37329, "Ġsnug": 47032, "ĠJeanne": 48202, "ĠRalph": 20993, "ĠExpend": 48623, "Ġfreedom": 4925, "ĠTornado": 48970, "Ġsurpassed": 30612, "581": 48630, "Ġsacrament": 49081, "Ġcarefully": 7773, "ĠAnthropology": 50171, "itionally": 8736, "Ġwoo": 36440, "Ġexplosives": 20732, "ĠRights": 6923, "Ġdrawback": 43585, "Ġpens": 29707, "Ġdirty": 11841, "Ġprosecut": 6627, "Handle": 37508, "misc": 44374, "Ġafraid": 7787, "Ġcater": 20825, "Ġstruggles": 12766, "ĠVeronica": 44498, "ĠWill": 2561, "Ġmoniker": 45237, "ĠDisclosure": 41806, "ucha": 48022, "Trigger": 48344, "Ġtowels": 38494, "ĠBCC": 49577, "Ġscaled": 27464, "ĠCuba": 14159, "Movie": 25097, "AIDS": 39338, "Æ": 130, "ĠAqu": 11446, "Ġdeline": 46925, "'ll": 1183, "Ġlesser": 14494, "ĠMercury": 21673, "ometry": 15748, "RAY": 30631, "chedel": 24015, "ĠMiddle": 6046, "MAG": 45820, "Ġcaching": 40918, "Ġkiss": 9245, "Ġlabelled": 30538, "Bind": 36180, "Ping": 49806, "You": 1639, "ĠAffordable": 19258, "Ing": 27682, "Side": 24819, "ATTLE": 35455, "Ġflown": 22371, "Ô": 144, "ĠEsper": 42083, "Ġthreatening": 11123, "crazy": 50112, "eas": 30412, "Ġsearched": 16499, "ĠQian": 44696, "ography": 4867, "Ġhelps": 5419, "Ġdetox": 44674, "yeah": 43669, "ĠFormation": 46689, "Ġce": 2906, "ata": 1045, "ĠUber": 12024, "Ġbargain": 22803, "833": 48634, "dead": 25124, "Ġlack": 3092, "ĠAnarch": 32229, "osion": 18442, "versions": 47178, "outheast": 14474, "Ġfinances": 20903, "Ġshotgun": 18607, "Ġserve": 4691, "Ġside": 1735, "ronics": 20844, "Ġarsenal": 24375, "0000000": 24598, "ĠBIG": 26746, "Ġdifferentiate": 28754, "Ġss": 37786, "versive": 40099, "Ġdevils": 42466, "century": 14792, "Ġmember": 2888, "uu": 12303, "ĠSTAR": 25424, "ĠWatching": 36110, "0100": 39103, "ĠDem": 1897, "Ġovercame": 49490, "ressed": 2790, "Ġartificially": 32455, "730": 43916, "Ġproductivity": 13714, "Ġimproved": 6596, "Ġdiseng": 39402, "Ġrestraints": 45369, "Ġ405": 36966, "ĠIdent": 11440, "Team": 15592, "worth": 9268, "ĠQueens": 14045, "ĠIsraelis": 21137, "Ġchair": 5118, "orrow": 6254, "Ġenhancement": 28554, "WARE": 33746, "hots": 17398, "FBI": 39379, "ĠclichÃ©": 43973, "ĠNewport": 36538, "rupulous": 46272, "ontent": 38564, "arez": 19655, "ĠASAP": 46199, "hours": 24425, "ĠDecoder": 34580, "virt": 48940, "Ġbet": 731, "Ġnails": 23361, "?).": 29865, "Ġreclaim": 28232, "Ġcynicism": 49509, "Ġtug": 27762, "iphany": 49915, "ĠProblem": 20647, "Ġdating": 10691, "ĠGuys": 29899, "Charlie": 37136, "Ġvacuum": 17076, "ĠThousand": 39255, "uggest": 29212, "Ġvirtual": 7166, "glers": 33641, "Ġemployer": 9749, "quished": 39737, "mu": 30300, "Ġresolving": 31038, "odox": 11430, "Ġtangled": 41431, "ĠCrime": 10003, "Ġliqu": 14756, "Ġstimulus": 19819, "ĠNi": 11556, "Ãº": 21356, "Ġbackgrounds": 19063, "ĠLL": 27140, "Ġrid": 5755, "Ġdenying": 17086, "Ġversion": 2196, "ĠCanad": 2294, "Ġdreamed": 27947, "ĠUbisoft": 34559, "Ġcomforting": 34228, "ĠSurvivor": 23740, "Ġbacker": 37617, "ĠHSBC": 43841, "ĠFrequency": 31902, "$,": 47113, "\\\"": 7879, "_-_": 31386, "Ġmonog": 43173, "ĠLean": 45661, "<|extratoken_3|>": 50259, "Ġqualifiers": 40528, "Ġanecdote": 49533, "na": 2616, "Ġ4096": 42479, "ĠJUL": 49349, "omaly": 24335, "Ġprecedence": 38177, "486": 34251, "Ġresiding": 35173, "Ġanxiety": 9751, "Ġmarker": 18364, "ĠFBI": 5349, "Ġsluggish": 40186, "and": 392, "Ġbored": 17533, "cki": 49108, "Ġcamel": 41021, "Ġdifferential": 22577, "ĠGener": 2980, "Ġaccomplished": 13013, "Ġnationwide": 13673, "Ġcoerc": 24029, "ĠShop": 13705, "Ġcorp": 24614, "Ġwielded": 42459, "Ġfueling": 43881, "Ġspectral": 37410, "Ġconstitu": 12631, "-----": 30934, "Ġproteins": 15568, "ĠGuerrero": 49002, "-.": 34507, "atown": 41079, "Ġvigil": 16729, "ĠSud": 14818, "htt": 2804, "lite": 36890, "ĠAgain": 6521, "Ġ": 220, "ĠPortuguese": 21813, "Ġmanners": 33558, "Ġ().": 27972, "ĠTM": 21232, "Ġblaster": 48131, "Ġincreasing": 3649, "Ġpilot": 8022, "cill": 20346, "votes": 29307, "Ġgag": 32261, "ĠReleased": 28728, "inished": 30603, "ãģĻ": 33623, "Enlarge": 30952, "ĠSIG": 33993, "Ġeducation": 3707, "ĠDominic": 36401, "pps": 41799, "iddle": 2509, "Ġbench": 7624, "Ġwholes": 17950, "Calif": 19619, "Ġstaffers": 23033, "erd": 45744, "Ġdeployed": 12380, "ĠSpend": 48293, "Ġdismissing": 37514, "]'": 49946, "Ġradiator": 50036, "uation": 2288, "Ġcultured": 45847, "ĠPalestinian": 8501, "ĠSyri": 3030, "olute": 3552, "Ġincapable": 23402, "Ġstopp": 43804, "ĠPrize": 15895, "Ġilliter": 45029, "Ġimplanted": 40740, "Ġinfluences": 16717, "ivot": 45785, "Ġviability": 32141, "oke": 2088, "Ġconverge": 47873, "Known": 29870, "ĠKra": 21553, "ĠYankee": 36514, "ĠAudio": 13491, "ĠRory": 37178, "èĪ": 48958, "Ġilluminated": 35162, "Ġsuit": 6050, "Ġrod": 15299, "raphic": 22262, "ĠIsraeli": 6085, "Ġasks": 7893, "ĠConservative": 11132, "Ġlig": 26106, "director": 35248, "Ġuploaded": 19144, "Ġscapego": 42374, "Ġgay": 5650, "Ġcyn": 19768, "An": 2025, "Ġ332": 41423, "ĠSacred": 17380, "igraph": 45920, "ĠBurnett": 46039, "ĠMobile": 12173, "ĠOgre": 30660, "podcast": 46032, "all": 439, "ĠBrowns": 17671, "Ġgrievance": 47645, "Ġboat": 8848, "Ġmajor": 1688, "Ġattractions": 29156, "ĠSW": 12672, "ĠHew": 30446, "ĠWarranty": 43892, "Ġproclaiming": 46431, "Ġpredicting": 25539, "ĠCovenant": 25489, "ĠMing": 26980, "uploads": 39920, "Ġkeeps": 7622, "Ġadvance": 5963, "Ġracing": 11717, "Ġreminded": 14516, "etz": 23773, "ĠConcord": 34732, "Dat": 27354, "Ġdisadvantage": 21407, "oral": 6864, "Ġobjectively": 35721, "ĠLep": 42957, "oise": 25678, "riers": 8910, "ĠSame": 16766, "enson": 19069, "atto": 45807, "},{\"": 8762, "castle": 18676, "tml": 20369, "Ġairborne": 32726, "ĠMeteor": 25582, "bedroom": 36269, "ĠQur": 17599, "Ġfaithfully": 42353, "Ġfors": 46931, "Ġballoon": 21190, "Bear": 36352, "ouri": 10300, "Desktop": 36881, "ĠThro": 47854, "cos": 6966, "017": 29326, "urations": 20074, "Ġdictatorship": 26457, "Definition": 36621, "ĠBoston": 6182, "Ġdwell": 14046, "Ġrisen": 17450, "Ġtodd": 23646, "Sec": 6558, "ĠRas": 28513, "468": 38472, "bage": 13866, "ĠBecky": 47882, "English": 15823, "half": 13959, "eway": 16172, "uten": 7809, "imore": 9401, "IED": 19767, "Ġhubs": 38459, "ĠCosponsors": 41868, "Research": 25104, "ĠSioux": 37903, "786": 46302, "throp": 11360, "[]": 21737, "Ġguilty": 6717, "Ġtracked": 18283, "callback": 47423, "Bay": 15262, "Activ": 25526, "ĠVID": 32247, "critical": 34666, "Ġstash": 38305, "Ġvomit": 44542, "Ġbarrels": 17907, "Ġpartnering": 41759, "ologic": 20781, "ĠAub": 19723, "ĠChampionship": 10749, "ounge": 20891, "Ġts": 40379, "ĠHeat": 12308, "ĠPART": 16652, "Ġgenetically": 20807, "Ġcell": 2685, "session": 29891, "Ġdisabling": 34909, "ĠRX": 24202, "Ġgum": 27142, "106": 15801, "âĦ¢": 8151, "ĠManziel": 45843, "asses": 13978, "oxide": 28885, "Ġalpha": 17130, "190": 19782, "icates": 16856, "ĠToo": 14190, "OPER": 31054, "ĠPumpkin": 36724, "ĠMichelle": 16738, "Ġinstruct": 5048, "abyte": 37828, "Ġprofound": 11982, "ĠTEXT": 40383, "Ġtouches": 18105, "Ġflavor": 9565, "ĠRoyal": 8111, "Ġdeferred": 28651, "elli": 23225, "ĠWarden": 38498, "Ć": 194, "ascript": 15961, "ĠNoah": 18394, "Ġentrusted": 37984, "And": 1870, "Ġprogress": 4371, "ĠQuarter": 17264, "Ġspeculate": 26256, "ĠIll": 5821, "ĠYel": 28876, "86": 4521, "263": 29558, "aternity": 17094, "vertising": 31809, "Ġscoff": 39247, "Ġupbringing": 40678, "usterity": 20761, "ĠLuis": 20894, "ĠGabriel": 17371, "uracy": 23843, "wp": 24142, "ĠLanguage": 15417, "ĠRoma": 29600, "Ġnominations": 30994, "ĠHaram": 33139, "OPA": 43345, "Ġoccas": 7782, "Ġnationals": 22970, "ĠConstantinople": 46369, "Ġsuperpower": 47481, "ĠClair": 48195, "Ġdelightful": 32327, "ecause": 3156, "ened": 2945, "Ġslope": 22638, "ĠBubble": 33691, "Ġmanslaughter": 35083, "Ġcomprise": 28889, "Ġfailures": 15536, "umbai": 21645, "Fix": 22743, "Ġendpoint": 36123, "ANCE": 19240, "Insp": 41502, "ĠNX": 42482, "Quant": 24915, "ĠSTA": 47550, "ĠBlade": 11671, "ĠBTC": 14503, "ĠSecretary": 4986, "ĠHave": 8192, "Ġhandles": 17105, "Ġ::": 7904, "arna": 28610, "fen": 41037, "ĠMagnum": 48019, "aceae": 48319, "Ġeverlasting": 45697, "Ġmultic": 47368, "ĠLoading": 12320, "Ġ386": 48340, "ĠEllison": 33601, "Ġkeys": 8251, "ĠListen": 20600, "ĠUt": 7273, "ob": 672, "Ġincred": 4878, "Ġenroll": 14627, "Ġextent": 6287, "ĠAqua": 24838, "Ġbombings": 26579, "Ġfeathers": 27400, "fs": 9501, "Ġdeliberately": 14593, "};": 19629, "Ġportions": 16690, "Ġbolt": 18100, "Ġcondemned": 15006, "ĠAppropri": 29857, "Ġlegislatures": 38081, "Ġpropensity": 41121, "ĠKenny": 22102, "ieu": 22304, "Ġsuspended": 9951, "ĠBleach": 48469, "din": 25194, "ĠRounds": 49049, "Pres": 25460, "Ġequ": 1602, "ĠShap": 29198, "Ġcreat": 1827, "Ġ2004": 5472, "encies": 3976, "Ġhoping": 7725, "Ġcontents": 10154, "ĠInvestigation": 21505, "RB": 27912, "ĠMeasure": 24291, "Ġlosing": 6078, "Ġtid": 29770, "uncle": 29942, "nian": 44516, "ĠHot": 6964, "Ġ03": 7643, "û": 183, "ATION": 6234, "Ġhid": 24519, "ĠTCU": 44914, "Ġadvertisers": 27835, "arya": 43898, "ĠCBS": 11133, "Ġdesigned": 3562, "Doctors": 47087, "Ġdestination": 10965, "Ġleaf": 12835, "irect": 1060, "agle": 19345, "ĠGandhi": 22081, "audio": 24051, "manship": 25428, "ĠWass": 32427, "Ġprolong": 16761, "Ġ1952": 26352, "ĠMane": 42736, "æĥ": 46349, "eez": 33105, "just": 3137, "Ġgambling": 19029, "ĠViv": 25313, "Ġbrake": 20439, "Less": 22058, "ĠGrape": 48315, "ĠRet": 4990, "ĠCircle": 16291, "ĠWeaver": 29594, "Ġfacebook": 23960, "ĠNexus": 16756, "Ġleasing": 42150, "Ġcoping": 35326, "Ġlaying": 16299, "hya": 48812, "Ġspecifying": 31577, "alan": 25786, "ellow": 5037, "ĠPeters": 15722, "ipl": 24705, "Document": 24941, "Ġrevoke": 39041, "ĠUpload": 36803, "Ġdebtor": 49519, "Ġlab": 2248, "thirds": 17936, "Ġsaturated": 24725, "Ġendeavor": 28251, "Ġcousins": 28706, "185": 21652, "ĠOPT": 39852, "b": 65, "Ġtreatments": 13820, "Ġmother": 2802, "Ġgp": 27809, "Ġsort": 3297, "UC": 9598, "Sche": 27054, "Good": 10248, "Ġbang": 20188, "raved": 28366, "ĠAmend": 32218, "ĠTowards": 49953, "ĠAMERICA": 49463, "ĠNT": 24563, "ĠWITHOUT": 42881, "ĠFUCK": 30998, "right": 3506, "Ġfraught": 39730, "Ġle": 443, "Ġ175": 19038, "Ġ188": 27778, "ĠDuo": 36086, "Ġcountless": 12925, "Ġgently": 15165, "adem": 36920, "Ġmatured": 48491, "hibit": 26964, "Ġexposing": 21294, "^{": 36796, "Ġprophes": 48897, "bearing": 28655, "Ġrumors": 14923, "LL": 3069, "High": 11922, "Ġdefendant": 11304, "ĠAus": 27545, "otrop": 34248, "Ġdiscontent": 39784, "Ġautonomy": 21851, "Ġtwilight": 45493, "inside": 48787, "alg": 14016, "Ġrouted": 42101, "Japan": 16504, "alian": 7199, "Ġsubsidiaries": 34943, "onut": 16478, "Ġ08": 8487, "Ġni": 37628, "Ġbanking": 11754, "ĠAvailable": 14898, "onest": 19129, "ĠOsama": 29236, "elvet": 32667, "Ġrelinqu": 36610, "ĠRyan": 6047, "Ti": 40533, "Ġfoods": 9013, "umen": 20080, "rehens": 7345, "ĠCherry": 23165, "aled": 3021, "Ġcer": 26074, "Ġtwentieth": 29112, "à¹": 31479, "ĠCompetitive": 47665, "Ġfirefighters": 22611, "ĠEconomist": 36619, "Ġcarried": 5281, "ĠMamm": 39502, "ĠDr": 1583, "Ġnamesake": 49829, "ĠPerspect": 29845, "strings": 37336, "Ġwaivers": 35633, "ĠHEAD": 39837, "ĠHezbollah": 22871, "bound": 7784, "Ġscripts": 14750, "ensitivity": 40545, "oric": 8146, "ĠHector": 42621, "ĠSon": 6295, "ayers": 6962, "Ġwholly": 18174, "product": 11167, "ĠRenew": 29479, "Ġsle": 3133, "Ġnomine": 9049, "ĠChick": 31939, "Ġsuitcase": 45391, "pass": 6603, "Ġassess": 4659, "ĠFinnish": 26838, "Ġstereotypes": 22364, "Ġpatch": 8529, "Arab": 31602, "ĠCivil": 7511, "ĠPeaks": 38051, "Ġfluent": 43472, "Ġnascent": 45419, "Ġleakage": 47988, "Ġcharism": 25348, "Ġboiled": 29939, "ported": 9213, "ĠZoo": 21980, "Ġowl": 39610, "ĠBrach": 42229, "Ġcrumbling": 37550, "Ġfarms": 15893, "Ġsublime": 41674, "Ġapostle": 46329, "ĠInvestigative": 43965, "Ġapplied": 5625, "Ġarray": 7177, "Ġcannon": 21202, "Ġteaspoon": 22326, "Ġpumping": 26916, "ivalent": 29540, "hus": 7537, "Ġeager": 11069, "ÂłÂłÂłÂł": 8828, "Ġclones": 32498, "96": 4846, "Ġgobl": 29646, "ien": 2013, "Ġlocom": 33334, "Ġrem": 816, "Ġhotel": 7541, "ĠCongressional": 15757, "Ġcycling": 16259, "Find": 16742, "Williams": 27869, "leg": 1455, "ĠOften": 18023, "Ġfinishes": 20271, "Ġcrashing": 21899, "Ġreacting": 33413, "erella": 36648, "Ġsleep": 3993, "bestos": 40651, "edu": 15532, "ĠBian": 41227, "Ġsubmissions": 22129, "Ġinsightful": 41696, "cule": 23172, "Greek": 44059, "ĠGMO": 35945, "ĠCOUN": 31404, "interest": 9446, "ĠâĢ¢": 5595, "Ġcommunities": 5348, "Ġbra": 8290, "ĠOttawa": 14074, "Ġpassionately": 43136, "ĠPot": 6902, "dk": 34388, "Ġstud": 941, "ĠGHC": 46615, "Ġarrived": 5284, "ĠVirgin": 5283, "ĠPlatinum": 23851, "Ġoverc": 25676, "Ġmisunderstood": 33046, "ĠEmin": 37912, "VG": 43490, "Ġpresets": 46613, "Ġunknown": 6439, "Ġrehabilit": 44537, "Ġabused": 15519, "wal": 16783, "ever": 964, "Ġpizza": 14256, "Ġcompression": 19794, "Ġneigh": 3422, "ĠLetter": 18121, "Ġshave": 34494, "Ġgrinning": 45702, "Ġcollectively": 21329, "Ġhairy": 43873, "Ġ173": 28174, "Ġworkspace": 44573, "ĠForbidden": 46014, "quad": 47003, "ĠLy": 9334, "ilot": 23439, "Especially": 48464, "ULTS": 35342, "ĠDeaths": 37044, "ĠVoter": 46226, "Ġdeputies": 21861, "1986": 28054, "@@@@@@@@": 37991, "/\"": 30487, "integer": 41433, "Ġthanking": 41892, "Ġprincess": 21752, "Ġblender": 40047, "ĠALEC": 44946, "Ġgasp": 47440, "Ġger": 27602, "Ġgunshots": 46828, "Ġtripled": 43761, "ĠSound": 9506, "break": 9032, "ĠHIS": 33700, "typically": 48126, "Ġtrough": 45047, "Ġinvariably": 31338, "ĠVideo": 7623, "Ġturtle": 28699, "eded": 15395, "IND": 12115, "ĠCoalition": 15135, "Ġraven": 37735, "ormonal": 33792, "ĠOFFIC": 47601, "ĠCoca": 29803, "Ġcaf": 19945, "Ġmoistur": 41189, "Ġbureaucrats": 34025, "157": 18458, "OURCE": 31033, "ting": 889, "ban": 3820, "Ġaxe": 23272, "Ġcoupling": 40204, "inline": 45145, "Ed": 7407, "ĠâĿ": 43074, "ĠIncome": 19003, "Ġbulb": 28287, "Ġalliances": 29614, "fam": 44769, "Ġled": 2957, "aul": 2518, "Ġ143": 24356, "Ġfriendship": 14738, "ĠPKK": 35176, "ĠCapcom": 35936, "Ġtyranny": 29977, "ĠIndy": 26023, "Ġfung": 31317, "Correction": 43267, "prototype": 38124, "story": 13571, "nee": 21381, "ĠIndigo": 40673, "ĠDest": 8145, "Ġcivic": 23265, "Ġecstasy": 38903, "Ġourselves": 6731, "Notice": 26396, "Ian": 37776, "ĠDaisy": 40355, "nda": 45658, "PLA": 45710, "Ġcheaply": 45858, "ĠUri": 46688, "aukee": 15263, "ĠSatan": 14918, "Ġquotation": 35777, "ĠPolar": 32909, "ĠSark": 36518, "lass": 31172, "Ġincarn": 22201, "Ġhandheld": 33811, "Ġsepar": 2880, "rypted": 15109, "Ġdrill": 16007, "Ġdefines": 15738, "NV": 27159, "BF": 29499, "Ġtrout": 49411, "ĠINST": 40589, "ĠHunting": 22059, "ĠMaya": 26041, "Ġvirtues": 27494, "annis": 45017, "ĠDistrict": 5665, "ĠThomson": 32425, "Ġassigns": 46974, "ĠStarfleet": 43583, "Ġtoddlers": 50142, "estate": 44146, "prom": 16963, "Ġdiscounted": 29686, "Ġtracts": 42385, "Ġestab": 2803, "Ġdistributed": 9387, "Ġcrypto": 21473, "olin": 24910, "Ġarrays": 26515, "Ġtimelines": 46881, "Ġpower": 1176, "raud": 22863, "ĠVaugh": 30856, "IJ": 23852, "ĠEstimates": 47052, "Vaults": 33937, "ilib": 22282, "thread": 16663, "Ġnamely": 14811, "Ġconference": 4495, "istence": 13274, "mic": 9383, "Ġlocks": 19253, "Ġballots": 20103, "!!!!": 13896, "ppe": 27768, "Ġunregulated": 47289, "ĠAx": 12176, "ĠZika": 30861, "Ġclosures": 32149, "ĠHornets": 38602, "Ġindicative": 29105, "Ġah": 29042, "Ġexorc": 48479, "Ġintercourse": 22409, "ĠAssociated": 10575, "ĠBald": 17048, "ĠIslamist": 17780, "ĠFake": 33482, "Ġdict": 8633, "onics": 38530, "ĠLibya": 13465, "Ġwired": 28217, "ocious": 32346, "Ġnicotine": 21856, "ĠExplore": 41401, "Ġclearing": 17304, "ĠGHz": 26499, "Ġspe": 693, "Ġroasted": 30490, "ĠBeats": 40210, "Ġseasons": 7028, "Ġeaves": 42174, "particularly": 31722, "HY": 42598, "Ġprototypes": 32338, "Ġalbum": 5062, "ĠOT": 21676, "Frank": 17439, "ĠLip": 24701, "Ġsunrise": 40048, "Service": 16177, "Ġbreathed": 39545, "itzerland": 13947, "Ġparams": 42287, "Ġstockpile": 45360, "<|extratoken_33|>": 50289, "=/": 33223, "ÙĴ": 48763, "Scott": 19040, "NOTE": 16580, "ject": 752, "ĠCle": 3779, "Ġbackup": 11559, "ijuana": 5343, "Ġtram": 29957, "ĠMuhammad": 15870, "Ġhimself": 2241, "ĠCere": 26532, "Ġseeks": 12932, "ĠTub": 42850, "Jonathan": 30365, "Ġ187": 27649, "ĠHanna": 43766, "Ġmemes": 32905, "lly": 12810, "Ġset": 900, "ĠNetherlands": 12671, "abol": 28426, "boost": 39521, "ĠNeo": 21227, "Ġpies": 47199, "Ġgadgets": 35281, "Ġlocality": 48036, "ĠWolf": 8662, "ĠRELEASE": 46492, "Ġmobil": 17754, "Ġsteals": 28052, "oi": 23013, "Ġimpunity": 37610, "Ġ(<": 38155, "itten": 2621, "Ġisland": 7022, "ĠTransfer": 20558, "Ġskate": 22647, "ĠHav": 23284, "ĠLisp": 38593, "Ġski": 19984, "etta": 15253, "Ġ($": 7198, "ĠMinerva": 39367, "culation": 14902, "Hal": 40202, "nostic": 43758, "ĠHen": 6752, "berus": 39192, "ussy": 14650, "ĠDas": 29533, "660": 39885, "cript": 6519, "Ġallocations": 49157, "Ġguide": 5698, "ĠSmile": 48248, "Ġdiscrepancies": 42420, "igation": 7065, "Ġendless": 13079, "Ġfinancing": 15435, "Ġrecipient": 17800, "ĠApparently": 18626, "Ġallegiance": 25696, "Ġwholesale": 24005, "merce": 11647, "ĠLooks": 29403, "ĠTough": 37223, "Ġslic": 14369, "rums": 45241, "ĠYong": 40633, "itia": 36723, "Since": 6385, "Ġwillingly": 30981, "sav": 39308, "KER": 42839, "Ġappealed": 22280, "Ġageing": 41310, "mir": 10793, "Ġ142": 25181, "ĠSoldiers": 28179, "flush": 25925, "ĠALSO": 35912, "Ġpharmacies": 49661, "Ġsir": 15967, "Ġpara": 31215, "ĠMosque": 42825, "ind": 521, "els": 1424, "ĠCommentary": 45465, "Ġlikes": 7832, "Ġprofession": 7573, "Ġampl": 12306, "AE": 14242, "ĠHera": 23480, "Ġadventurous": 39770, "iberal": 16813, "Offset": 34519, "chn": 1349, "ohn": 1562, "ĠXII": 39284, "Ġfrontline": 44956, "ĠConsumer": 18110, "Ġfields": 7032, "ĠIris": 34230, "Ġentity": 9312, "budget": 37315, "Merc": 42981, "ist": 396, "Ġrushed": 13999, "Ġswift": 14622, "rafted": 30235, "Ġ',": 46083, "eming": 46564, "ĠChall": 10772, "Enhanced": 49026, "Te": 6767, "Ġcozy": 37438, "Ġdb": 20613, "ky": 2584, "field": 3245, "met": 4164, "design": 26124, "ĠSurrey": 38805, "rified": 41301, "nette": 48115, "ĠSports": 7092, "Ġliberal": 7270, "Ġstarting": 3599, "ĠNR": 23057, "ĠRomo": 42395, "Ġchat": 8537, "ãĤ§": 24806, "burn": 10899, "zone": 11340, "ibal": 21342, "Ġselect": 2922, "Ġfarther": 18485, "Ġlobbying": 17502, "ENCE": 18310, "ĠBl": 1086, "Ġthrow": 3714, "Ġconfusion": 10802, "ĠVolt": 22702, "Ġdeadliest": 39268, "ĠAdvertisement": 39711, "ulia": 43640, "gent": 6783, "Ġstiff": 15175, "etermination": 29610, "Ġmigrated": 40227, "ĠFog": 33381, "deen": 39060, "Ġcovari": 44829, "Ġredundancy": 49052, "needs": 50032, "Ġdiminishing": 35197, "ĠMilitia": 48558, "ausible": 17178, "ĠCommando": 47150, "Ġinstinct": 13311, "Ġcow": 9875, "NA": 4535, "Ġmus": 1928, "ĠHERE": 15698, "ONG": 18494, "ĠVPN": 21669, "540": 35005, "ĠSuzanne": 45587, "ĠGMOs": 46135, "Ġalcoholic": 26016, "cht": 21474, "ĠMyst": 32347, "Ġsnipers": 50238, "ython": 7535, "Ġmelted": 24178, "ĠIO": 24418, "ĠVMware": 37754, "ĠGovernors": 40056, "Ġcouples": 11886, "Ġpledged": 16387, "Ġgol": 43791, "boa": 48614, "ĠHeroic": 34364, "Ġteaches": 17324, "ĠDRAGON": 49819, "Solution": 46344, "ĠThu": 26223, "Ġbru": 18145, "Ġmoments": 7188, "ĠMystic": 22936, "Ġunbiased": 46735, "ĠScalia": 32575, "ĠCBI": 47970, "ourced": 30555, "Ġweap": 2432, "ĠKurd": 9778, "Ġhearts": 11954, "ĠExternal": 34579, "ĠQueensland": 21105, "GET": 18851, "Ġattention": 3241, "ousy": 41808, "Ġtense": 20170, "ĠAph": 47067, "Ġdismant": 27038, "minist": 2201, "ĠCrab": 32379, "Ġclipped": 49305, "Ġanonymously": 35373, "ATE": 6158, "ĠUEFA": 40858, "Ġmatt": 23963, "Aren": 43199, "Ġlivelihood": 30489, "sett": 17744, "ĠWarcraft": 26952, "Ġunsustainable": 39554, "ranged": 34457, "Ġcompelled": 20232, "ĠTSA": 32453, "Ġtoilets": 32711, "ĠUI": 12454, "ĠMermaid": 45523, "card": 9517, "rie": 5034, "ocker": 12721, "Ġbuses": 16893, "Ġcalls": 3848, "ĠImport": 17267, "Ġconsent": 8281, "Ġadip": 31659, "ĠSummon": 19515, "ĠTaking": 20879, "ĠScha": 35756, "Ġ319": 40385, "<|extratoken_58|>": 50314, "ĠSport": 12771, "Ġresides": 29076, "Ġflakes": 42330, "133": 16945, "Ġrestructuring": 32324, "igree": 41233, "ible": 856, "Ġantidepress": 27293, "ĠiOS": 8969, "iband": 35967, "ĠThree": 7683, "ĠHel": 5053, "Ġaccused": 5371, "oses": 4629, "ĠMn": 36030, "702": 36680, "Ġrespectively": 8148, "Ġdrones": 15382, "Ġrotate": 23064, "SourceFile": 37226, "Ros": 35740, "ĠNav": 13244, "rette": 42908, "ĠPapa": 42328, "mite": 32937, "ĠSarah": 10490, "Ġrotting": 44494, "atorial": 21592, "\\.": 17405, "Ġinhib": 11062, "Georgia": 41072, "bending": 49667, "math": 11018, "ĠTab": 16904, "depth": 18053, "Life": 14662, "Ġchassis": 24587, "596": 45734, "Ġredu": 2027, "ĠWay": 6378, "Still": 9590, "Ġhockey": 12217, "Ġshouting": 19642, "ĠGoods": 38360, "Ġspaced": 38980, "Ġunsure": 22147, "Ġambush": 34298, "Ġbooks": 3835, "ĠASCII": 37101, "ĠRevelations": 48844, "Ġstudio": 8034, "grain": 48270, "geons": 16297, "Ġinteracts": 44020, "Ġwatt": 40114, "Ġimmunity": 16989, "Statement": 48682, "ĠSECTION": 44513, "Impl": 29710, "ĠAle": 9300, "Ġremoved": 4615, "ĠDick": 11740, "][/": 44926, "ĠSuffolk": 45034, "Contact": 17829, "Location": 14749, "Ġslice": 16416, "ĠZa": 44210, "\",": 1600, "Ġ270": 20479, "ĠMaybe": 6674, "ĠPlanet": 11397, "Hold": 26807, "Ġlithium": 28444, "aux": 14644, "Ġsubjug": 43629, "Single": 28008, "419": 45068, "relative": 43762, "leave": 47408, "Ġexhibitions": 48130, "Ġendured": 24067, "ategor": 47467, "anners": 15672, "Ġ1970": 8069, "Ġgenerating": 15453, "Ġdesirable": 18763, "Ġunnatural": 33975, "Ġgadget": 42892, "Ġbeating": 11226, "Ġimminent": 21161, "PF": 42668, "amous": 10877, "Ġstruggle": 6531, "Ġexpect": 1607, "Ġimportance": 6817, "ĠFairy": 17746, "2018": 7908, "metic": 15103, "Ġfloors": 18570, "Ġstolen": 9909, "heart": 11499, "Ġhealing": 11516, "oning": 12484, "umped": 27073, "Ġcoron": 26920, "Ġconfuse": 27531, "Ġ115": 12279, "Ġtracker": 30013, "Ġfooting": 32687, "Ġbelieving": 14773, "ĠContext": 30532, "ccoli": 34544, "Ġasserted": 21635, "Ġmosquitoes": 35573, "ĠMedals": 42171, "ĠInflu": 46631, ")?": 19427, "uer": 15573, "ĠSerie": 41530, "WF": 48397, "ighters": 6261, "ĠGENERAL": 41877, "ĠAtlanta": 9371, "acceptable": 16037, "Ġesteemed": 48243, "Ġ1998": 7795, "Ġneighbours": 23788, "ý": 185, "Ġmortgages": 30401, "522": 49542, "ĠBurlington": 37090, "Ġscored": 7781, "ke": 365, "Ġthe": 262, "athered": 8638, "Ġneighbors": 12020, "Ġcollectors": 26668, "gang": 28284, "ĠPhilippine": 29911, "Ġousted": 37822, "Ġdeceptive": 34036, "Ġwishes": 12802, "ĠNeedless": 39114, "ĠSHA": 25630, "tur": 36590, "hab": 5976, "Ġdarling": 40003, "holm": 22981, "iden": 14029, "Ġjudges": 10266, "ĠPil": 12693, "iless": 30608, "Ġâĸº": 34933, "Ġwallpaper": 39328, "ĠReached": 13618, "mitted": 3291, "Ġtemplates": 24019, "Board": 29828, "iesta": 36283, "Thor": 46765, "Ġcollaborator": 50160, "olutely": 16780, "Ġmetab": 10523, "ĠN": 399, "Ġaccessories": 18199, "Ġsegments": 17894, "Language": 32065, "ĠMetal": 12136, "oin": 36743, "Just": 5703, "ĠBaxter": 46277, "å¦": 36685, "ĠRam": 7431, "ĠYorkers": 38244, "icted": 5722, "Ġsemblance": 45960, "ĠColomb": 16872, "Ġensured": 30169, "opathic": 44650, "AY": 4792, "built": 18780, "ĠU": 471, "ĠAnnual": 16328, "Ġcharge": 3877, "effective": 16803, "Ġsplits": 30778, "704": 32869, "eph": 27446, "7601": 42752, "ĠCrist": 24568, "Ġagain": 757, "Ġ1982": 14489, "ma": 2611, "Ġintermittent": 38361, "ERY": 19664, "Ġsetback": 34116, "netflix": 36977, "Ġ620": 45469, "ĠHaf": 47458, "ocket": 5459, "fields": 25747, "Ġsuperb": 21840, "<|extratoken_124|>": 50380, "ĠSaga": 19743, "Ġdarker": 18646, "ĠSigned": 36215, "ĠDuchess": 40289, "Ġfeasibility": 40460, "ĠWarwick": 49398, "Ġpolice": 1644, "ĠBro": 2806, "287": 27800, "ĠChes": 28250, "Ġpreacher": 39797, "Ġsigned": 4488, "HA": 7801, "agged": 14655, "Ġfifty": 15334, "Ġaired": 18530, "Ġsensations": 34129, "rolled": 8375, "Ġdirectives": 34819, "Ġmisfortune": 41600, "Ġcrossings": 41930, "Safe": 31511, "ĠPrometheus": 42696, "Ġfoliage": 44689, "cms": 46406, "ĠRican": 44459, "ĠRasmussen": 46549, "ĠJesuit": 50190, "ĠSuicide": 27695, "Ġconceded": 24684, "ãĢı": 40549, "ĠCLR": 49896, "Liverpool": 44232, "ĠFeb": 3158, "ĠBrown": 4373, "Ġreceiving": 6464, "ĠRanger": 21888, "Ġlessons": 11658, "stats": 34242, "Ġask": 1265, "Ġminimum": 5288, "Ġpockets": 16511, "Phil": 18673, "ĠTory": 19037, "ergic": 19793, "Ġign": 3627, "stick": 13915, "Ġdirective": 22644, "Ġjourneys": 35724, "Ġ388": 43550, "summary": 49736, "Ġindirect": 12913, "ĠNON": 44521, "player": 7829, "Ġconvict": 38309, "Ġfireplace": 44250, "ĠHarmon": 39712, "Ġbragging": 43018, "ĠLords": 18651, "Ġmatchups": 32033, "ĠComedy": 22329, "ĠSeah": 16214, "Ġhelium": 43142, "stim": 42003, "Ġvir": 5709, "Ġyield": 7800, "eric": 35626, "ithing": 44556, "ĠCAN": 15628, "las": 21921, "itant": 23737, "Ġemitted": 31234, "Ġresurrected": 41914, "Ġrefining": 39634, "ĠPSU": 48189, "rou": 472, "ĠSQU": 45880, "Mand": 49846, "ĠPackers": 17832, "TOR": 32961, "§": 100, "Ġrabbits": 33043, "Ġwonder": 4240, "ĠMyth": 18900, "ĠSupplement": 23150, "å¯": 43380, "Ġnotions": 26226, "ĠPe": 2631, "ĠGAME": 30517, "Ġearliest": 14555, "Ġprofiling": 31582, "GV": 37094, "Ġoperator": 10088, "Ġarmour": 18588, "ĠDAC": 45793, "](": 16151, "Ġintens": 17509, "ĠLemon": 27252, "Ġsurg": 19797, "ĠBasically": 20759, "afer": 34659, "landish": 45626, "Ġdramatically": 12034, "ĠGiven": 11259, "Ġenjoy": 2883, "Ġimprove": 2987, "Ġjealous": 19354, "adiator": 33716, "Ġchatting": 32046, "ipedia": 11151, "Ġcore": 4755, "igrated": 38769, "Ġ62": 8190, "Ġtreatment": 3513, "ĠNor": 5414, "Ġlargest": 4387, "pathic": 38829, "Ġpartisan": 19666, "Ġallowance": 24930, "Ġtranscripts": 29351, "Ġoutsider": 30545, "Ġtallest": 38760, "dc": 17896, "hearted": 20122, "Ġobnoxious": 43283, "eers": 47619, "Ġhonesty": 24345, "brain": 27825, "ĠRoberts": 10918, "Ġcapita": 21344, "ĠDesigner": 31716, "ĠRollins": 47489, "ĠPHI": 48121, "ĠHos": 30789, "ĠKingdoms": 35781, "Ġfireball": 46816, "Ġesche": 42833, "leeve": 49189, "Ġlately": 16537, "Ġstars": 5788, "ĠBulgar": 26163, "ĠSubaru": 30471, "Ġcrim": 3606, "Once": 7454, "Ġclears": 37526, "ĠMuse": 32887, "ĠSouthwest": 24320, "Fake": 49233, "All": 3237, "null": 8423, "Ġdrew": 9859, "ĠFish": 13388, "Ġempt": 23909, "ental": 2470, "Ġsloppy": 35862, "up": 929, "Ġhypocritical": 45259, "Ġinvasion": 11796, "forcing": 18766, "Ġobjective": 9432, "ĠHudson": 19995, "Ġtorso": 28668, "Ġhumorous": 36102, "anka": 15927, "alks": 23833, "internal": 32538, "Ġlou": 21081, "ĠMeng": 41272, "ball": 1894, "Ġgrizz": 46307, "Get": 3855, "ĠChrys": 27856, "ĠIMP": 30023, "ĠAfghans": 48336, "ĠWhitney": 34701, "Ġhurd": 22227, "rawling": 18771, "436": 43690, "Ġwise": 10787, "Ġcooperation": 11113, "Redditor": 34832, "Ġperformance": 2854, "Ġunderest": 20164, "aaaa": 24794, "Ġmelan": 34963, "Ġhunter": 19177, "Ġindign": 35187, "Ġcensor": 42081, "Ġupsetting": 38423, "ansen": 33807, "Ġformulations": 49971, "headers": 50145, "Ġnil": 18038, "bass": 42933, "Christian": 20298, "ĠLoyal": 34986, "Purchase": 47651, "ĠHyder": 47660, "Ġconsole": 8624, "Mrs": 27034, "Ġfield": 2214, "version": 9641, "Temperature": 42492, "sis": 13429, "Ġ1880": 34865, "ĠBob": 5811, "ĠMister": 43438, "Ġfumes": 47301, "Ġcompost": 36541, "Ġaspiring": 31483, "Ġbrightly": 35254, "Ġorbs": 37403, "Ġproductive": 12973, "Ġnoise": 7838, "Ġlicensed": 11971, "270": 20233, "flight": 22560, "ients": 2334, "Ġstunt": 25756, "Tax": 27017, "Ġexpenses": 9307, "Ġtransmitted": 18307, "');": 24036, "unity": 9531, "Ġmelt": 16867, "Ġwow": 28796, "ADD": 29266, "ĠLazarus": 49093, "Ġblessings": 28388, "Ġunbearable": 45253, "ĠBou": 14551, "Ġsurfaces": 16649, "incerity": 40310, "Ġcoff": 19540, "ureen": 49851, "Ġdistribute": 14983, "Ġexiting": 33895, "caliber": 43288, "pleasant": 21109, "Ġattractiveness": 43325, "ĠPere": 17229, "Ġmall": 17374, "Ġsharks": 27476, "ĠTon": 16859, "ACC": 26861, "igate": 10055, "ĠCrit": 10056, "ary": 560, "Ġcontributes": 22625, "Ġincent": 9454, "ady": 4597, "Ġzinc": 31861, "ĠCorey": 24154, "Ġhypert": 32608, "Ġdiffer": 13238, "lr": 14050, "ĠLilith": 40155, "Ġsavior": 47921, "Ġpretext": 35097, "Ġcrucifix": 48905, "verse": 4399, "Ġmile": 10591, "Ġfunctioning": 15025, "Change": 19400, "Ġpromise": 6991, "ĠBridge": 10290, "Ġviral": 14416, "Ġpoetry": 19518, "tek": 35424, "Ġoriginate": 39779, "Ġbub": 10015, "ĠMcH": 49634, "vo": 13038, "ĠSpencer": 15971, "idges": 15969, "Ġcracked": 21368, "Ġhairs": 32908, "ĠVick": 33347, "Ġretina": 45804, "ags": 3775, "ĠCruz": 8742, "ĠKan": 14248, "Ġarous": 22015, "Ġlived": 5615, "meric": 946, "ĠKub": 24921, "Ġcommemor": 28723, "coin": 3630, "809": 34583, "ĠXer": 44264, "Editor": 17171, "ĠEcho": 21455, "ĠAustral": 3138, "491": 41289, "Ġcosmic": 23464, "onsense": 46563, "ĠEthernet": 31903, "aus": 8717, "auc": 14272, "Financial": 43621, "ĠTorah": 33366, "ĠBrennan": 26577, "Ġnew": 649, "ĠUseful": 49511, "Gold": 13306, "Ġquantify": 36336, "\"\"\"": 37811, "wise": 3083, "Ġprofitability": 37129, "Ġachie": 3302, "Ġadvances": 14901, "Ġmos": 10867, "kward": 12378, "Ġunveiled": 18475, "ĠWorkshop": 26701, "Ġblot": 43182, "Ġemer": 3165, "Person": 15439, "Ireland": 49752, "dose": 34436, "live": 12583, "Ġ('": 19203, "Ġunintended": 30261, "otton": 11324, "665": 36879, "Events": 37103, "Ġpremiere": 19245, "546": 49489, "ĠBurst": 30635, "Ġwelding": 47973, "Ġdescribing": 12059, "went": 19963, "fresh": 48797, "mable": 44102, "ĠCake": 30799, "ĠAugusta": 46820, "style": 7635, "ĠEarth": 3668, "Thanks": 9690, "pay": 15577, "Ġconquered": 29346, "Orange": 40141, "ĠSantana": 49067, "ĠGenerally": 23904, "Ġcannot": 2314, "ĠValent": 17284, "locking": 48331, "Ġoutrage": 11616, "ĠRarity": 21948, "ĠMission": 12633, "addock": 35509, "Ġeuro": 11063, "Ġplayoffs": 12980, "entially": 3746, "Ġparticle": 18758, "Ġlear": 22454, "ĠUnique": 30015, "ŀ": 252, "ĠRELE": 49968, "ĠBram": 35315, "Ġheel": 24703, "Ġfracture": 31846, "351": 35273, "ĠSEM": 48603, "á¹": 26292, "ĠSyndicate": 42271, "ĠPOS": 28069, "Ġaway": 1497, "ĠClockwork": 47120, "Kat": 25881, "Support": 15514, "Ġsmoker": 41644, "ĠFP": 31459, "Ġ289": 38902, "Ġexplains": 6688, "ĠMembers": 12688, "Ġcavity": 31643, "z": 89, "Ġassociated": 3917, "API": 17614, "Ġclaimed": 4752, "contin": 18487, "andise": 18888, "small": 17470, "ndra": 24631, "ĠKang": 27504, "ĠDSM": 37297, "confidence": 39745, "itto": 37606, "Ġarcade": 27210, "Neigh": 46445, "ĠJames": 3700, "ĠSenator": 8962, "Ġdonations": 10976, "Ġportfolio": 15320, "Ġenvironmental": 6142, ":'": 32105, "ĠEchoes": 45547, "Ġchaos": 11918, "ĠMP": 4904, "ĠUCLA": 21750, "ileged": 48446, "Ġfederation": 36986, "Ġmanufacturers": 11372, "ĠRepublican": 3415, "487": 35133, "Damage": 22022, "ler": 1754, "handle": 28144, "ĠNeander": 38752, "799": 45455, "Ġbitter": 12922, "Ġremoves": 20694, "ĠLOW": 46663, "ble": 903, "Constructed": 25207, "ãĥ«": 9202, "ĠÂłĠÂłĠÂłĠÂł": 22686, "wk": 43021, "ĠHomeless": 47706, "stem": 927, "Cy": 20418, "Ġmicrow": 23479, "Sh": 2484, "ĠSL": 12419, "Ġcomments": 3651, "status": 13376, "ĠKin": 16645, "ĠSantos": 28458, "asi": 17053, "ĠArkham": 29486, "ĠFeedback": 37774, "Ġvolts": 46297, "<|extratoken_54|>": 50310, "illet": 32512, "Ġnovel": 5337, "ĠAB": 9564, "Ġ1915": 32062, "ĠMix": 15561, "ĠTitus": 49207, "Ġdeficient": 40043, "Ġspark": 9009, "ĠCubs": 21562, "Ġ[];": 25787, "Ġdetachment": 42925, "Ġbacterial": 23462, "ĠChristians": 9316, "ĠCarr": 20765, "Ġgeometry": 22939, "ĠPharma": 41845, "æł": 43718, "ĠYosemite": 43188, "035": 44215, "ITNESS": 46144, "ĠLOOK": 48045, "ĠIU": 42564, "Ġoverflowing": 43347, "Ġfurnished": 30760, "ĠDefault": 15161, "ĠMasquerade": 38038, "Ġimmortality": 40079, "ĠSnape": 31008, "gob": 44270, "Ġformally": 15832, "Ġpossibility": 5885, "ĠByrd": 44972, "umin": 7230, "Ġtrader": 31791, "ENT": 3525, "Ġdisplayed": 9066, "gress": 5914, "Ġpp": 9788, "folio": 13652, "ppo": 16634, "Ġammo": 16778, "ĠPerhaps": 8673, "Ġsubstances": 15938, "Ġpat": 1458, "Ġgradient": 31312, "shaped": 16760, "Level": 4971, "ĠResources": 13864, "Property": 21746, "Ġincub": 25543, "ĠEmerald": 28909, "Ġweekly": 10273, "Ġmisguided": 30168, "Ġterms": 2846, "Ġmicro": 4580, "Ġ98": 9661, "ĠRefer": 33973, "ĠPST": 28220, "492": 40256, "Ġdispensaries": 40698, "CLOSE": 32737, "Ġpropositions": 40743, "riminal": 22157, "ĠBout": 40808, "bett": 48138, "ĠOff": 3242, "Ġsshd": 49249, "Writer": 34379, "Ġá": 28053, "ĠBethlehem": 46930, "Ġenthusiastic": 21848, "Ġconvincing": 17101, "enegger": 44028, "792": 48156, "Ġ429": 42313, "Ġ0000": 17643, "ĠSend": 16290, "ĠLilly": 35134, "ĠQuint": 33405, "ĠClaud": 36303, "ĠRefugee": 42791, "Ġconsistently": 9835, "ĠConsult": 21651, "ĠJenn": 9777, "Ġlongtime": 15076, "Ġcrates": 40382, "ĠLanka": 28143, "Ġantidepressants": 41587, "Ġexposure": 7111, "Ġjurisd": 10376, "ĠGaal": 41308, "Ġtoday": 1909, "Ġoccupations": 23308, "Ġthat": 326, "Hot": 21352, "Ġmassive": 4858, "Ġwithdrawal": 15220, "ĠWitness": 21440, "ners": 2741, "light": 2971, "Ġplatform": 3859, "umbnail": 20566, "###": 21017, "Ġdevotion": 25808, "Ġviolin": 38283, "Ġbenz": 39601, "ĠIndies": 42556, "Ġevents": 2995, "offensive": 45055, "Ġafterlife": 45076, "Ġdemonstrates": 15687, "Ġsten": 45219, "Ġunfinished": 34419, "Ġcommenter": 46914, "Ġapologizing": 47401, "Ġdissemin": 30548, "ado": 4533, "ĠJury": 48705, "Ġgalleries": 38462, "Ġdiscipline": 12883, "Ġcounting": 14143, "ĠMonster": 12635, "Ġdefeats": 29234, "à": 156, "Ġsausage": 31889, "Ġhacked": 19957, "Ġpurge": 35714, "Storm": 32173, "heet": 25473, "Ġlaps": 24590, "tn": 34106, "ĠCrash": 23653, "ĠIPCC": 35814, "Adjust": 39668, "vu": 40939, "Ġargued": 7189, "STON": 41924, "ĠAdventure": 9553, "Ġdefinitive": 17347, "Ġtenant": 18285, "ĠJanuary": 3269, "ĠPut": 5930, "Ġpadding": 24511, "usp": 17723, "Ġgimm": 33135, "Ġdeer": 20096, "ĠPaw": 35553, "Ġphp": 39347, "Ġpredic": 41219, "07": 2998, "ĠDecker": 47170, "Ġkernel": 9720, "rose": 13698, "single": 29762, "Ground": 35539, "Ġslang": 39306, "Ġneighbour": 12250, "Ġclutter": 45343, "Ġcold": 4692, "Ġedited": 13012, "Ġticking": 40212, "ĠHague": 37206, "wl": 40989, "1978": 37950, "ĠPeer": 41139, "olve": 6442, "ĠAires": 44692, "ahime": 49997, "311": 36244, "IRE": 41736, "Ġharmonic": 49239, "Ġpolicymakers": 29484, "Ġscenes": 8188, "ĠMcAuliffe": 48044, "Ġinteger": 18253, "ĠIncreased": 25944, "ĠFather": 9190, "Ġchaotic": 23458, "ĠDun": 5648, "Related": 9819, "bryce": 32524, "lems": 46367, "Ġtad": 36264, "ĠPhillip": 29470, "ĠSimone": 47592, "Ġportrait": 18560, "avin": 20637, "olescent": 23406, "Ġsweetness": 32073, "ension": 3004, "Ġslew": 26891, "Ġmemorable": 18078, "methyl": 43654, "ãĤ¨": 23544, "ĠRum": 25463, "Ġassassins": 44454, "Ġcombines": 21001, "561": 47915, "Ġanthology": 43469, "ergus": 13607, "97": 5607, "Ġrelate": 15124, "ĠWales": 11769, "Ġseventy": 31989, "Ġkid": 5141, "ĠBraun": 34492, "ĠYuk": 19760, "Ġfailed": 4054, "dll": 12736, "324": 33916, "#$#$": 34206, "RES": 19535, "Written": 25354, "mint": 34289, "Ġprelim": 14541, "Ġashamed": 22461, "Ġinline": 26098, "Ġprofit": 7630, "Ġemerged": 9349, "Ġmileage": 33935, "tim": 16514, "ĠFeatures": 17571, "ares": 3565, "72": 4761, "ĠDamascus": 21028, "ĠVec": 38692, "Ġtreacherous": 45365, "ĠSB": 18056, "Real": 15633, "Ġbiomedical": 48730, "workers": 22896, "ulhu": 36828, "Ġreasoning": 14607, "ĠBend": 26874, "Ġanalytic": 49166, "Ġnarcissistic": 48502, "ocaly": 12063, "Ġconven": 7292, "Ġdetective": 20775, "ĠSpice": 43537, "ĠGreenwald": 41821, "Ġball": 2613, "ãĤ®": 43899, "pend": 37038, "wang": 47562, "Supported": 48181, "Ġincurred": 23436, "Ġdeserves": 14071, "337": 31496, "ĠTeacher": 32019, "Ġmixer": 33938, "views": 33571, "2020": 42334, "perm": 16321, "igator": 23823, "ĠFlask": 46947, "@@@@": 22675, "Ġreinvent": 36608, "Ġcompat": 8330, "Ġplasma": 16074, "perature": 21069, "MENT": 10979, "Ġens": 3140, "inker": 24275, "Ġtray": 26473, "ĠZionist": 29390, "Ġplentiful": 39976, "Ġsetups": 44266, "Ġbaker": 46412, "ĠLimbaugh": 43306, "Ġfulfillment": 32402, "Ġloans": 10021, "ĠPerformance": 15193, "YC": 44816, "Ro": 15450, "ĠAngels": 17654, "Ġmale": 4257, "Ġroots": 11135, "Ġreactionary": 35578, "Ġprocedural": 27931, "ĠPersonnel": 41623, "centric": 28577, "ĠLair": 15067, "terson": 23192, "Ġshaming": 46382, "ammy": 46736, "Their": 14574, "tarians": 28266, "Ġswitches": 18225, "Ġaccounting": 14317, "ĠMY": 17615, "Ġthroat": 13589, "ĠINFORMATION": 38044, "Ġcommunicates": 48556, "pherd": 23111, "Ġhatred": 13763, "ĠAgriculture": 19717, "ĠShowdown": 46645, "ĠCHO": 49143, "Ġwater": 1660, "mes": 6880, "Ġolder": 4697, "Ġsolutions": 8136, "Ġgrips": 31323, "aware": 9685, "Ġgolf": 13126, "VERS": 28884, "Ġleaders": 2766, "Ġtiny": 7009, "users": 18417, "Ġdepartments": 13346, "Mus": 10694, "bling": 11108, "Exec": 23002, "ĠSleeping": 31148, "ĠBo": 3248, "Ġservic": 37756, "Ġannouncing": 16428, "Ġendorsement": 17819, "Acknowled": 39482, "imura": 43817, "liness": 26061, "ĠCha": 20703, "Ġcaffeine": 22511, "Excellent": 45675, "Ġfatig": 46291, "Ġpersistence": 30802, "Ġclosely": 7173, "Ġsensing": 34244, "Ġindifference": 34324, "ĠOwn": 11744, "Ġacres": 16051, "ĠWant": 16168, "intestinal": 36387, "ĠGCC": 42362, "Ġmanipulative": 47859, "Ġvisualization": 32704, "ery": 1924, "ĠSimpl": 45157, "ĠOss": 45397, "Ġlash": 46967, "RAW": 20530, "ĠRuin": 46085, "Ġsay": 910, "ĠAlzheimer": 22434, "Ġexamine": 10716, "ĠElev": 37881, "Track": 24802, "Ġevict": 49397, "Ġlevers": 48872, "married": 30526, "vid": 16921, "Ġmerits": 21692, "Ġrand": 43720, "Ġ433": 47407, "Ġcertify": 46125, "ĠSek": 37558, "Ġcomplexion": 48026, "ĠRune": 28228, "udic": 28673, "Ġforeigners": 19670, "Ġtransformer": 47385, "Ġaccelerating": 32253, "Ġmonument": 17757, "vette": 33573, "Jr": 50123, "Ġsensible": 20586, "ĠCheap": 41087, "ĠunfocusedRange": 30209, "Ġinnovations": 25438, "amazon": 33103, "ĠDude": 40628, "ĠChuck": 14663, "L": 43, "Ġinput": 5128, "Ġpap": 20461, "ĠScrolls": 28859, "ighty": 14400, "tower": 36170, "Ġdisposal": 18264, "grand": 23936, "ĠPitch": 33517, "icro": 2500, "Ġuntouched": 36519, "Ġfool": 9192, "ĠStru": 34887, "ĠAppropriations": 37552, "700": 9879, "original": 14986, "Ġhugged": 41130, "Ġabol": 14975, "ĠIgn": 16583, "Bern": 23927, "Ġresisting": 28943, "Ġtones": 23755, "ĠCyborg": 46114, "FORMATION": 35036, "Freedom": 38885, "ĠBecker": 40765, "ĠMorrison": 24454, "Ġinsur": 49741, "PsyNetMessage": 28666, "icated": 3474, "ologue": 39795, "ĠFacilities": 48939, "bee": 20963, "seller": 32932, "entials": 14817, "ĠDow": 21842, "ĠProtestant": 25310, "ĠPier": 13762, "ĠBrent": 23357, "ronic": 4565, "!'\"": 49296, "ĠFair": 7011, "Ġlaughter": 20263, "Ġhospitalized": 31736, "ĠFIA": 49432, "urrency": 13382, "ĠAbbas": 28354, "ycle": 39297, "odon": 46457, "Blue": 14573, "Ġwavelengths": 45656, "Ġrewrite": 28183, "ĠChou": 41699, "Ġkne": 24813, "Something": 22210, "Ġassass": 10519, "Heart": 28541, "ĠMolly": 30236, "ĠWarsaw": 32955, "Ġdisappointment": 18641, "Ġ96": 9907, "Ġcooperating": 34962, "ISSION": 40373, "Ġactive": 4075, "ĠImpact": 17677, "ĠWeapon": 13072, "Ġthrust": 14613, "ĠMemphis": 20522, "Ġsurrog": 27552, "Ġwarranted": 32502, "upt": 37623, "Ġinfancy": 38120, "ĠCroatian": 48853, "ĠPresidential": 17471, "Ġt": 256, "Avg": 48997, "Ġdoors": 8215, "response": 26209, "ĠAirbus": 39173, "unt": 2797, "Ġ_": 4808, "ĠNarc": 31987, "pos": 1930, "Ġcaptive": 25798, "Ġpropell": 46059, "Ġcort": 12794, "cam": 20991, "380": 23734, "Ġingrained": 47938, "ozo": 45149, "adelphia": 8273, "ĠHume": 45485, "Ġguru": 35730, "Ġlogically": 34193, "Ġhome": 1363, "1920": 40454, "Ġacknowledge": 12127, "etry": 11973, "Ġnotifications": 19605, "Ġpoison": 8764, "ĠEnvironment": 9344, "Snow": 28974, "ĠGIF": 24984, "Interest": 19302, "ĠPatricia": 30223, "iar": 12571, "iona": 32792, "Ġgrapes": 36656, "ĠBentley": 38881, "ĠLisbon": 41898, "steen": 42580, "Ġbron": 18443, "physical": 42854, "Ġmedal": 18279, "ĠFraz": 36914, "ĠFulton": 44373, "nick": 17172, "union": 24592, "Awesome": 49061, "ĠPalestin": 6336, "ĠSolo": 20284, "Ġbears": 13062, "autical": 37073, "Ń·": 48953, "Ġsuccess": 1943, "<|extratoken_8|>": 50264, "ĠVictorian": 24569, "Ġfucking": 9372, "Ġdeterrent": 34207, "nah": 40909, "Ġdiscord": 36446, "tein": 22006, "Ġcooker": 37171, "ĠNich": 12760, "ored": 1850, "¦": 99, "ventions": 16593, "ĠTuc": 33370, "filename": 34345, "xc": 25306, "months": 41537, "LT": 27734, "ĠPond": 41598, "Ġunfair": 11675, "Ġflashback": 41963, "ĠThink": 11382, "ĠDiesel": 42718, "Ġdisappro": 22293, "German": 16010, "angle": 9248, "fighters": 17114, "Ġ71": 9166, "wild": 21992, "Ġoverweight": 22652, "Ġsenator": 12329, "Sanders": 26747, "Ġstalled": 29759, "Ġperception": 11202, "Ġsprint": 18553, "Ġmultiplier": 33090, "Cos": 36734, "ĠCinderella": 40933, "zhen": 46732, "itution": 2738, "ĠHassan": 24485, "ĠCah": 44398, "Ġgenomic": 45752, "rigan": 35631, "Ġvitamin": 14411, "ĠRelease": 13868, "Ġobserving": 21769, "Option": 19722, "Ġsol": 1540, "Overall": 16350, "ĠROM": 21224, "Ġnewsp": 6043, "Particip": 34363, "Ġmissions": 10566, "ii": 4178, "Query": 20746, "ĠDaw": 17552, "Ġcorrespondence": 22440, "241": 28872, "Ġsocio": 21790, "Wiki": 32603, "rentice": 20098, "ĠBeef": 35309, "Ġnost": 18216, "ĠCroat": 22422, "ĠCaldwell": 37387, "red": 445, "ĠCherokee": 39476, "Ġjewels": 42701, "ĠAgric": 15407, "Ġundertook": 45730, "Ġelderly": 13830, "Ġwisdom": 11501, "IF": 5064, "ĠAren": 9843, "Ġrejoice": 46201, "Ġantioxidants": 49148, "ĠShepherd": 30890, "ĠBLM": 45188, "Ġrestaurants": 10808, "Ġsuppose": 11691, "andowski": 44391, "ĠArab": 4498, "Ġacknowledging": 25937, "ĠWE": 12887, "Ġconnecting": 14320, "ĠCommon": 8070, "Ġseizure": 22338, "ĠTOR": 40691, "ĠPresbyter": 40507, "ĠDollars": 45792, "antha": 32589, "ige": 10045, "Ġ1886": 49539, "ĠLIVE": 28323, "Ġscoreboard": 50198, "abeth": 9407, "coming": 4976, "Ġgrun": 44397, "ashi": 12144, "Father": 34823, "Ġanimation": 11034, "Ġrelationships": 6958, "yt": 20760, "ARA": 24401, "ĠCanary": 50206, "ĠArthur": 13514, "Ġyielded": 26403, "ö": 178, "Ġtrash": 13913, "ythm": 34853, "Ġpreparations": 21518, "atonin": 44248, "Ġpooled": 44762, "Ġinforming": 29140, "Border": 34189, "ĠPlant": 16561, "vl": 19279, "fet": 34045, "Ġcomparatively": 31188, "augh": 1567, "iv": 452, "ated": 515, "aning": 7574, "Ð¾Ð": 25443, "ĠMedic": 5786, "ĠUpper": 20390, "\"!": 40484, "ĠTrojan": 44695, "Ġcountries": 2678, "Ġdonkey": 50085, "Ġintellect": 7654, ";;;;": 14223, "push": 14689, "Ġculprit": 26581, "ĠTW": 17306, "Ł": 253, "Ġassociate": 11602, "Ġmoral": 6573, "ĠSomething": 13742, "SN": 15571, "Ġmy": 616, "ĠJersey": 8221, "sexual": 18338, "ĠConference": 8785, "Ġdisaster": 9336, "ĠNice": 18460, "aran": 19173, "Ġtooth": 16162, "ĠResource": 20857, "ĠReynolds": 21995, "Iraq": 31206, "Ġbanners": 31931, "Ġfixtures": 34609, "Ġseminar": 37634, "Nic": 30403, "656": 37466, "isSpecial": 39714, "br": 1671, "Ġdebris": 16468, "awed": 36825, "Ġprovides": 3769, "Ġfactories": 17590, "Ġadmirable": 37959, "Ġdemeanor": 40309, "porary": 5551, "ĠHowever": 2102, "ĠWeb": 5313, "Ġchopped": 20720, "ĠBeirut": 40702, "Ġapparatus": 21152, "kov": 21862, "Ġrivalry": 26390, "ĠSlaughter": 41148, "Ġdescriptions": 16969, "Ġbraking": 36682, "Ġbatters": 42442, "ASY": 26483, "ĠJacket": 44891, "Ġobs": 10201, "Kevin": 23865, "Ġnoticeably": 33752, "Mesh": 37031, "Ġlarge": 1588, "Ġplausible": 19756, "ĠDoomsday": 45234, "ĠEVEN": 45886, "analy": 38200, "Ġ419": 48475, "Ġembassies": 49935, "ty": 774, "Ġblack": 2042, "Ġcontempt": 18035, "?????-": 25658, "ĠOrchestra": 34017, "measures": 47336, "ĠRecomm": 19237, "Ġyour": 534, "Ġcurves": 23759, "Ġhotly": 50180, "non": 13159, "ĠOz": 18024, "Ġbuff": 6940, "Ġnoun": 23227, "ococ": 34403, "Ġpromises": 10497, "Next": 10019, "2": 17, "ĠAgainst": 12914, "Ġdestroys": 27838, "Ġbless": 12012, "Ġdmg": 41323, "Ġaspects": 7612, "Ġproducing": 9194, "encrypted": 43628, "flation": 33521, "fol": 9062, "691": 49541, "Ġreferencing": 32578, "Ġhazards": 27491, "Ġdisgusted": 36943, "Ġindispensable": 35669, "Ġ67": 8275, "Ġexecution": 9706, "jon": 46286, "Ġkcal": 49504, "Ġneedy": 37278, "Ġformatted": 39559, "ĠTNT": 42490, "rying": 14992, "Ġrestricting": 28267, "Ġsecular": 14589, "opian": 37548, "Ġiniti": 5383, "Ġ3000": 20343, "ĠGavin": 30857, "Ġpossess": 8588, "Ġmeme": 25336, "id": 312, "644": 29173, "Ġsensed": 39243, "Golden": 32378, "iji": 20770, "hemat": 10024, "Meg": 42672, "Ġneed": 761, "ãĥª": 12675, "ĠCLE": 30301, "Ġsoap": 19533, "ĠSpy": 23688, "uning": 46493, "BUT": 47526, "202": 19004, "isi": 23267, "Ġembroiled": 46767, "ĠDo": 2141, "Ġplastic": 7309, "Ġmodifiers": 37395, "Ġabort": 15614, "Ġhell": 5968, "Ġbunch": 7684, "Ġeducate": 20771, "ĠSpeedway": 46000, "ĠAlvin": 49939, "uits": 15379, "Ġturbine": 36489, "cold": 36673, "Ġrounds": 9196, "ĠCN": 31171, "ĠDriver": 12434, "Ġinauguration": 23166, "ĠRural": 36486, "!).": 19588, "Previously": 36837, "Ġblood": 2910, "Ġcertainty": 18979, "Ġsack": 23704, "Fit": 31805, "Represent": 40171, "ogle": 2467, "Ġchains": 14659, "20": 1238, "Ġneighbouring": 29272, "Ġeducator": 45562, "Ġpointer": 17562, "Ġbailed": 47739, "ĠPer": 2448, "Ġanonymous": 11614, "ller": 6051, "Ġslides": 19392, "Ġpinnacle": 45985, "\"[": 17912, "ĠPal": 3175, "Ġdetractors": 45642, "Ġresidues": 47185, "ĠPear": 11830, "emouth": 46880, "ĠIllust": 23279, "Ġcombating": 40975, "ĠPop": 8099, "ĠCosts": 36845, "Ġpor": 16964, "Ġrates": 3965, "Ġearns": 29339, "Ġacclaimed": 27023, "atu": 33419, "ĠPurch": 34459, "ĠLois": 42879, "Ġreflections": 35066, "enge": 3540, "Ġmobile": 5175, "ald": 1940, "ĠBloom": 11891, "Ġpork": 18128, "ĠHeather": 24253, "Â¯Â¯Â¯Â¯Â¯Â¯Â¯Â¯Â¯Â¯Â¯Â¯Â¯Â¯Â¯Â¯": 27006, "ĠSalam": 38170, "Ġvict": 2210, "ĠCoat": 39326, "Ġ505": 43367, "ĠMedian": 26178, "Ġstructures": 8573, "Ġinsurgency": 35121, "Ġreferrals": 44285, "itized": 36951, "Ġ\"+": 43825, ";}": 46956, "ĠMcCartney": 44677, "Ġcontribution": 10156, "Ġdetermines": 15947, "Ġdistrict": 4783, "Ġperm": 9943, "Ġplayful": 34264, "anne": 21952, "webkit": 43648, "Ġspecifically": 5734, "ĠInto": 20008, "erves": 11184, "Tell": 24446, "Broad": 30507, "Ġcoat": 13209, "342": 31575, "ĠShaman": 34805, "CPU": 36037, "rosc": 45943, "Ġremote": 6569, "Ġaisle": 28960, "Ġrake": 47885, "ĠChong": 46892, "ĠCOMPLE": 49269, "eval": 18206, "et": 316, "Ġsweep": 16085, "Ġ2005": 5075, "Ġrequirements": 5359, "umer": 6975, "Ġflip": 14283, "adian": 18425, "Ġres": 581, "ĠCheney": 31287, "Ġnerd": 34712, "Ġ\"%": 36521, "Ġ1927": 36565, "ĠGins": 39083, "birds": 32002, "Ġstimulated": 40216, "Db": 43832, "criptions": 24370, "ĠLM": 37125, "ĠHatch": 31537, "/âĢĭ": 27643, "ĠVaughan": 47451, "Ġnodes": 13760, "Cass": 43529, "Ġagree": 4236, "ĠAND": 5357, "Ġhailed": 27052, "313": 25838, "Ġanecdotes": 44662, "valued": 39728, "ĠBennett": 17468, "Ġendemic": 42560, "Ġparts": 3354, "ĠRecreation": 34285, "Ġlending": 20983, "Ġorganizing": 16924, ".>>": 32756, "employed": 36266, "Ġexemplary": 40690, "ĠAnnounce": 43470, "ĠTG": 44121, "ussion": 11956, "ossier": 30087, "Ġif": 611, "Ġcance": 10450, "ĠMarine": 11000, "ĠKum": 19162, "ĠOur": 3954, "ĠWisconsin": 9279, "ĠFat": 12301, "September": 17543, "ĠBolt": 21764, "agent": 25781, "ĠHappy": 14628, "Ġargues": 11673, "Ġ144": 20224, "ingen": 36795, "Ġstocked": 42070, "tons": 27288, "IAS": 43429, "ĠPUR": 33079, "Ġemitting": 48143, "Ġbolst": 37183, "ĠRecover": 49107, "Ġrobots": 14193, "ĠDisorder": 31162, "Ġofficers": 3790, "Ġastron": 10894, "Ġdatabase": 6831, "Ġcerebral": 31169, "Ġdate": 3128, "!!!": 10185, "Ġsuspicious": 13678, "ĠSpoiler": 41958, "985": 42250, "ĠVoc": 47208, ".*": 15885, "Ġenforced": 20326, "ĠSite": 14413, "Ġturf": 29553, "tainment": 10738, "Ġanten": 16943, "Ġvisions": 26096, "times": 22355, "crim": 50086, "Ġadvantage": 4621, "ĠCand": 15518, "ĠOF": 3963, "Ġinher": 10639, "ĠMint": 20873, "lead": 28230, "ahead": 38204, "angers": 6606, "ĠOccupations": 48227, "ą": 193, "Ġamplifier": 33382, "ĠExchange": 12516, "CONCLUS": 47542, "Ġscrut": 12054, "Ġafflicted": 39785, "ĠArtifact": 45908, "endra": 48286, "Ġamendments": 17835, "ĠHello": 18435, "Interestingly": 33092, "Ġthemselves": 2405, "Ġintensive": 18590, "productive": 27781, "ĠBlaze": 33965, "ĠDesmond": 41045, "ĠBil": 24207, "Ġeliminates": 32311, "Ġ385": 44826, "Ġrelapse": 47861, "ĠAdobe": 21771, "jad": 38442, "Ġconditioned": 31964, "colonial": 49787, "Ġalternatively": 46596, "Ġdisagrees": 37868, "dist": 17080, "lords": 19673, "ĠGovernor": 10807, "ĠPlains": 31981, "Ġaccompanying": 19249, "uyomi": 40012, "Ġpenetrated": 41847, "ãĥ¢": 40361, "mons": 11567, "Ġanonymity": 18685, "Ġpassage": 10066, "ramer": 29172, "Ġaccessible": 9857, "Ġbeside": 13970, "Ġgrave": 12296, "Ġreacts": 30174, "Ġfly": 6129, "ĠTavern": 32693, "checking": 41004, "Ġ15": 1315, "Ġsolitary": 25565, "Ġrelatively": 5365, "Ġoriginals": 47324, "Ġdf": 47764, "istor": 32380, "Ġavid": 32450, "ones": 1952, "Select": 17563, "ĠMoff": 41069, "qualified": 22557, "Ġspelled": 32213, "ĠSharif": 44144, "Ġpunk": 22782, "Ġconfident": 6563, "ores": 2850, "reach": 16250, "ĠSunshine": 32210, "ĠMaced": 25942, "Ġbourbon": 41855, "Ġair": 1633, "CAN": 44565, "Ġmagnificent": 25023, "mon": 2144, "Hop": 23483, "Ġwording": 26814, "Ġ274": 39768, "Ġconfidentiality": 32554, "Ġnav": 6812, "Ġwinds": 13520, "San": 15017, "bird": 16944, "uint": 28611, "ĠDemocracy": 20265, "Ġparticipant": 18399, "Ġnearing": 37242, "ĠLoud": 41520, "<|extratoken_49|>": 50305, "Ġhamm": 25755, "Ġwife": 3656, "ĠSew": 27347, "BUG": 12953, "Environmental": 47213, "episode": 38668, "cffff": 31727, "Ġproud": 6613, "Ġuncommon": 19185, "Ġcleared": 12539, "Ġonce": 1752, "ĠRegulation": 26472, "writer": 16002, "ECD": 27295, "ĠBorg": 29004, "ĠPersons": 32884, "Ġfibre": 33073, "Ġsage": 35021, "ĠSanskrit": 46178, "Ġglucose": 15701, "Ġsuccumb": 33505, "Liberal": 46650, "crypt": 29609, "Ġmarketers": 41064, "Ġheal": 12035, "Ġpatrol": 13969, "ATT": 17139, "ĠMoves": 38213, "Script": 7391, "Ġministry": 11957, "Ġconversations": 10275, "ĠFactory": 19239, "Ġfeared": 15240, "Ġattainment": 40375, "ĠIcelandic": 41959, "opted": 45256, "Unlike": 18521, "ĠNets": 27811, "Ġjavascript": 44575, "Ġunlocking": 39052, "bucks": 18999, "ĠFactor": 27929, "Ġcruise": 20382, "Ġexceeds": 21695, "pd": 30094, "ĠLions": 14536, "safe": 21230, "Ġdiscriminatory": 27200, "Ġprove": 5879, "ĠBattalion": 29887, "Ġperished": 43181, "eways": 43613, "vernment": 11355, "Ġanswering": 18877, "://": 1378, "Ġcompetitions": 24174, "Ġrejecting": 26734, "Ġinsulted": 40102, "Ġsneaky": 48930, "CIA": 49732, "inter": 3849, "Ġexplosions": 23171, "Gov": 23774, "Ġignited": 40442, "Ġquantity": 12040, "Ġsummer": 3931, "Ġblogs": 19118, "ĠChavez": 31039, "Ġappeared": 4120, "aws": 8356, "ĠLoss": 22014, "ĠSox": 17689, "Ġprimer": 33270, "kernel": 33885, "Ġdipped": 35300, "NPR": 38588, "shed": 35762, "ĠChevy": 40688, "Ġsprayed": 35729, "Ġpresupp": 45077, "ĠAppalachian": 45375, "iPhone": 37032, "Ġmaize": 49235, "ĠHuntington": 40644, "CRE": 43387, "Any": 7149, "ĠWeekly": 18168, "ĠLouisville": 21525, "Ġhonorable": 33655, "Tam": 42061, "Ġreminiscent": 24960, "Ġhaun": 17791, "ĠHugo": 25930, "Ġ92": 10190, "Ġbending": 30808, "Ġseek": 5380, "actory": 9548, "opoulos": 20338, "ĠSuk": 41218, "Ġimp": 848, "866": 42240, "ĠFerry": 42609, "row": 808, "ĠBrick": 28347, "ĠPercent": 22512, "Ġsplash": 22870, "Coach": 40677, "Ġtaps": 34531, "Ġoutdoors": 24349, "ĠSide": 12075, "Ġtar": 13422, "ugs": 10339, "ĠNord": 18687, "Ġbeginning": 3726, "FI": 11674, "oyd": 12192, "Ġquick": 2068, "ĠRazor": 36065, "Ġrevolver": 40968, "us": 385, "Whoever": 47896, "femin": 33594, "Actor": 40277, "ĠCann": 12283, "Ġskelet": 17773, "Ġreun": 15398, "Ġclassroom": 15806, "gp": 31197, "2014": 4967, "amps": 9430, "ĠBern": 6206, "1996": 22288, "ĠRooney": 33925, "Ġ293": 37224, "breaking": 13395, "ĠDefensive": 24784, "Ġbooze": 39399, "ĠMarried": 44098, "Ġlaptops": 26635, "opausal": 47637, "ability": 1799, "bt": 18347, "ĠParks": 20604, "/*": 15211, "legate": 34637, "ettes": 23014, "guard": 14864, "Ġdemoral": 49077, "Ġengaging": 11932, "rast": 5685, "Ġrobust": 12373, "Ġincorporate": 19330, "Michigan": 40610, "taking": 26103, "ĠBlackwell": 40622, "ĠKafka": 46906, "Ġfracturing": 48690, "ĠChung": 43915, "ocese": 31292, "year": 1941, "ĠWaterloo": 36782, "Ġregret": 13721, "Aaron": 34451, "kefeller": 31424, "ĠTesla": 11938, "Ġunfolds": 45995, "ĠGrateful": 44249, "Ġdeveloper": 8517, "Ġschizophren": 19991, "Ġreligion": 5737, "ĠInvestig": 16203, "Ġaccuses": 35062, "ĠDh": 20529, "Ġbuoy": 36675, "Bir": 50091, "Ġtreats": 18432, "ĠAlter": 32770, "Ġexp": 1033, "Ġcampuses": 23003, "ĠPhelps": 40587, "Ġfuels": 18017, "yright": 4766, "uta": 29822, "------------------------": 22369, "Ġhoped": 10719, "Ġdam": 1801, "ombie": 9081, "Ġinert": 29824, "ospital": 3531, "Pass": 14478, "ĠScientists": 23782, "ĠOnes": 32606, "aterial": 2273, "Ġanterior": 32700, "Ġhopeful": 17836, "Ġremovable": 35973, "Ġangels": 21981, "ĠDU": 35480, "Ġdarkness": 11854, "Ġabund": 12467, "prem": 31605, "ĠKirin": 40262, "ĠTomb": 18528, "Ġhelpless": 21144, "Cause": 42323, "Ġdisrupted": 30067, "ĠSquirrel": 44259, "Ġrate": 2494, "378": 30695, "Ġnetworks": 7686, "Ġscreenshots": 23322, "DAY": 26442, "ĠMess": 10626, "Ġ[*": 30138, "Ġinexpl": 33199, "Ġcapitalize": 35160, "unia": 39934, "ĠChoi": 42198, "ĠOFF": 18562, "kas": 42749, "Ġdisinformation": 45054, "itching": 19811, "ĠAccord": 46562, "ĠOper": 6564, "rats": 46714, "Ġfian": 41668, "Ġdeterrence": 49272, "emia": 22859, "Ġassistant": 8796, "Ġpermit": 8749, "005": 22544, "Ġimprovement": 9025, "eng": 1516, "Director": 28702, "Ġrelegated": 36391, "Ġpartial": 13027, "Ġredist": 17678, "Ġpercentages": 28071, "ĠSevent": 35734, "gements": 43547, "Americ": 5477, "ĠArpaio": 46861, "ĠSimilar": 11014, "ĠHalf": 13139, "Ġlitigation": 19284, "Ġdownright": 31464, "Ġincapac": 38533, "ĠShopping": 39109, "ophob": 13253, "Ġnostalg": 22314, "reasonable": 42275, "Ġleans": 39416, "Ġ424": 48252, "Ġserv": 1113, "Ġhovering": 33627, "Aut": 16541, "Back": 7282, "Ġfluffy": 39145, "Ġhallmark": 44995, "osing": 2752, "github": 12567, "testers": 27205, "Ġburd": 8746, "Ġbras": 48029, "Super": 12442, "iw": 14246, "ĠSource": 8090, "Ġsupplemental": 34885, "ask": 2093, "isel": 36811, "Ġgrotesque": 40505, "Ġpopular": 2968, "Ġmitigation": 33585, "Everyone": 16190, "Pay": 19197, "Ġabdomen": 32956, "Leon": 36185, "Ġsomeday": 25580, "Ġflap": 37699, "ĠLebanon": 16849, "ĠRoof": 35271, "ĠNicholson": 40365, "Ġcommercially": 26879, "ĠShank": 41595, "PHOTOS": 42709, "ĠIc": 43042, "KB": 22764, "Ġreferees": 42692, "olves": 9010, "Ġhoax": 25943, "Ord": 35422, "Ġfigures": 5538, "MI": 8895, "Ġmot": 2369, "Ġemblem": 32094, "Ġforming": 14583, "!!\"": 37160, "rim": 3036, "Ġsomet": 1054, "Ġ32": 3933, "Ġdispos": 12483, "thritis": 34043, "REP": 35316, "Ġchooses": 19769, "Ġscouts": 29663, "Iss": 27738, "ĠAutom": 17406, "ĠSerbia": 27229, "Ġpassages": 22674, "Ġbred": 33592, "renches": 33650, "ĠBonds": 39161, "Ġaeros": 41376, "ĠCaucasian": 43172, "Semitism": 25406, "ĠSupporting": 44188, "ainers": 50221, "iki": 5580, "320": 19504, "ĠMare": 36989, "Ġaffiliation": 26218, "accompanied": 42588, "inea": 18343, "Ġpredis": 46276, "ĠAwoken": 8755, "ocolate": 9140, "Ġcohesion": 44182, "Ġcounterfe": 29465, "Ġdomains": 18209, "Ġapartheid": 38264, "visor": 13131, "Ġacquaint": 24852, "ashes": 7465, "ĠOPEN": 38303, "ĠTail": 21759, "ĠBrilliant": 45891, "Ġbom": 8626, "Ġhugs": 40657, "India": 21569, "Course": 49046, "ĠFavor": 38196, "Ġcredit": 3884, "MM": 12038, "Ġrepealed": 32933, "Ġspray": 11662, "ĠDexter": 26284, "Ġmodifying": 30620, "Ġpuzzles": 24367, "Ġawarded": 11343, "ĠPiper": 33503, "output": 22915, "ĠOle": 30093, "Ġmindfulness": 35502, "Ġinvestigator": 20725, "Ġglue": 22749, "oa": 12162, "Ġexpressive": 38084, "isy": 13560, "Ġpublishers": 17604, "ĠTess": 39412, "Ġunsett": 29286, "AMS": 40834, "Ġremnants": 30468, "Ġresin": 36536, "Ġmogul": 37690, "ĠManor": 33555, "mination": 17928, "minus": 40191, "Ġ116": 18693, "tun": 28286, "BW": 48802, "ĠNy": 17735, "itton": 47304, "Ġdefinitely": 4753, "Ġlimits": 7095, "Ġpains": 24985, "Ġbids": 27837, "letes": 40676, "Ġsimultaneously": 11640, "founded": 27060, "anye": 23495, "ĠKol": 25910, "ĠClinical": 21234, "Ġserial": 11389, "Process": 18709, ".ãĢį": 43735, "Ġdisproportionately": 28719, "Ġgorilla": 45314, "Ġreprint": 26589, "ĠNeuro": 13782, "ĠBluetooth": 19263, "Ġsquirrel": 33039, "erning": 8917, "Wood": 22911, "anes": 7305, "zman": 32054, "efeated": 36807, "ĠMcKenzie": 44311, "Ãª": 25792, "ĠVictor": 12622, "ĠActress": 47144, "Fixed": 13715, "Ġpotato": 21219, "ĠQuarterly": 36082, "oval": 8325, "irming": 29808, "ulation": 1741, "Ġconservation": 14903, "Ġet": 2123, "ĠNull": 35886, "Ġperiods": 9574, "ĠSTATS": 37889, "pmwiki": 45321, "Ġcrisp": 23453, "ĠQuart": 48748, "anity": 19689, "ĠIndividual": 18629, "Ġchapel": 43398, "ileaks": 27983, "omed": 12657, "ĠFifth": 19383, "ĠEcology": 39978, "Ġbiscuits": 50128, "Ġuntil": 1566, "ĠDestruction": 25034, "Ġspor": 35810, "ĠSiem": 45196, "ovation": 17882, "please": 29688, "Psy": 25918, "stros": 48288, "Ġdeliveries": 31167, ")).": 29720, "pal": 18596, "Fortunately": 31276, "Ġaccidents": 17390, "ĠTRUMP": 42953, "ĠEast": 3687, "grading": 29247, "Ġspoilers": 31136, "Ġnutritional": 24000, "Ġitself": 2346, "Magazine": 36028, "Ġweddings": 37377, "ĠNEC": 41804, "ĠWestminster": 20353, "Ġconscientious": 47963, "ĠThrone": 28419, "Ġresusc": 48636, "Ġimplant": 29016, "ĠGhostbusters": 50037, "ĠFut": 24002, "ĠExaminer": 35855, "Ġdil": 11844, "Ġenthusiastically": 42045, "Ġexecutive": 4640, "tro": 23528, "Ġsegregation": 26718, "Ġplot": 7110, "achy": 35586, "ĠNatasha": 41875, "Ġgoes": 2925, "Ġquit": 11238, "Ġpatrons": 25720, "es": 274, "ĠTrade": 9601, "Ġbehaves": 39341, "ĠPACs": 43838, "ph": 746, "Ġhegemony": 46877, "ĠAnchorage": 50066, "tests": 41989, "Ġpieces": 5207, "Ġpiling": 48060, "ĠBag": 20127, "endor": 18738, "atron": 23484, "Ġfermentation": 35115, "ĠDesire": 41042, "Ġacquire": 12831, "Ġoutlaw": 23716, "spin": 39706, "ĠREL": 29749, "Ġmerciless": 40618, "cent": 1087, "Ġnationalists": 32442, "Ġbeauty": 8737, "Ġswarm": 30077, "Ġinterpreting": 35391, "Ġurinary": 38628, "ãĥİ": 25053, "Ġstrugg": 3569, "ark": 668, "ĠWindows": 3964, "ĠNa": 11013, "Ġswung": 28507, "Ġshale": 30498, "Ġmol": 18605, "ĠHazard": 32224, "ĠChow": 37932, "Ġsidebar": 40217, "ĠNetflix": 12074, "ĠOU": 47070, "Ġfour": 1440, "teenth": 20283, "Ġhistory": 2106, "Ġtranscript": 14687, "Carl": 26886, "Ġtil": 21502, "ĠSing": 5573, "arate": 30748, "ĠAllan": 31908, "Ġage": 2479, "Ġprotecting": 10192, "Python": 37906, "expression": 38011, "ĠWein": 40966, "middle": 27171, "ĠOlympus": 42108, "725": 45151, "Ġfreaking": 35607, "Ġboulder": 46483, "Ġ2017": 2177, "Ġ#": 1303, "Ġopenness": 30913, "ĠKik": 40571, "DES": 30910, "Ġfungus": 39526, "Ġtreadmill": 49246, "Ġalmond": 26948, "Ġancestor": 31836, "ince": 924, "ilies": 3922, "ĠInteger": 34142, "Ġunrest": 17093, "ickr": 18994, "Ġ323": 38446, "Ġw": 266, "aster": 1603, "Ġbitterly": 40608, "Ġshooters": 26191, "ĠBerkeley": 14727, "Ġtraffickers": 40421, "Ġsynchronization": 42133, "Ġclout": 45789, "Ġamendment": 11326, "Ġhackers": 17110, "adeon": 12424, "funding": 25032, "132": 19924, "ĠEpstein": 34594, "CR": 9419, "software": 43776, "Ġcherish": 48303, "Ġeveryday": 10908, "ĠPublishers": 43403, "620": 38850, "ĠCornwall": 45294, "Ġdying": 9950, "Ġchemicals": 12910, "ĠMeans": 28453, "Ġcompletion": 11939, "Ġfilm": 2646, "690": 35844, "Ġknit": 30495, "suits": 16554, "XX": 8051, "stic": 11268, "Ġgot": 1392, "Ġcommentary": 14604, "ĠMIT": 17168, "Ġignores": 24245, "Ġdispatch": 27965, "Ġincumb": 19742, "Ġblended": 32063, "Ġvalidation": 21201, "hao": 23778, "Ġunofficial": 27220, "Ġlove": 1842, "Ġsurgeries": 33624, "ĠCove": 39534, "Ġrigs": 45932, "disabled": 47730, "Ġ443": 40384, "Ġpolling": 13985, "ĠSounds": 27107, "aterasu": 45335, "ppers": 11799, "ĠBuff": 8792, "Ġdisplay": 3359, "aping": 9269, "cles": 5427, "reens": 5681, "ĠHouses": 34336, "ĠAlban": 27001, "Ġdors": 37650, "ãĤ¢ãĥ«": 47794, "ĠLance": 18990, "Military": 37837, "Rep": 6207, "ĠRib": 23133, "ĠSUV": 26763, "Nation": 46108, "Ġim": 545, "Ġfunding": 4918, "ĠJaune": 29415, "Ġhighlight": 7238, "Jes": 22290, "ĠEternity": 33410, "draft": 35679, "ĠGotham": 30129, "ĠSoup": 34011, "rik": 12602, "ĠBonus": 18770, "ĠBec": 15780, "Ġpossibilities": 12779, "Ship": 25586, "Ġcrucial": 8780, "ĠPortal": 25663, "Example": 16281, "ĠToby": 37578, "Mut": 41603, "177": 22413, "Ġquantities": 17794, "ĠSchwe": 40430, "Ġdeems": 44426, "!),": 26290, "ĠTa": 11940, "ĠPolit": 7793, "ĠKind": 14927, "Ġfruit": 8234, "ĠSure": 10889, "ĠPresident": 1992, "iba": 23718, "improve": 49453, "Ġwhatsoever": 16014, "Ġlover": 18854, "inois": 8981, "lay": 10724, "Ġfilled": 5901, "Ġcalculated": 10488, "ĠInvasion": 25484, "Ġnote": 3465, "ĠJavascript": 24711, "aleb": 32100, "Moh": 38443, "Ġassignment": 16237, "Ġthis": 428, "cloneembedreportprint": 30899, "Ġstrangely": 29381, "Ġ286": 39697, "ĠThroughout": 24581, "Ġcasual": 9341, "Ġistg": 36940, "Ġflex": 7059, "cs": 6359, "ĠBJ": 47204, "Ġtunes": 31796, "intuitive": 42105, "Ġrelay": 24248, "ĠLLP": 43245, "ĠAvatar": 26703, "524": 48057, "Ali": 37893, "ĠMarin": 36384, "this": 5661, "data": 7890, "Ġstandby": 42020, "50": 1120, "ĠFemales": 44727, "ĠCharter": 23006, "Ġ246": 34951, "ĠNight": 5265, "ilantro": 48311, "sm": 5796, "Ġlavish": 38957, "Ġfallen": 9292, "Ġredress": 48586, "aign": 1784, "Ġincon": 15861, "ĠKur": 18132, "Ġ33": 4747, "ĠChatt": 39444, "Ġgreat": 1049, "Ġsubtly": 37847, "Ġconson": 44278, "Ġfighter": 10543, "Ġsalad": 20698, "Ġcad": 20603, "ĠAnniversary": 21967, "ĠPaulo": 34410, "Ġirrad": 47537, "ĠMissile": 25350, "Resource": 26198, "ĠVoting": 30061, "Ġfishing": 12478, "outside": 43435, "Ġwritings": 19336, "items": 23814, "Ġcombo": 14831, "Ġmast": 17288, "Ġdescriptive": 35644, "Ġrefres": 17434, "Ġapost": 18584, "/+": 28404, "ELS": 37142, "ubby": 38393, "normal": 11265, "ĠHistorically": 48153, "592": 45839, "ĠDon": 2094, "Ġbeams": 26741, "ĠSaras": 40457, "528": 49351, "',": 3256, "atics": 23372, "Ġinstallment": 25168, "ĠDanish": 20849, "ĠVICE": 46304, "Ġsummon": 11457, "}\"": 36786, "Ġoverwhelming": 9721, "Ġsurrounding": 7346, "Ġdonate": 16565, "agne": 21080, "ikuman": 42889, "048": 47202, "ĠHawaii": 13708, "ĠApollo": 17508, "ĠPesh": 39654, "Gener": 8645, "Ġtemporarily": 13413, "Ġquot": 23611, "ĠHW": 44884, "129": 18741, "Ġtouted": 28275, "png": 11134, "Ġdrafting": 26931, "view": 1177, "ĠTransparency": 49165, "Ġstructure": 4645, "ä½¿": 45635, "ĠSenegal": 49657, "oyle": 19802, "ÂłÂłÂł": 33477, "687": 39925, "PASS": 47924, "ĠDupl": 49821, "Ġhaul": 25647, "Ġamps": 45796, "Eastern": 46109, "Ġquestioned": 11434, "ĠJournals": 48608, "ãģ®å®": 49149, "ĠMoy": 28523, "ĠBristol": 25040, "Ġorganized": 8389, "ĠPolitical": 14611, "Ġsteel": 7771, "ĠCycl": 28007, "avour": 29023, "ĠPlasma": 31226, "Ġdanger": 3514, "ĠPam": 24497, "urnal": 35735, "Ġsmack": 41014, "chini": 45045, "Ġdred": 47478, "Anyway": 23795, "Ġrusher": 47608, "đ": 205, "ud": 463, "Ġreadily": 14704, "ĠKarma": 32648, "ĠJOHN": 39263, "Hours": 39792, "ime": 524, "°": 108, "piece": 12239, "Ġlakes": 24768, "illin": 32672, "Ġcafeteria": 43075, "riter": 43407, "euro": 44252, "Spread": 44458, "ĠDeadly": 26991, "orset": 49590, "growth": 27922, "ĠBalk": 29643, "pell": 23506, "ĠJustice": 4796, "Ġfre": 2030, "Ġtakeover": 27011, "obic": 20803, "Strong": 33004, "Ġhoard": 46960, "matched": 31409, "Ġclaimants": 47841, "Ġchar": 1149, "ĠSoftware": 10442, "Ġelectoral": 13901, "asha": 14715, "Aug": 12512, "ĠFell": 21710, "Lua": 36127, "Ġmagical": 10883, "Ġbruises": 42232, "ophon": 48982, "Ġoutspoken": 27687, "inite": 9504, "Ġboo": 22513, ">>": 4211, "Ġcum": 10973, "Unfortunately": 13898, "Ġnos": 43630, "Ġlargely": 5688, "ĠCoffee": 19443, "assault": 46635, "houn": 47714, "ber": 527, "ãĥĵ": 36922, "ĠMak": 15841, "ĠUtt": 36057, "Ġxp": 36470, "Ġheck": 22574, "ĠBav": 37313, "nik": 17187, "ĠRising": 17658, "408": 26200, "itions": 1756, "Ġlistener": 24783, "ĠConsumption": 42158, "ĠOuts": 46580, "Ń": 255, "urd": 2799, "Ġwheelchair": 27181, "Ġconfines": 39293, "day": 820, "Ġcreates": 8075, "Ġanalogy": 23970, "DOWN": 41925, "ĠNanto": 47614, "Ġfin": 957, "MC": 9655, "Ġechoes": 30346, "pedia": 50235, "Ġovercl": 40397, "figure": 26875, "Ġrestrained": 31531, "cade": 46395, "Davis": 36462, "Ġ2011": 2813, "Ġgate": 8946, "pecting": 35570, "Ġtightened": 37257, "ĠSOFTWARE": 47466, "Ġen": 551, "Ġassertions": 29965, "Ġpistol": 16790, "pet": 6449, "zen": 4801, "Ġrecy": 15092, "ships": 26313, "Ġhypocrisy": 29442, "Ġsibling": 33423, "RP": 20031, "Ġresponsibly": 43493, "Ġweekend": 5041, "emies": 5090, "Ġbikes": 16715, "monkey": 49572, "Ġadjusted": 12328, "ĠMafia": 32676, "hw": 36599, "Ġch": 442, "Marx": 45258, "ĠChristopher": 12803, "engu": 13561, "ĠKam": 12670, "ICAL": 20151, "ĠHighlander": 24567, "Ġlaunched": 5611, "Total": 14957, "ĠEconomic": 11279, "Ġundes": 27858, "Ġ198": 2757, "carb": 35684, "ĠConsulting": 41005, "iane": 46470, "ĠNike": 23817, "Ġderiv": 16124, "Ġeluc": 49031, "ĠLay": 18881, "Ġcaucus": 24402, "ĠSept": 2362, "%).": 18823, "Ġ70": 4317, "ĠKerr": 32879, "ĠDH": 23809, "ĠNost": 48150, "cair": 37155, "ike": 522, "Ġraised": 4376, "iants": 17883, "500": 4059, "ĠWomen": 6926, "Ġobesity": 13825, "ĠBucc": 31978, "ĠInvestments": 46568, "agna": 48669, "market": 10728, "ĠIndex": 12901, "Ġlaundering": 27194, "ĠHasan": 49482, "Ġclassy": 48486, "ĠRecon": 23419, "ikhail": 39065, "Ġbeaches": 25585, "Ġinterchangeable": 43615, "Ġsmells": 25760, "my": 1820, "Ġrevel": 9890, "Ġworldly": 43249, "ĠUnder": 4698, "Ġslide": 10649, "Ġobtaining": 16727, "ĠVeh": 15118, "Ġadjustments": 16895, "Ġextant": 47862, "Ġfrontal": 30424, "ĠFan": 13836, "akh": 11322, "Ġven": 8710, "ĠLuther": 17461, "ĠPetro": 36863, "ledged": 37436, "ĠRoyale": 49982, "ĠLinks": 21691, "ĠSgt": 22925, "ussia": 31269, ",)": 35751, "rypt": 6012, "popular": 47568, "Ġuntold": 47872, "Ġrepaid": 48417, "ĠContainer": 43101, "ĠAnd": 843, "cia": 33743, "ĠHawaiian": 29827, "Ġworm": 23849, "Ġwhale": 22206, "Ġ212": 23679, "Ġpacif": 47617, "lbs": 32133, "Ġ777": 35534, "Ġ148": 22613, "Ġbookmark": 44007, "Ġdinner": 8073, "nothing": 22366, "clerosis": 31399, "ĠCelt": 16333, "Ġtheoretical": 16200, "Ġwiden": 45676, "Ġresembled": 37657, "Ġsheep": 15900, "Ġstrat": 25369, "Ġbroom": 47085, "ĠYet": 6430, "ĠCancel": 27910, "Ġromantic": 14348, "Ġdownfall": 38041, "Ġinciner": 48244, "Ġvacation": 14600, "Ġfrown": 22002, "Ġwaste": 7030, "ratulations": 30167, "ĠRates": 34864, "Ġoutset": 30761, "Ġpractical": 8472, "Ġoppressive": 30983, "Ġgraz": 32703, "317": 34125, "Ġgrown": 7334, "usable": 31979, "ORE": 6965, "kok": 32004, "ĠSTATE": 35454, "NUM": 41359, "ĠBRE": 29377, "Ġ190": 19884, "Ġdenounced": 26443, "Ġclimbs": 34332, "Ġarrog": 19563, "ĠBART": 42346, "Ġ352": 44063, "moderate": 47189, "ĠHome": 5995, "then": 8524, "Ġmarketplace": 17432, "ICO": 22707, "ĠSeat": 26682, "Ġgreatly": 9257, "liquid": 39250, "Ġtd": 41560, "udder": 41686, "announced": 43499, "Ġwishing": 24433, "Ġteaser": 38388, "Ġallegations": 7636, "Ġdry": 5894, "Ġrepatri": 43083, "Ġbillionaire": 18828, "ĠDru": 21295, "ĠMelody": 38906, "important": 18049, "ldom": 23826, "Ġmilliseconds": 38694, "Ġworldwide": 8688, "rog": 3828, "Ġgoddess": 22215, "ĠOb": 1835, "Ġasc": 10570, "SAY": 27358, "Ġerroneous": 35366, "ĠMorris": 14433, "Ġanticipating": 40807, "reportprint": 30897, "ĠDis": 3167, "Ġsurpass": 17341, "è»": 43102, "ĠHutchinson": 43792, "Ġcircumcised": 45522, "ACE": 11598, "Ġlifts": 27103, "Ġblind": 7770, "zzo": 47802, "yrs": 48489, "Ġtag": 7621, "Ġlocked": 8970, "lying": 3157, "Ġdocumentation": 10314, "Ġuseless": 13894, "Ġexile": 24329, "ĠCopenhagen": 31104, "uca": 43120, "Ġsecrets": 13141, "ĠSNAP": 48592, "Ġconvoluted": 47370, "Ġoperatives": 27269, "Ġ314": 34085, "Ġaccident": 5778, "ĠWatson": 14959, "ĠDumbledore": 27442, "Sometimes": 15468, "equal": 40496, "Ġfing": 8038, "Ġreturn": 1441, "Ġattacked": 7384, "ĠSpec": 18291, "Ġgrading": 43165, "Ġarchaic": 40435, "Diff": 28813, "ĠIgor": 46157, "Ġbis": 47457, "ĠFisher": 14388, "<|extratoken_129|>": 50385, "Ġinvestors": 7713, "Ġrestricts": 47075, "ĠWalker": 10120, "ĠBody": 12290, "disk": 39531, "oos": 16426, "white": 11186, "Ġ168": 23378, "rys": 19753, "Ġstarred": 31636, "ĠMol": 17958, "Queue": 34991, "Ġfavorably": 40594, "uclear": 4016, "Ġmarginally": 44108, "ĠLayout": 47639, "ĠABS": 29950, "Ġ<[": 29342, "ĠMerchant": 33508, "ĠHydra": 31613, "Hero": 30411, "Ġmirror": 10162, "Ġï¿½ï¿½ï¿½ï¿½ï¿½ï¿½ï¿½ï¿½": 37389, "ĠWonders": 47497, "Ġob": 909, "ĠRud": 17421, "ĠAadhaar": 47727, "Ġ).": 6739, "ĠIB": 34782, "Ġpositioned": 19378, "Notable": 45533, "easy": 38171, "ĠDevelopment": 7712, "oof": 37711, "itar": 7940, "ĠAnthem": 43192, "Ġtweaked": 38304, "ĠTrial": 21960, "Stack": 25896, "ĠÙĪ": 42092, "iger": 8254, "ĠHarlem": 39735, "Ġturtles": 36288, "ech": 3055, "high": 8929, "Ã¢": 22940, "Ġmanufact": 4011, "Ġsided": 34384, "Chapter": 14126, "Ġconjunction": 17856, "ĠCarney": 40775, "Ġroaring": 43170, "Ġfailing": 9894, "Ġresume": 15294, "ĠCDC": 20434, "tip": 22504, "Ġseaf": 25127, "ĠRNA": 25897, "Ġelectromagnetic": 31094, "annel": 4276, "ĠPubMed": 32131, "Ġexternal": 7097, "ĠVT": 32751, "static": 12708, "Ġglowing": 21377, "asion": 4247, "Ġcoll": 2927, "ĠMatter": 16900, "Ġâī¥": 26870, "Ġcongress": 8681, "Ġ1954": 24718, "ĠBenson": 33940, "Let": 5756, "ĠBrowser": 34270, "Ġcumbers": 44392, "ĠPieces": 44676, "ĠâĸĪ": 23287, "isol": 30152, "ĠNass": 38742, "Share": 11649, "555": 31046, "ĠElm": 35189, "orkshire": 29918, "Ġwitches": 34773, "Ġthro": 9244, "ĠReturning": 42882, "ethy": 33077, "ĠLW": 38492, "ĠÂłĠÂłĠÂłĠÂłĠÂłĠÂłĠÂłĠÂł": 45706, "election": 14300, "ĠByrne": 38245, "archives": 48814, "ĠSTART": 33303, "ĠKyoto": 36298, "ĠÎĶ": 37455, "################################": 29113, "420": 27211, "<|extratoken_41|>": 50297, "Ġyoutube": 35116, "Hundreds": 38150, "happy": 34191, "yo": 8226, "ukemia": 43505, "ĠKitt": 43670, "ĠBB": 12597, "ĠSoc": 3345, "utory": 17957, "Ġobliged": 23278, "ilic": 41896, "Questions": 35741, "Ġmodels": 4981, "Ġsensit": 44752, "Ġmysql": 48761, "1973": 40220, "Ġtrespass": 49192, "Ġhumility": 34935, "Ġnot": 407, "parents": 23743, "iannopoulos": 36408, "Ġions": 39270, "Ġrunners": 19323, "Ġsound": 2128, "Ġsubstantially": 13788, "Ġhem": 16869, "Ġactions": 4028, "Ġoffenses": 18514, "Ġov": 19643, "ĠVisa": 27645, "Ġmaid": 25920, "Spl": 26568, "ĠÄ": 34754, "idence": 1704, "Ġremarkable": 11004, "ĠTravis": 19804, "ARC": 25793, "classified": 31691, "Ġclans": 38501, "Ġweaving": 44889, "ruits": 50187, "ĠSaudis": 33358, "ĠCult": 22449, "ĠBritt": 26036, "Ġconsecut": 12358, "ĠIo": 27853, "Ġliable": 17583, "Ġhappen": 1645, "Free": 11146, "child": 9410, "Ġphysics": 11887, "Ġsupreme": 17700, "ĠFixes": 34258, "ĠIP": 6101, "045": 40350, "ĠMobil": 45951, "Ġterrestrial": 35609, "humans": 40205, "stadt": 38863, "0001": 18005, "ĠFlyers": 30652, "ĠBrighton": 33193, "oulder": 17601, "ĠCOM": 9440, "Ġrac": 3444, "Ġserved": 4983, "ricia": 26654, "Ġcannabin": 30716, "fortunately": 6668, "509": 29022, "Versions": 45150, "onde": 14378, "IOR": 41254, "ĠLeBron": 24712, "ĠLau": 40014, "Ġalluded": 45652, "sports": 32945, "Ġdeprive": 41613, "Ġlim": 1761, "Ġboxes": 10559, "ĠSym": 15845, "306": 20548, "Ġaspirations": 27337, "ĠSixth": 28980, "ONY": 40508, "NBC": 13175, "Ġoutlines": 27430, "rench": 3532, "å¥³": 42637, "Ġoutfielder": 46422, "ĠGOODMAN": 32021, "enei": 46009, "ĠStamford": 47604, "]+": 48688, "Ġtumult": 38064, "Ġguarded": 28178, "Ġextinguished": 42774, "ĠRusso": 46855, "mobi": 43549, "Ġdisrespect": 23797, "Ġhurled": 43186, "Ġsuperflu": 48713, "NF": 21870, "Ġblush": 37854, "ĠMeanwhile": 11214, "Ġgritty": 39679, "Ġassume": 7048, "ohyd": 15782, "Ġincludes": 3407, "ĠInt": 2558, "ĠQR": 42137, "uliffe": 45228, "Ġapplicant": 16919, "HCR": 43230, "Ġaviation": 22548, "Ġcontributed": 8639, "Ġcup": 6508, "ĠOffense": 43824, "Ġfish": 5916, "Ġfl": 781, "Ġvinyl": 23275, "Ġpeeled": 42617, "ĠSouth": 2520, "Ġpayoff": 43843, "ĠPaint": 23467, "Ġtransitioned": 49237, "ĠMurray": 12164, "Ġoverwhelmingly": 21658, "Ġcoincided": 41085, "ĠStates": 1829, "Ġmap": 3975, "ĠCEO": 6123, "ĠLed": 22964, "ias": 4448, "ethe": 10567, "ĠHans": 13071, "Ġdebate": 4384, "ĠIre": 7181, "ðŁ": 8582, "Ġallowed": 3142, "Ġng": 23370, "irie": 28191, "Government": 28848, "Ġbreastfeeding": 32613, "Ġjackets": 35129, "1024": 35500, "Ġpreempt": 38726, "disable": 40223, "010": 20943, "ĠEntreprene": 42071, "ĠQuentin": 42447, "Ġ{\\": 43839, "Ġauthenticated": 44529, "Ġinvestigates": 44846, "Ġbidder": 44848, "oresc": 45166, "ĠLIB": 45651, "Ġcrow": 37593, ")=": 47505, "ĠHelic": 48574, "domain": 27830, "ĠSMS": 29287, "ĠKramer": 41454, "azing": 4070, "ĠMelbourne": 14819, "çļ": 19021, "Ġsupplements": 20864, "Ġaccent": 18702, "ĠBourbon": 41638, "usually": 23073, "ĠSpot": 15899, "ancial": 2783, "ĠAnimation": 23535, "Ġdont": 17666, "ĠShift": 15576, "ĠOthers": 12691, "article": 20205, "Ġlieutenant": 30269, "Ġchoice": 3572, "ĠLie": 12060, "Ġgrowth": 3349, "Ġvaries": 17806, "cdn": 32341, "Ġundergo": 17777, "Ġbeginnings": 33875, "ĠFormer": 14466, "Ġconvey": 13878, "Ġleads": 5983, "uum": 13814, "(){": 39893, "Ġstray": 28583, "Ġ99": 7388, "Ġpermanently": 15043, "yle": 2349, "Ġgains": 8810, "idable": 23321, "Ġcondemning": 31568, "ĠIntro": 37219, "urated": 49293, "Ġspinning": 19493, "stack": 25558, "match": 15699, "ĠHeads": 34838, "Ġjob": 1693, "Ġfixture": 29220, "ĠElections": 24473, "Ġwilderness": 22775, "Ġnegotiations": 9825, "ĠStealth": 23293, "ĠBaldwin": 26402, "Ġfabulous": 28294, "âķĲ": 28670, "ĠY": 575, "ana": 2271, "Seven": 31334, "Ġnegligent": 42837, "Id": 7390, "govern": 47866, "HTML": 28656, "ĠServing": 49208, "ĠPolk": 49292, "PDATED": 49316, "!!!!!": 50184, "Ġacron": 33898, "assment": 45312, "omsday": 33415, "Ġinappropriate": 15679, "å°": 22887, "ĠHonduras": 32982, "Ġskeptical": 17988, "ĠFiles": 13283, "ĠINC": 19387, "Ġexpectation": 17507, "ases": 1386, "482": 40149, "bread": 29573, "ĠBuddhist": 20838, "ĠLogic": 30146, "ository": 13264, "Ġyellow": 7872, "ĠDemocrat": 9755, "Ġnothing": 2147, "Ġfundamentals": 33099, "ĠBog": 21555, "Ġdifferently": 10338, "Application": 23416, "Ġpending": 13310, "Ġprice": 2756, "ttle": 23296, "ĠINV": 34899, "mit": 2781, "Birth": 38480, "including": 8201, "Ġfootnote": 38512, "borough": 17913, "Ġretrospective": 41432, "Ġlined": 16566, "ĠSanford": 42862, "acists": 33194, "ĠUltimate": 11165, "Ġvulgar": 31016, "Gam": 34777, "Ġbreweries": 31247, "eco": 47704, "ĠPulitzer": 44127, "ĠZamb": 44418, "ĠDuring": 5856, "ĠCooking": 33774, "Ġvaluable": 8119, "ĠSakura": 20574, "ĠRIGHT": 33621, "ĠEmanuel": 31920, "ĠBACK": 28767, "ĠPryor": 45350, "ĠSociety": 7023, "Ġevaluation": 12660, "ĠWalmart": 20355, "Ġprohibitions": 49724, "ãĤ£": 16646, "ĠOkay": 16805, "move": 21084, "ĠCoy": 26887, "ĠSEO": 30850, "))": 4008, "Ġcalculating": 26019, "ĠRemoval": 46209, "strap": 26418, "Ġfloods": 27283, "vag": 29821, "ĠFrequ": 22192, "ĠGym": 31187, "Gamer": 33648, "VPN": 33883, "Ġtrademark": 16028, "ĠâĢĭ": 20126, "Ġ\"\\": 37082, "326": 39195, "header": 25677, "ĠNotice": 17641, "ĠAdvent": 33732, "ĠAssoci": 3928, "Ġblew": 17948, "ĠCrew": 17652, "Hong": 48559, "Ġtee": 30479, "ĠRussian": 3394, "adium": 6271, "Bat": 24541, "Ġstereo": 24820, "chem": 15245, "razil": 7098, "ãĥĸ": 24001, "Ġfired": 6294, "''": 7061, "Ġjointly": 26913, "ĠIrma": 41224, "Ġinsofar": 44061, "Ġplant": 4618, "XXX": 43145, "Ġswinging": 25635, "ĠTownsend": 46811, "Ġsurv": 3343, "Ġdat": 4818, "Ġslog": 25801, "ĠGREEN": 47606, "ĠNon": 8504, "ĠBak": 17466, "ĠSocket": 47068, "ĠMA": 8779, "amate": 36754, "Ġ1908": 40417, "ĠArchie": 43459, "ĠUC": 14417, "ĠReilly": 47879, "Ġinoc": 49027, "Ġsharing": 7373, "igan": 5516, "ĠStay": 16160, "Ġdeclaring": 18684, "Ġcentres": 19788, "ĠStatistical": 34931, "Ġweek": 1285, "Bon": 20682, "Come": 16773, "ĠYan": 10642, "gamer": 36515, "ĠDecision": 26423, "Doctor": 37564, "Ġapprentices": 38523, "ĠFreem": 39587, "Ġunsuccessfully": 40665, "ĠEv": 4319, "Ġoverl": 12893, "aba": 15498, "Ġcolonies": 20848, "Ġmotion": 6268, "lando": 11993, "otta": 12375, "Ġtraining": 3047, "ĠFY": 23639, "ĠWC": 28387, "Ġoverseeing": 29852, "Ġfluid": 11711, "last": 12957, "ĠMalt": 23729, "ĠMarian": 37919, "Ġthreatens": 20201, "ĠFields": 23948, "lvl": 47147, "Ġexample": 1672, "Model": 17633, "Ġdispleasure": 47313, "ĠCA": 7257, "BC": 2749, "Lay": 23763, "Ġcollector": 22967, "ĠSuzuki": 35807, "Ġtransact": 48878, "ĠSome": 2773, "Ġeased": 44828, "<|extratoken_126|>": 50382, "ĠSeek": 40749, "ĠRanked": 41844, "inant": 42483, "506": 35638, "ĠkW": 50223, "Ġparamount": 37352, "ĠWon": 23306, "Ġfused": 43954, "iculture": 47428, "Ġplantation": 43206, "lessness": 17587, "ĠDynamics": 33806, "alf": 1604, "oki": 18228, "Ġperfection": 20187, "hov": 28026, "Ġsafety": 3747, "Ġdaytime": 32899, "ĠMd": 39762, "speech": 45862, "Ġrepertoire": 42515, "·": 115, "Ġnationalism": 24436, "Ġcustomers": 4297, "Ġprov": 899, "Ġnpm": 30599, "ĠBall": 6932, "Ġja": 45091, "Size": 10699, "Ġalready": 1541, "sign": 12683, "ogs": 18463, "Ġ304": 31672, "Ġfurnish": 34076, "Philadelphia": 42349, "ĠPath": 10644, "ISIS": 29322, "ĠGiovanni": 50191, "Ġclient": 5456, "Ġepidemic": 18195, "Ġreluctance": 33506, "ka": 4914, "Ġgut": 12500, "iddler": 26458, "340": 23601, "ĠAssets": 41059, "Ġcult": 2285, "Ġgad": 23793, "ĠTulsa": 36443, "Ġpeg": 41350, "seconds": 43012, "ario": 4982, "Ġafar": 44246, "ĠPetty": 41505, "cpp": 20322, "knowledge": 45066, "Ġcolonial": 17091, "ich": 488, "Ġimpetus": 43007, "ickson": 46381, "Map": 13912, "iosyn": 48448, "adra": 49456, "iencies": 22139, "Ġsurroundings": 21334, "playing": 17916, "Ġdirecting": 21024, "Ä": 128, "ĠOfficer": 10391, "Ġostr": 42387, "Ġæľ": 42164, "20439": 47936, "ĠExplain": 48605, "Ast": 33751, "Ġ].": 20740, "ĠNoble": 20833, "ĠNatural": 12068, "Ġflushed": 44869, "494": 39449, "Ġeducated": 15657, "Ġroles": 9176, "ĠDivision": 7458, "Disclaimer": 19618, "Ġcream": 8566, "ĠFranken": 25301, "ĠGaming": 14426, "Ġreigning": 40098, "Ġ343": 37290, "ĠDonald": 3759, "ĠROCK": 41320, "ĠSquadron": 27242, "Ġpertinent": 35268, "Ġcomputer": 3644, "Ġtur": 7858, "1999": 18946, "ï¿½ï¿½": 6353, "Ġmodest": 12949, "Ġawaits": 37180, "Princ": 42904, "ĠNormandy": 43231, "Ġencamp": 48020, "oller": 49252, "mos": 16785, "ĠYug": 25554, "Ġrough": 5210, "Ġrequisite": 37088, "Ġfossils": 34066, "Allows": 34934, "ĠWestbrook": 35345, "ĠIntroduction": 22395, "Ġresisted": 26643, "IBLE": 34563, "ESS": 7597, "Ġmayor": 9591, "ĠCrypto": 36579, "ĠSigns": 37027, "Ġsuites": 45861, "Ġpassively": 49947, "inders": 29700, "Mob": 44702, "ĠYES": 21560, "ELL": 23304, "2015": 4626, "ĠLots": 25024, "personal": 22682, "æĦ": 35707, "Ġhe": 339, "uders": 48739, "<|extratoken_22|>": 50278, "Ġgather": 6431, "Ġviewing": 11681, "ĠHaiti": 25051, "ĠHutch": 30492, "Ġevade": 31236, ",\"": 553, "Ġext": 1070, "Added": 13003, "ä½": 19526, "Ġrods": 32858, "Ġu": 334, "Ġdrama": 10512, "Ġmodify": 13096, "Ġvain": 23469, "Ġunman": 29389, "ĠVulcan": 33402, "ĠVil": 34037, "ĠGarrison": 39233, "police": 38191, "ĠSerial": 23283, "ĠDietary": 40767, "Ġreduced": 5322, "Owner": 42419, "Ġscraps": 44496, "ĠGabe": 45513, "chant": 8907, "Ġskull": 14511, ")\\": 19415, "Ġrice": 11464, "disc": 15410, "earance": 23435, "Games": 24474, "ĠNES": 31925, "Ġhapp": 1147, "ĠBillboard": 36229, "ide": 485, "ically": 1146, "As": 1722, "Ġgir": 37370, "ĠMD": 10670, "rum": 6582, "ĠLaboratories": 46779, "infeld": 47187, "ĠPAC": 16741, "Ġcones": 47314, "ĠMend": 20442, "coe": 49270, "J": 41, "Ġintellectually": 39186, "Ġabras": 49514, "Ġparcel": 25232, "Ġfuelled": 49425, "Ġafterward": 20875, "seed": 28826, "ĠFilm": 13741, "Tree": 27660, "ĠTruck": 24892, "maybe": 25991, "Ġlust": 22279, "ĠQuiet": 37355, "amount": 17287, "ĠMas": 11066, "Ġvacations": 48695, "abil": 14991, "Ġimplying": 30253, "Ġunaccount": 48422, "Ġillegitimate": 41368, "sale": 21378, "ĠBrotherhood": 17987, "omatic": 13730, "atomic": 47116, "istors": 46334, "Ġfraction": 13390, "ĠDisp": 36060, "Ġba": 26605, "Ġcomfortable": 6792, "575": 36189, "Ġdisposed": 29947, "ĠHol": 6479, "inary": 3219, "Äĩ": 38325, "ascist": 31968, "ĠNeural": 47986, "ĠCrypt": 15126, "ĠAUD": 41260, "oci": 1733, "ĠKnowledge": 20414, "Bring": 31416, "Ġvisually": 22632, "Ġthings": 1243, "ĠAmb": 12457, "152": 17827, "Ġformatting": 33313, "antically": 31589, "Ġ..............": 44912, "riel": 11719, "ĠTeen": 21432, "ĠNothing": 10528, "Ġdebt": 5057, "Ġ(*": 20789, "Even": 6104, "Ġpip": 7347, "ĠRein": 22299, "Ġminus": 20208, "Ġimmortal": 26156, "ela": 10304, "gebra": 29230, "ĠNeurolog": 49115, "Ġliberated": 35112, "ĠAlan": 12246, "Ġcongratulated": 47630, "Ġwing": 8539, "Ġbinary": 13934, "ĠDer": 9626, "ĠHapp": 18321, "ĠUS": 1294, "Ġparan": 23511, "Ġr": 374, "ĠErn": 22762, "Ġrespectful": 25923, "Ġadded": 2087, "Ġgreenhouse": 16325, "Ġtranscend": 26231, "gar": 4563, "ĠImage": 7412, "agonists": 36764, "Ġholders": 16392, "Ġspawned": 29013, "Ġ1700": 35665, "arsh": 5406, "fitted": 38631, "ĠKom": 32364, "Ġsubmerged": 37930, "Ġtast": 14854, "ĠEagles": 13785, "Ġcontinuity": 24216, "Ġ180": 11546, "Ġcongressional": 11702, "Ġbucks": 24780, "Ess": 29508, "APTER": 29485, "Ġtraveler": 40168, "Flag": 34227, "Ġdelinqu": 32050, "Ġchasing": 20023, "ĠDD": 20084, "ĠLifetime": 40870, "pei": 33265, "Ġsacrificing": 32698, "HQ": 41275, "âĪ": 24861, "sell": 7255, "ĠQuebec": 14778, "sorry": 41599, "Ġabuse": 5076, "Ġcherry": 23612, "ishers": 39116, "Ġintersect": 36177, "Ġcreed": 43514, "Portland": 45330, "ĠAdjusted": 45624, "ffer": 36761, "ĠCulture": 17346, "Ġtrillions": 45922, "Ġcaps": 11022, "Ġ163": 26826, "Ġregeneration": 27597, "ĠPainting": 48892, "Da": 26531, "ĠMond": 27328, "ĠThy": 31468, "Foot": 17574, "Ġcomic": 9048, "Ġsynd": 11150, "Ġcombining": 19771, "Ġfading": 31465, "ĠDVDs": 35962, "Ġcloser": 5699, "ĠSection": 7275, "194": 22913, "adin": 17072, "Car": 9914, "ĠMoscow": 9070, "ĠDad": 17415, "ajo": 34944, "ursday": 3479, "ĠSurv": 10954, "Ġforests": 17039, "ĠGly": 27949, "102": 15377, "Ġ337": 42294, "Taylor": 29907, "Float": 43879, "Ġrelativity": 44449, "ĠDharma": 46707, "ĠOvert": 46067, "Ġranked": 10307, "ĠRocket": 16920, "ĠSelection": 29538, "Ġgallery": 15604, "Ġfalsehood": 37110, "Ġinhibits": 49543, "Raid": 49043, "Ġsideline": 31585, "iliary": 28129, "Ġreductions": 20691, "Ġsweating": 38912, "brainer": 49334, "Ġmaintaining": 10941, "Ġoperational": 13919, "Call": 14134, "Ġvectors": 30104, "Ġhumanity": 9265, "Ġmarathon": 22336, "lightly": 30945, "Ġisn": 2125, "877": 42802, "Chief": 23675, "Ġbisexual": 24249, "omet": 908, "ĠdÃ©": 39073, "ĠRaiders": 16120, "2008": 11528, "Ġbirths": 27244, "Ġadmit": 9159, "monitor": 41143, "Ġcurls": 49507, "ĠVeterans": 18950, "Ġoversight": 15662, "Ġpret": 2181, "Ġbooming": 32017, "'t": 470, "ĠSoldier": 20104, "Ġwarp": 25825, "idel": 5943, "ĠKeys": 26363, "ĠSafety": 11233, "Ġaerobic": 43294, "March": 16192, "Ġner": 17156, "ĠSasuke": 37527, "notes": 17815, "ĠTIM": 31742, "ĠeBook": 46566, "Ġrestrictions": 8733, "ĠQU": 19604, "Ġtheater": 13766, "159": 19707, "partial": 47172, "Ġgenetic": 8513, "Ġvision": 5761, "irin": 47388, "andi": 26800, "Ġtied": 8165, "ĠHighly": 38254, "Ġpunishment": 9837, "Ġignorance": 17010, "Ġenthusiasm": 17131, "ĠSeed": 23262, "Ġsetting": 4634, "OOL": 31559, "Ġseq": 33756, "blast": 39806, "profit": 9183, "Roger": 43719, "posium": 35864, "Ġrebuilding": 25448, "Ķ": 242, "ode": 1098, "Ġopposite": 6697, "Ġapproaches": 10581, "ĠAngola": 48968, "Ġfishes": 49765, "Ġpermanent": 7748, "atoes": 15048, "Ġcollaborate": 30081, "Ġguess": 4724, "Ġshar": 13986, "Ġstranger": 16195, "Ġinequality": 12791, "ĠSaber": 40506, "Ġeconomics": 12446, "Ġinstalling": 15975, "ĠSocialist": 21773, "Ġdensely": 42255, "ĠAlternate": 42400, "Table": 10962, "suff": 37333, "Ġparted": 37813, "ĠGrace": 16156, "ĠLaunch": 21225, "Ġneglected": 24007, "ĠTranscript": 42978, "Ġsoph": 9810, "ĠHawkins": 32534, "Ass": 8021, "Alternative": 49788, "Ġelder": 10550, "ĠInitial": 20768, "ooks": 31085, "October": 18517, "],\"": 17241, "ifer": 7087, "-------------": 32501, "Ġdiagonal": 40039, "ĠBomb": 14476, "Ġhormonal": 36956, "Ġcool": 3608, "press": 8439, "Exit": 30337, "ĠSimpsons": 34376, "TIME": 34694, "Ġbonding": 37228, "ule": 2261, "Sup": 40784, "ĠKILL": 45257, "alis": 27315, "ĠBeans": 49740, "Viol": 33894, "quality": 13237, "yrim": 17302, "Ġsid": 9785, "ĠBaghd": 18706, "Ġtendencies": 25671, "urban": 32679, "isible": 12843, "quist": 30062, "ĠNicholas": 20320, "emic": 5314, "Ġcollabor": 6967, "Ġanchored": 39871, "Ġla": 8591, "mission": 3411, "Ġincomp": 13352, "Ġendure": 21178, "Ġoccurrences": 40279, "Ġproducer": 9920, "Ġexplanations": 18681, "ĠGil": 10689, "Ġorchestrated": 37728, "Court": 36699, "ĠImran": 39998, "Ġwomen": 1466, "gypt": 6022, "Ġ291": 43336, "---------------": 24305, "Ġsensation": 18098, "Ge": 10082, "Ġtrimmed": 40325, "Nobody": 24795, "ĠDmit": 35438, "Ġcommun": 1316, "ĠSubmission": 42641, "Ġsoluble": 49467, "Click": 8164, "Ġstitch": 24695, "Ġwinters": 45764, "enic": 35866, "ĠCoffin": 44159, "TE": 9328, "Ġcostume": 16569, "Ġstaff": 3085, "Ġoutcome": 8055, "aying": 8369, "ĠTam": 11552, "Aw": 23155, "FER": 24302, "LI": 31271, "gres": 34239, "sed": 36622, "Ġ174": 27621, "Ġplug": 6107, "has": 10134, "Ġthose": 883, "Ġbroadcasters": 38716, "ĠMeter": 46423, "alus": 46781, "ĠMunich": 22418, "Ġgenus": 34306, "Victoria": 49898, "ĠThrow": 22481, "Ġstrokes": 29483, "Ġassemblies": 37398, "Ġspicy": 26880, "663": 45791, "ĠDraft": 13650, "uably": 14632, "Requ": 16844, "ciation": 17269, "Ġramifications": 36093, "atom": 37696, "tags": 31499, "oust": 23968, "Ġrefin": 50170, "ĠMatrix": 24936, "lator": 41880, "Ġdisobedience": 42366, "Dual": 36248, "Ġ------": 40103, "BOX": 39758, "Ġimagine": 5967, "Ġcoax": 37700, "Ġstreak": 15113, "Ġovercrowd": 38080, "Ġestranged": 44585, "ga": 4908, "ĠKaz": 16385, "Ġlia": 35388, "Customer": 44939, "Ġextradition": 34908, "Ġwarehouses": 43675, "ucking": 19296, "ĠContract": 17453, "ume": 2454, "SA": 4090, "Ġmitigate": 24237, "ĠGuatem": 28171, "Henry": 32476, "ĠMus": 2629, "ĠRyder": 40238, "shape": 43358, "Professional": 49138, "523": 49803, "Ġplum": 22802, "Ġreferring": 9759, "ĠFlynn": 14654, "ĠHim": 10978, "Ġpersonality": 8806, "Ġkey": 1994, "ĠIdentification": 38657, "dy": 9892, "Â¯Â¯Â¯Â¯Â¯Â¯Â¯Â¯": 15243, "Ġpal": 6340, "Ġmetres": 18985, "erm": 7780, "egal": 39839, "Ġstrateg": 5352, "thereum": 17733, "ĠJared": 19116, "Ġrefugees": 8015, "Ġsyndrome": 14027, "ĠGPS": 15472, "åŃĲ": 36310, "ĠSummers": 36776, "Ġbit": 1643, "omin": 6351, "ric": 1173, "urbed": 37694, "artifacts": 50179, "iotic": 16357, "lishing": 20020, "ĠPar": 2547, "ĠInternal": 18628, "ĠFlint": 21660, "ĠGilbert": 24023, "Ġmonk": 27266, "oren": 29578, "ĠGalaxy": 9252, "Ġanarch": 14061, "Ġirony": 21296, "Ġinterconnected": 40582, "Ġmethyl": 27664, "ĠSounders": 42795, "Ġfanatic": 43631, "ĠRecipes": 44229, "ĠCou": 15062, "Hey": 10814, "Ġairflow": 45771, "Ġflooding": 17448, "Ġplugin": 13877, "Ġlos": 22346, "ĠGru": 25665, "Ġque": 8358, "nell": 10076, "dep": 10378, "Ġnasal": 40829, "ãħĭãħĭ": 40345, "Ġcompiling": 33393, "ĠPeck": 48434, "Billy": 49640, "Ġguard": 4860, "Ġdiscl": 5862, "Speed": 22785, "bad": 14774, "gently": 34727, "lol": 47288, "rack": 39638, "purpose": 29983, "PU": 5105, "Adult": 42995, "ĠGenerations": 46003, "ainted": 14215, "ĠElectoral": 27557, "Ġperjury": 47816, "HS": 7998, "Ġreviews": 8088, "Brexit": 40730, "odan": 45561, "Ġmeant": 4001, "icians": 5106, "mmm": 27532, "Ġautonom": 11827, "Ġelectrodes": 39780, "Ġbrittle": 49307, "Pic": 39507, "estern": 3330, "Ġselects": 40573, "ĠAthen": 18001, "ĠFior": 40040, ">)": 43734, "ĠApplications": 26622, "ĠCarolina": 5913, "cig": 22683, "ALK": 28082, "Ġformations": 30648, "ĠVillage": 14812, "Ġplaces": 4113, "Ġcardio": 47926, "ĠPsych": 7562, "Arizona": 40732, "ĠBug": 15217, "Ġconsuming": 18587, "Ġworkplaces": 47364, "bys": 48209, "ĠAv": 5184, "ĠMag": 2944, "Pad": 26114, "IZE": 35400, "UB": 10526, "ĠElf": 19067, "steam": 21465, "ĠAdidas": 48976, "ĠPvP": 25576, "rieved": 28130, "Ġlead": 1085, "ãĥķãĤ¡": 41939, "Ġkneeling": 42687, "ĠCatholics": 21374, "ĠArmored": 29347, "ĠKiller": 19900, "rosso": 21074, "Ġaspire": 42926, "Ġvicious": 17686, "Ġmilitia": 21085, "ĠLucifer": 27084, "Ġkingdoms": 41901, "otive": 19138, "Ġcopyrighted": 33696, "FINEST": 40236, "Ġdexterity": 50003, "Ġpoorly": 13455, "ing": 278, "ĠPoint": 6252, "Ġburden": 10538, "Ġcandy": 18550, "ĠCa": 6488, "ĠJar": 15374, "ONE": 11651, "Ġspectacle": 27519, "Ġchew": 34722, "ĠConsider": 12642, "Prior": 22442, "ĠKak": 31250, "ĠTwisted": 40006, "ĠSynt": 26375, "Ġstarvation": 32143, "Ġrestruct": 27596, "Ġinterested": 4609, "ulpt": 13327, "ĠACE": 40488, "acqu": 43561, "icken": 5973, "fitting": 32232, "ĠWitch": 14522, "reb": 34806, "Ġcasc": 49164, "<|extratoken_95|>": 50351, "Skip": 50232, "Ġmisc": 12747, "Ġmedications": 17638, "Ġcondem": 8346, "Ġcaring": 18088, "sys": 17597, "phal": 27451, "designed": 30473, "hesis": 8497, "Ġgmaxwell": 31886, "current": 14421, "Ġrebel": 14034, "voice": 38888, "Dispatch": 49354, "Ġ5": 642, "Works": 23044, "velop": 1091, "Ġvigorous": 31543, "roup": 3233, "Ġrunway": 23443, "ĠNuclear": 19229, "Ġwaged": 34225, "Ġcondolences": 38671, "Ġspoken": 9635, "Cloud": 18839, "Ġcommunion": 41419, "zee": 42871, "gers": 5355, "enny": 11870, "ĠGentleman": 42112, "Ġcures": 50019, "Ġclassmates": 28999, "Ġinsurg": 17844, "ĠTriangle": 33233, "Ġfilthy": 35677, "Ġpaw": 41827, "ĠEd": 1717, "ĠJoyce": 25936, "ĠVC": 26706, "685": 35978, "ĠXVI": 49090, "Ġcommit": 4589, "Ġmeth": 11248, "weapons": 33999, "ĠCounty": 3418, "AG": 4760, "described": 34869, "ĠADS": 44784, "Ġtechnologically": 48299, "Ġ600": 10053, "Description": 11828, "Ġharvested": 34262, "Ġredeemed": 42013, "ĠCommunities": 35530, "Ġsty": 8944, "475": 32576, "ĠMall": 16618, "Ġprogressed": 28775, "Changed": 31813, "acter": 7321, "Ġcomple": 1224, "ellation": 28828, "helle": 34454, "ibly": 3193, "Meanwhile": 10294, "ello": 11109, "hood": 2894, "Pop": 16979, "nob": 34952, "Ġtabl": 36148, "Ġbrother": 3956, "ĠFired": 46223, "ĠOrders": 30689, "Ġrecommendations": 10763, "aq": 30188, "Ġteams": 3466, "ĠFe": 5452, "ĠCel": 15248, "Murray": 49998, "ĠAfterwards": 39063, "ĠHOME": 41779, "arrow": 6018, "ĠTH": 2320, "Ġtracking": 9646, "ĠguiActiveUnfocused": 30210, "Ġdungeons": 33062, "Ġrodent": 50074, "Ġbean": 26394, "ĠGuant": 27772, "Ġoutper": 33597, "Ġordained": 36777, "icative": 43058, "Ġro": 686, "ĠVA": 13753, "Ġ129": 20248, "Ġpathological": 42306, "Ġbeg": 4123, "ĠArcane": 26475, "Ġunfold": 16631, "Ġcpu": 42804, "UA": 34970, "Ġrollout": 38180, "oley": 48437, "Ġrecommended": 7151, "vil": 2991, "aughed": 13726, "ĠChop": 40159, "Ġfarming": 16035, "Ġcolle": 6367, "Ġenterprises": 23941, "roads": 21372, "Ġsurn": 33113, "ĠSEC": 10729, "ittens": 34978, "ĠReggie": 36586, "801": 41531, "manac": 46870, "Playing": 36530, "visory": 41783, "ãĥ": 1209, "Ġcut": 2005, "incial": 13744, "Ġminer": 16285, "Ġsomething": 1223, "Ġrighteous": 19539, "Ġintimacy": 32699, "ĠCassidy": 41373, "Ġallocated": 19171, "ä¹": 20046, "olith": 21446, "Ġcamoufl": 31962, "Ġseparate": 4553, "ĠFl": 1610, "ĠCurrent": 9236, "Silver": 26766, "Ġforce": 2700, "pre": 3866, "ĠShaw": 18193, "cn": 31522, "Ġimmoral": 31756, "Ġfry": 32959, "Ġ1300": 36058, "ĠImperial": 11773, "Ġchickens": 25972, "period": 41007, "ĠOPER": 43521, "ĠDetention": 46193, "PET": 47731, "iege": 14566, "Coll": 22667, "guided": 23657, "adan": 29157, "Price": 18124, "arium": 17756, "ĠLeeds": 29293, "Ġscanning": 21976, "Er": 9139, "Ġheartbreaking": 37154, "Ġcondensed": 38784, "ĠBung": 40646, "ĠPCs": 21869, "Ġze": 41271, "Ġwob": 46867, "Ġocean": 9151, "ĠCONTR": 27342, "Ġabandoning": 31309, "Translation": 48313, "Ġcalmed": 49566, "Ġdisse": 22806, "Ġupward": 18644, "Ġintelligent": 12661, "Ġripped": 19551, "Ġforge": 28325, "Ġspont": 18324, "âķ": 22880, "ĠShrine": 30682, "ÃĽ": 34543, "Ġassumes": 18533, "learn": 35720, "ĠMarketplace": 36703, "Understanding": 43467, "bet": 11181, "Ġerupted": 23681, "ync": 13361, "ĠCer": 17419, "urus": 31891, "ãĢį": 13700, "?'\"": 26989, "ĠLast": 4586, "prev": 47050, "Ġsimplify": 30276, "Ġdevelopments": 13312, "Ġbig": 1263, "Ġsubstance": 9136, "['": 17816, "operation": 27184, "ĠWhip": 40930, "Ġanx": 7296, "ĠPercy": 38506, "Ġclueless": 44865, "Ġsee": 766, "Ġreduction": 7741, "Ġdatabases": 20083, "Organ": 26121, "Ġglare": 36785, "Ġdoing": 1804, "Ġappar": 17956, "ĠTin": 22894, "ĠEverett": 36815, "adier": 38868, "ioch": 41097, "Ġtrim": 15797, "Ġdemocr": 5084, "Ġfeder": 28062, "Ġappetite": 20788, "Power": 13434, "amide": 37905, "Ġhog": 40476, "ĠFoss": 40515, "ĠAki": 48663, "ĠRak": 34299, "Ġemptiness": 49333, "Ġensuring": 13359, "ĠIII": 6711, "angler": 49910, "ulton": 37944, "Ġgases": 21678, "Ġurge": 14960, "Ġscouting": 27088, "Ġfactual": 27234, "/,": 47454, "Ġdiner": 47519, "Cook": 28937, "Ġthoughts": 6066, "ĠEvolution": 15815, "esp": 9774, "Ġdetrimental": 29417, "soft": 4215, "Ġimped": 26795, "×": 147, "Ġprecipitation": 32025, "ĠAston": 33644, "ĠBeng": 14964, "ĠMaria": 14200, "frames": 37805, "Ġformal": 8766, "upuncture": 42223, "USA": 14053, "Ġsolder": 42809, "Bah": 47514, "Ġsamples": 8405, "ĠYam": 14063, "ms": 907, "Asked": 18932, "education": 40796, "lihood": 11935, "Ġinit": 2315, "Ġzoom": 19792, "ymm": 26621, "Ġshrunk": 38900, "ĠLatinos": 33877, "serious": 34009, "Catal": 39075, "Harris": 41589, "641": 42759, "pheus": 46421, "leasing": 48764, "ĠZion": 16899, "ĠConservatives": 17897, "ieri": 29864, "535": 44465, "Ġgreen": 4077, "eless": 5321, "Ġdivision": 7297, "Ġcreativity": 16389, "ĠTOD": 16926, "Ġvm": 45887, "iet": 1155, "formation": 1161, "Ġeternity": 28989, "oxy": 23536, "Ġangel": 18304, "Builder": 32875, "Ġpresidents": 19033, "aucus": 16710, "Ġimmun": 16217, "Ġcomposite": 24185, "Ġcourtesy": 12537, "ĠAmnesty": 30046, "services": 30416, "Oct": 12349, "Def": 7469, "ĠPir": 10334, "ernand": 13023, "Ġpacks": 15186, "ĠPathfinder": 37025, "ĠCrowley": 35332, "nets": 45938, "wcs": 12712, "Ġsponsored": 15901, "ĠChallenge": 13879, "ipeg": 21700, "LEY": 25173, "Ġecology": 36517, "Ġclearly": 4084, "iots": 16228, "ĠFritz": 45954, "ĠCOMP": 24301, "Ġautistic": 33686, "ĠInnov": 43405, "Ġescalated": 33190, "ĠMarch": 2805, "Ġfaces": 6698, "ages": 1095, "ĠSeptember": 2693, "Ġplaylist": 33178, "ĠMesh": 47529, "Ġecological": 25047, "Ġgrassroots": 23783, "ĠPunjab": 33328, "Ġ1865": 47801, "Ġreleased": 2716, "Ġstomach": 11384, "ĠFlorida": 4744, "Ġpopulated": 22331, "Ġreferee": 22957, "Ġdisks": 32505, "odge": 9728, "ibe": 32438, "Ġinstantaneous": 47707, "ĠDep": 2129, "Ġprofessor": 6240, "00000000": 8269, "ĠMHz": 19805, "Ġpreferred": 9871, "ĠMSM": 44401, "Ġconfidence": 6628, "ĠLCS": 38217, "ĠLaser": 23222, "ĠMessage": 16000, ".):": 47308, "Ġscratch": 12692, "Ġenergy": 2568, "ĠNSA": 10551, "âĸĢ": 44033, "Ġtheory": 4583, "consuming": 35873, "acher": 3493, "ĠOrion": 26153, "Hyd": 40436, "akable": 29033, "Ġincluding": 1390, "Ġvaping": 42106, "ĠConduct": 28579, "Ġterm": 3381, "Ġprecinct": 28802, "Ġsuperficial": 31194, "Ġisot": 31624, "ĠITS": 42437, "prot": 11235, "Ġ1896": 46723, "Ġdangling": 47270, "Ġsear": 9622, "ĠBaron": 21770, "Ġresolve": 10568, "ĠBreak": 12243, "ora": 5799, "ĠBaseType": 31783, "DEN": 41819, "Ġtouch": 3638, "Ġcast": 3350, "Ġfractures": 39381, "¶æ": 35050, "Ġtrips": 13229, "laim": 20438, "ornia": 3317, "ANN": 22846, "anding": 27225, "Virgin": 34674, "Ġcounselors": 44135, "ĠClone": 30698, "gaming": 48616, "Ġfastball": 38287, "llo": 18798, "AC": 2246, "Ġdinosaurs": 27199, "ĠOlive": 30012, "'';": 44648, "repl": 35666, "Ġmotivating": 46891, "ĠClaudia": 50214, "Ġneural": 17019, "»": 119, "Ġdoes": 857, "ĠStars": 10271, "Es": 23041, "Gray": 46130, "Ġvirgin": 21772, "Ġdiffering": 28742, "erick": 41556, "Ġembodied": 34413, "Ġ1440": 49557, "rices": 45977, "Ġrhy": 40005, "ĠWent": 29866, "Were": 35653, "Ġranks": 9803, "Ġgui": 11774, "Ġseparatist": 40680, "Ġtweeting": 28990, "Near": 40640, "Ġshifts": 15381, "ĠNorman": 19636, "ĠMoss": 19935, "Ġmoving": 3867, "Ġplanes": 13016, "ĠBold": 27059, "Ġgripping": 39931, "Ġ22": 2534, "ĠCoke": 34723, "ĠFranco": 22198, "=~": 31820, "VM": 15996, "Ġconfronted": 16675, "ĠWords": 23087, "ĠNumbers": 27797, "LIN": 34509, "Ġ196": 28817, "1964": 46477, "Ġunderstanding": 4547, "Ġnortheastern": 38131, "Ġdisag": 7969, "Ġnotoriety": 46283, "İ": 236, "Ġdisbelief": 29894, "Fat": 33804, "Ġtossed": 22591, "Sing": 29974, "æĸ¹": 43095, "ĠOccasionally": 40659, "XY": 34278, "ĠVs": 31280, "Shape": 33383, "Ġushered": 47098, "Ġwould": 561, "athe": 26221, "Ġpharm": 10113, "Ġindef": 16536, "ĠQuestions": 20396, "Ġpowers": 5635, "Ġbuddies": 35548, "ĠCarnage": 44177, "ı": 237, "Ġconstructive": 26938, "213": 26427, "ĠPromotion": 42868, "ĠCatalog": 44515, "EU": 19684, "itialized": 13562, "ĠMans": 18580, "Ġdefeat": 7433, "Ġglasses": 15232, "ĠArmenian": 29388, "Ġconcluding": 31083, "yout": 32015, "ĠHunger": 32367, "Ġtheoretically": 26787, "Ġtreasurer": 43428, "Loading": 19031, "Random": 29531, "emin": 14857, "adia": 29523, "284": 30336, "ourt": 15666, "Ġassessing": 24171, "Ġinconvenient": 37513, "Ġsemic": 39290, "Ġrecovers": 46773, "Ġrendering": 14837, "independent": 34750, "BILL": 39888, "ĠDickens": 46167, "Ġfoundations": 19369, "much": 29482, "iversity": 1608, "Jan": 12128, "ĠHiggins": 39043, "Ġshortcuts": 32953, "Ġmonthly": 9651, "Information": 21918, "Ġadoptive": 49378, "ĠPotential": 32480, "Ġalerted": 28608, "ĠAgenda": 37029, "erb": 23552, "Ġconcentrations": 14587, "787": 41019, "Technical": 45638, "Address": 20231, "reshold": 10126, "EP": 8905, "iquette": 40387, "oway": 41788, "kHz": 44191, "ëĭ": 46695, "Ġsearches": 15455, "versible": 37393, "Ġoff": 572, "Ġchilled": 45550, "Ġpostings": 44656, "Sure": 19457, "ĠWheeler": 27512, "Ġtoxic": 11422, ">.": 28401, "cz": 26691, "Ġaffects": 10975, "ements": 3196, "Ġdetermined": 5295, "Ġnickel": 30666, "Ġ1910": 31953, "ĠAllison": 33461, "Ġbroader": 11622, "whe": 12491, "Ġdense": 15715, "001": 8298, "esque": 28939, "Required": 37374, "Ġflashlight": 38371, "Ġchromosomes": 42742, "Ġls": 43979, "Ġjets": 20792, "ÙĬ": 22654, "Ġcaric": 33674, "Ġenrollment": 20753, "Ġprost": 11825, "750": 15426, "Pen": 25553, "ETS": 32716, "Ġtotalitarian": 34524, "ĠAdults": 35154, "Nev": 43555, "aughter": 3637, "Ġinsurrection": 47376, "Ġclimbed": 19952, "Ġtrib": 8433, "YP": 48232, "ĠPhotographer": 43809, "shake": 32431, "Esc": 47051, "ĠCONTIN": 43659, "Ġclaiming": 8512, "Ġpants": 12581, "ĠKoch": 17009, "sometimes": 29810, "Conf": 18546, "Ġbeneficial": 13205, "ĠDid": 7731, "Ġchampions": 7827, "hunter": 37488, "ĠESA": 42212, "Ġseizures": 24715, "INTON": 46812, "Ġcompos": 18882, "Ġextermination": 48495, "ĠVIDEOS": 48876, "ARDIS": 49608, "Ġbiomark": 49951, "ĠLO": 17579, "ITIES": 30383, "Ġsomebody": 8276, "Ġsuggests": 5644, "idious": 33243, "Ġbal": 3652, "Ġmarking": 18730, "ĠAMC": 36239, "Located": 43525, "wrapper": 48553, "ĠLegs": 49379, "ureau": 6262, "Ġexcellent": 6275, "ĠTerry": 14286, "Filename": 35063, "Ġpoems": 31888, "Ġold": 1468, "Ġview": 1570, "Display": 23114, "Ġhidden": 7104, "ieving": 30749, "ĠBombay": 48918, "Ġbaths": 49076, "addafi": 32113, "Ġdistances": 18868, "Ġbee": 20697, "ĠMilton": 30979, "ĠRaj": 13308, "Edited": 45882, "ĠPAL": 40795, "Ġintroductory": 33982, "izards": 14124, "deck": 35875, "aah": 37500, "Ġnarrow": 7135, "ĠDex": 16750, "ĠNAD": 49204, "Ġwool": 25749, "Ġshit": 7510, "Ġarbitrary": 14977, "tz": 22877, "Ġdest": 2244, "Ġartifact": 24127, "ĠMonth": 16061, "ERAL": 27130, "Ġtiming": 10576, "ĠYose": 38095, "Ġdeprecated": 39224, "ĠCipher": 44334, "Ġdisabled": 10058, "ĠSind": 44830, "um": 388, "Ġnurt": 23868, "Ġpotatoes": 18821, "ost": 455, "Ġunknow": 39472, "905": 44928, "ĠRomantic": 49039, "Ġbenefiting": 39125, "Ġ7000": 50205, "ĠDuel": 23958, "MON": 27857, "Ġmp": 29034, "abling": 11716, "lie": 14485, "ĠLine": 6910, "_-": 22955, "Ġnoteworthy": 30902, "Earth": 22840, "ĠSnapchat": 31546, "ĠSai": 25251, "Ġintermediate": 19898, "rane": 14579, "ĠDahl": 41471, "expr": 31937, "rat": 10366, "Ġlistens": 35019, "Ġbroccoli": 44653, "edy": 4716, "Ġrundown": 45602, "Ġspecifications": 20640, "herence": 23545, "ĠRangers": 13804, "Ġrescind": 39091, "ĠStam": 30097, "ĠOlympia": 45760, "cells": 46342, "Ġinsect": 12833, "ĠConnecticut": 14493, "Ġcentr": 27435, "ĠWilkinson": 46463, "anga": 16484, "ĠRahul": 48543, "ĠWB": 36245, "UF": 36820, "fficiency": 35590, "ĠASD": 38661, "YE": 48743, "Never": 12295, "ĠKul": 50024, "Ġgates": 17435, "Ġhist": 1554, "779": 40393, "stice": 43788, "007": 25816, "<?": 47934, "ĠMovie": 15875, "opia": 24464, "Ġunsafe": 21596, "fax": 23560, "ĠSkin": 17847, "ĠHubble": 40455, "ĠAMA": 38268, "plom": 7302, "beaut": 40544, "Irish": 43293, "Ġrevamped": 43814, "Ġalcoholism": 46526, "Ġvapor": 20199, "ĠDmitry": 45181, "ĠDunn": 30833, "ĠSuddenly": 24975, "Ġepit": 21240, "arrison": 22472, "ĠUltra": 14563, "pent": 16923, "Ġcollar": 19908, "ĠLor": 26068, "Ġtackles": 18034, "Ġtraject": 20134, "âĨĴ": 39310, "Ġsink": 14595, "portion": 16864, "ydia": 30708, "âĢ¦)": 38418, "ĠGamma": 43595, "Ġinterven": 14118, "ĠChim": 28466, "Rex": 47389, "Ġnormalized": 39279, "ĠHoo": 26859, "Ġbeware": 40600, "Ġgrandma": 49890, "Ġcalibrated": 48050, "contract": 28484, "ĠSundays": 32714, "igm": 17225, "Ġexcellence": 25230, "Ġexpansive": 31316, "iments": 6800, "Ġsemantic": 37865, "ĠStandard": 8997, "GL": 8763, "ĠIvy": 27386, "Ġsketch": 17548, "Ġdisplacement": 29358, "Ġautomatic": 11353, "ĠPhotograph": 18903, "Ġemissions": 8971, "Ġ[]": 17635, "565": 47372, "Ġspacecraft": 16807, "Ġsund": 37437, "Ġshining": 22751, "Ġentrance": 10384, "wcsstore": 12781, "Exper": 20468, "Ġfollowers": 10569, "Ġdocumentaries": 43014, "Ġburgers": 34623, "Ġdens": 29509, "ĠBieber": 42263, "ĠLinear": 44800, "Ġbarrier": 13054, "Ġfactors": 5087, "Ġperiodic": 27458, "Malley": 33776, "otation": 14221, "Beck": 43454, "Ġvisualize": 38350, "ĠCODE": 42714, "Ġangular": 32558, "eting": 13629, "ther": 490, "onson": 36742, "ĠMeadows": 39943, "ĠER": 13793, "isch": 25308, "Ġtatt": 14399, "ĠCorrections": 40526, "ĠWichita": 45526, "Ġmethamphetamine": 39278, "Ġboils": 40169, "Ġware": 16202, "ĠLer": 31831, "Terror": 40194, "<|extratoken_96|>": 50352, "647": 33981, "Ġcarved": 23470, "\":{\"": 8351, "Ġingredients": 9391, "ĠUsed": 16718, "ardi": 22490, "OULD": 24010, "Ice": 23709, "ĠHier": 36496, "ruction": 2762, "Ġamaz": 40642, "+++": 45340, "Ġallergies": 36665, "ãģ«": 28618, "ĠVehicles": 31365, "Ġcalculations": 16765, "Ġassessments": 21837, "olina": 47196, "igmat": 32441, "igrate": 42175, "laden": 35668, "Ġfaults": 31025, "Ġcharging": 11642, "Ġbloss": 35107, "Ġapprehens": 31887, "ĠSasha": 32151, "Ġunwittingly": 48726, "Ġfiercely": 33285, "Ġtechnologies": 8514, "Ġbona": 41602, "Ġconceived": 21581, "ĠPopular": 22623, "Ġrivals": 14987, "opher": 8803, "Ġseam": 15787, "Ġshallow": 19337, "Ġeaten": 17065, "Ġninth": 19646, "ĠCabinet": 20384, "ĠKrypt": 44679, "Jud": 26141, "Ġappropriated": 32316, "ĠGL": 10188, "Ġaggregate": 19406, "ukes": 31469, "677": 40179, "blance": 42757, "Ġelites": 21887, "restling": 48839, "giving": 13992, "Ġqualifications": 24751, "Ġexplored": 18782, "åĲ": 28938, "Ġemulator": 38274, "ĠArrows": 43946, "Ġvendors": 17192, "158": 21273, "leased": 14684, "Ġsourcing": 47015, "Ġundeniably": 47589, "ĠComey": 12388, "Ġembryonic": 49710, "Ġbelow": 2174, "While": 3633, "Ġtraff": 11878, "Ġinfluenza": 29491, "Ġtutor": 48680, "ĠCSS": 17391, "forms": 23914, "ĠChau": 49628, "ĠLOT": 30314, "Ġtakeaway": 43678, "2009": 10531, "Ġpony": 26902, "Ġinitiation": 30122, "Ġtruly": 4988, "Ġdove": 38862, "Ġeffectiveness": 13530, "Ġallocate": 31935, "Ġdesktop": 11364, "ĠPepe": 49761, "Ġsoul": 5848, "ĠNumerous": 45261, "Ġouting": 32922, "ertility": 27651, "ĠSy": 1632, "Ġclick": 3904, "cessive": 45428, "Ġoffic": 1163, "bridge": 9458, "ĠChapter": 7006, "ĠOwl": 37007, "ji": 7285, "adata": 14706, "zip": 13344, "Ġcry": 3960, "gui": 48317, "Ġpulses": 37783, "Ġproximity": 20387, "ĠStraw": 27279, "Ġattracting": 25142, "Ġsnipp": 26911, "Ġundis": 24149, "Ġsust": 5630, "odied": 32255, "Ġloader": 40213, "Ġreturned": 4504, "ĠCanadians": 14008, "ã": 159, "REL": 16448, "ilst": 11750, ")/": 20679, "bitious": 14228, "Ġslaughtered": 33850, "Ġbroaden": 44870, "esm": 45798, "Ġfil": 1226, "Ġpremie": 33050, "Ġaccumulate": 29915, "ĠJack": 3619, "ail": 603, "Ġsett": 2970, "sol": 34453, "Ġrenewables": 36351, "anse": 40054, "atsu": 19231, "June": 15749, "ĠRivals": 42307, "crop": 31476, "Ġbreak": 2270, "Ġuproar": 40741, "-(": 30420, "Ġabsurdity": 41793, "264": 18897, "Ġsoftly": 26625, "71": 4869, "pl": 489, "Ġbasket": 7988, "á¸": 41585, "for": 1640, "ĠEsther": 47533, "Ġiodine": 50047, "ĠNak": 22255, "scape": 6794, "19": 1129, "ĠScrib": 44469, "Ġmont": 40689, "Ġfled": 11468, "Ġattendees": 21736, "ĠNano": 33504, "effects": 34435, "Ġpots": 32195, "ĠSparkle": 41614, "Similarly": 28039, "Ġcapacity": 5339, "utics": 48063, "legram": 30536, "Ġworried": 7960, "atively": 9404, "ĠGothic": 38845, "Ġunlawful": 18236, "ĠComing": 21808, "Ġrevolves": 38228, "Ġmind": 2000, "ĠEndurance": 43290, "Ġfluor": 26967, "Ġcollaborated": 38261, "Ġda": 12379, "ĠSomewhere": 43808, "Ġunions": 11936, "Ġdent": 18794, "Ġrelentlessly": 37952, "ĠSummer": 10216, "DIR": 34720, "Study": 39841, "path": 6978, "ave": 1015, "Ġbreach": 13694, "IVES": 42472, "OTH": 26946, "Ġtruthful": 42278, "Ġgore": 46835, "ĠMonkey": 26997, "708": 32583, "Ġanyone": 2687, "Ġrevealed": 4602, "ĠCD": 6458, "Ġpipeline": 11523, "Ġcomedic": 42047, "##": 2235, "Ă": 190, "Ġard": 33848, "Ġmoaning": 47644, "ĠDiagn": 31549, "Ġsatisfied": 11378, "Ġunwillingness": 47836, "ĠDing": 46980, "Ġjudge": 5052, "ĠMoreover": 10968, "Ġthreshold": 11387, "ĠWalton": 34468, "å": 161, "oday": 4348, "ĠPacers": 31637, "Ġhuge": 3236, "ĠDisease": 17344, "Ġtiles": 19867, "ĠOEM": 29671, "bash": 41757, "Ġwe": 356, "Ġfeminist": 14314, "Ġknives": 23110, "Ġenclosure": 30685, "ĠDrake": 18515, "ĠWyn": 29758, "ihil": 20898, "ĠInfrastructure": 33709, "Ġdelet": 28128, "Ġsank": 30895, "ĠHatt": 48509, "Ġreserves": 14072, "vironments": 12103, "ĠInstruct": 20689, "Ġpossesses": 22194, "ĠMush": 24257, "Ġmonitoring": 9904, "Ġmetallic": 27306, "onet": 36823, "Ġmenacing": 39579, "oooooooooooooooo": 49135, "Ġcardboard": 26819, "text": 5239, "Ġabandon": 6871, "Ġprotocol": 8435, "Ġassigning": 38875, "Ġremained": 6150, "atton": 38680, "outer": 39605, "ĠJudges": 42495, "Ġlockdown": 47955, "Ġsegregated": 38135, "ĠCan": 1680, "Ġgrey": 13791, "Ġpee": 32638, "ĠRC": 13987, "ML": 5805, "Ġsecond": 1218, "Cross": 21544, "89": 4531, "Ġsql": 44161, "ĠOut": 3806, "ĠLloyd": 22361, "ĠShad": 46961, "odies": 5042, "Ġmeddling": 33545, "JB": 47858, "ĠJeremiah": 40192, "hot": 8940, "connected": 15236, "Ġluck": 8458, "ĠMember": 10239, "ĠREG": 23337, "ĠUNITED": 49668, "Ġpossibly": 5457, "Ġpolymer": 30528, "rica": 30997, "wegian": 20684, "ĠInsp": 25300, "ĠIngram": 44211, "rent": 1156, "Pocket": 45454, "lest": 32712, "tw": 4246, "Ġinner": 8434, "could": 24089, "ĠKC": 25247, "ĠKar": 9375, "Ġconditioning": 21143, "Ġmorbid": 34813, "Ġunfortunately": 12716, "Ġtwisting": 36373, "ees": 2841, "Ġmanner": 5642, "ĠBounty": 38166, "krit": 44531, "auto": 23736, "Ġ290": 26481, "Ġcurriculum": 20583, ".": 13, "Ġfreezing": 20884, "idget": 17484, "With": 3152, "Ġclay": 21558, "SEC": 23683, "ĠVoices": 40440, "roma": 42902, "ĠHealer": 47212, "Ultra": 36122, "ienne": 37938, "ĠMatth": 45524, "Ġdads": 47713, "Ġ392": 48207, "ĠBattles": 25467, "gha": 46090, "Primary": 35170, "Ġwouldn": 3636, "ĠNashville": 19250, "ĠGrizz": 31106, "Ġtheories": 10946, "ĠLabel": 36052, "920": 37128, "Ġtossing": 37432, "Ġdownloaded": 15680, "llah": 22734, "Ġjobs": 3946, "ANK": 15154, "Ġadministrators": 18618, "ĠClare": 22736, "ĠAFL": 25363, "hang": 33255, "ĠMorrow": 34693, "ĠMahjong": 37380, "heny": 47413, "ĠScouting": 49716, "ĠConfiguration": 28373, "Ġlobe": 49918, "Ġtempt": 12475, "Ġabsolutely": 5543, "Ġmoderate": 10768, "Short": 16438, "ĠSc": 1446, "luence": 23079, "Ir": 23820, "Ġhipp": 18568, "Ġtotals": 26310, "ĠETF": 31112, "Ġcloudy": 40026, "identified": 19107, "Ġstomp": 32221, "ruly": 34715, "Ġsuggestive": 42789, "Ġcircumcision": 25513, "ĠEisen": 22633, "osterone": 16372, "¥": 98, "Ġchron": 16199, "imm": 8608, "Ġchairs": 18791, "uay": 30106, "ĠEPA": 10193, "ired": 1202, "Ġbeautifully": 21104, "141": 23756, "ĠOrange": 11942, "Ġplugged": 30601, "Ġhomophobic": 36034, "Ġallele": 45907, "Ġcaused": 4073, "Ġqu": 627, "Ġcomment": 2912, "Gr": 8642, "85": 5332, "ĠMill": 9212, "rated": 4111, "ĠPL": 9297, "Ġtumor": 22359, "https": 5450, "ĠWorm": 28505, "Ġdefamation": 36662, "Ġstub": 17071, "ĠHerrera": 46508, "Ġalarm": 10436, "Ġ371": 47343, "acio": 48711, "Hyp": 49926, "ĠMuss": 43309, "azines": 15742, "Ġinitiatives": 15446, "lynn": 12935, "Ġinjection": 16954, "Ġprotr": 39701, "ises": 2696, "ization": 1634, "ervative": 22003, "ĠDominion": 28098, "989": 42520, "Ġmillionaires": 48675, "Ġmotivational": 49066, "ĠTrilogy": 37059, "College": 38951, "fights": 50121, "ĠReturns": 16409, "archy": 9282, "Ġgroove": 35096, "Ġairstrike": 46504, "ĠLad": 12862, "Ġunin": 26329, "Ġracism": 10713, "Ġsteps": 4831, "ģ": 223, "ĠReid": 16095, "athom": 32910, "Synopsis": 49771, "Ġrecept": 9420, "Ġpitched": 21730, "giene": 28363, "CHO": 44899, "Ġdefic": 12630, "Ġplay": 711, "duct": 2359, "ĠRaf": 20824, "Ġlightweight": 18700, "Face": 32388, "Ġcapitalism": 12129, "xx": 5324, "Ġformerly": 15734, "Ġaggress": 15786, "uring": 870, "vance": 19259, "ĠForums": 38592, "ased": 839, "Ġfighting": 4330, "Ġcontend": 24351, "cular": 10440, "udding": 33926, "Simple": 26437, "eling": 10809, "Ġliberate": 45521, "ĠHau": 49696, "ERN": 28778, "ariat": 21621, "Ġcryptocurrency": 20210, "Ġreplied": 8712, "Ġphilanthrop": 28150, "28": 2078, "Ġsal": 3664, "ĠChess": 25774, "Ġmost": 749, "rary": 11619, "SPEC": 48451, "Ġvisitors": 9692, "ĠOath": 37838, "Ġrush": 10484, "Ġincome": 3739, "ixels": 14810, "ĠMcN": 22586, "pton": 10972, "Ġcounts": 9853, "ĠSV": 20546, "ĠMSG": 49064, "ru": 622, "Ġcasualties": 18499, "ĠOsaka": 42429, "Ġrecruited": 18774, "ĠJacksonville": 23194, "ĠNina": 36300, "ĠForms": 39196, "Ġlightly": 15376, "ĠVersion": 10628, "Ġprospects": 13285, "Ġsympathetic": 22335, "ĠDevelopers": 34152, "Daddy": 48280, "rest": 2118, "gettable": 42182, "Ġstoring": 23069, "Ġboolean": 25131, "Ġturns": 4962, "ĠJul": 5979, "ĠIntelligence": 9345, "Ġadvers": 16907, "ins": 1040, "Ġimposed": 10893, "ĠMarriage": 24509, "swick": 30961, "Ġjihadists": 31395, "Ġducks": 39694, "ĠCraigslist": 46001, "ĠEngineer": 23164, "493": 43134, "Ġpesticides": 27482, "Ġmerc": 11991, "Ġabduct": 24827, "ĠDOI": 40722, "<|extratoken_61|>": 50317, "<|extratoken_110|>": 50366, "Ġlamps": 32209, "Ġnonex": 36196, "ĠTransition": 40658, "ĠBer": 4312, "DK": 48510, "estic": 4699, "Box": 14253, "Ġdistributions": 24570, "Ġanarchists": 29676, "Ġmidterm": 44066, "ĠClearly": 23730, "ĠExtrem": 47871, "Ġparanormal": 47525, "Ġdisappearing": 28867, "Text": 8206, "GH": 17511, "Ġreven": 8934, "Adding": 32901, "ĠCart": 13690, "Ġteenagers": 17366, "ĠLeia": 41212, "ĠMany": 4650, "OT": 2394, "ĠExtra": 17221, "ating": 803, "DL": 19260, "Ġ2001": 5878, "Ġstacked": 24167, "ĠForever": 28285, "Ġimposes": 36794, "ĠTobacco": 28603, "Ġske": 6146, "Ġindividual": 1981, "Ġposterior": 34319, "modified": 41771, "ĠET": 12152, "Ġrapists": 38466, "Ġdecrypt": 42797, "severe": 43070, "surv": 48846, "Ġconspiring": 50186, "Ġbliss": 30533, "ĠDirections": 47426, "Ġunimagin": 37656, "Ġharsher": 50243, "Ġfeudal": 37591, "ĠIch": 26364, "Ġprofessionally": 28049, "activation": 48545, "iae": 33100, "elve": 9954, "Ġworkaround": 46513, "Ġsadness": 25303, "ĠCron": 31683, "Ġwhiff": 48112, "Ġpaint": 7521, "electric": 31067, "ims": 12078, "Ġrevise": 32548, "Ġ****": 25998, "Ġthrows": 12542, "iability": 12455, "ONS": 19213, "ĠStone": 8026, "Ġobjection": 19630, "Ġadoption": 12695, "ĠGregory": 20653, "Ġdash": 14470, "ipment": 4667, "Ġendorse": 11438, "Ġprofitable": 17967, "Ġdeaths": 7040, "imi": 25236, "progress": 33723, "ĠKerala": 34649, "adobe": 36752, "ĠNordic": 35834, "Ġmatte": 36908, "ĠHPV": 32395, "ĠMueller": 17768, "Apart": 39182, "Ġcongestion": 28014, "ĠOliv": 40019, "ĠNavy": 8565, "Grid": 41339, "ĠTah": 26293, "ĠRemain": 42606, "EY": 22348, "Ġinterpersonal": 43146, "Ġdelinquent": 46026, "Rules": 37766, "Ġusb": 38551, "ĠDaniels": 28162, "attach": 47348, "anco": 47699, "ĠFTA": 48076, "<|extratoken_128|>": 50384, "Ġfaint": 18107, "ĠBengals": 24037, "Ġwhom": 4150, "sch": 20601, "Mount": 35452, "ĠPie": 21690, "ĠRichie": 49209, "Dex": 48875, "Ġpublicly": 7271, "ĠSins": 50051, "Ġvisits": 11864, "Ġlangu": 2786, "ĠEmergency": 18154, "Ġcaliber": 28139, "ĠBrenda": 49495, "Ġcontinuing": 8282, "Ġquality": 3081, "Ġdiscrimination": 8839, "ĠRain": 10301, "Ġagon": 26990, "pretty": 37784, "FN": 43221, "Ġjungle": 20712, "},": 5512, "mith": 22947, "Ġmanually": 14500, "ĠCong": 2908, "Ide": 41452, "Quality": 35013, "ĠFarm": 11272, "ment": 434, "erv": 712, "View": 7680, "ĠSentinel": 26716, "ĠJed": 39952, "axy": 6969, "ĠJorge": 34687, "river": 38291, "Ġnesting": 46282, "Ġdual": 10668, "Ġbishop": 24233, "LU": 41596, "Ġsquee": 13170, "Ġfitted": 18235, "Ġvolunteer": 13904, "Ġincomes": 18696, "Ġrunaway": 39732, "UNE": 41884, "ĠCTRL": 45249, "Ġphrases": 20144, "idal": 11624, "rate": 4873, "Fail": 39044, "Ġinterpol": 39555, "ĠLessons": 46885, "puter": 10549, "information": 17018, "Ġinsiders": 31594, "Ġplanned": 6027, "ĠHAS": 33930, "ĠMonday": 3321, "Ġfeud": 21419, "Ġasteroid": 27460, "ĠNative": 12547, "Ġresolutions": 21811, "Book": 10482, "ĠMinecraft": 24609, "oks": 28194, "album": 40916, "Ġundrafted": 44178, "Ġ||": 8614, "Ġtaxpayer": 14776, "ĠSu": 1778, "666": 27310, "Ġmantle": 32107, "frog": 49956, "Ö": 146, "Ġincentive": 15660, "FT": 9792, "dragon": 14844, "Ġdile": 22825, "Ġnm": 28642, "ĠBlackhawks": 35663, "Ġfundra": 12663, "java": 12355, "Ġconstrained": 31070, "Ġent": 920, "Ġtrembling": 39228, "ĠAncients": 46966, "Ġregulars": 48128, "Internal": 37693, "=\"": 2625, "ĠGreg": 8547, "ĠChronicle": 14160, "Ġreins": 35627, "furt": 29205, "ĠRockefeller": 32764, "shaw": 32832, "ĠCobb": 31868, "Ġbreached": 34662, "Love": 18565, "Ġidiots": 35838, "ĠFN": 44260, "Personally": 42322, "AST": 11262, "ĠAE": 25603, "Ġdstg": 36935, "JD": 37882, "Ġirrit": 14709, "Indust": 35848, "Ġbombard": 35285, "Ġnation": 3277, "Ġhybrids": 45456, "Ġtroops": 6553, "Ġarsenic": 48884, "ĠHir": 29379, "walker": 20783, "ow": 322, "rax": 32040, "Ġmurder": 5123, "Ġinland": 37874, "entious": 43787, "Ġmostly": 4632, "Ġlap": 14779, "Ġoverhaul": 18708, "ĠZombies": 23274, "Ġall": 477, "ĠKal": 12612, "ĠBot": 18579, "Ġdictators": 20591, "Exc": 40127, "Ġtestament": 29210, "glass": 20721, "phy": 6883, "Ġhanging": 10938, "Ġdonated": 15863, "razy": 5918, "raid": 7086, "ĠAmendment": 8441, "ĠEnhanced": 22104, "ĠShock": 22763, "453": 36625, "Ġmo": 6941, "ottest": 24879, "Frag": 42974, "Ġpowering": 43067, "Ġfilibuster": 38940, "Ġflourish": 31147, "Ġraging": 30082, "Ġtaught": 7817, "Ġmasterpiece": 30669, "ĠSupported": 36848, "gage": 10502, "ĠCamden": 43084, "iod": 2101, "Ġherbal": 35867, "combat": 39969, "Ġexpression": 5408, "Ġcourage": 11917, "Ġappell": 24781, "Ġ),": 10612, "tax": 19290, "Ġcontexts": 26307, "Ġleaflets": 48409, "Cent": 19085, "81": 6659, "Ġcrochet": 46149, "oan": 24611, "OAD": 41048, "Ġcommuters": 36799, "Ġgiving": 3501, "ĠRegistry": 33432, "ĠRing": 12569, "Ġemanating": 49085, "Ġtorn": 12445, "Ġtalk": 1561, "Ġ1984": 12844, "Ġpastry": 41738, "Ġarter": 30675, "ĠSkip": 32214, "Ġbasketball": 9669, "Ġoccupied": 12030, "Fra": 49562, "Ġtaxing": 36587, "Ġsummarize": 35743, "etsu": 30470, "Ġsketches": 34035, "Ġpr": 778, "ascular": 14767, "Ġgraphical": 27831, "Cs": 32274, "RANT": 32506, "arning": 4228, "ep": 538, "Ġmidfielder": 18707, "Ġwreck": 15228, "Ġfries": 31757, "ĠBorn": 18889, "Ġredundant": 30806, "Ġicing": 41567, "checks": 42116, "ania": 5411, "Normally": 43625, "Ġapproves": 43770, "Ġpostwar": 44060, "ulner": 5697, "Ġserotonin": 32236, "2200": 34294, "Ġdog": 3290, "Ġrevis": 22124, "Ġcommunity": 2055, "Ġflowers": 12734, "ĠRee": 29030, "Ġschemes": 16546, "ional": 1538, "Ġ287": 38721, "ĠDek": 44297, "opers": 20618, "ge": 469, "portation": 10189, "outed": 18534, "Blocks": 45356, "Ġsinging": 13777, "Ġdip": 19550, "ĠTHEY": 33302, "Ġcapsule": 27855, "Ġnanop": 46661, "Ġrisk": 2526, "ajor": 1518, "Ġpepp": 49038, "Ġtrek": 30784, "Ġshredded": 37624, "Ġcommissioners": 33020, "Ġmailing": 21898, "ĠDay": 3596, "ĠClose": 13872, "Ġaqu": 14839, "ĠSimple": 17427, "renched": 23437, "crime": 28126, "ĠBank": 5018, "Ġattachment": 18231, "ĠCopper": 27157, "ĠIbid": 28865, "ĠIronically": 37731, "ĠCairo": 23732, "----------------------------------------------------------------": 10097, "Ġpraises": 40221, "Shipping": 45169, "Ġencyclopedia": 45352, "sd": 21282, "Ġsemin": 36870, "ethnic": 38546, "Ġ54": 7175, "Built": 39582, "Safety": 45372, "ĠB": 347, "Ġdelivery": 7585, "ĠGentle": 25066, "Ġpermitting": 29256, "Ont": 45984, "Ġdisappear": 10921, "Ġdull": 19222, "warts": 26586, "Ġdismiss": 6735, "Ġpissed": 28674, "Ġceilings": 45926, "Ġbelieve": 1975, "complete": 20751, "Ġshoes": 10012, "588": 39118, "Ġallowing": 5086, "Ġinfiltrated": 43862, "Ġburdens": 27127, "ĠBraz": 41414, "olo": 14057, "Ġsick": 6639, "Ġscattered": 16830, "epad": 47852, "Ġscrub": 27268, "Ġdaring": 27939, "usa": 22064, "ĠRomero": 38623, "Ġhitters": 34113, "Ġreorgan": 35459, "Ġsalient": 49156, "Ġcotton": 15985, "eh": 17231, "Construction": 36687, "Ġfragmented": 41630, "ĠMaps": 20347, "Ġ221": 31566, "Ġpounded": 49162, "ĠNar": 13596, "ĠLeg": 3564, "Ġspreading": 14342, "Ġrepetitive": 28585, "uity": 14834, "absor": 46303, "oqu": 22696, "ĠTao": 32120, "imester": 47484, "abet": 8380, "Ġacquisitions": 33683, "OUP": 27755, "ĠBoat": 30828, "lifting": 30510, "Ġseaw": 32085, "itt": 715, "hetic": 6587, "ĠEst": 10062, "Within": 22005, "Ġ171": 28369, "Ġnic": 9200, "Ġcomplete": 1844, "Ġimpact": 2928, "Ġcooling": 15134, "Ġcapability": 12971, "Ġoffenders": 17120, "Ins": 20376, "mys": 28744, "amin": 5669, "Function": 22203, "Jay": 30568, "Ġ191": 31009, "ĠLoan": 32314, "462": 39997, "oked": 6545, "dollar": 22569, "prisingly": 20859, "Ġslips": 33841, "ĠLis": 28546, "Ġbombers": 26127, "ĠFrancisco": 6033, "Ġsixteen": 27913, "Ġmarg": 6145, "Ġprote": 5915, "ĠRevolutionary": 28105, "isal": 28456, "Absolutely": 40501, "Effective": 44831, "Ġcharts": 15907, "rix": 8609, "halla": 41911, "Ġoxy": 10661, "Ġhol": 6039, "Ġsurrendered": 29209, "ĠZerg": 37509, "231": 25667, "ãģ®": 5641, "Ġtuna": 38883, "authors": 41617, "ĠOrbital": 45453, "Ġbudgetary": 47560, "ĠSpiral": 46727, "ĠBom": 20403, "ous": 516, "Ġtempo": 28691, "ĠInstall": 15545, "avan": 12421, "ĠErik": 22722, "ĠXin": 25426, "displayText": 31536, "Ġremarkably": 21196, "ĠComponent": 35100, "ffect": 4812, "Ġ251": 34489, "allo": 49457, "pressure": 36151, "Ġscrambling": 36502, "ĠHodg": 37480, "ĠWARN": 42660, "Ġprotections": 15018, "Ġincident": 4519, "Ġverifying": 45505, "ĠNewt": 40893, "////////////////": 27246, "Ġplaster": 46376, "Ġimprison": 11116, "olicited": 47607, "ocide": 16207, "ĠTec": 48257, "ĠPeggy": 40910, "áµ": 39611, "uthor": 1457, "Ġvocational": 48368, "ĠCrunch": 38531, "ĠHoney": 21788, "ĠPresence": 46523, "Copyright": 15269, "Ġ334": 42819, "from": 6738, "Ġpractically": 14547, "re": 260, "ĠBrewery": 31003, "Ġhomosexuality": 19822, "Ġclearer": 22363, "Ġupgrade": 8515, "Ġdrowning": 32249, "Ġboarded": 35032, "Ġcling": 36331, "ĠCounter": 15034, "bean": 14289, "ix": 844, "ĠIDE": 33497, "arrell": 47769, "Ġlodged": 31984, "qua": 39566, "addin": 46782, "ĠOng": 48041, "ÃįÃį": 43569, "ĠBritish": 3517, "ĠAsia": 7229, "Ġ1935": 30704, "ĠEvaluation": 34959, "MAC": 44721, "Ġguys": 3730, "gery": 7076, "fixed": 34021, "ents": 658, "Ġwhere": 810, "Jet": 42273, "Ġfleeting": 42738, "Ġbarg": 12828, "Ġtuber": 35813, "ĠTy": 7039, "ĠBast": 17520, "ital": 1287, "Ġsecure": 5713, "ĠMoses": 19010, "Inf": 18943, "Ġadvocating": 24950, "Ġrectangular": 36954, "ĠAlien": 17610, "ĠSNP": 25632, "Ġvampire": 23952, "Ġutilizing": 25137, "ĠHend": 14666, "Ġ108": 15495, "Ġchim": 18205, "Ġmun": 29856, "Ġamusing": 28297, "VT": 36392, "Ġkilograms": 37075, "ĠBarbarian": 38946, "edge": 14907, "Ġpointed": 6235, "315": 27936, "ĠBoeing": 17880, "orld": 1764, "age": 496, "Ġsurged": 36061, "Ġgrass": 8701, "Ġtunnels": 22642, "ĠYiannopoulos": 39214, "Ġhashing": 49544, "ĠGuam": 39282, "Ġcann": 6463, "ĠCogn": 26543, "Ġscarcity": 35501, "ĠCandle": 44973, "Ġdistortion": 25100, "Ġdeclared": 6875, "ĠStandards": 20130, "Ġnause": 24480, "ELD": 24639, "certain": 39239, "ĠPeter": 5613, "Ġstarch": 39515, "ĠCredit": 10504, "Ġanticipate": 23794, "Ġcodec": 40481, "unte": 6311, "Ġexposed": 7362, "Ġengineered": 23371, "Ġprepare": 8335, "ĠCHAR": 28521, "ĠSoci": 31339, "Ġsleek": 33143, "Ġunity": 14111, "Ġlookup": 35847, "ĠTud": 48256, "<|extratoken_60|>": 50316, "Ġ2015": 1853, "Ġmarry": 12479, "Ġmustache": 49303, "ĠDign": 43674, "ĠHair": 23102, "VAL": 23428, "ĠChest": 25544, "Ġmany": 867, "78": 3695, "Ġatomic": 17226, "ĠPresbyterian": 44150, "Fans": 36570, "Ġpract": 1970, "Premium": 36787, "Ġclassrooms": 32579, "Ġeth": 4555, "Learn": 20238, "Ġ146": 22986, "owe": 47097, "ĠDaily": 6714, "Ġlun": 14678, "Ġneighbourhoods": 45221, "Ë": 135, "Ġtablespoon": 33107, "Ġconserve": 45075, "ashington": 2542, "Ġmigrating": 45879, "Blog": 42383, "Ġprime": 6994, "THE": 10970, "Ġparenting": 26174, "ĠCatalan": 31066, "erers": 19288, "UAL": 25620, "Ġwatershed": 42640, "ĠBrendan": 26134, "ĠLes": 11732, "ĠMillenn": 19007, "arious": 27129, "Ol": 30098, "rival": 43171, "ĠLINE": 48920, "anish": 7115, "Ġdefining": 16215, "Incre": 15562, "oles": 4316, "........": 2109, "Ġdefense": 3761, "ctors": 5217, "ĠCommander": 13353, "Arch": 19895, "Ġdodge": 24885, "APD": 35349, "Ġadolesc": 19373, "MRI": 40952, "ĠMunicipal": 31526, "Photos": 21197, "ĠPatri": 9606, "short": 19509, "Ġdread": 15157, "Ġtoy": 13373, "ctica": 28914, "ĠKB": 14204, "ul": 377, "Ġ\\\"": 19990, "Ġcharms": 41700, "ĠPlaintiff": 41990, "Ġobfusc": 44080, "Ġcant": 18548, "cro": 19915, "utenant": 15340, "down": 2902, "avascript": 16098, "Ġreminds": 17603, "Ġenlight": 19128, "Ġrecover": 8551, "Abstract": 23839, "gender": 8388, "Attack": 27732, "Ġsucking": 27904, "Ġmessed": 32621, "ĠCir": 21239, "ĠMau": 28931, "Ġspecializes": 29786, "wright": 29995, "Ġstumble": 35174, "sv": 21370, "Ġclandestine": 39903, "lib": 8019, "lad": 9435, "Ġst": 336, "Ġwealth": 5129, "Jo": 9908, "Ġimpairment": 23992, "ANY": 31827, "Ġhi": 23105, "ochond": 22400, "Ġincorrectly": 23175, "Ġcandidacy": 24514, "259": 25191, "ĠAnime": 27812, "!!!!!!!!": 34635, "ĠTrey": 36085, "ĠRomance": 36555, "Ġ1920": 14062, "Ġsus": 2341, "ĠSlovenia": 37562, "Vector": 38469, "Ġdissolved": 26306, "ringe": 38229, "Ġrealistic": 12653, "Lo": 27654, "ĠCENT": 33269, "ĠSanct": 43990, "ĠPortable": 44685, "niper": 45554, "ĠOv": 46941, "Generally": 37058, "jandro": 47983, "ĠVall": 46929, "ership": 49437, "Commission": 50246, "<|extratoken_12|>": 50268, "Ġtypically": 6032, "Ġfinancial": 3176, "Large": 21968, "Pred": 39156, "acca": 43552, "Ġsprang": 43908, "ĠRod": 6882, "Ġpub": 2240, "ample": 1403, "ĠLisa": 15378, "diff": 26069, "Ġisolation": 15133, "ĠRevival": 48095, "ĠIntelligent": 49452, "Ġvarious": 2972, "ĠMedal": 9064, "<|extratoken_63|>": 50319, "ĠPublishing": 23499, "Ġfollowed": 3940, "Ġsizes": 10620, "reon": 21833, "Ġ{}": 23884, "ĠDoing": 25327, "Ġev": 819, "lder": 6499, "Ġease": 10152, "atra": 26066, "heddar": 44937, "COLOR": 46786, "ĠTrooper": 47438, "Ġtowns": 11684, "Ġdictator": 26671, "Ġpurported": 23236, "adjusted": 29117, "Ġparticles": 13166, "oard": 11953, "Ġnecessities": 41918, "Ġmove": 1445, "Ġenvironmentalists": 40586, "ĠRecorded": 50096, "ĠParticipant": 29880, "ĠZone": 13035, "Ġridic": 8817, "ĠTrou": 22141, "ĠSERVICE": 47453, "ĠJune": 2795, "clock": 15750, "ĠMits": 22424, "ĠSurely": 28417, "ĠBlvd": 29402, "Ġawe": 25030, "Ġwrote": 2630, "Lex": 45117, "Ġcrotch": 45885, "ĠIndependent": 13362, "stration": 12401, "279": 26050, "ĠPa": 11243, "anic": 26277, "ĠKali": 30636, "Ġ288": 35419, "ĠSomehow": 36651, "Ġperceptions": 23574, "ĠHeights": 20365, "Ġinteractive": 14333, "Ġforged": 24918, "Ġnostalgia": 30889, "Ġconsiderable": 11091, "Ġtransf": 13501, "Ġsquad": 8244, "Ġfurious": 21799, "Ġextinct": 28881, "Ġinvented": 15646, "kef": 30728, "ĠKR": 29430, "ravis": 16956, "Ĥİ": 43518, "ĠSTOP": 44934, "Ġjammed": 45479, "Ġministerial": 45555, "âĢ¦": 1399, "Ġcloning": 45973, "Analysis": 32750, "ĠVeil": 46104, "ceived": 6471, "ĠLantern": 27579, "Ġveto": 18860, "oward": 46138, "Ġmortals": 49008, "Ġpushes": 20070, "ġ": 221, "Ġstands": 6296, "west": 7038, "peace": 22988, "265": 22980, "oters": 26008, "Ġarbitration": 26038, "Ġdir": 26672, "Ġproducers": 11408, "del": 12381, "ĠWa": 15329, "ĠZurich": 43412, "Ġtipping": 31639, "ĠSignificant": 49631, "Ġoccur": 3051, "ramid": 20255, "Ġdowntown": 9436, "Ġbreeding": 18954, "<|extratoken_118|>": 50374, "Ġjoking": 29711, "rentices": 34368, "Ġseismic": 37463, "ĠAugust": 2932, "Ġinjuring": 34361, "ĠPav": 24081, "Ġtel": 13632, "Ġinputs": 17311, "Ġdestructive": 17656, "hardt": 28375, "ĠGram": 20159, "Ġinvari": 25275, "ĠScene": 28315, "490": 31503, "Ġrepairs": 20097, "Ġ182": 28581, "aton": 13951, "Ġ}}": 34949, "gart": 41651, "ĠSupplementary": 43008, "ĠFest": 26812, "oot": 1025, "ĠColeman": 22687, "Ġdreadful": 35483, "Ġrepresentation": 10552, "Ġdispersed": 34646, "Ġcomplain": 13121, "Ġciv": 36317, "ipient": 48137, "Ġdeficiency": 23580, "ĠInvest": 7488, "Ġginger": 25072, "Ġchurn": 28488, "atters": 34387, "Ġsob": 27355, "Student": 38778, "Also": 7583, "ĠEQ": 36529, "ished": 1348, "ĠHavana": 40274, "Ġhitherto": 45053, "GT": 19555, "Ġweld": 26650, "ek": 988, "Ġwear": 5806, "Ġfamous": 5863, "ury": 1601, "ĠWorld": 2159, "Ġuneasy": 34644, "Ġfortress": 28757, "He": 1544, "Ġrequest": 2581, "Ġtravellers": 37217, "Ġintoler": 20619, "ahi": 32810, "comb": 24011, "Ġdevout": 38440, "ibrarian": 35808, "ĠSyn": 16065, "ACT": 10659, "how": 4919, "Ġste": 2876, "Ġworthless": 28063, "Ġthrew": 9617, "ĠRica": 31656, "neum": 25668, "anda": 5282, "Ġgas": 3623, "ĠClark": 11264, "Ġcogn": 8866, "Ġscales": 16252, "Â¯Â¯Â¯Â¯": 8980, "pkg": 35339, "ĠChosen": 39884, "Interview": 39945, "Ġfounders": 22202, "ĠHouse": 2097, "Ġspoil": 20851, "OVA": 41576, "wired": 44236, "Ġcrimson": 46153, "ĠPediatrics": 46776, "rarily": 39000, "Ġyen": 28808, "ogyn": 20593, "ĠVenus": 21094, "Ġfoe": 22156, "ĠCraw": 20177, "Ġinadequate": 20577, "Ġsubmitting": 24353, "Hy": 21217, "ĠGuilty": 47321, "dh": 34985, "ucle": 14913, "ĠFedEx": 45212, "%;": 26525, "Ġdepreciation": 45980, "<|extratoken_53|>": 50309, "720": 23906, "Ġ=================================================================": 38093, "ĠMean": 22728, "added": 29373, "Ġcourtyard": 34941, "Ġdeclares": 24183, "Ġwrought": 38733, "onite": 46285, "Ġbail": 12274, "ĠFederal": 5618, "ĠRobinson": 12652, "Considering": 40475, "ĠEthics": 25092, "Ġforum": 10041, "rongh": 36670, "ittal": 39979, "scene": 29734, "ĠCooldown": 39742, "ĠCommand": 9455, "ĠChrome": 13282, "ĠEqual": 28701, "\\\",": 34607, "Ġsilicone": 35804, "Ġhumid": 35441, "Ġegregious": 34372, "Ġpawn": 29649, "ĠHighland": 39874, "ĠBring": 24347, "oscope": 40326, "Turkish": 42872, "ĠSpielberg": 41151, "ĠGreenwood": 42928, "icit": 3628, "Ġdislike": 23109, "ĠChart": 22086, "Ġclues": 20195, "Ġleagues": 16861, "Ġ});": 14980, "Ġasshole": 29836, "768": 30610, "Ġdementia": 27886, "Ġaddicts": 32510, "ourn": 1798, "anged": 5102, "Begin": 44140, "reditation": 42845, "Utah": 44350, "VL": 47468, "ĠMechanics": 47570, "Ġprojects": 4493, "<|extratoken_66|>": 50322, "Qu": 4507, "grab": 32393, "ĠUT": 19255, "Ġmust": 1276, "ĠEditor": 12058, "ASE": 11159, "ĠCriminal": 15531, "quez": 22281, "ensation": 25742, "ĠPelosi": 29611, "Ġincompetent": 33840, "delay": 40850, "processor": 41341, "Ġfisherman": 48750, "ĠJama": 21661, "people": 15332, "ãĤŃ": 25084, "Ġfantasies": 30162, "ĠAnti": 12297, "osate": 33931, "Returns": 35561, "Ġ47": 6298, "82": 6469, "ĠTerminator": 41830, "SSL": 31127, "ET": 2767, "Ġpollution": 12231, "Ġmodesty": 48740, "vest": 4223, "Ġbeet": 25679, "window": 17497, "Ġlives": 3160, "Ġbedrooms": 38529, "ĠGulf": 12108, "Ġstuck": 7819, "ĠCombine": 29176, "Ten": 24893, "Ġengaged": 7953, "Ġliteracy": 31231, "Ġjurisdictions": 25281, "ĠSalv": 20332, "Ġstatue": 15207, "ĠDele": 42226, "Ġ<<": 9959, "Ġhay": 27678, "ĠIzzy": 46359, "ĠSun": 3825, "patrick": 29615, "ĠEclipse": 30991, "Ġcorn": 11676, "ĠKhal": 30126, "Ġsemif": 32948, "Ġsickness": 26359, "Ġsector": 6567, "ipel": 40634, "Ġjuices": 35919, "scar": 13034, "esthes": 29678, "ĠFever": 41951, "Ġstrategy": 4811, "Ġ1975": 15231, "ĠGM": 6951, "Ġstole": 18240, "Ġphrase": 9546, "Ġrandomly": 15456, "ĠEcuador": 25794, "ising": 1710, "Ġratios": 22423, "alys": 26266, "348": 28978, "mL": 32087, "657": 37680, "Ġembryos": 39966, "ĠNeg": 13496, "itle": 2578, "ĠOre": 22452, "Ġobtained": 6492, "é¾įå¥ĳå£«": 39821, "ĠShroud": 40246, "chart": 40926, "Hispanic": 43830, "Ġownership": 9238, "Ġregist": 4214, "viron": 2268, "Ġsafer": 14178, "ĠGU": 19348, "ium": 1505, "ĠAdmiral": 24646, "Regardless": 27894, "Ġmorals": 35472, "ĠHai": 36876, "ĠGreat": 3878, "ĠDEN": 37692, "ĠThese": 2312, "Ġdecoding": 39938, "ĠYuri": 38450, "Sleep": 40555, "related": 5363, "Ġseals": 29718, "ĠEuropa": 29890, "ĠReports": 17905, "ĠChrist": 1951, "EB": 30195, "Ġstretch": 7539, "athering": 25545, "Ġredesign": 27135, "Ġtelevised": 30681, "Ġniece": 41803, "orum": 19220, "multi": 41684, "Ġcivilization": 14355, "ĠMineral": 30000, "ĠAven": 15053, "Ġpositions": 6116, "Ġ+---": 40703, "140": 15187, "anchester": 8911, "ĠLegends": 14270, "Ġleased": 40352, "Ġsalesman": 42414, "poon": 26743, "IQ": 33866, "way": 1014, "ĠFre": 4848, "ĠMail": 11099, "ĠHeaven": 11225, "Ġwinger": 31389, "beer": 42428, "ĠFuji": 43694, "Ġgarlic": 17644, "ĠSubst": 24944, "Children": 26829, "uild": 3547, "Cro": 35403, "imaru": 49551, "Ġapostles": 40759, "ĠSega": 29490, "||||": 42210, "ĠMis": 14136, "Ġexplos": 6054, "irm": 2533, "Ġfibers": 26742, "Pure": 49548, "idden": 4651, "Ġacquitted": 35497, "Ġrope": 17182, "ĠLinux": 7020, "Ġflung": 45111, "Ġaddition": 3090, "ebin": 23497, "IFIED": 28343, "boxes": 29305, "ãĤ½": 47559, "opening": 29443, "itute": 3678, "Ġrecalling": 38203, "Ġfun": 1257, "Ġnine": 5193, "Ab": 4826, "Ġbrink": 29585, "Ġaimed": 8998, "inos": 11996, "ĠLester": 36508, "Ġcamps": 11665, "Ġpipe": 12656, "ĠTheo": 43999, "styles": 47720, "Ġvoice": 3809, "ignant": 25114, "Ġâĸ": 11019, "Ġcertificate": 10703, "Perhaps": 13710, "800": 7410, "Ġadministration": 3662, "ungle": 13687, "Ġreinforcements": 38578, "Ġgubernatorial": 45265, "Ġprivile": 7798, "acky": 36053, "Ġfalsely": 24566, "Ġgenerate": 7716, "ĠIniti": 16204, "ĠSPR": 49068, "Ġdisc": 1221, "ĠIdol": 34392, "ĠAAC": 47943, "Ġmovements": 8650, "ĠFac": 13585, "Ġ1953": 24217, "ĠActing": 37539, "Ġmobility": 15873, "Ġtragedies": 42546, "gran": 46324, "ĠSyracuse": 29141, "Ġprevalent": 21854, "Ġtolerant": 33435, "Ġname": 1438, "Ġblond": 32749, "Ġshenanigans": 48949, "okÃ©": 35861, "Ġrefriger": 19866, "Ġplace": 1295, "ition": 653, "Ġdetail": 3703, "Ġunden": 26712, "ĠFootball": 9957, "tesy": 27090, "run": 5143, "ĠDrink": 32906, "å°Ĩ": 49546, "ĠFaction": 41552, "âĢ¦.\"": 50248, "ortunately": 4690, "acular": 12754, "Ġpocket": 10000, "ĠSakuya": 37545, "dds": 33714, "entin": 31371, "oglu": 49006, "Ġcommon": 2219, "thin": 40871, "cules": 13930, "inho": 20327, "Ġunn": 41231, "Campaign": 46102, "Ġapiece": 47563, "ĠSpicer": 26242, "ĠMalone": 40735, "ĠARE": 15986, "\"...": 26214, "Kansas": 43451, "Ġ(!": 22759, "ĠLob": 32684, "hens": 5135, "003": 11245, "ĠMek": 42859, "ĠRenault": 44083, "ĠTower": 8765, "Rod": 27917, "Ġthousands": 4138, "Ġdivorced": 25107, "Ġmov": 1409, "Fair": 30099, "illac": 40607, "YA": 44947, "ĠHyd": 15084, "ĠBorderlands": 47071, "ĠNico": 39360, "Ġsouth": 5366, "ĠDeborah": 36976, "ominium": 46134, "reetings": 46648, "ĠMaterials": 24310, "ĠCrafting": 44450, "estamp": 27823, "Ġchiefly": 36305, ";;": 7665, "ĠOdd": 20664, "Ġbows": 37469, "Ġdistribut": 11309, "ĠÃ©": 38251, "Ġastonished": 40962, "ĠStrat": 29186, "ĠVolunteers": 45646, "make": 15883, "Ġinflu": 3057, "Ġsurvey": 5526, "runner": 16737, "Ġposes": 17313, "lections": 26448, "ãĥ¥": 24440, "Ġlaund": 22138, "Ġharrowing": 45736, "ĠSlate": 30621, "ě": 215, "Ġurgent": 18039, "ĠMemor": 41157, "ĠJake": 14757, "Ġstroll": 41360, "ĠTHREE": 48697, "Ġruined": 20484, "OSS": 18420, "ĠPalm": 18358, "ĠFishing": 28944, "ĠRipple": 40303, "ĠRifle": 19685, "Parameters": 48944, "Fund": 24553, "Ġ2600": 47197, "fulness": 15538, "Son": 31056, "yip": 39666, "Elf": 46995, "ĠZah": 49063, "Ġidol": 21580, "Ġappro": 1331, "TPS": 28820, "ĠNXT": 43308, "Strength": 45027, "Ġ341": 43155, "Ġprinc": 5144, "outube": 9762, "iovascular": 19381, "Ġfreely": 12748, "ics": 873, "after": 8499, "elson": 10151, "ĠNarr": 28390, "feature": 30053, "ãĤ©": 37662, "zin": 42140, "Ġrelevant": 5981, "Joe": 19585, "Ġsan": 5336, "ĠPolitics": 17554, "Ġrobber": 29979, "Ġemission": 25592, "Ġbrightness": 22204, "Ġrealms": 35423, "ĠSTAT": 15486, "ĠGO": 10351, "Ġhere": 994, "Ġding": 44852, "udd": 4185, "ĠDISTR": 34957, "Ġhumanities": 47824, "Ġaforementioned": 20794, "Ġangles": 18333, "INGS": 20754, "ĠMTV": 31214, "Import": 20939, "ĠLuckily": 24262, "ĠHayes": 25109, "Ġ2009": 3717, "agascar": 44309, "ĠWEEK": 43765, "Ġlarg": 2552, "No": 2949, "Ġexperien": 3410, "ava": 4170, "Ġanalyst": 12499, "Ġsmarter": 23714, "ĠCo": 1766, "fare": 9496, "ĠFlo": 29075, "ĠPackage": 15717, "Ġnotoriously": 29862, "Ġobligations": 13675, "Newsletter": 33031, "Ġjoke": 9707, "ĠInk": 33068, "ĠDonkey": 43823, "Vol": 16598, "pas": 44429, "Ġboutique": 45753, "prof": 5577, "ĠSAL": 42475, "Ġsurrounded": 11191, "Ġgn": 19967, "Ġmutant": 30118, "Ġcontroversies": 36512, "Ġorally": 47311, "Ġhypothal": 48641, "resp": 4363, "ĠTennis": 37213, "ĠAlbert": 9966, "Ġradiation": 11881, "Ġdialect": 23637, "Ġequivalent": 7548, "terior": 14172, "ĠReed": 16105, "rella": 20481, "GY": 31212, "yden": 43955, "Ġdocks": 45906, "olated": 50027, "lower": 21037, "performing": 37440, "698": 39357, "ason": 888, "Ġ:": 1058, "aut": 2306, "Neg": 32863, "Ġmell": 33748, "Ġtone": 8216, "ĠCaf": 35046, "694": 45214, "Ġglutamate": 48402, "ĠLR": 37491, "Ġimmature": 40620, "ĠPyongyang": 21614, "ĠAzure": 22134, "Weather": 41865, "ymes": 22009, "ĠCrisis": 18660, "ĠSIM": 23749, "Ġintimidate": 34903, "Ġperfected": 42155, "Ġlaugh": 6487, "ĠCooperative": 43457, "Ġacupuncture": 48647, "producing": 36866, "Ġsensitivity": 14233, "Ġpiv": 16767, "Ġlane": 11193, "Ġreferral": 31413, "Ġmsg": 31456, "ifling": 38966, "affected": 43958, "ItemThumbnailImage": 39177, "ç·": 45784, "esar": 18964, "Ġarchitect": 7068, "handled": 38788, "à¦": 48071, "<|endoftext|>": 50256, "ansion": 5487, "ĠFederation": 11937, "ongyang": 20659, "ĠjQuery": 37420, "graduate": 17680, "reciation": 33950, "Ġdisco": 4655, "rogen": 8648, "Ġcrying": 13774, "ĠArduino": 27634, "ynam": 4989, "1983": 29279, "ĠPipeline": 37709, "ĠLash": 47137, "bright": 29199, "akes": 1124, "Ġstreamed": 35377, "ĠBat": 6577, "HAM": 33363, "connection": 38659, "Ġchloride": 44921, "am": 321, "Ġenacted": 17814, "ande": 40004, "ursions": 42394, "Ġcollects": 26609, "Ġrallying": 36467, "Ġinsecurity": 33837, "Ġstink": 48305, "Ġinflict": 28640, "pload": 7304, "Ġretailer": 21538, "Ġmats": 46054, "Ġreluctant": 18416, "ilities": 2410, "doing": 19631, "Ġdiscoveries": 24362, "ĠCalendar": 26506, "Stre": 30611, "inguished": 46709, "Ġparticipates": 49567, "played": 21542, "inness": 32990, "ĠFiorina": 49028, "ĠSpin": 28002, "Ġsurvivor": 23446, "Ġhumanoid": 34870, "Ġchant": 33541, "Ġstaging": 29475, "ibus": 26333, "ĠBarrel": 29920, "ĠThanksgiving": 21494, "ĠKoen": 49178, "Ġfirmware": 18779, "skirts": 28383, "ĠMidwest": 25701, "Ġyo": 27406, "NET": 12884, "Ġintimid": 12895, "Ġcrude": 14897, "Ġobstacle": 22007, "ĠShea": 42368, "Ġpseudonym": 48129, "Ġinterrupt": 11313, "Ġphotographs": 12566, "Ġte": 573, "SL": 8634, "aird": 41620, "Ġvertically": 31677, "č": 201, "Rum": 47127, "Ġabandonment": 38968, "ĠPartnership": 23270, "455": 30505, "Ġfocused": 5670, "bowl": 36859, "atical": 39056, "ĠShields": 30512, "Ġacts": 6529, "ĠPatterson": 27042, "Ġchecked": 10667, "Ġmaker": 16009, "atorium": 30732, "Ġpornography": 18384, "antic": 5109, "ĠBolshe": 28698, "velength": 26623, "ĠMcKin": 31946, "Ġâ": 2343, "Ġparticipated": 14888, "Ġstrengthening": 24175, "Ġrelational": 50126, "ĠFinding": 27063, "ĠSchro": 47349, "Mar": 7676, "Ġswear": 21192, "ĠHolding": 31703, "ĠSears": 36895, "ĠGROUP": 44441, "gnu": 41791, "ĠPhiladelphia": 8857, "standard": 20307, "Station": 12367, "Ġhorrend": 39910, "skip": 48267, "Ġab": 450, "Ġflared": 50017, "ĠCtrl": 19212, "ĠEG": 41513, "Ġretirement": 10737, "female": 24724, "IGN": 16284, "ONDON": 47383, "ond": 623, "Ġaffection": 17696, "Screen": 23901, "ĠXuan": 37746, "detail": 49170, "param": 17143, "Ġnurse": 15849, "utters": 46973, "puted": 17128, "ĠNavajo": 47380, "Ġproceeds": 15740, "370": 20167, "ĠNos": 32798, "Ġtease": 34691, "ĠInventory": 35772, "server": 15388, "ĠStar": 2907, "heed": 23616, "ibo": 26762, "Ġsight": 6504, "Ġrode": 22075, "Ġsolving": 18120, "igans": 34090, "Yu": 40728, "acle": 6008, "Ġty": 1259, "ĠVeter": 13525, "Ġnegligible": 36480, "ĠAge": 7129, "ĠZach": 18825, "Ġinsurgent": 46062, "ĠBeetle": 47464, "Ġduplication": 50124, "ĠVice": 11079, "ader": 5067, "oen": 6571, "Ġfract": 12999, "Ġlb": 18360, "wage": 21482, "ĠIslamic": 5533, "icol": 27045, "Ġ231": 34598, "Ġmonumental": 36364, "ĠBuddy": 36896, "Ġoutraged": 27697, "stantial": 41321, "ĠIndianapolis": 19362, "Ġsv": 38487, "mittedly": 43011, "zbollah": 21677, "articles": 26845, "Ġsender": 29788, "ĠWCS": 45410, "Nor": 21991, "Ġincor": 5970, "ĠFinal": 8125, "ĠHigh": 3334, "second": 12227, "Ġoblivious": 38603, "ĠAda": 47395, "IRC": 49060, "Ġlovely": 14081, "item": 9186, "ulence": 32401, "Ġathe": 13366, "ĠBernie": 10477, "Ġfrankly": 17813, "Ġpartially": 12387, "Ġflawless": 38870, "Ġgenerosity": 31569, "Ġunanimously": 28355, "BAT": 47379, "Ġcompeting": 11780, "ĠShy": 36838, "Ġ580": 41234, "<|extratoken_52|>": 50308, "ĠWild": 6183, "tag": 12985, "Sy": 13940, "zig": 38262, "Ġscree": 43465, "ĠSecret": 3943, "Ġtables": 8893, "Ġendors": 14621, "Ġrift": 36788, "Semitic": 28753, "Ġbrilliance": 37451, "workshop": 38067, "ĠMish": 39523, "057": 43526, "Ġpartisans": 39959, "Ġstunts": 49772, "Ġclips": 19166, "odi": 23130, "Ġ356": 44552, "ĠBarnett": 38174, "ĠToxic": 29274, "Ġaspect": 4843, "Ġexcerpt": 20911, "colo": 45745, "tering": 20212, "Ġcriteria": 9987, "Ġcerv": 28987, "ĠPresent": 21662, "Ġrelaxation": 34205, "357": 27277, "ĠOPEC": 49280, "ĠFantasy": 10982, "pard": 26037, "travel": 35927, "anta": 4910, "frame": 14535, "Ġliv": 17717, "Ġfaux": 36748, "iously": 6819, "ilogy": 19202, "ãĤ³": 24679, "Major": 24206, "ĠJaw": 40863, "Ġwee": 43671, "FIX": 47084, "Ġprintf": 30812, "Ġpamphlet": 42919, "Ġpack": 2353, "Ġplaus": 48923, "ipper": 14710, "Ġneocons": 43530, "Ġdownstream": 33218, "haul": 15194, "Ġreplication": 30330, "ĠDarth": 31152, "Ġcharcoal": 33512, "Ġes": 1658, "Ġadvertisements": 25210, "Ġvulnerability": 15131, "Dur": 36927, ".,\"": 44388, "Crew": 46724, "Ì¶": 48869, "ĠLeadership": 26935, "ĠRoger": 13637, "vind": 50172, "ĠWallace": 17161, "ĠLann": 39004, "Ġspontaneous": 25319, "Ġshapes": 15268, "Ġguns": 6541, "Ġmanip": 7704, "ĠBunny": 28683, "ĠHowe": 38320, "ĠDaniel": 7806, "Ġsubtitle": 37960, "ĠRohingya": 34016, "Ġtechno": 44950, "Paris": 40313, "ĠMosul": 19192, "let": 1616, "Ġfreshmen": 45208, "ãĥ³": 6527, "ĠCow": 10417, "ĠFormula": 19639, "ĠTo": 1675, "ĠUnfortunately": 8989, "Ġcultures": 13817, "ĠPlug": 22689, "CL": 5097, "ĠArs": 24230, "Ġnewer": 15064, "expensive": 22031, "ĠFlex": 26719, "mt": 16762, "wings": 48819, "Ġindicted": 27847, "Uncommon": 43023, "IAL": 12576, "Ġrecordings": 18813, "ĠWaste": 35304, "Ġstereotyp": 29248, "ĠStab": 49726, "matic": 13849, "åº": 41753, "players": 32399, "ĠDefeat": 41397, "now": 2197, "ĠHimal": 42438, "Ġgracious": 43210, "ĠBungie": 47593, "fin": 15643, "Alt": 29161, "ĠSpray": 43536, "fetched": 50012, "ĠClim": 28573, "efe": 22521, "Origin": 39688, "Ġcue": 28381, "ĠBal": 8528, "ĠHayden": 35805, "ĠHover": 38452, "aneously": 27683, "Pakistan": 38485, "Ġunilateral": 37095, "oche": 30848, "Ġ359": 41934, "finished": 43952, "team": 15097, "Ġinvaded": 26466, "Ġhumble": 19695, "zek": 43130, "ĠNamed": 34441, "abulary": 22528, "DR": 7707, "Ã¼": 9116, "Download": 10002, "Ġwonderfully": 33138, "ĠStronghold": 40092, "Ġneedless": 44658, "Balt": 41312, "respond": 5546, "ĠMUS": 39484, "ĠRIP": 44967, "Roberts": 45487, "osuke": 45914, "Ġvoicing": 47640, "ĠRamsay": 47959, "extra": 26086, "ĠPennsylvania": 9589, "ci": 979, "Ġunlocked": 14838, "Ġevidently": 27450, "ĠPing": 34263, "Ġfutile": 35322, "ĠOs": 8834, "Ġcalculator": 28260, "Ġmosa": 39788, "ĠQual": 9537, "ĠMitt": 16627, "Ġbones": 11945, "insula": 16495, "Ġholidays": 17122, "Ġimplement": 3494, "IDE": 14114, "Ġcontacting": 27390, "Ġtidal": 40738, "Ġpromotions": 20699, "Creat": 16719, "JA": 37048, "ĠSaturdays": 41703, "Ġphotons": 44378, "assian": 46091, "Ġbuds": 36402, "ĠPSP": 48651, "dark": 21953, "ĠLegion": 15778, "Ġpathway": 21182, "told": 44040, "Ġmicrobial": 36603, "Ġhappy": 3772, "Ġinsidious": 43732, "Ġfaked": 49184, "Ġrupture": 46836, "Ġnurturing": 47416, "Ġinstructors": 33667, "Ġassisting": 26508, "shr": 36007, "çĲ": 49426, "Ġmyths": 22886, "Stan": 32140, "Ġexceeding": 23353, "Policy": 36727, "Ġpokemon": 43962, "Ġrequired": 2672, "ĠClinic": 26690, "Ġcompromises": 38853, "Ġ=>": 5218, "Ġborders": 11637, "unique": 34642, "ĠSut": 45220, "Ġintruder": 48927, "Ġfulfilling": 26187, "Ġcommonly": 8811, "ĠEllis": 21299, "Ġroar": 34532, "Ġtanks": 11657, "975": 42716, "Ġblogger": 23530, "Ġheads": 6665, "Ġribs": 27105, "Ġappliance": 45248, "Ġpsy": 17331, "Ġsadd": 17766, "ĠCAR": 17368, "Ġtransported": 18665, "Ġsilk": 23938, "Ġraining": 43079, "Ġtheorist": 46410, "Imm": 24675, "121": 19244, "genic": 38516, "prises": 18166, "Ġlockout": 48449, "Ġserver": 4382, "Ġcouldn": 3521, "Ġaltogether": 13318, "Ġlicence": 17098, "irtual": 22341, "777": 29331, "Redd": 32259, "ĠTruman": 33027, "docs": 31628, "ĠRos": 10018, "Ġclothes": 8242, "Ġconstituency": 28280, "Ġplaced": 4624, "âĢł": 33912, "Ġpomp": 49435, "ĠâĶ": 13305, "Ġspanning": 32557, "Ġruns": 4539, "Row": 25166, "pointer": 29536, "ĠRuler": 31808, "shot": 9442, "ĠBoko": 40160, "Ġlen": 18896, "Ġvape": 44931, "ĠKro": 30088, "Ġhappiness": 12157, "igators": 25975, "stant": 18797, "ĠHeld": 44584, "matical": 44935, "mopolitan": 44331, "ccess": 1591, "Ġaward": 5764, "ĠCorpor": 8422, "rend": 10920, "âĸĳ": 22110, "ĠWalsh": 24104, "Ġathleticism": 35159, "Gil": 40747, "ld": 335, "Ġfulfilled": 23085, "icut": 13554, "ĠWinners": 42754, "dinand": 41993, "ĠPolo": 49341, "Ġunb": 22619, "support": 11284, "ĠVerse": 38641, "Ïĥ": 38392, "technical": 47944, "Ġstandard": 3210, "Follow": 7155, "aucuses": 38271, "Ġapartments": 19592, "Ġtactile": 48896, "Ġtomat": 23414, "vey": 3304, "Ġtradem": 12677, "ĠDouble": 11198, "Ġscal": 16578, "module": 21412, "ortium": 25182, "Ho": 28900, "118": 16817, "ĠOrt": 31427, "eight": 26022, "Ġmagnitude": 14735, "ĠVlad": 13080, "ĠAffairs": 10665, "Ġdement": 24251, "Ġunto": 12722, "Ġmassage": 26900, "ĠDanny": 15105, "ĠPartner": 35532, "ĠDor": 12528, "ĠCC": 12624, "Ġbelly": 19921, "Ġcelebrated": 13943, "RW": 46747, "Ġsquare": 6616, "Ġcockpit": 25762, "ĠJean": 11320, "Ġhiring": 12965, "Ġsuspects": 11826, "Examples": 27730, "Wik": 33010, "ĠColony": 34480, "mAh": 28142, "Ġscars": 31109, "well": 4053, "ĠJin": 17297, "aler": 36213, "Ġforbidden": 19467, "Ġ1000": 8576, "Ġdozens": 9264, "Ġcorros": 30329, "Manchester": 40744, "@#": 41573, "ĠSafe": 19978, "Ġtampering": 42471, "Ġexistence": 6224, "ĠWH": 7655, "aph": 6570, "Ġburn": 4245, "ointed": 20909, "Ġremission": 47829, "ĠChristian": 4302, "ĠXeon": 45266, "eyed": 18834, "Ġmac": 8352, "Ġacceleration": 20309, "Ġreconciliation": 27515, "rison": 7426, "Ġformer": 1966, "Ġstride": 33769, "BIT": 26094, "Ġexpr": 44052, "selection": 49283, "ĠPrincipal": 32641, "ĠQue": 4670, "Ġhurting": 21530, "'ve": 1053, "cho": 6679, "Ġlake": 13546, "ĠMI": 15789, "desc": 20147, "Ġgiveaways": 50020, "Ġcustod": 33702, "Ġcol": 951, "ĠFrankenstein": 45738, "Ġestablishes": 30742, "onal": 20996, "ĠRath": 26494, "ĠVernon": 27820, "ĠImpl": 34347, "ĠVegan": 34829, "raq": 3766, "Ġproviders": 9549, "iverpool": 10864, "Ġpractition": 17629, "Ġcoding": 19617, "Ġping": 29400, "Ġunprotected": 42069, "ĠGrammy": 42235, "ĠProfit": 42886, "Sham": 43478, "cut": 8968, "Ġscheduling": 26925, "adle": 35166, "Ġshatter": 45131, "Economic": 48307, "ĠDress": 33611, "iazep": 48826, "Ġcivilisation": 45605, "Ġveiled": 45694, "ĠTatt": 36711, "Ġresolves": 38709, "Ġbrown": 7586, "Ġinsert": 7550, "ĠViolet": 37111, "IVE": 9306, "Ġmayhem": 43744, "th": 400, "Because": 8128, "Ġvenom": 30318, "Water": 19184, "irts": 9682, "Ġchamber": 11847, "hold": 2946, "Ġtolerated": 28197, "Ġshameful": 34078, "Ġapples": 22514, "ĠPCB": 28700, "Ġflo": 5530, "ogenesis": 25908, "ĠGow": 41396, "Ġembell": 47399, "Ġclear": 1598, "ĠstrutConnector": 50009, "most": 1712, "ĠTO": 5390, "Ġextend": 9117, "Ġmedication": 14103, "________________": 4841, "ĠGuinea": 22777, "UPDATE": 16977, "ĠEnjoy": 18179, "ĠFans": 24964, "Ġnovelty": 31650, "erving": 14344, "ĠJeremy": 11753, "ĠTempest": 34367, "illas": 25314, "ateral": 10534, "Ġpopulous": 44042, "Ġdisk": 11898, "appy": 7774, "uitous": 42412, "èĥ": 47797, "ĠRab": 28559, "Ġarrives": 14443, "Ġrespiratory": 22949, "Ġconceptual": 23355, "Bet": 13056, "andom": 3749, "gement": 16025, "asse": 21612, "ĠVR": 6453, "ĠBecame": 30769, "Ġblending": 34863, "ĠOmaha": 37053, "\":\"": 2404, "ĠCharl": 6258, "ĠPatriots": 13104, "Ġobjectives": 15221, "Ġbatch": 15458, "ĠTories": 25098, "Ġ233": 30435, "Ġrepresents": 6870, "Ġoccupying": 30876, "Ġpunt": 35363, "Ġshoulder": 8163, "ĠSkills": 20389, "kr": 38584, "excluding": 42218, "ĠQuest": 6785, "ĠAnyway": 21836, "Ġelectr": 30880, "Ġlo": 2376, "Ġunique": 3748, "orry": 5152, "ĠGov": 10964, "Ġunic": 28000, "Ġsofter": 32359, "Ġprecaution": 32992, "ĠStream": 13860, "Ġbruising": 45468, "Ġhelper": 31904, "wu": 43812, "capt": 27144, "bomb": 27657, "BS": 4462, "ence": 594, "Ġedges": 13015, "Ġtender": 15403, "uci": 42008, "Ġrabbi": 47326, "ĠSpo": 49331, "Sher": 28782, "Ġtransgender": 10637, "Ġdiscriminated": 41117, "Ġsizeable": 47225, "ĠALWAYS": 49576, "Ġinspections": 30287, "Ġuniversities": 11155, "Ġamput": 40338, "Ġyoungster": 40944, "ĠPASS": 41752, "Ġdeal": 1730, "Ġinterventions": 19901, "ĠViol": 13085, "Ġrichest": 24348, "ĠConversation": 42427, "ĠScarlett": 45046, "Ġsympathy": 20242, "ĠFinn": 15368, "Ġsolicitation": 47770, "berry": 8396, "VP": 8859, "ĠBerlin": 11307, "rites": 23156, "io": 952, "awk": 19301, "ĠBuc": 23627, "Ġdynamically": 32366, "Ġ520": 36141, "ĠWast": 32929, "Ġglor": 26996, "104": 13464, "assets": 19668, "ĠArabia": 9671, "Ġinherent": 11519, "Ġprofessors": 20339, "ĠFrancois": 40419, "Ġax": 7877, "Ġtuition": 18385, "Ġslack": 30740, "usional": 41780, "ĠBelief": 49728, "Ġfridge": 25772, "ĠCompliance": 40536, "ĠConcepts": 50053, "Ġintervened": 35018, "ATING": 33881, "ĠHospital": 9256, "Ġterminated": 23083, "lin": 2815, "Ġschool": 1524, "ME": 11682, "history": 23569, "rington": 24833, "Ġmenus": 26798, "Ġroom": 2119, "ĠSP": 6226, "gon": 14520, "ĠInsect": 36652, "Ġesports": 37407, "enario": 39055, "qt": 39568, "Ġseparately": 13869, "Ġlawfully": 41095, "inkle": 19894, "ĠPoker": 36157, "Ġbible": 41169, "ĠLikewise": 22660, "Ġafforded": 28109, "ĠMex": 4413, "Ġreassure": 37762, "ĠCoulter": 47248, "537": 46096, "ĠRite": 47810, "Ġsqueezing": 40237, "Ġgazing": 50234, "Ġhastily": 37205, "otos": 14163, "ĠBowl": 8693, "Ġprosecuted": 23086, "Ġsettling": 25446, "Ġns": 36545, "ĠSeym": 42543, "aundering": 23496, "Ġmonop": 15848, "Ġ1050": 47235, "Ġpromot": 4256, "PRES": 48296, "Forest": 34605, "Ġsanction": 18830, "aker": 3110, "Ġblessing": 20027, "achusetts": 9770, "ĠDrain": 36024, "STDOUT": 36886, "Sil": 15086, "Ġodor": 28192, "Ġcompeted": 32440, "Ġpreferable": 33887, "Ġactual": 4036, "Ġnerve": 16384, "Ġbuilt": 3170, "Ġvent": 7435, "wagon": 41127, "iances": 16097, "Sa": 33890, "Ġaided": 28310, "ĠCory": 28785, "ĠSiri": 34461, "try": 28311, "liberal": 35739, "Ġsponsors": 18073, "ĠDreams": 21527, "Ġfoothold": 48271, "working": 16090, "Ġemerge": 14740, "Ġgrams": 16379, "Ġaffected": 5676, "iblical": 16897, "Ġ10": 838, "lets": 5289, "ĠKoh": 24754, "Ġdemolished": 33359, "Ġexited": 34710, "ĠIA": 35229, "Ġpull": 2834, "ĠChester": 26943, "Ġangered": 31997, "tel": 37524, "boxing": 45471, "Ġhorde": 43940, "ĠBelgium": 15664, "Ġliterally": 7360, "ĠSims": 25343, "Ġthrough": 832, "Clinton": 16549, "Ġleaping": 45583, "Ġbulbs": 34122, "ALLY": 19807, "Rock": 19665, "ĠBark": 20511, "Ġweighing": 21990, "han": 7637, "Ġfraternity": 32474, "Ġchoir": 42644, "chapter": 43582, "Ġpresiding": 44851, "Ġapplication": 3586, "collar": 37676, "Ġprevailing": 26602, "bands": 21397, "---": 6329, "ĠPoison": 19357, "anamo": 33524, "Ġhalted": 27771, "Ġbanned": 9301, "Ġ1924": 37547, "chard": 30215, "Ġbarr": 29069, "ĠBilly": 15890, "Ġthrowing": 9644, "Ġattempts": 6370, "Ġexpans": 20628, "alyses": 43710, "ĠJR": 32598, "ĠTrack": 17762, "ĠCunning": 30249, "ĠWoodward": 40782, "ĠChoice": 18502, "other": 847, "imately": 3358, "lf": 1652, "Ġoutfield": 28307, "orsche": 26164, "llular": 32771, "Ġsavvy": 32800, "otes": 6421, "oux": 22193, "ĠÂ«": 21110, "ĠDri": 5809, "Ġmanufacture": 6161, "Ġphones": 9512, "Ġtongue": 11880, "Ġwhatever": 4232, "Ġcider": 36930, "Ġgroceries": 38464, "441": 39710, "Ġweak": 4939, "ĠButton": 20969, "debug": 24442, "Ġolds": 44979, "Ġasses": 50201, "Ġrel": 823, "uction": 8110, "Ġweighted": 26356, "Ġdoub": 3385, "Ġdrinking": 7722, "Ġalum": 46518, "Taking": 26556, "WOR": 45359, "Ġstops": 9911, "orne": 8553, "idian": 19825, "ĠHK": 31440, "ĠCoal": 12896, "Ġmicrophone": 21822, "Ġperspectives": 22582, "Ġbush": 24484, "OU": 2606, "Ġdifferent": 1180, "asts": 5773, "ĠTaj": 32490, "ĠCig": 32616, "Ġcommand": 3141, "ĠArts": 11536, "Ġautumn": 23608, "ĠJudy": 26395, "Ġprescriptions": 34092, "ĠFeather": 34501, "ocrat": 35128, "oti": 5092, "essor": 5987, "Ġindependents": 35576, "ĠLama": 36187, "Ġindoctr": 41201, "Ġremembered": 12086, "aido": 44354, "Ġendorsing": 38379, "033": 44427, "Ġalleges": 24763, "ĠVance": 40154, "ĠSutherland": 47793, "Ġcro": 6763, "Ġlamp": 20450, "Ġglad": 9675, "Ġestablishments": 33228, "Ġsweets": 42402, "houses": 20089, "Ġph": 872, "ĠPreviously": 29875, "Ġvim": 43907, "ĠSpock": 37945, "Ġchatter": 37303, "Ġhaste": 36797, "ĠPrice": 7886, "Ġhorizon": 17810, "ĠMont": 5575, "Ġinterpre": 16795, "ĠShiite": 31445, "Ġdraining": 35939, "Ġineffective": 23693, "ĠHuss": 35085, "ĠCynthia": 40897, "ĠProduction": 19174, "ĠRosen": 15564, "ĠContains": 49850, "745": 50150, "Ġpreserved": 17232, "Ġ232": 31773, "ĠFedora": 32245, "Ġ1967": 15904, "Ġstandoff": 33379, "ĠNorn": 34121, "Ġprisons": 19224, "Manager": 13511, "Ġexits": 30151, "Ġramp": 10454, "agall": 44906, "\"><": 22039, "urate": 15537, "Ġtactic": 18543, "Ġwoodland": 49609, "ĠVet": 49744, "rase": 22789, "ĠThorn": 31422, "Ġonboard": 25863, "Ġeducating": 36267, "Gallery": 29352, "o": 78, "Ġimaginative": 41138, "ĠRally": 27752, "Ġextr": 22820, "Ġmantra": 32628, "Want": 19633, "Ġseemed": 3947, "ĠThinking": 30707, "stab": 39029, "Ġacross": 1973, "Maybe": 13300, "Ġpreventive": 37197, "agles": 37803, "Animal": 40002, "P": 47, "Ġfru": 12658, "Ġstripes": 28806, "Ġmaple": 31377, "ĠCASE": 42001, "endo": 31110, "associated": 32852, "pit": 15544, "ĠMonk": 28854, "Ġblob": 44812, "umblr": 15566, "ido": 17305, "Ġquotes": 13386, "ĠNam": 17871, "ĠNeutral": 25627, "ryan": 29038, "ĠRebell": 32032, "ĠYorker": 27980, "gerald": 26941, "ĠShit": 41356, "ĠUNIVERS": 49677, "ĠRept": 44319, "ĠIsh": 24303, "Ġaristocracy": 50025, "Ġdisadvant": 14560, "resist": 35119, "Ġobliter": 35722, "Ġvideot": 35026, "Ġinfer": 13249, "ĠLouise": 31774, "encer": 12137, "twitch": 31844, "Ranked": 36713, "EFF": 37267, "ĠWrap": 41028, "Ġdrone": 12170, "ĠMembership": 37939, "Ġheater": 39844, "Christopher": 38025, "Radio": 26093, "ĠMoran": 42705, "ĠFaces": 48463, "ĠBecause": 4362, "Ġgone": 3750, "cutting": 29753, "insky": 19870, "Ġintestinal": 32031, "ate": 378, "Ġample": 23933, "Ġstrap": 23016, "Ġstripped": 18818, "Ġdummy": 31548, "Ġblown": 16318, "ãģ£": 33180, "Ġevolution": 6954, "Ġimpe": 18516, "ĠGuid": 37026, "ĠNIGHT": 37707, "Ġcosmos": 39385, "Ġcountering": 50043, "anted": 4126, "Ġmoderates": 47019, "394": 34626, "Ġminimized": 49491, "ĠColumbus": 14939, "Ġmurders": 17162, "rel": 2411, "Ġhyd": 7409, "pires": 17833, "Ġscrewed": 27527, "OWER": 36048, "Ġcaut": 17258, "Ġnotion": 9495, "ĠApps": 27710, "ĠUnloaded": 25926, "Ġsurging": 44298, "Ġlevels": 2974, "ĠEmil": 44272, "Ġrecomb": 44759, "ĠNikola": 47817, "Ġbourgeoisie": 34562, "Ġapplicable": 9723, "Ġdistributing": 25950, "ĠCrossing": 31910, "1981": 35411, "ĠAnita": 38992, "ĠGenetics": 43574, "Ġcunt": 40267, "alities": 27969, "Ġmatter": 2300, "<|extratoken_21|>": 50277, "ĠClin": 11834, "Ġfigur": 31474, "ĠGoldstein": 45655, "Ġperimeter": 25317, "ĠEdwards": 17381, "Ġbubble": 14310, "hou": 15710, "Ġhonored": 21014, "ĠGam": 14014, "Ġoffering": 6011, "Ġsuspense": 43527, "circle": 45597, "ĠResp": 10328, "ĠMalays": 12230, "Ġmins": 23550, "Ġkindness": 23887, "ĠKanye": 27775, "Ġdiscounts": 25684, "ĠGreens": 18753, "Ġdragons": 20308, "ĠThanks": 6930, "Ġcartel": 34430, "ĠClasses": 38884, "Ġprofessional": 4708, "Ġintake": 10337, "Ġemployed": 9322, "French": 24111, "gb": 22296, "aro": 12022, "ĠRebellion": 34848, "ĠNut": 11959, "\"âĢ¦": 24426, "ulkan": 31263, "Ġsexually": 11363, "ĻĤ": 25081, "Ġrapp": 29106, "ĠTweet": 18752, "Ġoutbreaks": 35198, "ĠCOUR": 37384, "MAT": 41636, "athan": 6696, "ĠDRAG": 44779, "Applic": 33583, "qi": 40603, "Ġrink": 47925, "Ġpassed": 3804, "ĠOmn": 31816, "Ġgul": 47161, "456": 29228, "JM": 50229, "aming": 3723, "ĠWinc": 35898, "Ġfemale": 4048, "Ġsolo": 12199, "Ġauditory": 38949, "Ġredacted": 44740, "ĠTroy": 21439, "ĠHerb": 34858, "Ġplag": 19640, "Ġagricultural": 14240, "Ġmaneu": 16136, "Ġhasht": 20267, "Ġyoga": 20351, "ietal": 21587, "Ġsoon": 2582, "Ġhorse": 8223, "Ġreply": 10971, "Ġthus": 4145, "Ġcure": 13996, "othes": 31690, "ĠCt": 43166, "ĠKab": 28793, "ĠNaples": 49404, "Writing": 33874, "Ġphysicists": 37898, "ifter": 18171, "rotein": 35574, "wen": 21006, "!.": 43179, "cel": 5276, "posed": 29813, "Ġ425": 36959, "coded": 40976, "Ġbursting": 37493, "Ġpremature": 19905, "ishi": 21644, "Ġansw": 2590, "Ġsurfaced": 23786, "Ġhorns": 26771, "Ġsulph": 45558, "Ġwild": 4295, "iew": 769, "ĠHUM": 45850, "Ġvalid": 4938, "Ġorganisers": 43013, "ĠCath": 6250, "Ġvit": 9090, "Ġpassword": 9206, "Ġrecipe": 8364, "Sab": 39646, "Ġ..........": 39864, "leaning": 25909, "ĠVal": 3254, "Ġunless": 4556, "block": 9967, "Ġtoler": 8214, "MO": 11770, "Ġdrowned": 30859, "Ġdistort": 30867, "izz": 6457, "Ġfacult": 45101, "ĠHate": 28334, "iology": 12371, "Ġserves": 9179, "Ġtox": 8293, "ĠMagnus": 35451, "ĠButterfly": 39108, "ĠPair": 39645, "ĠSeason": 7369, "ĠProper": 45989, "Ġarise": 15058, "Ġtemporary": 8584, "Ġunp": 8593, "ĠMoment": 29278, "ĠFellow": 29764, "destroy": 41659, "Ġepis": 48177, "Carter": 49958, "Ġhath": 22027, "ivia": 20817, "IT": 2043, "Ġsweats": 39387, "Ġskepticism": 25858, "urses": 46998, "haps": 2772, "Ġear": 1027, "ĠArray": 15690, "Dem": 11522, "Ġprotesting": 23655, "Ġstage": 3800, "Ġtranslator": 33417, "binary": 39491, "Ġdudes": 34578, "ĠNah": 35201, "Ġprenatal": 43228, "Ġscalable": 43865, "<|extratoken_18|>": 50274, "ĠSuccess": 16282, "Ġinfringement": 23059, "Ġenjoying": 13226, "Ġprovoke": 29791, "ĠCreek": 13509, "NOR": 35510, "opsis": 24608, "Ġhandsome": 22665, "MORE": 23346, "ĠTelesc": 34495, "ĠPeriod": 18581, "ĠSkywalker": 29715, "ĠMistress": 38499, "dan": 25604, "Ġsecuring": 19732, "Educ": 33380, "ĠHop": 9996, "lander": 16235, "ĠEmployees": 30260, "Ġmechanic": 21600, "ashtra": 38535, "Ġlearns": 22974, "Ġquake": 36606, "Cry": 26677, "Repe": 47541, "fb": 21855, "erman": 2224, "Ġscreens": 8947, "Ġinfinity": 37174, "oko": 16044, "ĠPricing": 45030, "ailed": 6255, "Ġprom": 1552, "1992": 23847, "ĠSays": 28628, "ĠTHIS": 12680, "laughs": 28124, "Ġplots": 21528, "Sarah": 29284, "Ġresear": 4027, "ĠPlaces": 37291, "<|extratoken_29|>": 50285, "Ġmelanch": 40853, "Ġsocialists": 43005, "ĠFreeBSD": 35841, "Ġunh": 14274, "ĠDSL": 32643, "olla": 33011, "Ġplains": 36149, "Ġnervously": 43324, "Ġpunishable": 30124, "olithic": 30764, "Netflix": 42826, "Ġnamed": 3706, "ħĭ": 26534, "Ġarchives": 22415, "Ġlooming": 28236, "Ġbull": 6473, "enders": 7338, "ocate": 13369, "Ġrusty": 47855, "ittance": 47912, "Ġswapped": 37245, "Ġ368": 43019, "Ġvis": 1490, "Ġspeakers": 11636, "ĠTyr": 14319, "goal": 35231, "Ġtaste": 6938, "ĠHein": 26431, "Ġç": 13328, "ĠMinimum": 26265, "Ġsoak": 33182, "WOOD": 49466, "Ġmeasure": 3953, "ĠProxy": 38027, "Ġhighest": 4511, "ĠGlobe": 18260, "ĠPatriot": 26888, "Ġleapt": 43713, "Tr": 2898, "udge": 12587, "Ġreadable": 31744, "Ġabnormalities": 34615, "ĠBrigham": 37434, "ilt": 2326, "Ġvia": 2884, "ĠAwesome": 25020, "ĠExtended": 24204, "Ġinstitutions": 6712, "Ġyou": 345, "sil": 18217, "flat": 38568, "Ġsynopsis": 48830, "Ġ132": 21761, "Ġdimensions": 15225, "ervation": 13208, "ĠLunar": 31947, "posal": 40007, "Ġunwanted": 19125, "Ġtelling": 5149, "ĠStyles": 44963, "Ġenrol": 34311, "ĠUnle": 36471, "ĠLikely": 45974, "ĠAZ": 26253, "Ġgiant": 6175, "Ġcorrect": 3376, "Ġsigning": 8415, "Ġwhoever": 16958, "Alert": 36420, "even": 10197, "Adv": 22856, "zai": 35142, "ĠTIT": 37977, "juven": 39427, "Ġbribes": 39926, "Ġgathering": 11228, "Ġheadquartered": 48583, "edo": 24757, "rig": 4359, "Ġanarchism": 41661, "Ġworkers": 3259, "ĠAad": 38746, "FACE": 49836, "Ġsolitude": 49917, "ĠSan": 2986, "Ġchrom": 15358, "Ġterritorial": 22414, "Ġgin": 39733, "Ġmail": 6920, "Ġfeminists": 22742, "Ġsprings": 24747, "Ġprojectiles": 33281, "Ġfountain": 29420, "ĠApostles": 43331, "NK": 46888, "Ġentitle": 44594, "ĠLange": 47579, "Ġexclude": 19607, "Ġ09": 7769, "Ġpanc": 22154, "mers": 11056, "Ġundisclosed": 33457, "Ġpg": 23241, "Ġdrummer": 34269, "ghan": 6064, "ĠTER": 28994, "shall": 49271, "ĠAlpine": 46994, "Ġindemn": 47846, "Ġgig": 12526, "romy": 50228, "hel": 2978, "Ġselection": 6356, "Ġpale": 14005, "Ġcitations": 33499, "Ġdelic": 8675, "ĠCGI": 36378, "ĠFinch": 45277, "anny": 7737, "ĠShel": 15325, "berg": 3900, "ĠDrew": 18624, "ĠNo": 1400, "Ġcleans": 20658, "Ġpeas": 22589, "Ġcontamination": 22733, "ĠHonestly": 34173, "Ġsolicit": 25063, "bell": 7923, "Tube": 6876, "Ġtransforms": 31408, "ĠHerbert": 28648, "Ġwid": 9214, "ĠYPG": 42967, "Ġaccount": 1848, "Ġsubjected": 16164, "obil": 25898, "Ġsubscriptions": 35675, "Ġlapt": 10882, "ĠComput": 22476, "resistant": 26128, "Ġrun": 1057, "ual": 723, "âĢ¦.": 11580, "ĠJu": 12585, "ĠAlert": 23276, "arser": 28198, "Limited": 37214, "ĠWednesday": 3583, "strate": 23104, "Ġsixty": 24742, "Mini": 39234, "Ġsleepy": 42023, "ĠMrs": 9074, "Ġhal": 10284, "asonic": 30189, "Ġcellar": 45164, "Ġknocked": 13642, "ĠWikipedia": 15312, "Ġinterfering": 32874, "inding": 6020, "ĠCards": 15824, "Ġfusion": 21748, "Okay": 16454, "Ġjog": 48342, "ĠOri": 17954, "ĠNightmare": 23951, "fortable": 12065, "ĠEmails": 39617, "ĠYs": 43740, "recogn": 26243, "ĠWesley": 28634, "Tonight": 43783, "Ġcrowd": 4315, "Ġdidn": 1422, "inge": 11912, "ihar": 38405, "Ġslave": 11778, "lyn": 6213, "ĠEmpire": 8065, "Ġconfessed": 25623, "ĠThames": 42521, "Ptr": 46745, "Another": 6610, "phasis": 28432, "GB": 4579, "ĠBash": 15743, "Ġquickest": 46264, "ĠSamson": 47977, "ĠHert": 40030, "Ġanarchist": 26177, "Eye": 24876, "åį": 39355, "ĠPets": 43578, "service": 15271, "Naz": 37235, "ĠLadies": 37401, "ĠJav": 49247, "Ġpush": 4574, "Ġkernels": 50207, "OWN": 14165, "ĠFoot": 7870, "Ġ298": 37576, "ĠLocations": 41277, "Ġpatriarchy": 41932, "Ġguaranteeing": 50156, "Maps": 47010, "Ġantibiotics": 22392, "ĠSantorum": 34008, "Ġra": 2179, "ĠStores": 41835, "ivals": 10336, "Ġlayoffs": 41965, "670": 43798, "ubis": 46676, "Ġsurprise": 5975, "ĠResident": 22373, "Bench": 44199, "'m": 1101, "Ġbank": 3331, "ĠCarrier": 30252, "Ġdavid": 21970, "Ġlongevity": 28188, "ience": 1240, "edes": 37507, "ĠMacy": 50048, "Ġsent": 1908, "ĠAtlantis": 34779, "ĠDiscover": 29704, "ĠSacramento": 19375, "Ġ540": 38190, "itte": 2654, "ĠCthulhu": 39316, "Ġect": 46080, "ĠMississippi": 13797, "lake": 27180, "ãĥĻ": 35604, "Ġmosqu": 22263, "Ġdefault": 4277, "ĠOlivia": 33911, "pathy": 16786, "ĠTig": 14189, "Ġcement": 20534, "sighted": 44068, "Ġlifespan": 30458, "Ġbright": 6016, "cell": 3846, "Ġreplacement": 9014, "Ġcannabinoids": 46830, "33": 2091, "Ġreaches": 12229, "Ġenlist": 33858, "ĠAugustus": 48339, "Ġcavern": 33932, "676": 42548, "Ġharm": 4419, "ĠRout": 39602, "Mer": 13102, "Ġidiot": 22324, "712": 49517, "Ġbehind": 2157, "Ġlatitude": 32477, "Ġallege": 33831, "ouston": 6526, "arians": 13517, "Ġlied": 19837, "Ġroyalty": 29359, "Ġboasted": 32758, "ĠAnat": 28880, "ĠSenior": 14017, "ĠPersian": 22035, "eme": 34755, "esthetic": 37531, "Ġ__": 11593, "ĠEVs": 46229, "ĠHobby": 44327, "mediate": 13857, "ĠScale": 21589, "ĠDownload": 10472, "ĠRush": 13063, "ĠEnter": 6062, "Ġcontradict": 18372, "Ġevapor": 28959, "Ġafternoon": 6672, "ĠEL": 17852, "Ġmissing": 4814, "antasy": 34921, "Obama": 15948, "Vel": 46261, "'\"": 29653, "phrase": 34675, "93": 6052, "ixir": 32345, "ĠRohing": 32571, "Ġsea": 5417, "ĠDen": 5601, "Ġgenders": 38054, "extremely": 41073, "Italy": 45001, "Ask": 25214, "À": 124, "cence": 43696, "Ġtimers": 48085, "ĠHaitian": 48723, "Ġcatapult": 48786, "Ġinvesting": 14771, "acion": 49443, "Ġquotations": 50056, "uben": 44636, "usal": 6775, "Learning": 41730, "ĠSpringfield": 27874, "ĠFROM": 16034, "Ġi": 1312, "ĠPirate": 17418, "Ġtrophies": 21732, "Ġsuffers": 21046, "ĠTeams": 24690, "ĠInd": 1423, "Ġflick": 26810, "Ġcounterterrorism": 36573, "Ġloses": 14754, "Ġafter": 706, "Ġillness": 8526, "604": 31916, "ĠObjects": 35832, "Email": 15333, "äºº": 21689, "iant": 3014, "Ġaccepted": 6292, "ĠIowa": 9406, "Ġsteam": 13324, "ĠâĢķ": 21096, "Ġpic": 8301, "ĠShir": 21972, "ĠBarry": 14488, "Ġchorus": 26441, "Ġpay": 1414, "Ġinward": 29879, "Ġleaned": 23831, "56": 3980, "Dream": 30571, "ĠBlanc": 37544, "Ġdegraded": 41604, "Ġacidic": 42987, "Ġ********************************": 41906, "monds": 42620, "ENE": 39267, "Virginia": 41017, "Ġintegrate": 19386, "Ġpedestrians": 26735, "VERSION": 43717, "Bytes": 45992, "Ġlair": 49451, "Linux": 19314, "WASHINGTON": 21793, "specific": 11423, "ĠEli": 25204, "Ġfeedback": 7538, "Â»": 17730, "ĠNOT": 5626, "Ġopt": 2172, "othe": 20388, "Ġsubmarine": 24927, "ĠCruise": 29147, "Ġtempting": 29850, "Ġdeparting": 37717, "Ġtantal": 46937, "Ġelusive": 29885, "oe": 2577, "False": 25101, "ĠPrinting": 44118, "[/": 13412, "ĠChanging": 33680, "Ġrepealing": 42753, "ãĤ´ãĥ³": 22997, "Ġmilitary": 2422, "Ġdot": 16605, "Installation": 30838, "Jump": 36046, "ĠâĶľ": 33468, "orts": 2096, "lance": 23215, "ĠKislyak": 46467, "charge": 10136, "Ġmurderer": 29262, "str": 2536, "Ġdef": 825, "peat": 18267, "Ġdepth": 6795, "Ġmeg": 17243, "Ġtorch": 28034, "erest": 1260, "ctrl": 44755, "ĠMasonic": 47237, "ĠDennis": 16902, "Ġderail": 33749, "Ġperspective": 6650, "Ġcommissioner": 16248, "uda": 15339, "Fall": 24750, "Ġrazor": 26811, "OTUS": 39205, "\\'": 43054, "ĠPalo": 44878, "alist": 49845, "ele": 11129, "783": 50165, "pty": 5835, "ĠCharm": 30225, "reverse": 50188, "erva": 32775, "Ġterror": 3246, "folk": 19956, "ĠEther": 20017, "ĠRupert": 34315, "obb": 21963, "Ġmattress": 33388, "ĠDisplay": 16531, "ĠDyn": 39530, "ĠYok": 45138, "OSED": 48751, "hattan": 12904, "ĠBle": 17175, "Ġarises": 22068, "ĠAlberto": 40649, "ĠTun": 13932, "ĠNixon": 16642, "156": 21599, "Ġexcuse": 12226, "ĠPike": 29539, "Ġpaired": 20312, "ĠGallery": 12917, "Ġpractitioners": 24068, "ĠPru": 35511, "ampoo": 40239, "Ġreproduction": 20728, "ĠKnights": 15188, "ĠArmed": 16657, "Ġsocialism": 19803, "ĠVe": 8016, "Ġgraduates": 19087, "ĠSam": 3409, "Ġwarming": 9917, "ĠEveryone": 11075, "Ġheter": 14445, "Ġtops": 21246, "Ġexhibited": 25212, "ĠGust": 26657, "ĠLotus": 27578, "uple": 29291, "ulo": 43348, "Ġprincipled": 48070, "Ġgeop": 30324, "ĠFurther": 7735, "Ġgrease": 35537, "ĠTaxes": 42260, "751": 48365, "<|extratoken_111|>": 50367, "lict": 13758, "Ġabsolute": 4112, "ĠScala": 38334, "Ġdepended": 33785, "zinski": 46394, "Department": 36261, "Ġrecal": 42653, "Ġpapers": 9473, "Pal": 11531, "Ġpoly": 7514, "Ġyourselves": 27012, "ĠGeo": 32960, "Ġproficient": 39318, "Ġfront": 2166, "Ġmonth": 1227, "Ġjumping": 14284, "Ġmodulation": 39007, "ĠBundes": 33816, "ĠStard": 40042, "ressor": 44292, "Ġricher": 26192, "195": 22186, "Ġroared": 45615, "politics": 34127, "Ġcounted": 14789, "Ġlewd": 45179, "ĠJava": 7349, "Ġarmor": 8328, "abul": 16665, "In": 818, "ĠChero": 37156, "Ġtitan": 48047, "xious": 48392, "izard": 8669, "ear": 451, "ĠIgnore": 41032, "ĠSec": 1882, "ĠWildcats": 46011, "ĠHoms": 47778, "Ġsnag": 48456, "Ġcrops": 14450, "ĠAlv": 33414, "Bottom": 34104, "Ġparad": 11497, "Ġunderscores": 41731, "Ġstigmat": 43603, "Ġwhims": 38411, "Ġcouple": 3155, "Ġapparel": 34273, "Ġdrainage": 37664, "astical": 32044, "Ġwide": 3094, "ĠVO": 30578, "Ġconservatism": 33933, "IGHTS": 34874, "Ġrepositories": 38072, "Ġaccrued": 43802, "Ě": 214, "Huh": 46010, "Ġspoiled": 34781, "Ġrandom": 4738, "WHERE": 47357, "ijah": 32778, "emetery": 19785, "ĠDifferent": 20615, "Ġsour": 11348, "wid": 28029, "Ġabiding": 48637, "ural": 1523, "token": 30001, "Maker": 48890, "cipline": 34647, "ĠJobs": 19161, "Ġliability": 12247, "IER": 38311, "ĠPv": 18367, "Ġdrained": 29738, "ĠEUR": 27526, "IRED": 37819, "Ġshove": 38332, "ĠBeg": 47479, "Ġmismatch": 46318, "Ġvictory": 5373, "ĠMaiden": 30591, "Ġidentification": 11795, "igne": 48946, "emonic": 50016, "ĠJenner": 39760, "bs": 1443, "oner": 14491, "ospace": 24912, "ocon": 36221, "gyn": 40183, "list": 4868, "Ġcrafts": 28229, "Ġsod": 32581, "ĠJude": 30044, "Instance": 33384, "Critical": 41000, "Ġankles": 42415, "onga": 44294, "ĠKarachi": 46154, "emark": 47626, "ĠDecember": 3426, "Ġremed": 20100, "etting": 35463, "ĠMOV": 28184, "ĠAngle": 42375, "Ġ850": 30607, "ĠGu": 1962, "ĠAng": 2895, "Labour": 32475, "ĠHob": 17073, "Ġincompetence": 39674, "Ġsocialist": 15889, "ĠSolitaire": 28762, "itness": 3659, "urst": 24962, "abc": 39305, "Ġspills": 42123, "ĠFitz": 16703, "Ġfrog": 21264, "ĠTelegraph": 21821, "Ġunacceptable": 18010, "Ġpersisted": 33264, "Ġscaven": 35998, "Ġavenue": 36132, "Ġdialog": 17310, "storm": 12135, "ousands": 19983, "ĠTeam": 4816, "ĠEgyptian": 14075, "ĠCBO": 38260, "mil": 25433, "owl": 4883, "Ġwards": 32710, "ĠTitanium": 49635, "hra": 45056, "ĠAck": 36031, "Ġfed": 11672, "packed": 34860, "Bow": 39961, "Ġswirling": 40431, "Ġninja": 37049, "ĠLTD": 42513, "ĠArsenal": 13837, "ĠSle": 19498, "Ġstatement": 2643, "762": 48194, "Ġuptick": 46347, "ĠGrim": 17525, "icas": 44645, "Ġinfluencing": 32596, "ĠIntrodu": 11036, "Ġorc": 26393, "Ġdiarr": 30409, "Phoenix": 36422, "Ġ276": 38147, "Without": 16249, "ĠSw": 2451, "ĠDartmouth": 47888, "Ġtask": 4876, "Ø±": 26897, "ĠLime": 43503, "Ġdeprived": 26215, "Anth": 30327, "Ġfirsthand": 37318, "Ġapopt": 46554, "ĠQ": 1195, "Ġgodd": 17495, "ĠTow": 24324, "ĠHELP": 49944, "ĠRh": 10323, "Ġpurchased": 8155, "ARE": 12203, "Ġcoh": 16883, "Ġ...": 2644, "Ac": 12832, "Tem": 12966, "Ġcounteract": 47578, "Ġbar": 2318, "Ġsnaps": 23429, "Lock": 25392, "ĠSeeing": 25913, "Sch": 14874, "Ġ1921": 35369, "ĠAdvoc": 37866, "Ġbuggy": 46542, "ĠDestiny": 17886, "273": 27367, "Ġcandidate": 4540, "NOW": 45669, "Ġanimate": 43828, "Ġabandoned": 9958, "Ġceases": 42217, "ĠGol": 26849, "Ġrallied": 32537, "Ġbreakfast": 12607, "ĠMarkus": 46013, "ĠAmong": 9754, "ĠMarc": 13067, "Ġhorm": 12241, "ĠFlow": 27782, "ied": 798, "ĠMiguel": 29825, "Ġcess": 30173, "ĠVarious": 26386, "Ġrobes": 32970, "Ġbirthday": 10955, "Ġ-----": 37404, "mann": 9038, "like": 2339, "ĠEmperor": 10851, "amd": 28745, "Ġec": 9940, "292": 32759, "Ġdismantle": 37890, "Ġconglomer": 38092, "Ġstacks": 24285, "ĠCross": 6372, "ĠZoom": 40305, "ĠStory": 8362, "ĠFeatured": 38188, "Ġlowered": 17788, "prefix": 40290, "Ġresent": 20315, "Ġsteer": 27401, "aday": 43593, "ĠChild": 5932, "ridor": 44425, "nuts": 31381, "Ġbil": 47027, "Ġcaught": 4978, "terday": 6432, "Ġobtain": 7330, "Ġmatters": 6067, "ĠPrepare": 43426, "Ġhar": 3971, "Ġcaveats": 47155, "ĠLF": 47629, "jpg": 9479, "Ġje": 11223, "ĠLabs": 23500, "rad": 6335, "omb": 2381, "alkyrie": 21316, "Ġawhile": 27416, "Ġbrist": 48197, "Ġbreathe": 18044, "Ġgrabbing": 23256, "Ġmercury": 27394, "Ġcropped": 48998, "Ġconcentrated": 17298, "Ġredd": 14688, "ĠContinuous": 45012, "ocked": 3543, "Making": 23874, "ĠSieg": 42970, "Ġdiminished": 23476, "anches": 12140, "Ġlore": 24044, "ĠCommodore": 48808, "EE": 6500, "Ġrou": 13805, "ĠBlair": 18520, "ophobic": 23468, "ĠLoren": 32035, "ĠPRODUCT": 41458, "Ġqueues": 43359, "Ġmaze": 31237, "Ġhires": 37097, "Ġthing": 1517, "Ġsums": 21784, "ung": 2150, "Ġcontingent": 25477, "Ġcompletely": 3190, "ont": 756, "urb": 5945, "Ġfamed": 28331, "Ġkiller": 11868, "Ġp": 279, "Commun": 30813, "ĠRider": 16414, "ĠKus": 49320, "Ġinc": 753, "ĠHub": 14699, "Ġconject": 37262, "Ġsnacks": 28487, "Ġcelebrating": 17499, "Ġinvestments": 11115, "Ġjustice": 5316, "Ġepidem": 24574, "ĠRestrict": 37163, "Ġrocking": 38059, "blooded": 50132, "ĠPolly": 36898, "Ġseat": 5852, "ĠSpl": 13341, "Ġprovincial": 15818, "ĠIdaho": 20071, "cks": 4657, "inity": 6269, "ĠSeattle": 7312, "Ġcontinued": 3767, "Ġshifting": 15852, "ĠYOU": 7013, "ĠSil": 4243, "aders": 9972, "uctions": 20847, "Ġapparent": 4156, "ĠStat": 5133, "ĺħ": 11805, "Ġnin": 13462, "drop": 14781, "Ġ<@": 32406, "Ġincredibly": 8131, "Avoid": 38618, "ĠEvents": 18715, "Ġridden": 46715, "over": 2502, "icus": 24552, "probably": 26949, "ĠCouch": 48225, "lia": 24660, "ĠFunny": 40473, "Ġbu": 809, "ĠBren": 20465, "aturdays": 39724, "yp": 4464, "Ġsubdu": 35041, "ju": 14396, "atz": 27906, "ĠAlternative": 27182, "661": 47159, "Ġ30": 1542, "Ġsavage": 27303, "................................": 8864, "ĠFOX": 19912, "ner": 1008, "hp": 24831, "ilon": 33576, "Ġhours": 2250, "ĠCraig": 13854, "Ġmanufacturer": 11554, "afi": 19910, "ĠRepeat": 30021, "Ġinternally": 20947, "Ġgays": 28067, "ĠCustomer": 22092, "Ġpad": 14841, "ĠFounder": 30153, "ĠRedemption": 34433, "Ġchefs": 36236, "ĠON": 6177, "Ġmailbox": 37282, "Ġengineering": 8705, "ĠKel": 15150, "ĠWrestle": 41137, "ĠHannibal": 41949, "ĠModerate": 43668, "Ġmanpower": 44803, "oming": 3383, "rus": 14932, "'-": 29001, "ĠConversely": 34511, "Ġstarters": 19896, "write": 13564, "Ġdisl": 19621, "political": 23149, "ĠEnforcement": 19198, "Ġcart": 6383, "Ġtasty": 25103, "éĩ": 34932, "Ġlocally": 15726, "Ġentrepreneur": 19500, "ĠPlus": 8227, "ĠQing": 28927, "Ġpedestrian": 22382, "Rule": 31929, "berto": 32371, "ĠAlma": 35152, "Ġvaccine": 12319, "544": 47576, "artment": 1823, "industrial": 31130, "ĠGork": 49882, "<|extratoken_123|>": 50379, "Ġacc": 697, "grad": 9744, "ĠTray": 34575, "ĠBr": 1709, "Ġclock": 8801, "ĠChildhood": 40992, "Ġsave": 3613, "ĠCub": 7070, "fty": 19628, "ach": 620, "ĠBerry": 20165, "Ġshown": 3402, "ĠDEAD": 42533, "Ġmasc": 23977, "Ġwarm": 5814, "ĠESV": 33910, "sup": 37330, "Pro": 2964, "Ġadvantages": 13391, "ĠDaryl": 44385, "Ġtotal": 2472, "arella": 45494, "ĠOliver": 15416, "ĠUSA": 4916, "assium": 26663, "Ġgrew": 6348, "intage": 14630, "okingly": 48343, "ĠPHP": 19599, "<|extratoken_100|>": 50356, "Ġprominent": 9208, "ic": 291, "Notes": 16130, "dim": 27740, "ĠLanguages": 42860, "buf": 29325, "slaught": 30929, "ĠRadiant": 34145, "ĠCycle": 26993, "Ġharassing": 34110, "odynamic": 34743, "ĠPROV": 36592, "licensed": 36612, "Ġyet": 1865, "Ġtrend": 5182, "ooters": 48316, "295": 25710, "Ġcommend": 35695, "Ġtemple": 12505, "Ġerupt": 17866, "ĠNose": 47880, "ĠNL": 22879, "ĠDeg": 25905, "ĠLines": 26299, "Lic": 26656, "currently": 41745, "Ġpanel": 6103, "Ġinform": 4175, "ĠHT": 7154, "blocking": 41938, "Ġspecials": 38102, "ĠPend": 36865, "Ġ1928": 35768, "Ġassured": 13933, "Ġinconvenience": 31818, "Ġlas": 39990, "Ġcelebrates": 24538, "ĠWhether": 10127, "Ġhormone": 17770, "Ġsounding": 22655, "Ġvarying": 15874, "ĠBour": 20576, "ĠCoast": 8545, "Ġversa": 25470, "ĠFlags": 34771, "\":[{\"": 32509, "ĠPillar": 39179, "Ġwhich": 543, "Ġtuberculosis": 44222, "Guide": 47889, "alogy": 48909, "302": 22709, "orph": 13425, "Ġrefreshing": 23056, "ĠMast": 30868, "Reviewed": 40266, "hy": 12114, "Ġfluids": 28704, "gan": 1030, "dden": 4742, "assion": 11857, "tar": 18870, "ĠElectronic": 19508, "anth": 29313, "Ġsubscriber": 32944, "Ġdogma": 40937, "ĠCivic": 31593, "j": 73, "Ġpatterns": 7572, "ĠMiz": 29975, "Ġunderway": 17715, "osphere": 22829, "haus": 30404, "mire": 47004, "Ġsorcerer": 47063, "Ġadvocate": 12811, "represent": 15603, "ĠTrader": 41956, "Ġdetached": 30795, "ocal": 4374, "ĠDagger": 36320, "LOD": 38543, "Ġadvancing": 19988, "ĠHorus": 29698, "Ġdefect": 11855, "oaded": 22273, "ĠKathy": 33726, "rev": 18218, "Ġspatial": 21739, "ine": 500, "aghetti": 35812, "Ġagreement": 4381, "ĠSOM": 42121, "ĠPse": 49693, "agogue": 32238, "Ġchoking": 39302, "ĠType": 5994, "othing": 24834, "Ġdisputes": 18563, "204": 18638, "Ġneo": 19102, "ĠSamar": 34077, "Ġseizing": 37054, "Ġcould": 714, "Ġexceptions": 13269, "Ġviewpoints": 42806, "Ġdiscipl": 8311, "Public": 15202, "Ġhaving": 1719, "amed": 2434, "Ġcampaign": 1923, "Did": 11633, "Ġcontinually": 17451, "ĠHog": 22411, "comment": 23893, "BOOK": 39453, "ĠOptimus": 44863, "yet": 25907, "Ġgrasped": 45569, "Ġfrontman": 49250, "Ġunravel": 30282, "dem": 9536, "Ġencourage": 7898, "Ġskilled": 14297, "Ġpouch": 36594, "ĠArmy": 5407, "Ġmarkets": 5939, "Ġsmart": 4451, "Ġbetween": 1022, "ĠSN": 11346, "Ġsucceed": 6758, "ĠBear": 14732, "Ġdescent": 18598, "Bitcoin": 22614, "Ġphyl": 37763, "Ġminimalist": 44693, "ĠUnsure": 38481, "Writ": 20257, "ĠAppl": 39100, "Ġfinishing": 12848, "ĠIter": 40806, "ĠGaga": 42192, "Ġalteration": 35635, "Ġupset": 9247, "Ġfunctionality": 11244, "Ġdiscovering": 21611, "Ġanalytical": 30063, "micro": 24055, "Ġ@": 2488, "Ġ900": 15897, "Complete": 20988, "ĠCum": 27843, "bits": 9895, "ĠInfo": 14151, "Ġenvisioned": 32295, ":-": 21912, "Ġflashes": 29227, "ĠFeaturing": 39778, "ĠWraith": 40106, "OVER": 41983, "Ġambassadors": 41702, "Ġul": 14856, "Ġsquads": 31477, "Ġcomprising": 27918, "AN": 1565, "Ġlauded": 42086, "ĠWarhammer": 26715, "Ġpt": 42975, "ĠGrow": 26936, "Ġupbeat": 44337, "sov": 47272, "ĠSaturn": 23135, "Url": 28165, "ĠHappiness": 38456, "ĠFriendship": 39993, "Ġshielded": 45153, "main": 12417, "Ġmotor": 5584, "ĠDevice": 16232, "Ġrig": 7805, "Ġnonprofits": 44014, "urdue": 30345, "ĠWings": 17330, "pict": 18847, "285": 26279, "ĠAtari": 35884, "Ġbathing": 39153, "ĠBullets": 39984, "ĠInstrument": 42410, "Ġabruptly": 25891, "Ġmysteriously": 42529, "IDER": 41237, "ĠChic": 48854, "awaited": 41742, "Ġposition": 2292, "'>": 44167, "Ġbenefit": 4414, "iltr": 19438, "filled": 20286, "arij": 39010, "ĠIntent": 39168, "ĠMerrill": 40418, "ĠDemo": 34588, "Ġremix": 34471, "Ġsample": 6291, "ĠState": 1812, "Ġsounds": 5238, "Ġelectrical": 12278, "Ġmuzzle": 31746, "090": 42534, "nesia": 31401, "Ġhomers": 38818, "ĠTerr": 38859, "comp": 5589, "shown": 42579, "Ġpudding": 44670, "ĠPhilips": 46905, "Cas": 35155, "Tomorrow": 49488, "DI": 17931, "off": 2364, "Ġfinely": 32566, "feet": 39690, "ĠEST": 17160, "ils": 4487, "Ġparticip": 2916, "rients": 18491, "ĠFang": 24468, "GGGGGGGG": 40415, "PUT": 30076, "tub": 37995, "ĠTobias": 46675, "ĠFeminist": 46259, "ok": 482, "Ġabstraction": 34651, "Ġ192": 17817, "Ġanimal": 5044, "ĠRAND": 46920, "ebted": 35895, "410": 33289, "Ġdetriment": 42959, "Ġgoodies": 39863, "cult": 40820, "ĠContent": 14041, "Ġfrowned": 32198, "ĠKDE": 36632, "acid": 46309, "Ġnod": 18666, "Ġbusted": 36193, "Ġreserve": 11515, "ĠSell": 25688, "Ġtricky": 17198, "224": 24137, "=-=-=-=-": 27584, "uador": 24201, "Ġthrilling": 31610, "Ġ390": 33882, "ĠDeVos": 39503, "Ġkings": 21557, "proc": 36942, "aligned": 41634, "ĠCf": 43216, "ĠAkron": 45868, "IST": 8808, "Ġ354": 46752, "bek": 47083, "Ġcloves": 45025, "warming": 48133, "Ġinertia": 48482, "ĠPrimordial": 44174, "Ġreinvest": 50135, "established": 27718, "Ġtopped": 20633, "ĠGou": 46531, "iably": 18745, "ĠDruid": 32685, "orr": 38890, "anim": 11227, "ĠSeveral": 12168, "ĠEquality": 31428, "ĠSolid": 15831, "¯": 107, "485": 32642, "Ġglaciers": 40509, "estyles": 42530, "ĠModes": 42082, "Rob": 14350, "Ġweaknesses": 20256, "Lear": 14961, "Ġdurability": 26578, "ĠArrow": 19408, "range": 9521, "Ġfury": 26206, "Aff": 35191, "Animation": 39520, "ĠOkawaru": 43038, "ĠChallenges": 44495, "ĠAux": 47105, "edar": 44226, "ained": 1328, "atherine": 15289, "Again": 15316, "Dark": 17367, "782": 46519, "EED": 41841, "626": 45191, "rius": 48969, "uper": 48568, "bis": 41907, "Ġhotels": 18505, "Ġprotected": 6861, "econom": 13926, "unal": 18835, "agi": 18013, "ĠCONFIG": 25626, "Ġnomination": 11872, "Ġcurved": 26929, "Ġqualifies": 37782, "nic": 6988, "oran": 31884, "Could": 23722, "ĠDespair": 39323, "graded": 21791, "PAC": 44938, "ĠStill": 7831, "ĠWeapons": 18944, "ateurs": 45211, "ĠJonathan": 11232, "ĠSupply": 22663, "ĠGreenwich": 46339, "ĠJail": 25715, "Ġsquats": 48871, "hari": 49573, "ĠEntityItem": 49731, "ined": 1389, "ĠGPA": 45283, "ĠAy": 13709, "fl": 2704, "Ġtransferred": 11172, "648": 34287, "ĠTypically": 27095, "ality": 1483, "Ġtelevision": 5581, "jamin": 13337, "Ġurine": 18922, "Ġrape": 7262, "ĠSaskatchewan": 31346, "ĠPlague": 35236, "Ġhonorary": 44358, "ib": 571, "Control": 15988, "Ġnutrients": 20901, "ĠWP": 28993, "unctions": 46797, "253": 28592, "ĠEisenhower": 35015, "Ġskyrocket": 41483, "Ġhindered": 49186, "Ġblockade": 30974, "ĠKiw": 40011, "Ġrestaurant": 7072, "Ġanomalies": 35907, "Ġnor": 4249, "ĠYes": 3363, "ize": 1096, "Ġaltercation": 38880, "ĠArabic": 17526, "Ġrumor": 24989, "Ġround": 2835, "Ġframes": 13431, "Ġloop": 9052, "Ġmk": 33480, "ĠServe": 35557, "ĠGiving": 35603, "Ġmagnets": 37446, "Ġprope": 44408, "use": 1904, "windows": 28457, "ĠRabbi": 31807, "<|extratoken_121|>": 50377, "ĠPhillies": 36552, "rite": 6525, "Soft": 18380, "Ġdamning": 36706, "fred": 39193, "changing": 22954, "Ġmigrate": 32492, "ield": 1164, "ppa": 44989, "Ġintroduction": 9793, "Ġ97": 10111, "ĠFocus": 17061, "ĠSupp": 8105, "Ċ": 198, "ĠFalls": 17930, "Ġatmospheric": 20938, "Ġfootsteps": 27146, "Ġspeculated": 29131, "Ġthinner": 30125, "Ġbrilliantly": 37928, "Ġshe": 673, "oret": 9997, "Ġmesmer": 46814, "ĠCount": 2764, "ĠDOM": 24121, "ĠOrig": 6913, "iste": 40833, "Tips": 43368, "Ġsilly": 14397, "ĠIf": 1002, "Ġattacks": 3434, "Ġmammalian": 46177, "been": 47436, "ĠWilhelm": 50031, "<|extratoken_139|>": 50395, "ĠRegina": 38739, "Ġcontradictions": 32962, "Ġdenies": 18866, "Ġhumans": 5384, "Rel": 6892, "206": 22136, "ĠYates": 34916, "lust": 38878, "r": 81, "products": 29498, "ĠECB": 36285, "ĠEthan": 28926, "Ġpoop": 40125, "ells": 19187, "mins": 42951, "Ġscient": 3062, "Ġwebcam": 49823, "Tile": 35103, "Ġdisgrace": 27690, "76": 4304, "ĠAuthent": 31885, "Ġparalle": 9315, "Ġskysc": 37885, "ĠGadget": 39266, "ĠAssy": 39881, "ĠSchl": 48467, "Ġ1897": 49429, "Ġdetention": 13280, "å½": 37605, "Ġowning": 23107, "Ġmercenaries": 37569, "ĠFAR": 39024, "ĠPremiere": 44151, "ĠAst": 8304, "flags": 33152, "Ġsignaling": 22049, "476": 35435, "Ġbrisk": 35984, "Ġostensibly": 31454, "Ġdebug": 14257, "ĠGUN": 43794, "Ġactivities": 4568, "Ġmeaning": 3616, "climate": 42570, "len": 11925, "Ġactors": 10544, "ĠInit": 44707, "oops": 44860, "Ġclassic": 6833, "Ġsuite": 18389, "Ġmashed": 49159, "ag": 363, "ĠMAC": 20582, "Ġslur": 40066, "oor": 2675, "Tue": 41392, "Ġman": 582, "ĠCalif": 3192, "orig": 11612, "bill": 35546, "îĢ": 29773, "iddy": 34208, "ĠTheodore": 36494, "skill": 42401, "Ġrevocation": 47275, "olan": 16617, "ä¸Ń": 40792, "Ġidentified": 5174, "hester": 19593, "Spec": 22882, "Ġdecisively": 47948, "runs": 48381, "atts": 30353, "ĠFeder": 35089, "Ġterrorists": 10509, "Ġsparks": 38306, "ĠAzerbai": 29830, "Ġcritical": 4688, "Ġembarrassed": 21100, "airy": 13021, "Ġresumes": 42626, "Ġ118": 19035, "ĠBased": 13403, "ĠAme": 38561, "LLOW": 44765, "Ġpolarization": 42704, "Ġconfid": 47830, "ATIONS": 18421, "}}": 11709, "Ġhello": 23748, "Ġinferior": 18536, "Ġsorting": 29407, "zzi": 46218, "Ġonly": 691, "Ġpast": 1613, "ĠWebb": 25130, "Ġtreasures": 29561, "Ġgenius": 15632, "otiation": 21236, "Pi": 38729, "ĠPacks": 46780, "Ġexpands": 27513, "ieties": 9545, "gun": 7145, "earchers": 16604, "ĠCreation": 21582, "Ġglobally": 18309, "ĠBreaking": 24942, "Ġdiary": 26339, "Ġ222": 27795, "Ġjur": 8174, "ĠisEnabled": 34842, "Ġevacuate": 36316, "ĠPret": 37123, "ĠBorders": 40934, "Ġvitro": 30590, "rists": 37326, "Ġdegrade": 42962, "Ġsurvivors": 13644, "ĠParad": 14853, "Ġrefinery": 44133, "Ġseparated": 11266, "WAY": 27285, "ĠPoo": 41778, "Ġrepresenting": 10200, "Ö¼": 47903, "Ġprohib": 6221, "ĠRetro": 29884, "ĠFlash": 9973, "Ġabout": 546, "Wars": 41508, "473": 37804, "Statistics": 48346, "Ġ1911": 32216, "Ġjournalist": 10099, "install": 17350, "sweet": 34751, "ĠERA": 18802, "Ġpand": 19798, "ĠFug": 47832, "ĠCamp": 5425, "setting": 33990, "Ġaltering": 29057, "Ġpoints": 2173, "ĠCorinth": 31268, "ved": 1079, "Ġsilenced": 38086, "Ġvalleys": 43088, "Ġintense": 8157, "ĠAb": 2275, "ria": 7496, "aga": 8126, "shop": 24643, "shell": 29149, "jet": 31173, "Ġjury": 9002, "Ġtotally": 6635, "ĠBender": 34535, "ĠSau": 23167, "ĠBeatles": 27330, "Ġcommencement": 32609, "Thom": 37582, "Ġheading": 9087, "DeliveryDate": 39749, "Ġpricing": 13045, "Ġprivacy": 6782, "Ġwidespread": 10095, "face": 2550, "put": 1996, "ops": 2840, "Ġaccidentally": 14716, "Ġdisabilities": 19358, "pop": 12924, "Ġ56": 7265, "Ġtapes": 23695, "itives": 20288, "atories": 19854, "ĠInvestment": 20877, "Ġdiscard": 27537, "Ġsparse": 29877, "element": 30854, "ĠGorsuch": 38465, "ĠBuk": 36810, "ocks": 3320, "Ġministers": 14138, "Ġshoots": 20611, "Ġlateral": 25653, "ĠHAR": 43638, "ĠTyph": 27282, "Ġmolten": 44030, "ĠKa": 11611, "rien": 15355, "ĠDebian": 26062, "ĠProducer": 30436, "Ġ234": 34323, "ĠClive": 47722, "ĠAchievements": 49496, "ionics": 49900, "ĠGathering": 36397, "Ġinfants": 18775, "Ġplainly": 30723, "Ġ670": 48136, "aiman": 47840, "ourcing": 29985, "ĠInspector": 24625, "meet": 47745, "Ġsnapshots": 47787, "Fle": 47669, "Ġindeed": 5600, "ĠJackson": 6612, "Ġthinking": 3612, "liament": 5130, "Ġ58": 7618, "Ġcardiovascular": 21134, "Ġcross": 3272, "itude": 3984, "Ġdepiction": 33016, "Ġawakening": 33971, "Ġelabor": 12628, "Marco": 37179, "Ġ216": 26881, "ĠEbola": 15825, "ĠVenom": 33284, "-+-+-+-+": 42744, "ĠâĢĶ": 851, "ertation": 42245, "ĠMajor": 8386, "othermal": 49723, "ĠFlickr": 27085, "Ġhop": 1725, "Ġshelf": 18316, "Ġwrongful": 41545, "cl": 565, "appa": 20975, "imal": 4402, "Ġpositives": 38548, "Ġnominate": 40376, "ĠCOL": 20444, "inet": 42504, "ĠAerospace": 43226, "Ġtacit": 40787, "Des": 5960, "ĠGates": 15953, "Ġadjoining": 48106, "Ġdistinction": 12941, "Ġglances": 48703, "Ġtreaty": 15775, "plan": 11578, "Ġwarmer": 23254, "ĠMarxist": 26305, "Ġmundane": 30741, "tra": 9535, "ĠFF": 18402, "Ġabrupt": 19363, "Ġtranslations": 25231, "ĠRams": 16077, "Ġseams": 41280, "ERA": 46461, "orer": 11934, "citizens": 46801, "Ġsap": 31841, "Sharp": 44336, "bd": 17457, "Done": 45677, "Ġpie": 2508, "amba": 31842, "ĠTurbo": 22278, "ĠPodesta": 27375, "ĠLak": 30392, "Ġattends": 32743, "Ġtrove": 42377, "uebl": 45749, "Ġfraud": 7394, "Ġblasted": 26044, "Ġdeck": 6203, "those": 25591, "Ġshuttle": 20992, "Ġconstituted": 27276, "aced": 2286, "Ġcontaining": 7268, "Ġloose": 9155, "ĠVar": 12372, "ĠAud": 7591, "Ġmassively": 28161, "ĠSAM": 28844, "Ġ[[": 16410, "Ġ1916": 32811, "Ġinserted": 18846, "Ġpecul": 18699, "structed": 16242, "ĠLeonard": 20131, "ĠDV": 29854, "acs": 16436, "ĠSlav": 34314, "ĠSG": 26147, "Ġ326": 40660, "Ġconvertible": 41637, "Slot": 38963, "ĠMutual": 48807, "Ġlifted": 13663, "209": 22567, "Ġeste": 43577, "ĠExtras": 43620, "ĠSpirit": 7710, "Ġalias": 16144, "ĠTerms": 17637, "Ġclicking": 12264, "×©": 50227, "ĠIslanders": 32868, "ĠDie": 6733, "iddled": 34897, "Ġreferred": 6412, "Ġfiat": 36984, "ĠSporting": 31790, "Ġuntreated": 41539, "onge": 14220, "Ġantics": 39343, "Ġconsist": 3473, "Ġestimating": 39539, "Ġhash": 12234, "ĠThan": 17924, "otics": 23891, "stract": 8709, "ĠThings": 11597, "Ġbat": 7365, "Ġworking": 1762, "Ġshrug": 32545, "ĠDepartment": 2732, "ĠCelsius": 34186, "Ġdemocracy": 7996, "Ġlawmakers": 10191, "ĠFri": 19480, "Ġradios": 40023, "olls": 33421, "ĠFEMA": 43575, "Ġdegree": 4922, "ĠSac": 9295, "ilitarian": 43900, "athy": 10036, "Î¹": 29945, "ĠSochi": 37126, "Ġrats": 13623, "king": 3364, "Ġfixing": 18682, "ansson": 44038, "036": 48597, "multiple": 48101, "Ġacknowledges": 23477, "ĠAug": 2447, "229": 23539, "ĠAdin": 45528, "Ġ66": 7930, "Ġ1995": 8735, "mart": 13822, "Ġsculpture": 26924, "Ġwinding": 28967, "when": 12518, "ĠKant": 29576, "());": 35430, "ĠBarcelona": 15142, "Ġexaminer": 37240, "Ġintrig": 13250, "èĢ": 32003, "Ġstylish": 30511, "Ġmetric": 18663, "Ġliberating": 48291, "ì": 168, "Ġviruses": 20547, "ĠPony": 30377, "Ġauth": 6284, "sung": 9854, "arse": 17208, "ĠWAY": 34882, "ĠFriendly": 38683, "Ġcascade": 44847, "anmar": 21708, "Sexual": 49161, "ĠGet": 3497, "Ġlik": 4300, "Ġdraft": 4538, "478": 29059, "ĠAsset": 31433, "Ġrankings": 16905, "stood": 6501, "447": 34825, "Ġimpover": 30956, "Ġmechanical": 12370, "sent": 34086, "Ġdeteriorating": 43229, "ĠVAL": 26173, "Samsung": 32334, "abortion": 32396, "ĠRay": 7760, "Ġascert": 48818, "igo": 14031, "Ġinjecting": 41750, "Ġremarks": 10252, "ĠGore": 17557, "aja": 27792, "ĠCal": 2199, "Ġsprawling": 30190, "Ġbesides": 13769, "rb": 26145, "399": 28771, "Strike": 31584, "Ġmeteor": 19999, "Ġmills": 41999, "Ġuncover": 23658, "ĠAlchemy": 43987, "Ġprevailed": 34429, "They": 2990, "ĠGrade": 22653, "Ġconsistent": 6414, "Ġexercising": 25352, "INESS": 44180, "urden": 42568, "Height": 23106, "052": 37841, "Ġcardiac": 26077, "examination": 47779, "Med": 9921, "Ġillustrations": 27128, "Ġinvention": 14250, "Ġembedded": 14553, "cele": 49840, "Ġnetted": 49403, "Ġbusy": 8179, "closed": 20225, "Ġannexation": 41329, "Ġhair": 4190, "Template": 30800, "dn": 32656, "dd": 1860, "ĠObserv": 19243, "Ġworkings": 35084, "ĠRegulatory": 38018, "ĠDed": 35023, "urdy": 22876, "º": 118, "ĠIt": 632, "Ġformulation": 31760, "âĸĵ": 38626, "ĠComprehensive": 40917, "BLE": 19146, "697": 40035, "Ġcoin": 10752, "Ġtransmit": 21937, "Mon": 9069, "Ġgram": 14599, "Ġcoherent": 24870, "Ġpopulist": 26815, "Ġtermination": 19883, "Ġstal": 29049, "ĠSearch": 11140, "ĠJos": 22568, "ĠFont": 24060, "gio": 27769, "Ġwhen": 618, "Ġflames": 16209, "donald": 40915, "Ġskiing": 41348, "Ġreeling": 45341, "Ġdespite": 3805, "Ġskeptics": 37972, "hetical": 21485, "ĠDiamond": 13566, "ĠJere": 10272, "ĠNIC": 45593, "Ġtick": 4378, "Ġvenues": 22276, "ryu": 49056, "Ġproceed": 5120, "vP": 47322, "Ġwhenever": 8797, "Ġmanifested": 34300, "Ġprotested": 27278, "Ġinstances": 10245, "Ġcohorts": 40182, "Ġstabbing": 29418, "ĠToyota": 20182, "mount": 14948, "Ġantioxid": 28360, "ĠColbert": 31368, "ĠFREE": 17189, "Ġfe": 730, "Ġunderstand": 1833, "Ġwhistleblowers": 46147, "ĠGuardiola": 46990, "Ġadorable": 29012, "Ġimplicated": 28344, "Br": 9414, "ĠAnything": 21035, "ĠNathaniel": 49536, "Ġtransformation": 13389, "Ky": 30630, "ITAL": 40579, "Ġfresh": 4713, "Ġdevelopment": 2478, "sci": 36216, "Ġblade": 11865, "Ġflexible": 12846, "Ġprey": 15974, "Too": 23307, "Ġcornerstone": 39774, "Ġclen": 38566, "ĠYar": 45184, "Ġworth": 2861, "Ġwhether": 1771, "Ġintra": 23422, "Ġsidewalk": 24058, "MER": 29296, "Ġpoet": 21810, "ĠDG": 46133, "ĠHon": 8835, "393": 26007, "Ġmicrophones": 46952, "Ġreassured": 48171, "Ġoffense": 6907, "Ġempir": 18097, "Ġattach": 10199, "Ġtom": 16667, "azine": 4994, "ĠEducational": 30038, "ĠMighty": 25532, "Ġtsp": 23053, "Dave": 27984, "Ġportray": 10993, "nd": 358, "Ġarmed": 6936, "ĠBrowse": 44775, "ĠLyons": 43728, "ĠClint": 21549, "617": 47941, "ĠDanger": 20419, "Ġdrops": 10532, "ĠAutumn": 33424, "uez": 14870, "Ġquoting": 28411, "ĠRamadan": 37604, "rompt": 45700, "Ġrehearsal": 45795, "Ġ....": 19424, "Ġimm": 2296, "]}": 48999, "hire": 10695, "ĠIT": 7283, "646": 27720, "Ġpolicemen": 33777, "Ġalarms": 36302, "Ġliking": 24976, "ĠVander": 26669, "Ġbatteries": 13591, "ĠNet": 3433, "nesium": 27619, "Ġdoct": 10412, "Ġintention": 6778, "ĠIQ": 18248, "roximately": 24378, "ĠCurt": 19569, "ĠVIII": 25197, "ĠWillie": 28623, "ĠGeographic": 33636, "printf": 37435, "ĠSeconds": 40876, "ĠAddiction": 40187, "Ġfortnight": 46327, "ĠMLG": 48144, "impl": 23928, "Ġspeeches": 18138, "ĠDrugs": 26722, "Ġsarcast": 36543, "ued": 1739, "isf": 4468, "Ġbrings": 6774, "bey": 23454, "Ġupstream": 28717, "verning": 13974, "bitcoin": 35395, "ĠSherman": 23198, "ĠGrain": 48692, "ĠInnovation": 27724, "629": 48602, "Ġbrav": 49025, "Ġappears": 3568, "Ġ1976": 15408, "1200": 27550, "living": 19950, "acial": 18150, "ĠPis": 42021, "Narr": 45750, "ĠWoody": 37684, "<|extratoken_133|>": 50389, "Ġcorrection": 17137, "Alabama": 49177, "ĠNirvana": 49923, "ĠPuzz": 27985, "Ġfreeway": 39042, "CBC": 29208, "stown": 27928, "Ġintox": 21275, "Ã¡": 6557, "Had": 25383, "DIV": 33569, "Ġwidest": 46232, "cli": 44506, "Ġimpossibility": 50097, "Po": 18833, "Ġasserts": 29348, "Ġac": 936, "stroke": 30757, "Ġmono": 33361, "ĠCreated": 15622, "yan": 4121, "glas": 14391, "Ġcrib": 48083, "fc": 16072, "owicz": 47982, "Ġinspecting": 49889, "Ġimmutable": 40139, "Ġcracking": 25407, "Ġ126": 19710, "Ġequitable": 37164, "IDA": 41957, "President": 10364, "ĠChain": 21853, "615": 47007, "ĠDefin": 29589, "VALUE": 39488, "ĠElim": 27405, "Ġfilename": 29472, "Ġembassy": 18613, "vec": 35138, "Ġrule": 3896, "ĠYouth": 17582, "ĠParis": 6342, "ĠChat": 24101, "Ġindividually": 17033, "115": 15363, "Ġcopper": 15317, "cept": 984, "Ġforefront": 26401, "ĠVaughn": 47151, "checked": 26752, "ĠGloria": 38109, "Ġrenovated": 46353, "529": 49721, "Ġtoggle": 19846, "secondary": 38238, "usual": 37850, "Ġ39": 5014, "372": 36720, "Ġ12": 1105, "Ġprescribe": 32651, "iders": 4157, "Ġrefuses": 17567, "gorithm": 42289, "Ġadjunct": 44737, "Ġsubscrib": 11452, "entary": 48648, "Journal": 25296, "ĠFight": 10480, "Ġgraduated": 18303, "Ġentropy": 40709, "ĠAnaly": 16213, "Anne": 43227, "Ġmesh": 19609, "ĠElena": 37254, "Ġrock": 3881, "ĠOpt": 13123, "ĠFrozen": 23673, "Ġdc": 30736, "ĠCongress": 3162, "ĠCause": 24228, "Ġcalm": 9480, "ooky": 29655, "Ġentire": 2104, "Ġpresence": 4931, "ãĤ¹": 8943, "comm": 9503, "Ġsailed": 33835, "usha": 46213, "Ġfabric": 9664, "Legendary": 24524, "Ġbroch": 41978, "Ġquickly": 2952, "ĠMarg": 11899, "Ġ23": 2242, "ĠCandidate": 40327, "Ġcats": 11875, "Ġpublications": 16125, "Ġbeyond": 3675, "sburg": 30359, "Ġfees": 6642, "anton": 23026, "ĠCitadel": 32266, "Natural": 35364, "aded": 5286, "Ġdetects": 39382, "ider": 1304, "ĠAnth": 8451, "Ġretard": 42964, "Coun": 31053, "mond": 6327, "Ġrhyth": 14405, "radio": 37004, "ĠIndustry": 17420, "ĠHmm": 43352, "ĠKhalid": 44544, "323": 32637, "Ġheterosexual": 24026, "ivalry": 47310, "myra": 49216, "Lib": 25835, "Ġinsanely": 40848, "Ġcriminality": 49950, "ĠAN": 3537, "orns": 19942, "Ġlooks": 3073, "SI": 11584, "Ġ156": 23871, "Ġyogurt": 32132, "ĠNing": 37400, "changed": 40985, "Ġwik": 47145, "////////": 16150, "Ġbikini": 45810, "ĠCas": 11294, "orus": 15125, "isable": 43942, "ĠAvalon": 39600, "cv": 33967, "ĠTimber": 27893, "ĠHitler": 11908, "992": 41561, "avor": 5570, "cific": 7790, "Ġill": 2801, "igi": 25754, "ĠFold": 39957, "ĠHor": 6075, "ĠSpecial": 6093, "Ġovert": 9929, "igor": 36274, "Ġpeers": 14495, "Ġroadmap": 40332, "Decre": 43198, "ĠCannes": 50158, "Ġproduce": 4439, "Ġkingdom": 13239, "abe": 11231, "LET": 28882, "ĠHolden": 43393, "mage": 25561, "ĠPowder": 33688, "Raw": 27369, "orporated": 40132, "B": 33, "oding": 7656, "ooter": 25141, "Gaza": 48790, "131": 22042, "umpy": 32152, "First": 5962, "Ġsilhou": 33123, "Ġ1905": 37166, "Ġcabinets": 43064, "acted": 23800, "ĠEncyclopedia": 36732, "Ġpunished": 16851, "ĠHancock": 39261, "ĠKund": 45099, "Ġnotwithstanding": 29951, "Ġ460": 34091, "Hour": 43223, "win": 5404, "eatures": 11585, "ĠMinneapolis": 20455, "riched": 30486, "ĠAUTH": 37195, "Ġhttps": 3740, "Ġneb": 45508, "ĠLiterally": 48414, "reporting": 49914, "Ġconquest": 29179, "True": 17821, "ĠAncest": 31200, "ĠNewsp": 36765, "Ġswitching": 15430, "ĠBicycle": 48444, "Ġpagan": 36164, "Ġmolecules": 17745, "Ġcuriosity": 20136, "Ġdiagnosis": 13669, "Ġdiscrepancy": 34466, "Ġfugitive": 43799, "ixie": 39291, "Ġcircum": 4456, "ickey": 40389, "rox": 13907, "Article": 14906, "ĠDemons": 38539, "fur": 38916, "Ġbasically": 6209, "ĠOlympic": 11514, "Ġtyr": 22934, "ĠSchw": 20469, "Ġore": 23751, "Ġuniformly": 42096, "CB": 23199, "ĠSecurity": 4765, "ĠBrook": 7590, "ĠOrd": 14230, "144": 18444, "Ġhomeless": 10463, "Ġinvolvement": 9750, "ĠInstead": 5455, "Ġvolatility": 30772, "lot": 26487, "Ġexternally": 45107, "ures": 942, "Ġhusbands": 27742, "utf": 40477, "Ġcrispy": 42807, "iciency": 19777, "cyclop": 22873, "ĠIdeally": 40067, "lude": 38792, "yah": 46848, "IC": 2149, "Ġprogressive": 10393, "ht": 4352, "ĠMexico": 5828, "Ġimbalance": 32556, "ĠBeauty": 20774, "Ġillustrious": 47887, "ĠCore": 7231, "ochet": 49579, "where": 3003, "ambling": 15366, "rama": 20058, "ibu": 33828, "Ġlegions": 44395, "ĠTax": 9241, "äº": 12859, "gotten": 21646, "Ġenormous": 9812, "605": 32417, "ÙĪ": 30335, "Ram": 33754, "Ġresp": 1217, "Ġdangerously": 33247, "Ġderegulation": 50202, "ĠHOUSE": 46586, "ĠAAP": 31518, "Ġpunch": 10862, "Ġengineers": 12037, "falls": 23348, "ĠWhole": 23431, "llor": 14127, "ulu": 15712, "ountain": 18635, "Ġincredible": 8082, "Ġcriticisms": 25094, "Ġprinted": 10398, "Ġfrightening": 23101, "stakes": 32540, "Ġx": 2124, "Ġplain": 8631, "Ġconducts": 36721, "ĠPassed": 23228, "document": 22897, "ritz": 29574, "Ġsubsections": 46310, "Ġ1860": 37637, "Ġwithheld": 31453, "Ġfan": 4336, "Normal": 26447, "Ġbreaths": 45576, "Ġhomemade": 24584, "ĠSpiritual": 33944, "ĠFant": 8751, "Ġess": 3209, "Ġpepper": 13385, "Ġparanoid": 30285, "ĠObs": 11086, "rell": 11252, "Ġmicroscope": 36396, "Ġmanuals": 41371, "Chat": 30820, "Ġelse": 2073, "Ġarte": 46252, "ĠQu": 2264, "ĠRiverside": 35597, "iter": 2676, "umbledore": 25549, "ĠTT": 26653, "Texas": 21607, "Ġmandated": 28853, "STAT": 35744, "Ġbum": 39564, "fx": 21373, "ĠKKK": 42907, "using": 3500, "ĠGh": 11972, "Ġmajestic": 45308, "Ġatten": 31919, "ĠMartha": 27243, "Return": 13615, "ĠLock": 13656, "ackers": 28874, "Ġrealizing": 20060, "ĠStrength": 14646, "Ġcommented": 16476, "NASA": 29998, "ĠDOWN": 30320, "Ġhistorian": 18026, "ĠFei": 39575, "Ġshampoo": 47259, "ĠRedux": 30609, "Ġuber": 48110, "Ġtagged": 30509, "ĠTakeru": 48497, "ĠRedmond": 49420, "ĠYamato": 40135, "HM": 36905, "ĠTile": 47870, "Ġterrified": 22144, "CHAPTER": 41481, "Ġkeeper": 28356, "Ġsocket": 17802, "0000": 2388, "Ġreload": 18126, "Ġfuneral": 14825, "Ġlandlord": 17335, "Ġoverlapping": 32997, "Ġpint": 35245, "Ġpour": 12797, "Ġbalcon": 26857, "Ġsped": 40424, "ĠSear": 42016, "Ġrooms": 9519, "arant": 4741, "Ġversatility": 31689, "Ġpartitions": 43869, "ĠSchedule": 19281, "holiday": 37689, "Ġsamurai": 49797, "annels": 8961, "cible": 37369, "ĠSaying": 49642, "Ġpri": 1293, "VILLE": 38526, "ĠShine": 41249, "Ġpuppet": 30095, "728": 48524, "Ġ1070": 49616, "acious": 14209, "Ġglam": 27240, "Ġintimately": 42075, "Ġpoliceman": 32166, "ĠGand": 17727, "redo": 48454, "counter": 24588, "Ġ655": 45021, "Ġknow": 760, "ĠConcept": 26097, "Ġ165": 21409, "Stud": 13007, "ĠDemocr": 2459, "loss": 22462, "Ġcommunism": 27770, "ĠApproach": 38066, "Ġrelics": 40970, "isu": 46313, "ĠWilliam": 3977, "Ġcomputing": 14492, "edly": 49288, "GG": 11190, "Ġmurd": 7847, "ĠMap": 9347, "ĠAvery": 29218, "ĠRhythm": 45757, "ĠLSD": 27483, "IELD": 49979, "Ġol": 25776, "Hol": 28115, "Ġcuc": 38421, "Ġlucky": 9670, "ĠNik": 11271, "Ġbeta": 12159, "Ġjails": 39435, "ĠTODAY": 20092, "ĠTasman": 29958, "bank": 17796, "Ġwaging": 41747, "ĠFargo": 28125, "ĠGay": 16013, "ãĤ¨ãĥ«": 46948, "ĠLog": 5972, "ĠÃ": 6184, "ĠExec": 8393, "Disc": 15642, "Ġsays": 1139, "Ġreapp": 24578, "unsigned": 43375, "Ġlaz": 37296, "alert": 44598, "Ġbandwidth": 19484, "ĠArmor": 10313, "Ġclaim": 1624, "based": 3106, "ĠAG": 13077, "Ġmemor": 16181, "âĢĭ": 9525, "Ġast": 6468, "Bi": 23286, "less": 1203, "Ġcal": 2386, "Ġè£ıè¦ļéĨĴ": 25992, "Ġdebating": 31174, "Ġimagining": 34140, "ĠSlayer": 27076, "reflect": 35051, "ĠFlan": 39016, "Ġfictitious": 46718, "<|extratoken_5|>": 50261, "ĠEngel": 46073, "ĠCort": 18418, "ĠSlot": 32026, "Ġ324": 38595, "wind": 7972, "Ġfire": 2046, "pictured": 28852, "umping": 25218, "ĠCentral": 5694, "Ġfists": 33053, "Ġconversions": 32626, "Ġpizz": 38748, "ĠLTE": 28519, "Ġscattering": 45765, "Ġmaterial": 2587, "arth": 11999, "ĠKris": 27748, "Ġexaminations": 37305, "ĠMcMaster": 42284, "Ġclan": 19065, "Ġstaunch": 34700, "ĠChiefs": 18733, "Ġcopying": 23345, "Ġchanging": 5609, "Ġft": 10117, "usive": 11350, "Ġwaist": 16139, "Abs": 24849, "chemy": 26599, "Ġrubble": 29632, "ĠDonovan": 31565, "Courtesy": 31825, "Ġrecycled": 32099, "TPP": 31435, "ĠStrongh": 38653, "Ġovercoming": 36438, "Filter": 22417, "perors": 49406, "ãĥĭ": 30165, "Ġexquisite": 40123, "heric": 15011, "redict": 17407, "Ġcrept": 47092, "keleton": 38800, "Ġtermin": 5651, "Ġtraction": 23692, "ĠAviv": 28890, "ĠBEL": 29991, "Ġdarkened": 44261, "aeus": 46052, "Ġtraditions": 15421, "Ġconsideration": 9110, "Ġcent": 1247, "Ġnoticed": 6810, "ĠEduc": 7005, "Priv": 20184, "Ġsam": 6072, "Ġoverwhelmed": 20974, "ĠDungeons": 25461, "ĠâĢĵ": 784, "Office": 27743, "327": 34159, "Ġvouchers": 41262, "ĠBase": 7308, "Ġnuns": 45805, "Ġecc": 21399, "eny": 28558, "mare": 11449, "ĠSkill": 16023, "pta": 32283, "ORGE": 49697, "ĠYu": 10605, "iferation": 49801, "ĠEmerson": 41886, "Ġgift": 6979, "Ġmanga": 15911, "Ġdiesel": 21866, "lamm": 11199, "Ġinstructed": 17767, "ĠGiants": 12056, "Ġus": 514, "uffs": 18058, "Ġdefendants": 16757, "Bernie": 33433, ")</": 36475, "Ġbox": 3091, "ĠRobertson": 23590, "Ġaff": 1527, "Will": 8743, "Ġappraisal": 45436, "Ġemerging": 11823, "Ġbeen": 587, "ĠYellow": 12550, "VI": 12861, "Ġforums": 14216, "urized": 44796, "ĠRuins": 40247, "ILS": 45484, "subject": 32796, "Ġendot": 46710, "Ġiii": 46955, "ĠBegins": 48139, "Ġdiam": 48428, "Ġtrusts": 31976, "Weak": 44898, "Ġfinancially": 18786, "ocated": 10533, "ĠFood": 7318, "ĠOptions": 18634, "ĠBrend": 19252, "Ġbart": 30539, "ĠGinger": 38682, "Ġcarbohydrate": 28205, "ĠCPU": 9135, "ĠRD": 31475, "YING": 45761, "ĠStras": 47561, "missible": 21597, "ĠJeffrey": 19627, "ĠKira": 49103, "Ġhostages": 31331, "OPLE": 34354, "ĠAlbania": 44615, "ĠTWO": 35288, "Ultimate": 47892, "correct": 30283, "Ġdiscount": 9780, "Ġreinforces": 41125, "ĠCafÃ©": 42151, "etch": 7569, "Ġpasta": 26296, "Ġstra": 3534, "Ġsynt": 7419, "gee": 29622, "Nick": 23609, "ĠDefenders": 26983, "lished": 2115, "Dust": 43767, "ĠLem": 20607, "Ġchemical": 5931, "ĠJump": 15903, "ĠBu": 9842, "oldown": 15041, "Ġcancellation": 25395, "Ġconsequences": 6948, "Ġchem": 4607, "ĠCycling": 25550, "ĠBelfast": 29713, "ĠBound": 30149, "NJ": 41074, "ilver": 46978, "writ": 8933, "Ġwelf": 9468, "alsh": 22114, "Ġreducing": 8868, "United": 17013, "ĠWealth": 35151, "Ġ322": 38831, "PIN": 44032, "Ġchairman": 8900, "Fire": 13543, "Ġtits": 33789, "Ġparalysis": 35858, "ĠUttar": 44744, "Ġsteady": 11831, "])": 12962, ",'": 4032, "Ġinterpreter": 28846, "Ġimplicitly": 31821, "Ġeq": 37430, "ĠChak": 46620, "120": 10232, "Ġwarning": 6509, "iated": 12931, "ĠCary": 47474, "Ġtum": 11814, "ĠLEVEL": 49277, "Ġå": 10263, "Ġbere": 45303, "Ġpension": 13553, "ĠBates": 35591, "Ġimpressive": 8036, "Ġimpro": 2015, "ahar": 37325, "covered": 32111, "Wonder": 42337, "Boost": 45686, "Ġnp": 45941, "ĠJordanian": 47820, "ĠGrey": 13980, "Ġintended": 5292, "acha": 34518, "Ġprojections": 19887, "ĠExecution": 37497, "Ġment": 6229, "iler": 5329, "Ġshocked": 11472, "Ġ176": 26937, "Ġabsorbs": 42909, "ĠBeta": 17993, "auldron": 45637, "Ġru": 7422, "Ġchronological": 45946, "Ġrub": 6437, "Ġchalk": 30860, "ĠHeavenly": 29035, "Ġradiant": 43888, "ĠGNOME": 40339, "olyn": 34742, "ormon": 10615, "agos": 48215, "onday": 3204, "Ġnetworking": 19140, "***": 8162, "keye": 34929, "TV": 6849, "Ġcoach": 3985, "Ġobscured": 40157, "Ġshine": 18340, "ĠSorry": 19061, "ĠEither": 15467, "Ġembarrassment": 24655, "Ġlimbo": 46008, "Ġenough": 1576, "Ġturned": 2900, "Ġinstr": 6480, "ĠKirby": 23965, "<|extratoken_103|>": 50359, "Ġpurpose": 4007, "Note": 6425, "velt": 18065, "hibition": 24108, "ĠMediterranean": 19517, "300": 6200, "Ġballistic": 22681, "Building": 25954, "Tony": 29387, "Ġstringent": 32791, "ĠHirosh": 35763, "Ġadministrative": 11553, "Ġingenious": 44207, "Beat": 34979, "ĠBundesliga": 44323, "rost": 23341, "success": 13138, "helps": 35194, "waves": 32569, "ĠTempl": 31711, "ĠPorter": 20890, "Ġlying": 9105, "pse": 7752, "Ġnearest": 16936, "ĠRoche": 47765, "aires": 17693, "Ġwithin": 1626, "Background": 21756, "Gary": 33820, "æĸ": 23877, "Ġpaternity": 50064, "Our": 5122, "Ġ})": 32092, "Ġreel": 35672, "Ġdeposited": 27163, "etts": 9357, "ĠJulie": 21946, "IG": 3528, "ĠMiami": 8437, "Ġoverturned": 27153, "ĠByte": 30589, ")(": 5769, "ĠRES": 15731, "Ġselective": 21792, "Ġmocked": 29180, "FP": 5837, "erald": 12573, "Ġsniff": 26300, "mental": 37098, "blow": 48619, "ĠValid": 48951, "Ġintolerable": 49469, "ĠUr": 8799, "ĠPagan": 46856, "<|extratoken_97|>": 50353, "ĠWhite": 2635, "Palestinian": 35969, "ICE": 8476, "ĠCanterbury": 43581, "Ġhorizontal": 16021, "ush": 1530, "gpu": 46999, "bian": 12210, "wait": 17077, "ysis": 3097, "illus": 44342, "Conservative": 42039, "ĠMercy": 30759, "ults": 8376, "Ġweaken": 13813, "Ġformat": 5794, "Ġwithholding": 34180, "ĠVers": 18535, "Parser": 46677, "Ġmainstream": 8661, "Ġcorpses": 26750, "Ġflipping": 33097, "Ã¨re": 35979, "adden": 38014, "ĠFrost": 15122, "Getting": 20570, "ĠMund": 33324, "plete": 6677, "Ġbasic": 4096, "ylon": 15158, "2002": 16942, "ĠAssange": 21882, "ãĥĳ": 32546, "berman": 34591, "Ġanalyzing": 22712, "Shield": 33651, "ĠGuides": 48770, "Ġclash": 19122, "ĠFarmer": 37755, "iliated": 31705, "Ġstepping": 17413, "ildo": 39583, "ĠDrive": 9974, "Ġnet": 2010, "ch": 354, "Ġforced": 4137, "beat": 12945, "izers": 11341, "Ġmetabol": 14623, "Ġolive": 19450, "Ġcensorship": 21185, "Ġexplaining": 11170, "abis": 8102, "ĠWol": 27094, "gam": 28483, "Ġorganizational": 26564, "ĠãĢĮ": 40283, "ometime": 47056, "Ġkilomet": 11866, "MODE": 49058, "too": 18820, "à¸": 19567, "ĠCannon": 20585, "rupted": 31590, "ubes": 29080, "uto": 9390,
[...]
