{"version":"1.0","truncation":null,"padding":null,"added_tokens":[{"id":0,"special":true,"content":"<s>","single_word":false,"lstrip":false,"rstrip":false,"normalized":false},{"id":1,"special":true,"content":"<pad>","single_word":false,"lstrip":false,"rstrip":false,"normalized":false},{"id":2,"special":true,"content":"</s>","single_word":false,"lstrip":false,"rstrip":false,"normalized":false},{"id":3,"special":true,"content":"<unk>","single_word":false,"lstrip":false,"rstrip":false,"normalized":false},{"id":4,"special":true,"content":"<mask>","single_word":false,"lstrip":false,"rstrip":false,"normalized":false}],"normalizer":null,"pre_tokenizer":{"type":"ByteLevel","add_prefix_space":false,"trim_offsets":true},"post_processor":{"type":"ByteLevel","add_prefix_space":true,"trim_offsets":false},"decoder":{"type":"ByteLevel","add_prefix_space":true,"trim_offsets":true},"model":{"type":"BPE","dropout":null,"unk_token":null,"continuing_subword_prefix":null,"end_of_word_suffix":null,"fuse_unk":false,"vocab":{"<s>":0,"<pad>":1,"</s>":2,"<unk>":3,"<mask>":4,"!":5,"\"":6,"#":7,"$":8,"%":9,"&":10,"'":11,"(":12,")":13,"*":14,"+":15,",":16,"-":17,".":18,"/":19,"0":20,"1":21,"2":22,"3":23,"4":24,"5":25,"6":26,"7":27,"8":28,"9":29,":":30,";":31,"<":32,"=":33,">":34,"?":35,"@":36,"A":37,"B":38,"C":39,"D":40,"E":41,"F":42,"G":43,"H":44,"I":45,"J":46,"K":47,"L":48,"M":49,"N":50,"O":51,"P":52,"Q":53,"R":54,"S":55,"T":56,"U":57,"V":58,"W":59,"X":60,"Y":61,"Z":62,"[":63,"\\":64,"]":65,"^":66,"_":67,"`":68,"a":69,"b":70,"c":71,"d":72,"e":73,"f":74,"g":75,"h":76,"i":77,"j":78,"k":79,"l":80,"m":81,"n":82,"o":83,"p":84,"q":85,"r":86,"s":87,"t":88,"u":89,"v":90,"w":91,"x":92,"y":93,"z":94,"{":95,"|":96,"}":97,"~":98,"¡":99,"¢":100,"£":101,"¤":102,"¥":103,"¦":104,"§":105,"¨":106,"©":107,"ª":108,"«":109,"¬":110,"®":111,"¯":112,"°":113,"±":114,"²":115,"³":116,"´":117,"µ":118,"¶":119,"·":120,"¸":121,"¹":122,"º":123,"»":124,"¼":125,"½":126,"¾":127,"¿":128,"À":129,"Á":130,"Â":131,"Ã":132,"Ä":133,"Å":134,"Æ":135,"Ç":136,"È":137,"É":138,"Ê":139,"Ë":140,"Ì":141,"Í":142,"Î":143,"Ï":144,"Ð":145,"Ñ":146,"Ò":147,"Ó":148,"Ô":149,"Õ":150,"Ö":151,"×":152,"Ø":153,"Ù":154,"Ú":155,"Û":156,"Ü":157,"Ý":158,"Þ":159,"ß":160,"à":161,"á":162,"â":163,"ã":164,"ä":165,"å":166,"æ":167,"ç":168,"è":169,"é":170,"ê":171,"ë":172,"ì":173,"í":174,"î":175,"ï":176,"ð":177,"ñ":178,"ò":179,"ó":180,"ô":181,"õ":182,"ö":183,"÷":184,"ø":185,"ù":186,"ú":187,"û":188,"ü":189,"ý":190,"þ":191,"ÿ":192,"Ā":193,"ā":194,"Ă":195,"ă":196,"Ą":197,"ą":198,"Ć":199,"ć":200,"Ĉ":201,"ĉ":202,"Ċ":203,"ċ":204,"Č":205,"č":206,"Ď":207,"ď":208,"Đ":209,"đ":210,"Ē":211,"ē":212,"Ĕ":213,"ĕ":214,"Ė":215,"ė":216,"Ę":217,"ę":218,"Ě":219,"ě":220,"Ĝ":221,"ĝ":222,"Ğ":223,"ğ":224,"Ġ":225,"ġ":226,"Ģ":227,"ģ":228,"Ĥ":229,"ĥ":230,"Ħ":231,"ħ":232,"Ĩ":233,"ĩ":234,"Ī":235,"ī":236,"Ĭ":237,"ĭ":238,"Į":239,"į":240,"İ":241,"ı":242,"Ĳ":243,"ĳ":244,"Ĵ":245,"ĵ":246,"Ķ":247,"ķ":248,"ĸ":249,"Ĺ":250,"ĺ":251,"Ļ":252,"ļ":253,"Ľ":254,"ľ":255,"Ŀ":256,"ŀ":257,"Ł":258,"ł":259,"Ń":260,"Ġà":261,"Ġà¸":262,"à¹":263,"¸²":264,"à¸²":265,"Ġà¹":266,"¸Ļ":267,"à¸Ļ":268,"à¸²à":269,"à¸²à¸":270,"à¹Ī":271,"Ģà":272,"Ģà¸":273,"à¹ī":274,"¸Ń":275,"à¸Ń":276,"¸±":277,"à¸±":278,"¸£":279,"à¸£":280,"¸ĩ":281,"à¸ĩ":282,"¸µ":283,"à¸µ":284,"Ġà¹Ģà¸":285,"ģà":286,"ģà¸":287,"¸´":288,"à¸´":289,"¸¡":290,"à¸¡":291,"¸¢":292,"à¸¢":293,"¸Ķ":294,"à¸Ķ":295,"¸§":296,"à¸§":297,"¸°":298,"à¸°":299,"¸ģ":300,"à¸ģ":301,"¸ļ":302,"à¸ļ":303,"Ġà¸Ĺ":304,"¸¥":305,"à¸¥":306,"à¹Ģà¸":307,"Ġà¸ģ":308,"Ġà¸ª":309,"Ġà¹ģà¸":310,"¸·":311,"à¸·":312,"à¸²à¸£":313,"¸¸":314,"à¸¸":315,"à¸µà¹Ī":316,"Ġà¸Ħ":317,"Ġà¹Ħ":318,"à¸Ńà¸ĩ":319,"à¹ĩ":320,"Ġà¸Ń":321,"à¸":322,"à¸¹":323,"à¸«":324,"Ġà¸¡":325,"à¹Į":326,"Ġà¹ĥ":327,"à¸ķ":328,"Ġà¸£":329,"à¸³":330,"Ġà¸ķ":331,"Ġà¸Ī":332,"Ġà¸Ĥ":333,"à¸ª":334,"Ġà¸Ļ":335,"Ġà¸«":336,"à¸Ĺ":337,"à¸Ħ":338,"à¸²à¸Ļ":339,"à¸Ľ":340,"à¸²à¸ĩ":341,"à¸²à¸¢":342,"Ġà¸Ľ":343,"à¸Ī":344,"Ġà¹Ĥ":345,"à¸²à¸¡":346,"à¸ģà¸":347,"Ġà¸ŀ":348,"Ġà¹ģà¸¥":349,"à¸£à¸°":350,"Ġà¸§":351,"Ġà¸ģà¸²à¸£":352,"Ġà¸Ķ":353,"à¸¶":354,"Ġà¸ļ":355,"à¸·à¹Ī":356,"à¸²à¸ģ":357,"à¸Ĭ":358,"Ġà¹Ģà¸Ľ":359,"Ġà¹ĥà¸Ļ":360,"Ġà¹ģà¸¥à¸°":361,"ĠĊ":362,"Ġà¸Ĭ":363,"Ġà¸¥":364,"à¸Ńà¸Ļ":365,"à¸±à¹ī":366,"Ġà¸ľ":367,"Ġà¸Ĥà¸Ńà¸ĩ":368,"à¹Ħ":369,"Ġà¹Ħà¸Ķ":370,"à¸ĵ":371,"Ġà¸¢":372,"à¸ŀ":373,"à¹ĥ":374,"à¹ģà¸":375,"Ġà¹ĥà¸«":376,"Ġ,":377,"Ġà¹Ģà¸ŀ":378,"Ġà¸ģà¸":379,"Ġà¹Ħà¸¡":380,"à¸ĸ":381,"Ġà¹Ģà¸£":382,"à¸ģà¸²à¸£":383,"à¸§à¸²à¸¡":384,"à¸§à¸¢":385,"à¸µà¹ī":386,"Ġ2":387,"Ġ1":388,"à¸¹à¹ī":389,"à¹Ĥ":390,"à¸į":391,"Ġà¸Īà¸°":392,"Ġà¸Ńà¸¢":393,"Ġà¸ĸ":394,"à¸²à¸§":395,"Ġà¸ĭ":396,"Ġà¹Ģà¸¥":397,"à¸Ĥ":398,"Ġà¸Ľà¸£à¸°":399,"Ġà¸Ħà¸§à¸²à¸¡":400,"à¸¨":401,"à¸ĺ":402,"à¸Ńà¸ģ":403,"Ġà¸«à¸Ļ":404,"Ġà¸Ĺà¸³":405,"à¸Ńà¸¢":406,"à¸´à¹Ī":407,"à¸¹à¹Ī":408,"âĢ":409,"Ġà¹Ģà¸Ĥ":410,"Ġà¹Ħà¸Ľ":411,"à¸Ńà¸ļ":412,"à¸Ńà¸¡":413,"à¸£à¸£":414,"Ġ.":415,"à¸¢à¸Ļ":416,"à¸ł":417,"à¸£à¸ĩ":418,"Ġ(":419,"ĠâĢ":420,"à¸±à¹Ī":421,"à¸§à¸Ļ":422,"Ġà¹Ģà¸Ķ":423,"Ġà¸«à¸¥":424,"Ġ)":425,"Ġ-":426,"à¸Ńà¸Ķ":427,"Ġà¸Ħà¸£":428,"à¸·à¹ī":429,"Ġà¹ģà¸ķ":430,"Ġà¹Ģà¸«":431,"Ġà¹Ģà¸ģ":432,"à¸²à¸Ħ":433,"Ġà¸ģà¸¥":434,"Ġà¹Ģà¸¡":435,"Ġà¹Ģà¸ª":436,"à¸Ļà¸Ĺ":437,"Ġà¸¡à¸²":438,"Ġà¸Īà¸²à¸ģ":439,"Ġà¹Ĥà¸Ķ":440,"à¸Ńà¸£":441,"à¸¶à¹Ī":442,"Ġà¸ł":443,"à¸«à¸Ļ":444,"à¸ĩà¸²à¸Ļ":445,"à¸£à¸²à¸":446,"à¹Ģà¸Ĺ":447,"Ġà¸«à¸£":448,"Ġà¹ģ":449,"à¹ĥà¸«":450,"Ġà¹Ĩ":451,"à¸¢à¸§":452,"Ġà¹ĥà¸Ĭ":453,"à¸©":454,"à¸¸à¹Ī":455,"à¸ģà¸©":456,"à¸Ĺà¸¢":457,"Ġà¹Ĥà¸Ķà¸¢":458,"à¸ķà¸£":459,"à¸²à¸Ķ":460,"Ġà¹Ģà¸Ħ":461,"Ġà¸ĩ":462,"Ġà¸£à¸°":463,"Ģà¸Ļ":464,"Ġà¸ªà¸³":465,"à¸²à¸ª":466,"à¹Ģà¸¥":467,"Ġà¹Ģà¸£à¸²":468,"Ġà¹Ģà¸Ń":469,"à¹Ģà¸£":470,"à¸²à¸ŀ":471,"à¸Ł":472,"Ġ%":473,"Ġà¸Ħà¸Ļ":474,"er":475,"Ġ3":476,"in":477,"à¹ĥà¸Ī":478,"à¸¢à¸ĩ":479,"Ġà¹Ģà¸Ĭ":480,"00":481,"à¸ľ":482,"ĠS":483,"Ġà¹Ģà¸Ĺ":484,"à¸Ħà¸£":485,"à¸¶à¹ī":486,"à¸§à¸¡":487,"à¸Ľà¸£à¸°":488,"à¸²à¸Ĺ":489,"à¸«à¸£":490,"Ġà¹Ģà¸§":491,"à¸£à¸£à¸¡":492,"à¸²à¸«":493,"ļà¸ļ":494,"Ġà¸Ł":495,"ĠB":496,"Ġ:":497,"Ġà¸ªà¸²à¸¡":498,"Ġà¸¨":499,"à¸ĭ":500,"à¸§à¸ĩ":501,"à¹Ĩ":502,"à¸²à¸ķ":503,"à¸²à¸£à¸ĸ":504,"Ġà¸ģà¸£à¸°":505,"an":506,"on":507,"à¹Ģà¸ģ":508,"Ġ0":509,"Ġà¸ļà¸£":510,"Ġà¸ªà¸¡":511,"à¸ģà¸©à¸²":512,"à¸Īà¸°":513,"à¹Ģà¸Ľ":514,"Ġà¸Ĺà¸²à¸ĩ":515,"ĠC":516,"Ġà¹Ģà¸Ī":517,"Ġà¸ªà¸²à¸¡à¸²à¸£à¸ĸ":518,"à¸²à¸Ī":519,"ĠA":520,"à¸²à¸¥":521,"à¹Ģà¸Ķ":522,"ar":523,"Ġà¸ªà¸³à¸«à¸£":524,"à¸¥à¸²":525,"à¸ģà¸£":526,"à¸²à¸Ĭ":527,"à¹Ħà¸Ľ":528,"Ġà¸ŀà¸£à¸°":529,"à¸ĩà¸Ħ":530,"à¸ģà¸¥":531,"à¸łà¸²à¸ŀ":532,"Ġ/":533,"Ġ4":534,"ĠT":535,"or":536,"Ġ8":537,"à¹Ģà¸ķ":538,"à¸²à¸ģà¸":539,"ĠP":540,"Ġà¸«à¸¡":541,"Ġà¹Ĥà¸£":542,"Ġ5":543,"Ġà¸ĺ":544,"Ġà¸ŀà¸£":545,"à¸Ķà¹Ģà¸":546,"à¹Ĭ":547,"à¸£à¸²à¸°":548,"Ġà¹Ģà¸ķ":549,"Ġà¸ľà¸¥":550,"Ġà¹Ģà¸Ħà¸£":551,"à¹ģ":552,"Ġà¹Ģà¸Ļ":553,"ĠM":554,"à¹Ģà¸Ń":555,"ĠE":556,"Ġà¹ģà¸ļà¸ļ":557,"Ġà¸¡à¸²à¸ģ":558,"Ġà¹Ģà¸¥à¸¢":559,"à¸Ĳ":560,"Ġà¸Ľà¸£":561,"à¸«à¸§":562,"..":563,"Ġà¸Īà¸³":564,"Ġà¸ģà¸£":565,"à¹Ģà¸ª":566,"Ġ25":567,"à¸´à¹ī":568,"en":569,"à¸¢à¸¡":570,"al":571,"à¸Ńà¸ģà¸":572,"Ġà¹ģà¸¡":573,"à¹Ģà¸Ĺà¸¨":574,"à¸²à¸Ħà¸²":575,"à¸§à¸ģ":576,"à¸²à¸°":577,"à¹Ģà¸§":578,"Ġà¹Ħà¸Ĺà¸¢":579,"à¸Ľà¸£":580,"à¸Ńà¸¥":581,"at":582,"Ġà¹Ģà¸ģà¸":583,"à¸ļà¸£":584,"à¸Ļà¸Ļ":585,"Ġà¹Ĥà¸£à¸Ħ":586,"Ġà¹ģà¸«":587,"Ġà¸ĩà¸²à¸Ļ":588,"à¸£à¸ģ":589,"Ġà¸Ŀ":590,"Ġà¹Ģà¸ŀà¸£à¸²à¸°":591,"Ġ\"":592,"à¸¡à¸²":593,"es":594,"Ġà¸ķà¸²à¸¡":595,"à¸«à¸¥":596,"à¹Ħà¸Ķ":597,"Ġà¹ģà¸Ļ":598,"à¸«à¸¡":599,"à¹Ģà¸¡":600,"Ġà¸Ĺà¸³à¹ĥà¸«":601,"à¹Ģà¸«":602,"à¹Ģà¸Ļ":603,"à¸²à¸¨":604,"ĠâĢľ":605,"Ġà¹Ģà¸¢":606,"Ġà¸ģà¸§":607,"Ġà¸ģà¸³":608,"à¸«à¸²":609,"Ġà¸£à¸²à¸¢":610,"Ġà¸£à¸ĸ":611,"Ġà¸ľà¸¡":612,"à¸ªà¸°":613,"Ġ20":614,"Ġà¸£à¸²à¸Ħà¸²":615,"Ġà¹Ĥà¸£à¸ĩ":616,"à¸Ļà¸ķ":617,"ĠâĢĿ":618,"à¸Ħà¸§à¸²à¸¡":619,"Ġà¸Ħà¸¥":620,"it":621,"Ġ6":622,"à¸ĵà¸°":623,"à¹Ģà¸Ĥ":624,"Ġà¸ī":625,"à¸ĩà¸ª":626,"ĠG":627,"à¸Ĺà¸ĺ":628,"à¸Ļà¸²":629,"à¸ªà¸¡":630,"Ġà¹Ģà¸Ĥà¸²":631,"à¸¥à¸ĩ":632,"Ġà¸¥à¸ĩ":633,"Ġc":634,"Ġà¸Ļà¸³":635,"à¹Ħà¸£":636,"Ġà¹ģà¸ģ":637,"à¸ģà¸Ħ":638,"Ġà¸Ńà¸Ńà¸ģ":639,"Ġà¸Ĥà¸Ļ":640,"à¸ģà¸£à¸£à¸¡":641,"le":642,"à¸²à¸«à¸²à¸£":643,"om":644,"ĠL":645,"Ġà¹Ĥà¸Ħ":646,"à¸Ļà¸Ķ":647,"Ġà¹Ģà¸ļ":648,"Ġà¸ªà¸£":649,"ĠD":650,"Ġà¹Ģà¸ĩ":651,"Ġ9":652,"ic":653,"à¸§à¸£":654,"Ġà¹Ģà¸«à¸¡":655,"à¹ģà¸ķ":656,"Ġt":657,"à¸Ļà¸Ħ":658,"à¹Ģà¸Ĭ":659,"Ġà¸ªà¸ĸ":660,"à¸£à¸¡":661,"ĠF":662,"à¸¥à¸°":663,"Ġà¸ªà¸Ļ":664,"à¹Ģà¸Ħ":665,"Ġà¸£à¸°à¸ļ":666,"Ġà¸Ńà¸²à¸Ī":667,"à¸¥à¸Ļ":668,"à¸Ĵ":669,"à¸²à¸ĵ":670,"à¸Ķà¹Ģà¸ĩ":671,"Ġà¸¡à¸²à¸ģà¸":672,"à¸Ķà¸ķ":673,"Ġà¹Ħà¸§":674,"Ġà¹Ģà¸ĭ":675,"Ġs":676,"Ġà¹ĥà¸«à¸¡":677,"à¸Ńà¸Ļà¹Ħ":678,"ĠH":679,"Ġà¹Ģà¸ģà¸¡":680,"à¸¡à¸ŀ":681,"à¸ªà¸°à¹Ģà¸ģ":682,"à¹Ħà¸¡":683,"is":684,"Ġà¹Ĥà¸£à¸Ħà¸ªà¸°à¹Ģà¸ģ":685,"Ġà¸Ľà¸¥":686,"Ġà¹ģà¸Ĺ":687,"ĠR":688,"à¸Ĭà¸Ļ":689,"à¸²à¸ļ":690,"Ġà¸£à¸§à¸¡":691,"Ġà¸ļà¸Ļ":692,"à¹ĥà¸Ļ":693,"à¸¸à¹ī":694,"Ġ7":695,"à¸¥à¸ģ":696,"à¹Ģà¸Ī":697,"à¸Ļà¸ĺ":698,"Ġà¸ļà¸²à¸ĩ":699,"Ġà¸Ĥà¸²à¸¢":700,"à¹ģà¸¥":701,"Ġp":702,"à¸ľà¸¥":703,"Ġ201":704,"Ġà¸«à¸¥à¸²à¸¢":705,"à¸ģà¸§":706,"à¸¢à¸ļ":707,"à¸²à¸ģà¸²à¸£":708,"Ġà¹Ĥà¸Ľà¸£":709,"Ġà¹Į":710,"Ġà¸Ħà¸³":711,"Ġà¸Ńà¸°":712,"Ġà¹ģà¸ª":713,"à¸ģà¸ķ":714,"ro":715,"Ġà¸ŀà¸¥":716,"Ġà¸Īà¸Ļ":717,"à¹ĥà¸Ĭ":718,"à¸Ńà¸Ļà¹Ħà¸¥à¸Ļ":719,"Ġà¸Ńà¸Ńà¸Ļà¹Ħà¸¥à¸Ļ":720,"Ġà¸ķà¸Ńà¸Ļ":721,"re":722,"Ġà¸Ľà¸£à¸°à¹Ģà¸Ĺà¸¨":723,"Ġà¸Ľà¸£à¸°à¸ģ":724,"à¸Ĺà¸£":725,"à¸§à¸Ī":726,"à¸ĩà¸Ļ":727,"Ġà¹Ģà¸«à¸¥":728,"as":729,"à¸§à¸Ķ":730,"à¹ģà¸ģ":731,"ĠI":732,"à¹Ģà¸Ńà¸ĩ":733,"Ġà¸ķà¸¥":734,"à¸Ńà¸ª":735,"à¹ĭ":736,"à¹Ĥà¸Ļ":737,"à¸ģà¸ª":738,"à¸²à¸Ħà¸¡":739,"Ġà¸Ĥà¸Ļà¸²à¸Ķ":740,"am":741,"ac":742,"à¸ĳ":743,"à¹Ģà¸ļ":744,"Ġà¸£à¸°à¸ļà¸ļ":745,"ing":746,"Ġ10":747,"à¹Ģà¸ķà¸Ńà¸£":748,"Ġà¸ªà¸°":749,"Ġà¸Ĥà¸Ń":750,"Ġà¸ķà¸£":751,"Ġà¸łà¸²à¸ŀ":752,"Ġà¸®":753,"il":754,"Ġà¸Ķà¸³":755,"ĠN":756,"Ġà¸łà¸²à¸¢":757,"à¸Īà¸³":758,"Ġà¸Ńà¸²à¸«à¸²à¸£":759,"el":760,"et":761,"à¹ģà¸ļà¸ļ":762,"Ġà¸Ńà¸Ńà¸ģà¸":763,"à¸¢à¸§à¸ģ":764,"Ġà¸Ļà¸°":765,"Ġà¸ªà¸ĸà¸²à¸Ļ":766,"Ġà¹ģà¸Ħ":767,"Ġ#":768,"ĠW":769,"à¸Īà¸²à¸ģ":770,"à¸ĩà¸Ĥ":771,"Ġà¹Ģà¸Ńà¸²":772,"ol":773,"à¸Ķà¸ª":774,"Ġà¸ŀà¸§à¸ģ":775,"Ġà¹ģà¸ļ":776,"Ġà¸ļà¸²à¸Ĺ":777,"à¹ĥà¸«à¸į":778,"à¸Ļà¸¢":779,"à¸ı":780,"Ġà¸Ńà¸°à¹Ħà¸£":781,"à¸ģà¸²à¸¢":782,"à¹Ĥà¸¡":783,"à¸Ħà¸¥":784,"à¸Ńà¸ĩà¸ģà¸²à¸£":785,"à¸²à¸©":786,"Ġà¹Ģà¸§à¸¥à¸²":787,"Ġ|":788,"à¸ĩà¸«à¸§":789,"Ġà¸Īà¸£":790,"us":791,"à¸Ļà¸Ĺà¸²à¸ĩ":792,"à¸«à¸²à¸£":793,"Ġà¹ģà¸ŀ":794,"à¹Ģà¸§à¸¥à¸²":795,"à¸Ĭà¸²à¸ķ":796,"Ġà¸Ļà¸²à¸¢":797,"Ġà¸¥à¸°":798,"à¸įà¸į":799,"Ġ...":800,"ion":801,"à¸ĵà¸ĳ":802,"Ġm":803,"Ġ!":804,"à¸Ļà¸ª":805,"à¸Ķà¸ĩ":806,"à¸¢à¸Ķ":807,"à¸²à¸ĩà¹Ĩ":808,"à¸Ĺà¸³":809,"à¸¡à¸²à¸ĵ":810,"Ġà¸Ńà¸¢à¸²à¸ģ":811,"à¸Ļà¹ĥà¸Ī":812,"Ġà¸ªà¸§à¸¢":813,"à¸Ĵà¸Ļà¸²":814,"Ġà¹ģà¸ľ":815,"à¹Ģà¸ŀ":816,"à¹Ģà¸¨":817,"à¹Ģà¸ĭ":818,"à¸Ļà¸Ń":819,"à¸Ļà¸³":820,"à¸²à¸ĺ":821,"Ġà¸¥à¸Ķ":822,"Ġà¹Ĥà¸Ħà¸£à¸ĩ":823,"ad":824,"à¹Ģà¸ĩ":825,"Ġà¸£à¸°à¸Ķ":826,"Ġb":827,"Ġà¸«à¸²à¸ģ":828,"Ġà¹Ģà¸Ľà¸¥":829,"à¸Ļà¸§à¸Ļ":830,"Ġà¹ģà¸Ł":831,"Ġà¸Ńà¸£":832,"à¸Īà¸£":833,"Ġà¸Ľà¸£à¸ª":834,"ot":835,"Ġà¸ŀà¸ļ":836,"Ġĉ":837,"ed":838,"Ġà¸Ĭà¸Ļ":839,"Ġà¹ģà¸Ĥ":840,"Ġà¸ªà¸²à¸¢":841,"Ġà¸ļà¸Ńà¸¥":842,"Ġà¸ķà¸³":843,"ĠO":844,"ĠU":845,"Ġà¸Ħà¸§à¸²à¸¡à¸ª":846,"Ġà¹ĥà¸«à¸į":847,"Ġà¸ģà¸³à¸¥":848,"Ġà¹ĥà¸ª":849,"Īà¸²à¸ģ":850,"à¹Ģà¸ł":851,"--":852,"Ġà¸¢à¸²":853,"he":854,"à¹ģà¸Ĥ":855,"ag":856,"Ġà¸«à¸²":857,"Ġ256":858,"à¸Ļà¸ģà¸²à¸£":859,"Ġà¹Ħà¸¥":860,"Ġà¹Ħà¸Ł":861,"Ġà¹ĥà¸Ħà¸£":862,"à¹Ĥà¸¥":863,"Ġà¸Īà¸³à¸Ļà¸§à¸Ļ":864,"à¸ģà¸ĩà¸²à¸Ļ":865,"à¸²à¸Ń":866,"à¸¢à¸£":867,"Ġà¸Ħà¸§à¸£":868,"Ġà¸Ħà¸§à¸²à¸¡à¸£":869,"and":870,"Ġw":871,"ou":872,"à¸įà¸«à¸²":873,"à¸ŀà¸¢":874,"Ġà¸£à¸Ńà¸ĩ":875,"Ġà¸ĵ":876,"à¸²à¸Ĥ":877,"à¸¢à¸°":878,"Ġà¹Ģà¸ĺ":879,"à¸£à¸²à¸Ĭ":880,"Ġà¹ģà¸Ľ":881,"à¸¢à¸Ļà¸ķ":882,"Ġà¸į":883,"Ġà¸Ľà¸£à¸°à¸ª":884,"Ġ255":885,"à¸Ľà¸£à¸°à¹Ģà¸Ĺà¸¨":886,"à¸²à¸ªà¸ķà¸£":887,"à¹Ģà¸Ĥà¸²":888,"ĠK":889,"Ġà¹Ģà¸ĺà¸Ń":890,"Ġà¸ŀà¸Ń":891,"id":892,"Ġà¸Ĭà¸²à¸§":893,"à¸´à¹Į":894,"Ġh":895,"Ġà¸¡à¸«":896,"Ġf":897,"à¸ģà¸²à¸£à¸ĵ":898,"à¸Ļà¹Ģà¸¥":899,"000":900,"à¸ģà¸Ķ":901,"Ġà¹ĥà¸ļ":902,"à¸Ļà¹Ħà¸Ľ":903,"à¹ģà¸«":904,"Ġà¸Łà¸£":905,"ent":906,"Ġà¸ªà¸²à¸§":907,"à¸¤":908,"Ġà¸ļà¸£à¸£":909,"Ġà¹Ģà¸Ħà¸¢":910,"à¸Ĺà¸²à¸ĩ":911,"à¸ªà¸³":912,"à¸Īà¸Ī":913,"à¸¢à¸ģ":914,"ĠV":915,"Ġ12":916,"Ġà¸ģà¸²à¸£à¸£":917,"à¸Ħà¸Ļ":918,"Ġà¸Ľà¸£à¸°à¸Ĭ":919,"à¹ģà¸Ĺ":920,"à¹Ģà¸ģà¸":921,"à¹Ħà¸ĭ":922,"à¸ī":923,"Ġd":924,"Ġà¸ŀà¸Ļ":925,"à¸ģà¸Ĺ":926,"Ġà¸£à¸°à¸«à¸§":927,"Ġà¸ķà¸£à¸§à¸Ī":928,"Ġà¸ķà¸£à¸ĩ":929,"à¸ģà¸£à¸°":930,"Ġà¸łà¸²à¸¢à¹ĥà¸Ļ":931,"Ġà¹Ģà¸Ńà¸ĩ":932,"à¸²à¸ģà¸²à¸¨":933,"oo":934,"à¹Ģà¸¨à¸©":935,"ĠâĢĵ":936,"à¸¢à¸²à¸¢":937,"Ġà¸ĺà¸£à¸£à¸¡":938,"à¸ģà¸£à¸ĵ":939,"Ġà¹Ĥà¸ķ":940,"Ġà¸ªà¸²à¸£":941,"à¸³à¸Ļ":942,"à¸¥à¸²à¸¢":943,"à¸ŀà¸²à¸°":944,"īà¸ŀà¸²à¸°":945,"Ġà¹Ģà¸ªà¸£":946,"Ġà¹Ĥà¸¥à¸ģ":947,"à¸«à¸¡à¸Ķ":948,"à¸Ļà¸Ńà¸Ļ":949,"à¹Ģà¸¢":950,"ch":951,"Ġà¹ģà¸£à¸ģ":952,"à¸ķà¸²à¸¡":953,"à¸®":954,"à¹ģà¸£à¸¡":955,"Ġà¸łà¸²à¸©":956,"os":957,"Ġà¸łà¸²à¸Ħ":958,"Ġà¹ģà¸Ļà¸§":959,"à¸ŀà¸£":960,"à¸ĩà¸¡":961,"à¸ĩà¹ģà¸ķ":962,"Ġà¹Ĥà¸£à¸ĩà¹Ģà¸£":963,"à¸Ļà¸Ĺà¸£":964,"Ġà¸ķà¸¥à¸Ńà¸Ķ":965,"à¹ģà¸ª":966,"Ġà¸ģà¸²":967,"Ġà¸Ńà¸Ļ":968,"Ġà¹Ĥà¸£à¸ĩà¹ģà¸£à¸¡":969,"à¸²à¸ķà¸£":970,"à¸«à¸¡à¸²à¸¢":971,"ig":972,"un":973,"ay":974,"à¸¡à¸²à¸ģ":975,"Ġà¸Ľà¸ı":976,"Ġà¸¯":977,"Ġà¸¢à¸Ńà¸Ķ":978,"Ġà¸£à¸²à¸Ĭ":979,"à¹Ħà¸Ł":980,"à¸§à¹Ģà¸Ńà¸ĩ":981,"Ġà¸²":982,"à¸Ńà¸°":983,"Ġ15":984,"ia":985,"à¸²à¸Ħà¸²à¸£":986,"à¸ļà¸²à¸¢":987,"à¹Ĥà¸¢":988,"Ġà¸Ħà¸ĵà¸°":989,"à¹ĥà¸«à¸¡":990,"Ġà¸Ļà¸Ńà¸ģà¸":991,"Ġx":992,"à¸ģà¸²":993,"Ġà¸Ńà¸ĩà¸Ħ":994,"Ġà¸Ĺà¸£":995,"à¸²à¸¡à¸²":996,"Ġn":997,"op":998,"¡à¸²":999,"Ġà¸Ńà¸Ńà¸ģà¸¡à¸²":1000,"ha":1001,"à¸Ĳà¸²à¸Ļ":1002,"Ġà¸¡à¸Ńà¸ĩ":1003,"iv":1004,"Ġà¹Ĥà¸Ń":1005,"à¸²à¸¢à¸Ļ":1006,"à¸ĩà¸«à¸¡à¸Ķ":1007,"Ġà¸£à¸Ńà¸ļ":1008,"Ġà¹Ĥà¸Ħà¸£à¸ĩà¸ģà¸²à¸£":1009,"Ġà¸Ħà¸ĩ":1010,"Ġà¹Ģà¸«à¸¡à¸²à¸°":1011,"Ġà¸«à¸Ļà¸Ńà¸Ļ":1012,"Ġà¹ĥà¸ģà¸¥":1013,"Ġ11":1014,"à¸°à¸Ļà¸³":1015,"à¸ĵà¸łà¸²à¸ŀ":1016,"Ġà¸Ļà¸Ńà¸ģà¸Īà¸²à¸ģ":1017,"Ġà¸£à¸°à¸¢à¸°":1018,"Ġà¸Ļà¸²à¸Ļ":1019,"à¸ªà¸Ļ":1020,"à¸ķà¸ł":1021,"Ġcom":1022,"Ġà¸Ħà¸§":1023,"Ġà¹Ħà¸¥à¸Ħ":1024,"Ġà¸Ĥà¸Ńà¸Ķ":1025,"Ġv":1026,"Ġà¹ģà¸Ī":1027,"ter":1028,"Ġà¹ģà¸£à¸ĩ":1029,"à¹Ģà¸«à¸¥":1030,"à¸Īà¸ģà¸£à¸£à¸¡":1031,"Ġl":1032,"à¹ģà¸£à¸ĩ":1033,"Ġà¸Ńà¸²à¸ģà¸²à¸£":1034,"Ġà¸ŀà¸§à¸ģà¹Ģà¸Ĥà¸²":1035,"Ġà¸§à¸ĩ":1036,"à¸Ńà¸ģà¸²à¸ª":1037,"à¸°à¹Ģà¸¥":1038,"à¸Ļà¸ķà¸£":1039,"ow":1040,"Ġà¸Ľà¸£à¸°à¸¡à¸²à¸ĵ":1041,"à¸Ńà¸ĩà¹Ģà¸Ĺ":1042,"à¸Ķà¸¥":1043,"Ġà¹ģà¸ªà¸Ķà¸ĩ":1044,"Ġà¹Ħà¸Ń":1045,"Ġà¸Ńà¸²à¸Īà¸Īà¸°":1046,"Ġ[":1047,"Ġà¸ªà¸³à¸Ħ":1048,"à¹ģà¸Ķ":1049,"à¸²à¸Ĭà¸Ļ":1050,"Ġ]":1051,"à¸ªà¸£":1052,"à¸Ńà¸§":1053,"Ġ16":1054,"à¸Ļà¸ģ":1055,"à¹ģà¸ŀ":1056,"Ġà¸Ķà¸³à¹Ģà¸Ļ":1057,"Ġà¸Ĺà¸Ńà¸ĩ":1058,"Ġà¹Ģà¸ľ":1059,"à¸Ńà¸ķ":1060,"à¹Ĥà¸Ķ":1061,"Ġà¸Ĭà¸Ńà¸ļ":1062,"à¸Ļà¹Ģà¸Ńà¸ĩ":1063,"Ġà¸Ķà¸²à¸§":1064,"à¸«à¸Ļà¸Ķ":1065,"à¸Ńà¹ĥà¸«":1066,"Ġà¸Ĭà¸¡":1067,"Ġà¸ģà¸¥à¸²à¸ģ":1068,"Ġà¸ģà¸Ńà¸ĩ":1069,"Ġà¹Ħà¸«à¸Ļ":1070,"à¸Ľà¸£à¸°à¸ģ":1071,"ur":1072,"Ġà¸ģà¸²à¸£à¸ŀ":1073,"à¸£à¸²à¸ļ":1074,"à¸ģà¸Ħà¸£":1075,"à¸ªà¸Ķ":1076,"Ġà¸ªà¸³à¸Ļ":1077,"à¸Ķà¸Ĥ":1078,"Ġà¹ģà¸Łà¸Ļ":1079,"à¸ĵà¸²":1080,"ĠJ":1081,"ap":1082,"Ġà¸ģà¸¥à¸²à¸ĩ":1083,"à¹Ĥà¸£":1084,"Ġà¸Ħà¸²":1085,"Ġà¸§à¸²à¸ĩ":1086,"Ġà¸¥à¸³":1087,"à¸²à¸ĩà¸ģà¸²à¸¢":1088,"Ġà¸ªà¸Ńà¸ĩ":1089,"à¸£à¸£à¸Ħ":1090,"Ġà¸ªà¸ķ":1091,"à¸Ļà¹Ĩ":1092,"¡à¸²à¸¢":1093,"Ġà¸¡à¸²à¸ģà¸¡à¸²à¸¢":1094,"à¸Ĺà¸¢à¸²à¸¥":1095,"à¸¯":1096,"Ġà¸ļà¸Ńà¸ģ":1097,"à¹Ħà¸Ĺà¸¢":1098,"Ġà¸Ľà¸£à¸°à¸ģà¸Ńà¸ļ":1099,"Ġg":1100,"Ġ18":1101,"ine":1102,"Ġà¹ģà¸ĸ":1103,"of":1104,"à¸¡à¸ķ":1105,"Ġ2561":1106,"à¸Ķà¸ģà¸²à¸£":1107,"à¹Ĥà¸Ń":1108,"Ġà¸ķà¸ģ":1109,"à¸Ńà¹Ħà¸Ľ":1110,"ard":1111,"à¸Ńà¸ĩà¸ģ":1112,"à¸Ĭà¸²":1113,"um":1114,"à¸¢à¸²":1115,"à¸ķà¸¥":1116,"Ġà¸Ħà¸Ńà¸Ļ":1117,"ut":1118,"Ġà¸ķà¸Ńà¸ļ":1119,"Ġà¸Ĺà¸£à¸ĩ":1120,"à¸Ŀ":1121,"à¸ĺà¸²à¸Ļ":1122,"à¹ģà¸¡":1123,"Ġà¸ŀà¸¤":1124,"à¸ĺà¸£à¸£à¸¡":1125,"à¸Ńà¸²à¸«à¸²à¸£":1126,"Ġ2018":1127,"à¸Ľà¸ģà¸£à¸ĵ":1128,"à¸ķà¸§":1129,"Ġà¹Ģà¸«à¸ķ":1130,"à¸ļà¸Ħ":1131,"Ġà¸«à¸¡à¸²à¸¢":1132,"ģà¸§":1133,"ir":1134,"Ġà¸¥à¸Ńà¸ĩ":1135,"Ġ19":1136,"Ġà¸«à¸¢":1137,"à¸¨à¸²à¸ªà¸ķà¸£":1138,"Ġà¸Ļà¸²":1139,"Ġà¹Ĥà¸Ĺà¸£":1140,"Ġà¸ķà¸¥à¸²à¸Ķ":1141,"à¹Ģà¸Ľà¸¥":1142,"im":1143,"Ġà¸Ľà¸£à¸°à¸ģà¸²à¸¨":1144,"à¸²à¹Ħà¸Ľ":1145,"Ġà¹ģà¸Ń":1146,"à¸²à¸ĩà¸§":1147,"Ĳà¸²à¸Ļ":1148,"Ġà¸Ľà¸£à¸°à¸Īà¸³":1149,"à¸Ĺà¸³à¸ĩà¸²à¸Ļ":1150,"Ġà¹ĥà¸Ķ":1151,"Ġà¸Ĺà¸³à¸ĩà¸²à¸Ļ":1152,"Ġà¹Ģà¸Ł":1153,"à¸Ķà¸²":1154,"à¸©à¸¢":1155,"Ġà¸¡à¸²à¸ģà¸ģà¸§":1156,"à¸Ľà¸£à¸°à¸ª":1157,"Ġà¹ģà¸Ķ":1158,"Ġà¸ģà¸²à¸£à¸¨":1159,"Ġà¸ªà¸ĸà¸²à¸Ļà¸Ĺ":1160,"Ġà¸ªà¸Ńà¸ļ":1161,"à¸ªà¸ķ":1162,"Ġà¸ļà¸Ĺ":1163,"ct":1164,"à¹Ħà¸ĭà¸ķ":1165,"Ġà¹Ģà¸Ĺà¸Ħ":1166,"Ġà¹ģà¸Ļà¸°à¸Ļà¸³":1167,"Ġà¸Ħà¸£à¸Ńà¸ļ":1168,"Ġà¸¢à¸²à¸§":1169,"Ġà¸ķà¸°":1170,"Ġà¹Ĥà¸¥":1171,"à¸įà¸įà¸²":1172,"à¸ĩà¸Īà¸²à¸ģ":1173,"à¸ļà¹Ħà¸ĭà¸ķ":1174,"à¸ĩà¸ģà¸":1175,"Ġà¸£à¸²":1176,"Ġà¸¡à¸²à¸ķà¸£":1177,"à¸Ķà¸Ĺ":1178,"Ġ24":1179,"Ġà¹Ĥà¸Ĭ":1180,"Ġà¹ģà¸Ĭ":1181,"ip":1182,"à¹Ĥà¸¢à¸Ĭà¸Ļ":1183,"Ġ+":1184,"à¹Ģà¸łà¸Ĺ":1185,"à¸Ļà¸§":1186,"em":1187,"Ġ30":1188,"à¹Ģà¸ªà¸£":1189,"à¸ĩà¸²à¸¡":1190,"à¹Ģà¸«à¸ķ":1191,"Ġà¹Ģà¸Ĥà¸ķ":1192,"Ġà¹ĥà¸Ī":1193,"Ġà¸Ńà¸²":1194,"Ġà¸Ńà¸²à¸¢":1195,"Ġà¸Ľà¸£à¸°à¸ªà¸ļ":1196,"à¸Ńà¸ĩà¸Īà¸²à¸ģ":1197,"à¹ģà¸ģà¸£à¸¡":1198,"à¸ķà¸²":1199,"Ġà¹Ģà¸ŀà¸¥à¸ĩ":1200,"à¸ĩà¹Ģà¸Ĺ":1201,"Ġà¸Ľà¸£à¸°à¹Ģà¸łà¸Ĺ":1202,"Ġà¸Ńà¸²à¸£":1203,"Ġà¸Ĥà¸ĵà¸°":1204,"¤à¸©":1205,"Ġà¸ģà¸³à¸«à¸Ļà¸Ķ":1206,"à¹Ģà¸§à¸ĵ":1207,"Ġà¹Ĥà¸Ľ":1208,"à¸ķà¸¢":1209,"à¸ŀà¸¥":1210,"Ġà¹Ĥà¸ĭ":1211,"à¸²à¸Īà¸²à¸ģ":1212,"Ġà¸Ĥà¸²":1213,"à¸²à¸ģà¸£":1214,"à¸§à¸«à¸Ļ":1215,"Ġ13":1216,"Ġà¸Īà¸³à¸ģ":1217,"Ġà¹Ħà¸Ĥ":1218,"ov":1219,"Ġà¸ķà¸²":1220,"à¸¡à¸Ĥ":1221,"Ġà¸¡à¸Ļ":1222,"Ġà¹Ĥà¸Ľà¸£à¹ģà¸ģà¸£à¸¡":1223,"à¸¡à¹Ģà¸ķ":1224,"Ġà¸Ļà¸²à¸ĩ":1225,"Ġà¸ķà¸Ńà¸Ļà¸Ļ":1226,"Ġà¹Ĥà¸ļ":1227,"Ġà¹Ģà¸Ĺà¸Ħà¹Ĥà¸Ļ":1228,"Ġà¹Ħà¸£":1229,"ub":1230,"Ġ?":1231,"à¸§à¹Ħà¸Ľ":1232,"à¸£à¸©":1233,"Ġà¸Ĭà¸²à¸¢":1234,"à¸Ĺà¸²à¸Ļ":1235,"à¸¥à¸°à¹Ģà¸Ń":1236,"à¸²à¸į":1237,"à¸Ľà¹ģà¸ļà¸ļ":1238,"à¹Ĥà¸¥à¸¢":1239,"à¸ļà¸²à¸¥":1240,"Ġà¸Ħà¸²à¸ª":1241,"à¸²à¸Ľ":1242,"à¸³à¸£":1243,"Ġ..":1244,"Ġà¸ªà¸§":1245,"à¸¬":1246,"à¸²à¸ĸ":1247,"Ġà¹ģà¸Ĺà¸ĩ":1248,"Ġà¹Ģà¸ģà¸¡à¸ª":1249,"ĠSt":1250,"à¹Ĥà¸ķ":1251,"Ġà¸ĸà¸Ļà¸Ļ":1252,"Ġà¹Ĥà¸¡":1253,"Ġà¹Ģà¸Ĺà¸Ħà¹Ĥà¸Ļà¹Ĥà¸¥à¸¢":1254,"Ġin":1255,"ĠâĢ¦":1256,"Ġ14":1257,"ak":1258,"à¸ģà¸¥à¸²à¸ĩ":1259,"ï¿":1260,"ï¿½":1261,"à¹Ĥà¸¥à¸ģ":1262,"Ġà¸Ĥà¸²à¸§":1263,"à¸²à¹ĥà¸Ī":1264,"Ġà¸¡à¸²à¸Īà¸²à¸ģ":1265,"Ġà¸¤":1266,"à¸ĩà¹Ĩ":1267,"ation":1268,"Ġà¸¡à¸°":1269,"Ġà¸£à¸²à¸¢à¸¥à¸°à¹Ģà¸Ń":1270,"Ġà¸Ńà¸Ńà¸ģà¹ģà¸ļà¸ļ":1271,"à¸ĩà¸ģ":1272,"à¸Ĩ":1273,"à¸ĩà¸Ħà¸¡":1274,"à¸¥à¸Ķ":1275,"og":1276,"Ġ100":1277,"Ġà¸«à¸§":1278,"à¸ķà¸ļ":1279,"Ġà¸ªà¸°à¸Ķ":1280,"Ġà¸ģà¸²à¸£à¹ģà¸Ĥ":1281,"à¸Ńà¸ĸ":1282,"Ġà¸¡à¸²à¸ģà¸Ĥ":1283,"Ġà¸¡à¸«à¸²à¸§":1284,"à¸¥à¸Ľ":1285,"à¸ĩà¸ģà¸¤à¸©":1286,"eb":1287,"à¸ĩà¹Ģà¸Ĺà¸ŀ":1288,"à¸ģà¸ĭ":1289,"à¸«à¸¢":1290,"à¸ģà¹Ģà¸£":1291,"ĠIn":1292,"Ġà¸Ľà¸£à¸²à¸":1293,"à¸£à¸ĵ":1294,"Ġà¸«à¸¡à¸Ķ":1295,"Ġà¸Ĭà¸²à¸ķ":1296,"à¸ĩà¸ģà¸¥":1297,"à¸Ĥà¸łà¸²à¸ŀ":1298,"à¸²à¸«à¸Ļ":1299,"Ġà¸£à¸Ń":1300,"ul":1301,"à¸Ħà¸Ħà¸¥":1302,"Ġth":1303,"à¹ĥà¸ķ":1304,"Ġà¸Ħà¸§à¸²à¸¡à¸Ħ":1305,"à¸§à¸¡à¸ģ":1306,"Ġà¸ªà¸¡à¸²à¸Ĭ":1307,"ess":1308,"Ġà¸£à¸²à¸¢à¸ģà¸²à¸£":1309,"à¸Ńà¸Ķà¸ł":1310,"à¹ģà¸Ľ":1311,"à¹ģà¸Ĺà¸Ļ":1312,"à¸§à¸¥":1313,"Ġà¹Ģà¸ķà¸£":1314,"Ġà¹Ĥà¸ģ":1315,"à¸ģà¸²à¸¥":1316,"Ġà¸Ħà¸£à¸ļ":1317,"Ġà¸Ńà¸³":1318,"à¸Ļà¸Ĭ":1319,"Ġà¸ļà¸²":1320,"Ġa":1321,"à¹Ģà¸Ħà¸£":1322,"à¸¡à¸Ń":1323,"Ġà¹ģà¸¢":1324,"à¸²à¸Ļà¸¡à¸²":1325,"à¹ģà¸«à¸Ļ":1326,"à¹Ħà¸Ĥ":1327,"----":1328,"Ġà¸ŀà¸²":1329,"à¸ģà¸©à¸ĵà¸°":1330,"Ġà¸ŀà¸¢":1331,"à¸£à¸²à¸°à¸«":1332,"Ġi":1333,"à¸ĩà¸ķ":1334,"à¸Ĭà¸²à¸¢":1335,"à¸ĩà¸Ĺ":1336,"Ġà¸Ħà¸Ńà¸¡":1337,"Ġà¸Ļà¸²à¸Ĺ":1338,"Ġ17":1339,"à¸ªà¸²à¸£":1340,"Ġà¸Ľà¸£à¸°à¸ķ":1341,"à¸ģà¸Ħà¸Ļ":1342,"à¸¡à¸Ľ":1343,"à¸ģà¸Ľ":1344,"à¸Ļà¹Ģà¸Ķ":1345,"à¸Ńà¹Ħà¸¡":1346,"Ġà¸¨à¸£":1347,"à¸ªà¸Ńà¸ļ":1348,"Ġà¹ģà¸«à¸¥":1349,"od":1350,"à¸³à¸¡":1351,"Ġà¸¢à¸ģ":1352,"à¸Ľà¸¥":1353,"à¹Ģà¸łà¸Ń":1354,"Ġà¸ªà¸Ļà¹ĥà¸Ī":1355,"à¸ļà¸¥":1356,"Ġà¸ģà¸£à¸°à¸Ķ":1357,"Ġ>":1358,"Ġà¹Ĥà¸ŀ":1359,"Ġà¸ªà¸Ķ":1360,"Ġà¹Ģà¸ŀà¸Ī":1361,"à¸«à¸į":1362,"ĠÂ":1363,"Ġà¸ªà¸§à¸Ļ":1364,"Ġà¸Ļà¸Ńà¸ģà¸Īà¸²à¸ģà¸Ļ":1365,"Ġà¸Ĳà¸²à¸Ļ":1366,"à¸ģà¸«":1367,"Ġà¸ªà¸Ļà¸²à¸¡":1368,"Ġà¸Ńà¸²à¸Ħà¸²à¸£":1369,"à¸ĸà¸²à¸¡":1370,"à¸ģà¸Ĭ":1371,"à¸¢à¸Ļà¸£":1372,"à¸ļà¸Ľà¸£à¸°":1373,"Ġà¸¢à¸Ńà¸¡":1374,"à¸¥à¸¥":1375,"à¸¬à¸²":1376,"à¸ķà¸ļà¸Ńà¸¥":1377,"à¸Ńà¸¡à¸ģ":1378,"à¹Ģà¸Ħà¸£à¸²à¸°à¸«":1379,"oc":1380,"à¸ģà¸ģ":1381,"Ġà¸ģà¸²à¸£à¸ª":1382,"à¸Ńà¸²à¸Ķ":1383,"ab":1384,"à¸Ĥà¸²à¸¢":1385,"Ġà¸ļà¸Ń":1386,"à¸Ľà¸£à¸°à¸Ĭ":1387,"Ġà¹Ĵ":1388,"Ġà¸ģà¸²à¸£à¸Ĺà¸³à¸ĩà¸²à¸Ļ":1389,"à¹ģà¸£à¸ģ":1390,"à¸¸à¹Ĭ":1391,"Ġà¹Ĥà¸Ķà¸¢à¹Ģà¸":1392,"Ġà¸Ħà¸°":1393,"Ġof":1394,"à¸ĩà¸ĩà¸²à¸Ļ":1395,"Ġà¸Ħà¸£à¸Ńà¸ļà¸Ħà¸£":1396,"one":1397,"Ġà¹Ģà¸¥à¸Ĥ":1398,"Ġà¸ªà¸łà¸²à¸ŀ":1399,"ob":1400,"à¸įà¸Ĭ":1401,"à¸Īà¸Ļ":1402,"à¸ļà¸ļ":1403,"à¸ļà¸¡à¸²":1404,"Ġà¹Ģà¸īà¸ŀà¸²à¸°":1405,"à¸²à¸ĩà¹Ħà¸£":1406,"à¸Ķà¹Ģà¸«":1407,"Ġà¸Ĥà¸Ńà¸ļ":1408,"Ġà¸¢à¸²à¸ģ":1409,"Ġà¸Ńà¸Ń":1410,"**":1411,"Ġà¹Ģà¸Īà¸Ń":1412,"Ġà¸¥à¸²":1413,"à¸Ńà¸Ľ":1414,"ew":1415,"Ġà¸Ńà¸³à¹Ģà¸łà¸Ń":1416,"Ġà¸£à¸ĸà¸¢à¸Ļà¸ķ":1417,"Ġà¹Ĥà¸Ļ":1418,"Ġà¸«à¸į":1419,"ĠY":1420,"Ġà¸Ķà¸Ńà¸ģ":1421,"à¸£à¸Ļà¸Ķ":1422,"Ġà¸¢à¸²à¸ĩ":1423,"Ġà¸Ńà¸Ķ":1424,"Ġà¹Ģà¸¨":1425,"Ġà¸«à¸¥à¸Ńà¸Ķ":1426,"ers":1427,"Ġà¹Ģà¸Ħà¸¥":1428,"xx":1429,"art":1430,"Ġà¹Ĥà¸Ķà¸¢à¹Ģà¸īà¸ŀà¸²à¸°":1431,"ik":1432,"Ġà¹Ĥà¸Ķà¸Ļ":1433,"Ġà¹ģà¸ķà¸ģ":1434,"Ġà¸Ľà¸¥à¸²":1435,"Ġà¹Ģà¸«à¸£":1436,"Ġ!!":1437,"Ġà¸ªà¸ģ":1438,"Ġà¸¤à¸Ķ":1439,"Ġà¹Ģà¸ī":1440,"Ġà¹Ģà¸¢à¸Ńà¸°":1441,"à¸ģà¸³":1442,"Ġà¸ģà¸¥à¸²à¸¢":1443,"©à¸ķà¸£":1444,"ook":1445,"à¸Ńà¸Ļà¸ģ":1446,"à¹ģà¸§":1447,"Ġ21":1448,"up":1449,"Ġà¸£à¸§à¸¡à¸ĸ":1450,"ĠX":1451,"Ġà¸«à¸¥à¸§à¸ĩ":1452,"Ġà¸Ľà¸£à¸°à¸Ĭà¸²à¸Ĭà¸Ļ":1453,"à¸Ńà¸³à¸Ļ":1454,"ex":1455,"Ġà¸łà¸²à¸©à¸²":1456,"à¸ģà¸ŀ":1457,"Ġà¸ķà¸³à¹ģà¸«à¸Ļ":1458,"à¹ģà¸ªà¸Ķà¸ĩ":1459,"à¸²à¸«à¸¥":1460,"à¸²à¸£à¸²":1461,"Ġ'":1462,"Ġà¸¡à¸²à¸£":1463,"à¸£à¸²à¸Ħà¸²":1464,"Ġà¸ľà¸¥à¸ĩà¸²à¸Ļ":1465,"Ġ22":1466,"à¸ŀà¸Ĺ":1467,"à¸²à¸ļà¸²à¸¥":1468,"à¸ļà¸ªà¸Ļ":1469,"à¹Ģà¸¡à¸£":1470,"à¸«à¸¥à¸Ķ":1471,"à¸Ļà¸²à¸Ļ":1472,"ET":1473,"Ġà¸ģà¸Ķ":1474,"Ġà¸ªà¸ĩ":1475,"à¸ķà¸ª":1476,"ce":1477,"Ġà¸«à¸²à¸¢":1478,"Ġà¸ĺà¸Ļ":1479,"à¸İ":1480,"à¸£à¸£à¸ĵ":1481,"à¸ģà¸Ĥ":1482,"Ġà¸ķà¸£à¸§à¸Īà¸ªà¸Ńà¸ļ":1483,"à¸Īà¸²à¸£":1484,"à¸Ľà¸£à¸°à¹Ĥà¸¢à¸Ĭà¸Ļ":1485,"Ġà¸ģà¸²à¸£à¹Ģà¸£":1486,"Ġà¸ģà¸£à¸°à¸Ī":1487,"à¸Ļà¸«à¸Ļ":1488,"à¹Ĥà¸Ľ":1489,"Ġà¹ģà¸§":1490,"à¸Ļà¹Ħ":1491,"ang":1492,"if":1493,"ĠâĢĭ":1494,"Ġà¸ģà¸²à¸£à¸Ħ":1495,"à¹Ģà¸ªà¸Ļà¸Ń":1496,"à¸²à¸ģà¸«":1497,"à¸³à¸«à¸Ļ":1498,"Ġà¹ĥà¸Ļà¸Ľà¸£à¸°à¹Ģà¸Ĺà¸¨":1499,"Ġà¸ģà¸£à¸°à¸ļ":1500,"à¸£à¸©à¸Ĳ":1501,"Ġà¹Ģà¸«à¸Ļ":1502,"à¸ģà¸Ī":1503,"à¸Ńà¸Ħ":1504,"à¸Ńà¸ĩà¸Ħ":1505,"à¹Ĥà¸Ńà¸ģà¸²à¸ª":1506,"ist":1507,"st":1508,"à¸°à¹Ģà¸ļ":1509,"à¸²à¸ĩà¸Ľà¸£à¸°à¹Ģà¸Ĺà¸¨":1510,"à¹ģà¸Ľà¸¥à¸ĩ":1511,"Ġ50":1512,"à¸¸à¹Į":1513,"Ġà¸ģà¸£à¸°à¹Ģà¸Ľ":1514,"ĠCh":1515,"Ġà¹Ģ":1516,"Ġà¸Īà¸ļ":1517,"à¸£à¸§à¸Ī":1518,"Ġà¸Īà¸³à¹Ģà¸Ľ":1519,"Ġà¸ªà¸²à¸Ĥ":1520,"Ġà¹Ģà¸ģà¸²à¸°":1521,"tt":1522,"à¸ļà¸Ĺ":1523,"Ġà¹Ĥà¸Ĺ":1524,"Ġà¸Īà¸³à¸«à¸Ļ":1525,"Ġà¸ģà¸£à¸ĵ":1526,"ĠThe":1527,"à¹Ĥà¸¡à¸ĩ":1528,"Ġà¸£à¸ª":1529,"Ġà¸ĺà¸£à¸£à¸¡à¸Ĭà¸²à¸ķ":1530,"à¹ģà¸Ķà¸ĩ":1531,"à¸§à¸¢à¸ģ":1532,"Ġà¹Ĥà¸Ī":1533,"à¸Ħà¸°":1534,"à¸§à¹Ĥà¸¡à¸ĩ":1535,"à¸Ļà¹Ģà¸£":1536,"İà¸«à¸¡à¸²à¸¢":1537,"Ġà¸Ļà¸Ńà¸Ļ":1538,"à¸Ĭà¸£":1539,"Ġ_":1540,"Ġà¸Ħà¸§à¸²à¸¡à¸ķ":1541,"à¸²à¸ģà¸«à¸¥à¸²à¸¢":1542,"Ġ200":1543,"Ġk":1544,"ate":1545,"à¸ĩà¹ĥà¸Ī":1546,"à¸ģà¸¨":1547,"est":1548,"Ġà¸ªà¸ļà¸²à¸¢":1549,"à¸ķà¸ĸ":1550,"à¸ªà¸²à¸§":1551,"Ġà¹Ħà¸ĭ":1552,"Ġà¹Ĥà¸Ľà¸£à¹Ĥà¸¡":1553,"ort":1554,"Ġà¸Ĺà¸£à¸²à¸ļ":1555,"à¸¢à¸į":1556,"à¸ĩà¸Ńà¸¢":1557,"à¸Ľà¸£à¸°à¸ģà¸Ńà¸ļ":1558,"....":1559,"ant":1560,"ack":1561,"à¹ķ":1562,"à¹ģà¸Ļ":1563,"Ġà¸ªà¸²":1564,"à¹ģà¸Ħ":1565,"à¸Ńà¸ĩà¸£":1566,"Ġ08":1567,"ĠUS":1568,"ww":1569,"all":1570,"Ġà¹Ģà¸¡à¸Ļ":1571,"Ġà¸Ľà¸£à¸°à¸ªà¸ļà¸ģà¸²à¸£à¸ĵ":1572,"//":1573,"à¹ģà¸ľ":1574,"à¸Ļà¹Ģà¸Ĺ":1575,"ĠÃ":1576,"ra":1577,"à¸§à¸Ļà¹ĥà¸«à¸į":1578,"Ġà¹ģà¸ªà¸ĩ":1579,"à¸ģà¸£à¸£à¸¡à¸ģà¸²à¸£":1580,"Ġà¹ĳ":1581,"Ġà¸Ńà¸ĩ":1582,"à¸²à¸£à¸¢":1583,"Ġà¸Ĥà¸¢à¸²à¸¢":1584,"à¸¨à¸Ļ":1585,"à¸¡à¸«":1586,"à¸¡à¸Ļ":1587,"Ġà¸ģà¸£à¸£à¸¡":1588,"Ġà¸ŀà¸£à¸°à¸£à¸²à¸Ĭ":1589,"à¸²à¸Ńà¸ģ":1590,"à¸ŀà¸£à¸°":1591,"Ġà¹Ģà¸ģà¸²à¸«à¸¥":1592,"Ġ23":1593,"Ġâ":1594,"à¸ªà¸¡à¸ļ":1595,"à¹ĥà¸Ķ":1596,"Ġà¸Ľà¸£à¸°à¸ĺà¸²à¸Ļ":1597,"Ġà¸Ļà¸¡":1598,"à¸Ķà¸ķà¸²à¸¡":1599,"Ġà¸£à¸§à¸¡à¸Ĺ":1600,"Ġà¸£à¸²à¸¢à¸ĩà¸²à¸Ļ":1601,"Ġ2560":1602,"à¸Ļà¸ĺà¸£à¸£à¸¡":1603,"à¹Ĳ":1604,"à¸¡à¸Ĭà¸Ļ":1605,"Ġwww":1606,"à¸§à¹Ģà¸ķà¸Ńà¸£":1607,"à¸ķà¸Ļ":1608,"Ġà¸Ħà¸²à¸Ķ":1609,"Ġà¸£à¸§à¸Ķ":1610,"à¸Ńà¸Ļà¸Ĺ":1611,"Ġà¸Ļà¸Ħà¸£":1612,"Ġà¸Ĺà¸°à¹Ģà¸¥":1613,"à¸Ĺà¸¢à¸²":1614,"à¸²à¸Ĥà¸Ńà¸ĩ":1615,"ĠAn":1616,"Ġà¸Ĺà¸³à¸ģà¸²à¸£":1617,"à¸ģà¸©à¸ĵ":1618,"Ġà¸Ķà¸§à¸ĩ":1619,"Ġà¹Ĥà¸Ńà¸ģà¸²à¸ª":1620,"à¸Ńà¸Ńà¸ģ":1621,"Ġ&":1622,"à¸²à¸Īà¸°":1623,"Ġà¸ķà¸Ļà¹Ģà¸Ńà¸ĩ":1624,"ĠRe":1625,"Ġr":1626,"Ġà¹ĥà¸ķ":1627,"à¸ķà¸ªà¸²à¸«":1628,"Ġà¸ģà¸²à¸£à¸Ľ":1629,"Ġà¸¥à¸²à¸¢":1630,"Ġà¸Ĺà¸²à¸ĩà¸ģà¸²à¸£":1631,"à¸Ńà¸¢à¹Ĩ":1632,"Ġà¸ģà¸°":1633,"à¹Ħà¸ķà¸¥":1634,"à¸¢à¸§à¸Ĥ":1635,"à¸Ħà¸§à¸²à¸¡à¸ªà¸°":1636,"à¸ĩà¸«":1637,"leb":1638,"à¸ģà¸£à¸°à¸Ĺ":1639,"Ġà¸Ĥà¸§":1640,"Ġà¸¡à¸²à¸ķà¸£à¸Ĳà¸²à¸Ļ":1641,"à¸Ļà¸Ńà¸¢":1642,"Ġà¸¡à¸Ńà¸ļ":1643,"ity":1644,"Ġà¸«à¸§à¸¢":1645,"Ġà¸Īà¸²à¸ģà¸Ļ":1646,"Ġà¹Ģà¸ļà¸Ńà¸£":1647,"Ġà¸£à¸Ńà¸¢":1648,"à¸ĩà¹Ģà¸ªà¸£":1649,"à¸Ļà¸²à¸¡":1650,"Ġe":1651,"Ġà¹Ģà¸ľà¸¢":1652,"Ġà¸ªà¸¥":1653,"Ġà¸Ĭà¸²":1654,"Ġà¸ªà¸§à¸¢à¸ĩà¸²à¸¡":1655,"Ġà¸ªà¸ĸà¸²à¸ļ":1656,"ĠGi":1657,"à¸Ĺà¸£à¸§à¸ĩ":1658,"à¸£à¸Ķ":1659,"Ġà¸ĸà¸²à¸¡":1660,"Ġà¸ĭà¸²":1661,"à¸§à¸Ļà¸ķ":1662,"Ġà¸ªà¸¡à¸ļ":1663,"ðŁ":1664,"Ġà¸ģà¸£à¸°à¸Ĺ":1665,"ttp":1666,"Ġà¸Ĥà¸²à¸Ķ":1667,"Ġà¸Ħà¸Ń":1668,"à¹ģà¸Ī":1669,"à¸¡à¸¡":1670,"à¹Ģà¸«à¸Ļ":1671,"à¸¢à¸Ļà¹ģà¸Ľà¸¥à¸ĩ":1672,"à¸§à¸Ńà¸¢":1673,"igh":1674,"à¹Ģà¸£à¸²":1675,"Ġ=":1676,"Ġà¸Ńà¸Ńà¸ģà¸Īà¸²à¸ģ":1677,"à¸Ńà¸²à¸ģà¸²à¸¨":1678,"Ġà¸Ħà¸§à¸ļà¸Ħ":1679,"à¸³à¸ķ":1680,"Ġà¸Ļà¸³à¸¡à¸²":1681,"Ġà¹ģà¸ļà¸£à¸Ļà¸Ķ":1682,"à¸´à¹Ĭ":1683,"à¸Ńà¸ľ":1684,"Ġhttp":1685,"Ġ://":1686,"Ġà¸£à¸§à¸Ķà¹Ģà¸£":1687,"Ġà¸ªà¸Ńà¸Ļ":1688,"Ġà¹ģà¸ļà¸ļà¸Ļ":1689,"à¸¨à¸Ī":1690,"à¸ģà¸Ļ":1691,"ardia":1692,"Ġà¸ģà¸²à¸£à¹ĥà¸Ĭ":1693,"Ġà¸Ľà¸²à¸ģ":1694,"à¸Ńà¸ĩà¸ŀ":1695,"à¸ķà¸ªà¸²à¸«à¸ģà¸£à¸£à¸¡":1696,"âĢĿ":1697,"Ġà¹Ħà¸«à¸¡":1698,"Ġthe":1699,"à¸Ĳà¸¡":1700,"Ġà¸ģà¸¥à¸²à¸¢à¹Ģà¸Ľ":1701,"Ġà¸ģà¸£à¸¡":1702,"ĠGiardia":1703,"Ġà¹ģà¸ĸà¸¡":1704,"ĠâĢĻ":1705,"Ġ09":1706,"Ġà¸Ľà¸£à¸²à¸ģà¸":1707,"à¸Ĵà¸Ļ":1708,"ok":1709,"à¸ĩà¸Ħà¸ĩ":1710,"Ġà¸ķà¸Ļ":1711,"Ġà¸«à¸¥à¸²à¸ģà¸«à¸¥à¸²à¸¢":1712,"der":1713,"à¸ķà¸£à¸²":1714,"Ġà¸ªà¸²à¸Ĥà¸²":1715,"hleb":1716,"Ġà¹ģà¸ľà¸Ļ":1717,"à¸įà¸įà¸²à¸ĵ":1718,"à¹ĥà¸ª":1719,"Ġà¸¨à¸²à¸¥":1720,"à¹Ĥà¸Ĺ":1721,"à¸²à¸¢à¹Ĩ":1722,"Ġà¸Ļà¸Ńà¸ģ":1723,"à¸¢à¸ĩà¹ĥà¸«à¸¡":1724,"à¸«à¸²à¸¢":1725,"à¸Ńà¸Ļà¸Ķ":1726,"Ġà¹ģà¸Ķà¸ĩ":1727,"Ġà¹Ģà¸®":1728,"Ġj":1729,"Ġà¸Ŀà¸£":1730,"Ġà¸ªà¸Ľ":1731,"à¸¡à¸ĵ":1732,"à¸Ļà¸ŀ":1733,"Ġà¸Ħà¸§à¸¢":1734,"Ġà¸Ľà¸ģà¸ķ":1735,"à¸¡à¸ľ":1736,"Ġà¹Ĥà¸Ľà¸£à¹Ĥà¸¡à¸Ĭ":1737,"à¸²à¸ĺà¸²à¸£":1738,"Ġà¸ŀà¸¢à¸²à¸¢":1739,"Ġà¸ŀà¸¢à¸²à¸¢à¸²à¸¡":1740,"à¸Īà¸²à¸£à¸ĵà¸²":1741,"à¸Ńà¹Ģà¸Ļ":1742,"Ġ@":1743,"à¸²à¸ªà¸ķ":1744,"à¸Ńà¸³à¸Ļà¸§à¸¢":1745,"à¸§à¸¢à¹Ģà¸«à¸¥":1746,"à¹į":1747,"Ġà¸ªà¸°à¸Ķà¸§à¸ģ":1748,"à¸Ļà¹Ģà¸ķ":1749,"à¸§à¸²à¸ĩ":1750,"Ġà¸Ļà¸°à¸Ħà¸°":1751,"Ġà¸Ĺà¸²à¸Ļ":1752,"Ġà¹Ģà¸ªà¸¡à¸Ń":1753,"à¸ľà¸¡":1754,"à¸Ńà¸ĩà¸¡":1755,"à¹Ħà¸§":1756,"ee":1757,"à¸ªà¸³à¸Ħ":1758,"à¸²à¸¡à¸²à¸£à¸ĸ":1759,"à¸²à¸ªà¸Ļà¹ĥà¸Ī":1760,"à¸£à¸©à¸Ĳà¸ģ":1761,"Ġà¹Ħà¸Łà¸Ł":1762,"Ġà¹Ħà¸®":1763,"à¸¥à¸¢":1764,"à¸ĩà¸Ī":1765,"à¹ģà¸Ļà¸Ļ":1766,"Ġà¸ªà¹Ģà¸Ľ":1767,"Ġà¸ķà¸Ńà¸Ļà¸Ĺ":1768,"Ġà¸Īà¸Ļà¸ĸ":1769,"Ġà¹ģà¸Ĺà¸Ļ":1770,"Ġà¹ģà¸ŀà¸Ĺà¸¢":1771,"Ġà¹Ĥà¸Ł":1772,"Ġà¸ģà¸£à¸°à¸Ĺà¸£à¸§à¸ĩ":1773,"50":1774,"à¸ĩà¸Ĭà¸²à¸ķ":1775,"Ġà¸ķà¸ģà¹ģà¸ķ":1776,"ER":1777,"à¸Ħà¸³":1778,"Ġand":1779,"ĠTha":1780,"ĠSh":1781,"à¸ŀà¸¢à¸²à¸ļà¸²à¸¥":1782,"à¹Ħà¸Łà¸Ł":1783,"à¸Ńà¸ĩà¸Ļ":1784,"Ġà¹Ģà¸«à¸¡à¸²à¸°à¸ªà¸¡":1785,"à¸ķà¸ķ":1786,"à¸Ķà¸³":1787,"Ġà¸ľà¸ªà¸¡":1788,"à¹Ĥà¸ģ":1789,"à¸²à¸«à¸¡":1790,"30":1791,"Ġà¹ģà¸ªà¸Ļ":1792,"Ġxxx":1793,"à¸Ĳà¸ļà¸²à¸¥":1794,"Ġà¸ļà¸²à¸£":1795,"à¸Ńà¸Ĥ":1796,"à¸²à¸£à¸°":1797,"à¸łà¸Ħ":1798,"Ġà¸ªà¹Ħà¸ķà¸¥":1799,"ĠPro":1800,"iland":1801,"az":1802,"Ġà¸Ľà¸¥à¸²à¸¢":1803,"à¸²à¸ĩà¹Ħ":1804,"Ġà¸Ħà¸§à¸²à¸¡à¸Ļ":1805,"à¸¢à¸²à¸ģà¸²à¸¨":1806,"à¸Ľà¸Ķ":1807,"à¸²à¸ĩà¸ģ":1808,"Ġà¹Ģà¸Ĺà¸¨":1809,"age":1810,"Ġà¸ªà¸«à¸£":1811,"AN":1812,"ĠĉĠĊ":1813,"à¸Ķà¸ªà¸Ńà¸ļ":1814,"Ġà¸Ľà¸£à¸°à¸§":1815,"IN":1816,"à¸ģà¸ªà¸²à¸£":1817,"Ġà¸ªà¸¡à¹Ģà¸Ķ":1818,"Ġà¹Ģà¸ģà¸¥":1819,"Ġà¸Ħà¸ĵà¸°à¸ģà¸£à¸£à¸¡à¸ģà¸²à¸£":1820,"Ġà¸Ńà¸²à¸Ĭ":1821,"à¸Ľà¸Ķà¸²à¸«":1822,"Īà¸Ļ":1823,"Ġà¸ŀà¸¢à¸²à¸ĺ":1824,"Ġ60":1825,"av":1826,"ive":1827,"ore":1828,"à¸Ļà¸¡":1829,"Ġà¹Ĥà¸Ĺà¸£à¸¨":1830,"Ġà¸Ĺà¸³à¹Ħà¸Ķ":1831,"Ġà¸Ĺà¸²":1832,"à¹Ģà¸¡à¸ķà¸£":1833,"Ġà¸Ħà¸Ńà¸¡à¸ŀ":1834,"Ġà¸ļà¸£à¸£à¸¢à¸²à¸ģà¸²à¸¨":1835,"à¸Ļà¹Ģà¸ķà¸Ńà¸£":1836,"à¸Ļà¸Ľ":1837,"Ġà¸Ħà¸§à¸²à¸¡à¹Ģà¸ª":1838,"Ġà¸Ĥà¸Ļà¸²à¸Ķà¹ĥà¸«à¸į":1839,"Ġà¸£à¸Ńà¸ĩà¹Ģà¸Ĺ":1840,"Ġà¸Ħà¸Ńà¸Ļà¹Ĥà¸Ķ":1841,"...":1842,"Ġà¸«à¸¥à¸Ńà¸Ķà¹Ģà¸¥":1843,"Ġ26":1844,"à¸Ńà¸Ĺ":1845,"à¸ĵà¸ªà¸¡à¸ļ":1846,"Ġà¹Ģà¸Īà¸£":1847,"à¹Ģà¸§à¸Ńà¸£":1848,"à¸§à¹Ģà¸¥":1849,"à¸§à¹ĥà¸Ī":1850,"Ġà¹Ģà¸ŀà¸Ĭà¸£":1851,"à¸Ńà¸Ļà¸£":1852,"th":1853,"à¸ļà¸Ķ":1854,"à¸²à¸§à¸°":1855,"Ġ),":1856,"Ġ2017":1857,"Ġ28":1858,"à¸ĩà¹ģà¸£à¸ĩ":1859,"à¸ļà¸Ļ":1860,"Ġà¸£à¸²à¸¢à¹Ħà¸Ķ":1861,"à¸Ļà¸Ħà¸£":1862,"à¹Ģà¸Ħà¸¥":1863,"à¸Ķà¹Ģà¸Ķ":1864,"à¸ģà¸ľ":1865,"à¸Ńà¸Ļà¸Ĥ":1866,"ï¿½ï¿½":1867,"à¸Ħà¸§à¸²à¸¡à¸ª":1868,"à¹Ģà¸Ł":1869,"iz":1870,"à¸ļà¸ķ":1871,"Ġà¸Ĺà¸§":1872,"Ġ40":1873,"à¸²à¸¨à¸²à¸ªà¸ķà¸£":1874,"à¸Ķà¸ģ":1875,"Ġà¸Ńà¹Ģà¸¡à¸£":1876,"Ġà¸Ńà¸²à¸Ĺ":1877,"à¸Ļà¸«à¸²":1878,"à¸ģà¹Ģà¸ķ":1879,"à¹Ĥà¸łà¸Ħ":1880,"Ġà¸¥à¸ĩà¸Ĺ":1881,"Ġà¹Ģà¸¡à¸ķà¸£":1882,"Ġà¹Ģà¸Ľà¸£":1883,"Ġà¸Ľà¸£à¸²à¸ģà¸ı":1884,"à¸§à¸Ĥ":1885,"Ġà¹ģà¸ĭ":1886,"à¸²à¹ĥà¸Ĭ":1887,"à¸Ńà¸ĩà¸ĸ":1888,"Ġà¸ģà¸²à¸£à¸Ĺ":1889,"Ġà¸Ħà¸§à¸²à¸¡à¸ªà¸²à¸¡à¸²à¸£à¸ĸ":1890,"à¸Ľà¸¥à¸Ńà¸Ķà¸ł":1891,"Ġà¸Īà¸³à¸Ļà¸§à¸Ļà¸¡à¸²à¸ģ":1892,"Ġà¸Ĺà¸³à¹Ħà¸¡":1893,"Ġà¸ķà¸²à¸¢":1894,"Ġà¸ĺà¸Ļà¸²à¸Ħà¸²à¸£":1895,"à¸²à¸ģà¸¥":1896,"à¸ĩà¹Ħ":1897,"55":1898,"Ġà¹Ĥà¸£à¸ĩà¸ŀà¸¢à¸²à¸ļà¸²à¸¥":1899,"Ġà¸Ľà¸£à¸°à¸ģà¸Ńà¸ļà¸Ķ":1900,"ĠBl":1901,"Ġà¹Ģà¸ģà¸©à¸ķà¸£":1902,"à¸Ķà¸¡":1903,"à¸²à¸ĩà¸Ļ":1904,"à¸£à¸§à¸¡":1905,"à¸Ļà¸ĩà¸²à¸Ļ":1906,"à¹Ģà¸ŀà¸¥à¸ĩ":1907,"à¸§à¹ģà¸Ĺà¸Ļ":1908,"à¸ļà¸£à¸Ńà¸ĩ":1909,"orn":1910,"à¸¢à¸²à¸Ļ":1911,"oy":1912,"à¹ģà¸Ł":1913,"à¸Ľà¸łà¸²à¸ŀ":1914,"ost":1915,"Ġà¹Ĥà¸Ĭà¸§":1916,"Ġà¹Ģà¸Ńà¸ģà¸ªà¸²à¸£":1917,"ĠCon":1918,"Ġà¸ģà¸²à¸£à¸ľà¸¥":1919,"Ġà¸ªà¸ł":1920,"ill":1921,"Ġà¸Ħà¸§à¸²à¸¡à¸Ľà¸¥à¸Ńà¸Ķà¸ł":1922,"à¸Ļà¹Ħà¸Ķ":1923,"Ġà¸¡à¸«à¸²":1924,"rom":1925,"Ġà¸¡à¸Ń":1926,"Ġà¸ģà¸²à¸£à¸ķ":1927,"à¸Ļà¹Ģà¸Ĭ":1928,"Ġà¸ŀà¸£à¸°à¸Ńà¸ĩà¸Ħ":1929,"à¸Ĩà¸©":1930,"à¸ĩà¸ªà¸Ńà¸ĩ":1931,"à¸ĩà¸«à¸Ļ":1932,"à¸ģà¸¢":1933,"à¸ĩà¹Ĥà¸Ľ":1934,"à¸Ķà¸Ĭ":1935,"Ġà¸Īà¸Ń":1936,"à¸Ħà¸§à¸²à¸¡à¸£":1937,"Ġà¸ģà¸²à¸£à¸Ľà¸£à¸°":1938,"Ġà¹Ĥà¸Ľà¸£à¸Ķ":1939,"ell":1940,"à¸£à¸ĸ":1941,"Ġà¸Īà¸Ńà¸ĩ":1942,"Ġà¸£à¸Ńà¸ĩà¸£":1943,"à¸²à¸Ħà¸ķ":1944,"Ġà¸Ļà¸³à¹Ģà¸ªà¸Ļà¸Ń":1945,"à¸ļà¸Ľà¸£":1946,"à¸ĩà¹ģà¸£à¸ģ":1947,"à¸ģà¸Īà¸°":1948,"Ġà¸£à¸²à¸ĩà¸§":1949,"à¸Īà¸ģà¸²à¸£":1950,"Ġà¹ģà¸¢à¸ģ":1951,"Ġà¸Ĺà¸Ķà¸ªà¸Ńà¸ļ":1952,"à¸Ńà¸²à¸¢":1953,"Ġà¸ªà¸£à¸°":1954,"à¸ķà¸¥à¸²à¸Ķ":1955,"à¸Ńà¸ªà¸£":1956,"Ġà¸ģà¸³à¸Ī":1957,"Ġà¹Ħà¸«à¸¥":1958,"Ġà¸Ħà¸Ļà¹Ħà¸Ĺà¸¢":1959,"à¹Ĥà¸¡à¸ªà¸£":1960,"Ġà¹Ģà¸ªà¸Ļà¸Ń":1961,"Ġà¸Ńà¸§":1962,"Ġà¸ªà¹Ĥà¸¡à¸ªà¸£":1963,"à¸Ńà¸ĩà¸Ķ":1964,"itis":1965,"Ġà¹ģà¸Ľà¸¥":1966,"à¸²à¸«à¸¡à¸²à¸¢":1967,"Ġà¹Ĥà¸£à¸ĩà¸ĩà¸²à¸Ļ":1968,"ĠSp":1969,"our":1970,"Ġà¹Ī":1971,"ue":1972,"Ġ27":1973,"à¸Ļà¸Ĥ":1974,"à¸²à¸ł":1975,"Ġà¸ģà¸Ńà¸ĩà¸Ĺ":1976,"à¸±à¹Ĭ":1977,"à¸Ķà¹Ģà¸Īà¸Ļ":1978,"ec":1979,"Ġà¸Ķà¸²à¸§à¸Ļ":1980,"Ġà¸Ķà¸£":1981,"Ġà¹Ģà¸ŀà¸¥":1982,"ĠTr":1983,"à¸ĩà¸ģà¸²à¸¢":1984,"Ġà¸ķà¸³à¸ļà¸¥":1985,"Ġà¸ŀà¸£à¸°à¹Ģà¸Ī":1986,"à¸²à¸Ļà¸Ħ":1987,"Ġà¸īà¸ļ":1988,"Ġà¸Ńà¸²à¸Īà¸²à¸£à¸¢":1989,"Ġon":1990,"Ġà¸§à¸²":1991,"à¸Ńà¸ĩà¸£à¸²à¸§":1992,"Ġà¹Ĥà¸®":1993,"Ġà¸Ńà¸³à¸Ļ":1994,"à¸Ĺà¸¢à¸²à¸¨à¸²à¸ªà¸ķà¸£":1995,"à¸Ľà¸£à¸°à¸Īà¸³":1996,"Ġà¸łà¸²à¸¢à¹ĥà¸ķ":1997,"à¸²à¸Ļà¸Ńà¸²à¸«à¸²à¸£":1998,"à¸Ķà¸ĸ":1999,"Ġà¹ģà¸Ńà¸ļ":2000,"ĠZ":2001,"Ġ29":2002,"Ġà¸Ķà¸²":2003,"ment":2004,"Ġà¸ģà¸£à¸Ńà¸ļ":2005,"à¸ļà¹Ĥà¸ķ":2006,"Ġà¸Ħà¸§à¸²à¸¡à¹Ģà¸Ľ":2007,"Ġà¸ģà¸£à¸°à¸ļà¸§à¸Ļ":2008,"à¸¡à¸ł":2009,"20":2010,"ight":2011,"à¸²à¸¬":2012,"Ġ80":2013,"Ġà¹Ģà¸ŀà¸¨":2014,"Ġ31":2015,"à¸³à¸£à¸°":2016,"Ġre":2017,"à¸ģà¸Ńà¸¢":2018,"Ġà¸ŀà¸¤à¸¨à¸Ī":2019,"Ġà¸Ľà¸¥à¸Ńà¸Ķà¸ł":2020,"are":2021,"à¸²à¸ĩà¹Ħà¸£à¸ģ":2022,"Ġà¸Ńà¸ĺ":2023,"olog":2024,"lub":2025,"à¸«à¸¥à¸²à¸¢":2026,"ĠÐ":2027,"à¸£à¸²à¸¢":2028,"Ġà¸Ħà¸§à¸²à¸¡à¸Ĭ":2029,"à¸ģà¸²à¸¢à¸Ļ":2030,"ie":2031,"à¸¢à¸£à¸ķ":2032,"à¹Ģà¸ĭà¸Ńà¸£":2033,"à¸¢à¸ļà¸£":2034,"Ġ00":2035,"Ġà¸Ħà¸Ńà¸¢":2036,"ne":2037,"ĠPl":2038,"à¸¥à¸Ńà¸ĩ":2039,"à¸Ļà¸ªà¸¡":2040,"Ġà¸ŀà¸£à¸°à¸ŀ":2041,"Ġà¸ļà¸³à¸£":2042,"à¸Ļà¸ļ":2043,"Ġà¸ķà¸°à¸§":2044,"à¸ģà¹Ģà¸ķà¸°":2045,"Ġy":2046,"Ġ61":2047,"à¸Ĵà¸Ļà¸ĺà¸£à¸£à¸¡":2048,"à¸¥à¸ĩà¸Ĺ":2049,"à¸¡à¸Ĺ":2050,"à¹Ģà¸Īà¸Ńà¸£":2051,"à¸ªà¸£à¸£à¸Ħ":2052,"io":2053,"Ġà¸Ļà¹Ĥ":2054,"Ġà¸Ńà¸²à¸¨":2055,"Ġà¹ģà¸Ńà¸£":2056,"ail":2057,"Ġà¹ģà¸¡à¸§":2058,"ice":2059,"à¸§à¸¢à¸ĩà¸²à¸Ļ":2060,"hone":2061,"à¸ļà¸Ľà¸£à¸°à¸Ĺà¸²à¸Ļ":2062,"ass":2063,"à¸Ļà¸ĭ":2064,"ry":2065,"à¸£à¸²":2066,"BET":2067,"Ġà¸ģà¸£à¸°à¹ģà¸ª":2068,"Ġà¹Ģà¸Ńà¸ª":2069,"Ġà¸ģà¸£à¸°à¸ķ":2070,"Ġà¸Ĭà¸Ļà¸°":2071,"Ġà¸£à¸°à¸¢à¸°à¹Ģà¸§à¸¥à¸²":2072,"à¸ĩà¹Ħà¸ĩ":2073,"Ġfor":2074,"à¸ķà¸£à¸ĩ":2075,"Ġà¹ĥà¸ļà¸«à¸Ļ":2076,"à¸ģà¸Ĭà¸Ļ":2077,"à¹Ĥà¸«à¸¥à¸Ķ":2078,"à¸ĩà¸ĭ":2079,"à¸ģà¸§à¸Ķ":2080,"ON":2081,"Ġà¸Ĩ":2082,"à¹ģà¸§à¸Ķà¸¥":2083,"Ġà¹Ĥà¸Ĩà¸©":2084,"à¸Ĥà¸ĵà¸°":2085,"à¸²à¹Ħ":2086,"à¸Ńà¸Ħà¸§à¸²à¸¡":2087,"Ġà¸Ħà¸§à¸²à¸¡à¸¡":2088,"à¸Ļà¸Ĳà¸²à¸Ļ":2089,"ebook":2090,"à¸¥à¸Ħ":2091,"à¸§à¹Ĥà¸¥à¸ģ":2092,"Ġ*":2093,"à¹ģà¸ŀà¸Ĺà¸¢":2094,"Ġ2559":2095,"Ġà¸Ńà¸²à¸ģà¸²à¸¨":2096,"à¸¢à¸ļà¸²à¸¢":2097,"Ġà¸¢à¸Ńà¸Ķà¹Ģà¸¢":2098,"ģà¸³":2099,"Ġà¸¥à¸°à¸Ħà¸£":2100,"Ġà¸ķà¸²à¸£":2101,"Ġà¹ĥà¸Ļà¸Ĥà¸ĵà¸°":2102,"à¸Ķà¸£":2103,"ĠAp":2104,"Ġà¸ªà¸³à¹Ģà¸£":2105,"à¸ļà¸ª":2106,"à¸Ĥà¸Ńà¸ĩ":2107,"à¸¥à¸ļ":2108,"à¸²à¸§à¸§":2109,"à¸³à¸ķà¸²à¸¥":2110,"à¸Ľà¸ģà¸ķ":2111,"Ġà¸£à¸°à¹Ģà¸ļ":2112,"Ġà¸ŀà¸¥à¸²à¸Ķ":2113,"Ġà¸Ħà¸Ļà¸Ń":2114,"à¸ŀà¸Ń":2115,"Ġà¸Ĥà¸Ļà¸²à¸Ķà¹Ģà¸¥":2116,"à¸«à¸¥à¸§à¸ĩ":2117,"Ġà¸Ĺà¸«à¸²à¸£":2118,"Ġà¸Ĥà¸Ńà¸ļà¸Ħ":2119,"à¸ªà¸³à¸«à¸£":2120,"Ġà¸¡à¸²à¸ĸ":2121,"Ġst":2122,"Ġ;":2123,"Ġà¸ķà¸²à¸¡à¸Ĺ":2124,"Ġà¹Ģà¸Ńà¹Ģà¸Ĭ":2125,"Ġà¸Ļà¹Ĥà¸¢à¸ļà¸²à¸¢":2126,"Ġà¹Ģà¸Ĺà¸ŀ":2127,"Ġà¸Łà¸Ńà¸£":2128,"--------":2129,"ox":2130,"ark":2131,"Ġà¸Ļà¸§":2132,"ģà¸³à¸¥":2133,"Ġà¹Ħà¸ģ":2134,"à¹Ĥà¸Ĺà¸©":2135,"ĠCom":2136,"à¹Ģà¸ī":2137,"à¸Ļà¸Ńà¸ģ":2138,"line":2139,"BO":2140,"à¹Ħà¸«à¸Ļ":2141,"__":2142,"Ġà¸Ħà¸°à¹ģà¸Ļà¸Ļ":2143,"Ġà¸ļà¸¥":2144,"à¸Ĭà¸²à¸ģà¸²à¸£":2145,"Ġà¸Ĥà¸ĵà¸°à¸Ĺ":2146,"99":2147,"Ġà¹Ģà¸Ĺà¸Ħà¸Ļ":2148,"Ġà¸Ĭà¸³à¸£à¸°":2149,"à¹ģà¸¢":2150,"Ġà¹Ģà¸¨à¸£à¸©à¸Ĳà¸ģ":2151,"à¸ĩà¸Ħà¸¥":2152,"Ġà¹Ĥà¸Ķà¸¢à¸Ĺ":2153,"à¹Ģà¸«à¸¡":2154,"à¸¢à¸Ļà¸ķà¸£":2155,"à¸Ńà¸¡à¸²":2156,"à¸ĩà¸ľà¸¥":2157,"Ġà¸ªà¸°à¸Ńà¸²à¸Ķ":2158,"à¸Ļà¹Ħà¸ŀà¸£":2159,"à¸įà¸²à¸ķ":2160,"à¹ģà¸ľà¸Ļ":2161,"à¸ģà¹Ģà¸ª":2162,"Ġà¸®à¸²":2163,"à¸²à¸Ļà¸¥":2164,"âĢ¦":2165,"ud":2166,"Ġto":2167,"Ġà¸ķà¸³à¸£à¸§à¸Ī":2168,"Ġà¸Ŀà¸²à¸ģ":2169,"Ġà¸Ńà¸²à¸£à¸¡à¸ĵ":2170,"Ġà¹Ģà¸Ńà¸Ł":2171,"à¸Ķà¸§à¸ģ":2172,"à¸ķà¸Ńà¸ļ":2173,"Ġà¸ªà¸²à¸ĺà¸²à¸£":2174,"ear":2175,"ĠiP":2176,"à¸Ĳà¸¡à¸Ļà¸ķà¸£":2177,"à¸Ńà¸«à¸²":2178,"à¸Ļà¸ķà¸Ńà¸Ļ":2179,"Ġà¸¢à¸Ńà¸¡à¸£":2180,"à¸Ķà¹Ģà¸¥":2181,"à¸Ļà¸ķà¸£à¸²à¸¢":2182,"à¸ļà¸£à¸¡":2183,"Ġà¸ģà¸²à¸ĩ":2184,"à¸ģà¸Ħà¸£à¸Ńà¸ĩ":2185,"Ġà¸£à¸§":2186,"Ġà¸¥à¸ļ":2187,"à¸Ĭà¸¡":2188,"à¸²à¸ªà¸Ļà¸²":2189,"Ġà¸Ļà¸ģ":2190,"ľà¸¢":2191,"ĠUn":2192,"Ġà¸Ĭà¸²à¸§à¸ļ":2193,"pl":2194,"Ġà¹Ĥà¸¢":2195,"ĠâĢĺ":2196,"à¹ģà¸¥à¸Ļà¸Ķ":2197,"ies":2198,"ib":2199,"AR":2200,"à¸¨à¸£":2201,"Ġà¹Ģà¸§à¸Ńà¸£":2202,"à¸£à¸²à¸ĵ":2203,"Ġà¹ģà¸Łà¸Ĭ":2204,"ong":2205,"à¸Ķà¸Ħ":2206,"ĠTag":2207,"à¹Ĥà¸£à¸Ħ":2208,"à¸¥à¸Ľà¸°":2209,"ike":2210,"Ġà¸ģà¸£à¸£à¸¡à¸ģà¸²à¸£":2211,"Ġà¹Ĵà¹ķ":2212,"Ġà¸Ħà¸§à¸²à¸¡à¹Ģà¸£":2213,"Ġà¸Ħà¸Ķ":2214,"à¸²à¸Ļà¸Ħà¸£":2215,"Ġà¹Ħà¸Łà¸¥":2216,"à¸£à¸£à¸ŀ":2217,"à¸ĩà¸£":2218,"à¸¥à¸²à¸Ħà¸¡":2219,"à¸Ńà¸ªà¸²à¸£":2220,"Ġà¹Ģà¸Ķà¸Ńà¸°":2221,"ite":2222,"Ġà¸Ľà¸£à¸°à¸«à¸¢":2223,"à¸ĩà¸Ķ":2224,"Ġà¹Ģà¸Ńà¸²à¹Ħà¸§":2225,"Ġ88":2226,"Ġà¸Ħà¸²à¸£":2227,"ial":2228,"Ġà¸ļà¸Ĺà¸Ħà¸§à¸²à¸¡":2229,"à¸²à¸ĩà¸«à¸Ļ":2230,"Ġà¸¥à¸Ķà¸¥à¸ĩ":2231,"à¸ļà¸Ľà¸£à¸°à¸¡à¸²à¸ĵ":2232,"à¸Ķà¹Ģà¸ľà¸¢":2233,"à¸ļà¸²à¸Ĺ":2234,"Ġà¹Ģà¸ŀà¸£à¸²à¸°à¸§":2235,"ast":2236,"Ġà¹ģà¸®":2237,"à¸Ńà¸ĩà¸ļ":2238,"Ġà¹Ģà¸«à¸¡à¸²à¸°à¸ªà¸³à¸«à¸£":2239,"à¸Ńà¸Ń":2240,"à¸²à¸ĩà¸¢":2241,"à¸Īà¸ī":2242,"Ġà¸ļà¸£à¸£à¸Ī":2243,"à¸³à¸Ħ":2244,"Ġà¹Ģà¸§à¸Ĺ":2245,"à¸¢à¸«à¸²à¸¢":2246,"Ġà¸¥à¸°à¹Ģà¸Ń":2247,"Ġà¸Ńà¸¡":2248,"à¸ªà¸²à¸Ļ":2249,"Ġà¸«à¸¡à¸²à¸¢à¸ĸ":2250,"ĠAl":2251,"à¹Ģà¸Ńà¸ģ":2252,"à¸Ńà¸¡à¸Ĺ":2253,"Ġà¸Ĥà¸Ńà¹ĥà¸«":2254,"à¸¡à¹Ģà¸Ľ":2255,"à¸łà¸²à¸Ħ":2256,"acebook":2257,"à¸µà¹ĭ":2258,"Ġà¸Ħà¸Ńà¸£":2259,"Ġà¸ªà¸«":2260,"Ġà¸Ħà¸¥à¸Ńà¸ĩ":2261,"ile":2262,"à¸£à¸£à¸©":2263,"à¸Ńà¸¡à¸Ķ":2264,"à¸§à¸²à¸¢":2265,"ĠAr":2266,"ide":2267,"Ġà¹Ħà¸ģà¸¥":2268,"Ġà¹Ĥà¸Ĩà¸©à¸ĵà¸²":2269,"ure":2270,"à¹Ħà¸Ļà¹Ģà¸ķ":2271,"à¸¢à¸²à¸¡":2272,"ĠðŁ":2273,"à¸ĩà¸Ľ":2274,"à¸ļà¸ľ":2275,"à¸ģà¸ļ":2276,"Ġà¸ŀà¸§à¸ģà¹Ģà¸£à¸²":2277,"Ġà¹Ģà¸¡à¸¥":2278,"ome":2279,"ĠEx":2280,"à¹Ĥà¸£à¸Ľ":2281,"à¸²à¸ģà¸Ĺ":2282,"Ġà¸ªà¸²à¹Ģà¸«à¸ķ":2283,"à¸ļà¸Ľà¸£à¸°à¸ģ":2284,"ver":2285,"à¸¢à¸ĩà¹ģà¸Ħ":2286,"à¸Ńà¹Ģà¸ª":2287,"Ġ32":2288,"Ġ02":2289,"Ġà¸łà¸²à¸©à¸²à¸Ń":2290,"Ġà¸Ļà¸Ĺ":2291,"Ġà¸ŀà¸¥à¸²à¸ªà¸ķ":2292,"ĠTh":2293,"Ġ36":2294,"Ġà¸ķà¸£à¸°":2295,"à¸ģà¸¥à¸ĩ":2296,"ind":2297,"Ġà¸Ħà¸Ļà¸£":2298,"oun":2299,"Ġà¸ģà¸²à¸£à¸¥à¸ĩà¸Ĺ":2300,"Ġà¸ļà¸²à¸ĩà¸Ħà¸Ļ":2301,"à¸ĩà¸¢":2302,"à¸ªà¹Ģà¸ķà¸Ńà¸£":2303,"Ġà¸¡à¸²à¸ª":2304,"Ġ99":2305,"à¸§à¸Ļà¸¥à¸Ķ":2306,"à¸ŀà¸²à¸Ļ":2307,"à¸°à¸Ļ":2308,"10":2309,"Ġà¸ģà¸£à¸°à¸ļà¸§à¸Ļà¸ģà¸²à¸£":2310,"Ġà¸ģà¸İà¸«à¸¡à¸²à¸¢":2311,"à¸²à¸£à¸ģ":2312,"ect":2313,"ax":2314,"à¸ªà¸ĩ":2315,"oin":2316,"à¸±à¹ĭ":2317,"à¸Ħà¸§à¸£":2318,"Ġà¸ĭà¸Ńà¸¢":2319,"Ġà¸Ńà¸ļ":2320,"Ġà¹ģà¸¥à¸ģ":2321,"à¸ģà¸Ĺà¸£":2322,"Ġà¸łà¸²à¸§à¸°":2323,"ain":2324,"à¹Ĥà¸ŀ":2325,"Ġà¹Ħà¸ķ":2326,"Ġà¹Ħà¸ŀ":2327,"à¸¡à¸ĩà¸²à¸Ļ":2328,"Ġà¸Ĳà¸²à¸Ļà¸°":2329,"à¸ģà¸£à¸¢à¸²à¸Ļ":2330,"ff":2331,"Ġà¸Ľà¸£à¸°à¸Ķ":2332,"à¸Ńà¸ĩà¸ķ":2333,"à¸Ħà¸§à¸²à¸¡à¸ªà¸°à¸Ńà¸²à¸Ķ":2334,"à¸²à¸ĭ":2335,"Ġà¸łà¸²à¸ŀà¸¢à¸Ļà¸ķà¸£":2336,"à¸Ķà¸¢":2337,"à¸§à¸¡à¸¡":2338,"Ġà¸Ĺà¸³à¸Ħà¸§à¸²à¸¡à¸ªà¸°à¸Ńà¸²à¸Ķ":2339,"à¸ĩà¸«à¸¥à¸²à¸¢":2340,"Ġà¸Ĺà¸Ļ":2341,"Ġ90":2342,"Ġà¸¥à¸¡":2343,"Ġà¸ķà¸²à¸£à¸²à¸ĩ":2344,"Ġà¹Ģà¸ļà¸²":2345,"Ġà¸Ľà¸£à¸°à¹Ģà¸Ķ":2346,"à¸ªà¸Ńà¸£":2347,"Ġà¸ªà¸Ńà¸ļà¸ĸà¸²à¸¡":2348,"Ġà¸ªà¸¡à¸²à¸Ħà¸¡":2349,"à¸Ĭà¸¢":2350,"à¸Ļà¸¢à¸²à¸¢à¸Ļ":2351,"à¸§à¸Ļà¸«à¸Ļ":2352,"Ġà¸Ľà¸£à¸°à¸Ĺ":2353,"Ġà¸£à¸²à¸§":2354,"à¸ĩà¸Īà¸²à¸ģà¸Ĺ":2355,"à¸Ńà¹Ģà¸Ľ":2356,"Ġà¸ķà¸£à¸ĩà¸Ļ":2357,"Ġà¸ģà¸ģ":2358,"ĠQ":2359,"ace":2360,"à¸²à¹Ģà¸£":2361,"Ġà¸Ľà¸§à¸Ķ":2362,"à¸Ńà¸³à¸Ļà¸§à¸¢à¸ģà¸²à¸£":2363,"à¹ĳ":2364,"à¸§à¸ĩà¹Ģà¸§à¸¥à¸²":2365,"orm":2366,"gus":2367,"ãģ":2368,"à¸ĩà¸«à¸²à¸Ħà¸¡":2369,"Ġ254":2370,"Ġà¹Ģà¸īà¸¥":2371,"à¸ļà¸ĭ":2372,"à¹Ģà¸ķà¸£":2373,"à¸Ńà¸Ļà¸«à¸Ļ":2374,"à¸Ńà¸¥à¸¥":2375,"à¸¥à¸²à¸Ļ":2376,"Ġà¸ģà¸²à¸£à¹Ģà¸Ľà¸¥":2377,"Ġà¸ŀà¸ĩ":2378,"à¸µà¹Ĭ":2379,"à¸ģà¹Ĩ":2380,"à¹Ģà¸ģà¸ķ":2381,"ĠThailand":2382,"à¸²à¸Ļà¸¡":2383,"Ġà¸Ľà¸£à¸°à¸¡":2384,"ĠSBO":2385,"Ġà¹Ģà¸ĭà¸¥à¸¥":2386,"ĠÂ»":2387,"à¸Ķà¸Ķ":2388,"à¸ģà¹Ģà¸¥":2389,"Ġà¸Īà¸²":2390,"à¸Ļà¹ģà¸£à¸ĩ":2391,"Ġà¸ģà¸²à¸£à¹ģà¸ªà¸Ķà¸ĩ":2392,"OR":2393,"à¸ĩà¹Ģà¸Ĺà¸ŀà¸¯":2394,"Ġà¹Ħà¸Ĥà¸¡":2395,"Ġà¹ģà¸ģà¸":2396,"Ġà¸¥à¸ĩà¸¡à¸²":2397,"ĠâĢ¢":2398,"ĠSe":2399,"Ð¾":2400,"à¸Ľà¸£à¸°à¸ªà¸ĩà¸Ħ":2401,"ai":2402,"Ġà¸«à¸Ļà¸Ńà¸ĩ":2403,"à¹ģà¸Ķà¸Ļ":2404,"ĠEn":2405,"à¸ªà¸³à¹Ģà¸£":2406,"Ġà¹Ĥà¸Ńà¸Ļ":2407,"Ġà¸ģà¸²à¸ĩà¹Ģà¸ģ":2408,"à¹Ģà¸ģà¸Ńà¸£":2409,"à¸¢à¸§à¸Ĭ":2410,"hlebolog":2411,"Ġà¹Ģà¸ĸ":2412,"Ġà¹ģà¸ŀà¸£":2413,"Ġà¹ģà¸ŀà¸ĩ":2414,"à¸ģà¸©à¸°":2415,"Ġà¹Ĥà¸ŀà¸ªà¸ķ":2416,"à¸²à¸§à¸Ļ":2417,"à¸ļà¸Ī":2418,"Ġà¸Ħà¸§à¸£à¸Īà¸°":2419,"à¸ļà¹ĥà¸Ī":2420,"Ġà¹ĥà¸Ļà¸Ĥà¸ĵà¸°à¸Ĺ":2421,"Ġà¸Ľà¸£à¸°à¹Ĥà¸¢à¸Ĭà¸Ļ":2422,"à¸²à¸ĩà¸ªà¸£à¸£à¸Ħ":2423,"à¹Ģà¸ŀà¸¨":2424,"uc":2425,"ock":2426,"Ġà¸ģà¸²à¹ģà¸Ł":2427,"à¸ģà¸Ń":2428,"Ġà¸«à¸Ń":2429,"Ġà¹Ĥà¸Ĭà¸Ħ":2430,"à¸Ļà¸Ńà¸Ńà¸ģ":2431,"à¸²à¸£à¸²à¸Ĭ":2432,"ãĥ":2433,"Ġà¹Ĥà¸«à¸¥à¸Ķ":2434,"à¸Ħà¸£à¸²à¸¡":2435,"Ġà¸¡à¸²à¸ķà¸£à¸²":2436,"Ġ2016":2437,"à¸¡à¸«à¸²à¸Ļà¸Ħà¸£":2438,"à¸ĩà¹Ģà¸Ĺà¸ŀà¸¡à¸«à¸²à¸Ļà¸Ħà¸£":2439,"à¸¢à¸§à¸°":2440,"à¸¢à¸§à¸Ĭà¸²à¸į":2441,"ord":2442,"Ġà¸Ĥà¸Ļà¸¡":2443,"Ġà¸ģà¸²à¸£à¸Ľà¸£à¸°à¸Ĭ":2444,"Ġ**":2445,"à¸Ļà¸²à¸Ħà¸¡":2446,"ĠPr":2447,"à¸£à¸°à¸ļà¸ļ":2448,"Ġà¹Ģà¸ĭà¸Ńà¸£":2449,"à¸Ńà¸ģà¸ķ":2450,"Ġà¸£à¸²à¸Ĭà¸ģà¸²à¸£":2451,"Ġà¸ģà¸²à¸£à¸ļ":2452,"à¸³à¸ļ":2453,"Ġà¸£à¸«":2454,"ge":2455,"Ġà¸Ńà¸ģ":2456,"à¸²à¹Ģà¸Ĭ":2457,"ash":2458,"Ġà¸«à¸¡à¸Ń":2459,"ens":2460,"Ġà¹Ģà¸¡à¸©":2461,"à¸¥à¸¯":2462,"à¹Ģà¸¥à¸Ĥ":2463,"ans":2464,"Ġà¹ģà¸ļà¸ķ":2465,"Ġ35":2466,"Ġà¸Ļà¸§à¸Ķ":2467,"Ġà¸Ħà¸§à¸²à¸¡à¸ľ":2468,"Ġà¹Ģà¸Łà¸Ńà¸£":2469,"Ġà¸¯à¸¥à¸¯":2470,"Ġà¹ģà¸Ĭà¸¡à¸Ľ":2471,"Ġval":2472,"Ġà¸Ľà¸£à¸°à¸Īà¸³à¸Ľ":2473,"à¸ĩà¹Ģà¸¨":2474,"ĠCl":2475,"Ġà¸Ĥà¸§à¸²":2476,"Ġà¸Ķà¸²à¸£à¸²":2477,"Ġà¸ģà¸£à¸°à¸Ķà¸²à¸©":2478,"Ġà¸Ķà¸Ńà¸ģà¹Ħà¸¡":2479,"à¸²à¸£à¸²à¸Ĭà¸ģà¸²à¸£":2480,"ust":2481,"Ġà¸ģà¸£à¸°à¸Īà¸ģ":2482,"à¸Ńà¸ªà¸Ńà¸ĩ":2483,"à¸ĩà¹Ģà¸¨à¸ª":2484,"ĠHD":2485,"Ġà¸«à¸¥à¸§à¸ĩà¸ŀ":2486,"ung":2487,"Ġà¹ģà¸Ĺà¸ļ":2488,"à¹Ģà¸Ľà¸Ńà¸£":2489,"à¸¢à¸Ĭ":2490,"à¸ģà¸«à¸Ļ":2491,"à¹Ħà¸¥":2492,"à¸Ļà¸«à¸¥":2493,"Ġà¹ī":2494,"ices":2495,"Ġà¸£à¸§à¸ļà¸£":2496,"à¸¡à¸Ħ":2497,"à¸Ķà¸¥à¸Ńà¸ĩ":2498,"ĠAd":2499,"à¸Ńà¸Ł":2500,"à¹Ģà¸¥à¸¢":2501,"qu":2502,"Ġà¸ĸà¸§à¸²à¸¢":2503,"Ġà¸ªà¸ĸà¸²à¸Ļà¸ģà¸²à¸£à¸ĵ":2504,"à¸ĩà¹ģà¸§à¸Ķà¸¥":2505,"à¸Ļà¸²à¸¢à¸Ļ":2506,"à¸²à¸Ļà¸«à¸Ļ":2507,"à¸Ķà¸Ĭà¸Ńà¸ļ":2508,"Ġ2558":2509,"à¸ªà¸£à¸°":2510,"à¸²à¸¢à¸Ĺ":2511,"à¸§à¸ģà¸ª":2512,"à¸§à¸ģà¸ªà¸ļà¸²à¸¢":2513,"Ġà¸ªà¸°à¸Ķà¸§à¸ģà¸ªà¸ļà¸²à¸¢":2514,"Ġà¸Ħà¸³à¸ĸà¸²à¸¡":2515,"à¸Ļà¸«à¸¢":2516,"à¸ģà¸£à¸°à¸Ĺà¸ļ":2517,"Ġà¸£à¸§à¸ļà¸£à¸§à¸¡":2518,"à¸²à¸Ļà¸ŀ":2519,"ple":2520,"à¸Ļà¹Ħà¸Ľà¹Ħà¸Ķ":2521,"à¸§à¸ĩà¸Īà¸£":2522,"Ġà¸ªà¸¢à¸²à¸¡":2523,"Ġà¸ĭà¸°":2524,"Ġà¸ģà¸²à¸£à¸ļà¸£":2525,"à¸ļà¸Ĥ":2526,"à¸£à¸Ńà¸ĩ":2527,"Ġà¸ªà¸§à¸¡":2528,"à¸²à¸Īà¸Ń":2529,"ED":2530,"Ġà¹ģà¸Ĥà¸Ļ":2531,"à¸ģà¸ĸ":2532,"à¸ļà¸¡":2533,"ĵà¸ĳ":2534,"ire":2535,"Ġà¹Ĥà¸ļà¸£à¸²à¸ĵ":2536,"Ġà¹Ģà¸¡à¸©à¸²à¸¢à¸Ļ":2537,"à¸Ķà¸ĩà¸²à¸Ļ":2538,"Ġà¸ľà¸Ļ":2539,"Ð°":2540,"Ġà¸Ĥà¸ĵà¸°à¸Ļ":2541,"à¸²à¸Ĭà¸²à¸ķ":2542,"à¸¡à¸°":2543,"à¸Ļà¸Ĭà¸Ńà¸ļ":2544,"à¹Ĥà¸Ļà¸¡":2545,"Ġà¸ľà¸¥à¸ģà¸£à¸°à¸Ĺà¸ļ":2546,"uk":2547,"à¸Ļà¸ľ":2548,"erm":2549,"Ġà¸Ħà¸³à¸ª":2550,"à¸²à¸¢à¸łà¸²à¸ŀ":2551,"end":2552,"à¸Ħà¸£à¸Ńà¸ĩ":2553,"Ġà¸Ĺà¸³à¸«à¸Ļ":2554,"Ġà¹Ĥà¸Ħà¸£à¸ĩà¸ªà¸£":2555,"ick":2556,"à¸Ńà¸¡à¸ķ":2557,"ood":2558,"Ġ01":2559,"à¸Ķà¸Ĺà¸³":2560,"à¸ļà¸£à¸ĸ":2561,"Ġà¹ģà¸£":2562,"à¸ķà¹Ĥà¸Ļà¸¡":2563,"80":2564,"à¸ķà¸ģà¸£à¸£à¸¡":2565,"à¸ĩà¸«à¸§à¸°":2566,"à¹ģà¸Ļà¸°à¸Ļà¸³":2567,"Ġà¸ģà¸¡":2568,"à¸²à¸ľ":2569,"Ġà¹Ĥà¸Ķà¸Ķà¹Ģà¸Ķ":2570,"AT":2571,"Ġà¸«à¸²à¸Ķ":2572,"à¹Ħà¸ĭà¸Ļ":2573,"à¸Ļà¹Ģà¸§à¸¥à¸²":2574,"à¸ĩà¹Ģà¸ģà¸ķ":2575,"à¸ģà¸İ":2576,"Ġà¸ģà¸²à¸£à¸ķà¸¥à¸²à¸Ķ":2577,"ĠSBOBET":2578,"Ġà¸Ĭà¸°":2579,"à¸Ńà¸ļà¸£à¸¡":2580,"à¸ĩà¸Ĭ":2581,"à¸¢à¸ļà¹Ģà¸Ĺ":2582,"Ġà¸Īà¸Ķ":2583,"Ġà¹Ģà¸«à¸¡à¸²à¸°à¸ģ":2584,"Ġco":2585,"à¸Īà¸ŀà¸£à¸°":2586,"à¸ªà¸¥":2587,"à¸ªà¸ĸ":2588,"Ġvar":2589,"à¸§à¸ļà¸Ħ":2590,"Ġà¸Ļà¸²à¸¬":2591,"Ġà¸¡à¸ģà¸£":2592,"Ġà¸ģà¸²à¸£à¸Ļà¸³":2593,"à¸¥à¸¡":2594,"à¸ŀà¸ķ":2595,"gle":2596,"Ġà¸£à¸ļ":2597,"IS":2598,"Ġà¸Ĥà¸¢":2599,"Ġà¸§à¸ĩà¸ģà¸²à¸£":2600,"à¸Ńà¸Ķà¸Ķà¸³":2601,"EN":2602,"Ġà¸ķà¸¥à¸Ńà¸Ķà¹Ģà¸§à¸¥à¸²":2603,"ĠSer":2604,"à¸Ľà¸£à¸°à¸ģà¸Ńà¸ļà¸ģà¸²à¸£":2605,"Ġà¸«à¸Ńà¸¡":2606,"à¸ļà¸£à¸²à¸ĩà¸§":2607,"à¹ģà¸ŀà¸ĩ":2608,"Ðµ":2609,"Ġà¸Ħà¸Ļà¹ĥà¸Ļ":2610,"Ġà¸ªà¸Ńà¸Ķ":2611,"ach":2612,"à¸Ħà¸§à¸²à¸¡à¸ªà¸°à¸Ķà¸§à¸ģ":2613,"ink":2614,"Ġà¹ĥà¸Ļà¸Ĺ":2615,"Ġà¸¡à¸ģà¸£à¸²à¸Ħà¸¡":2616,"Ġà¹ģà¸Ńà¸ŀ":2617,"act":2618,"Ġà¸Ħà¸²à¸£à¸²":2619,"ond":2620,"à¹ģà¸Ķà¸Ķ":2621,"iew":2622,"Ġà¸ģà¸£à¸ģà¸İ":2623,"à¸©à¸ł":2624,"Ġà¹ģà¸Ľà¸¥à¸ĩ":2625,"Ġà¸ªà¸¡à¸Ńà¸ĩ":2626,"Ġà¸¿":2627,"Ġà¸Ĭà¸§à¸Ļ":2628,"à¸ģà¹Ģà¸ªà¸ļ":2629,"Ġà¸Ĺà¸³à¸¥à¸²à¸¢":2630,"Ġvalgus":2631,"Ġà¸ĺà¸£à¸£à¸¡à¸Ķà¸²":2632,"à¸²à¹Ħà¸«à¸£":2633,"ĠTH":2634,"Ġà¹ģà¸¡à¸Ļ":2635,"Ġà¸ļà¸²à¸ĩà¸ª":2636,"à¸ŀà¹Ģà¸Ķ":2637,"ree":2638,"Ġà¸Ļà¸Ħ":2639,"à¹Ģà¸ģà¸©à¸ķà¸£":2640,"à¸ģà¸İà¸«à¸¡à¸²à¸¢":2641,"à¸³à¸Ķ":2642,"Ġby":2643,"à¸¢à¸ª":2644,"Ġà¸ģà¸²à¸£à¸Ĥ":2645,"à¹ģà¸«à¸¥à¸°":2646,"Ġà¹ĥà¸Ķà¹Ĩ":2647,"à¸Ķà¹Ģà¸Ĭ":2648,"à¸£à¸ª":2649,"à¸Ļà¸ķà¸ģ":2650,"à¸Ķà¸¢à¸Ńà¸Ķ":2651,"à¸ĵà¸«":2652,"Ġà¸ģà¸£à¸ģà¸İà¸²à¸Ħà¸¡":2653,"Ġà¸Ľà¸²":2654,"Ġà¸ģà¸²à¸£à¸Ń":2655,"Ġà¸ªà¹Ģà¸ķ":2656,"Ġà¸ŀà¸¤à¸©à¸ł":2657,"à¸Ļà¸Ħà¸ĩ":2658,"à¸²à¸Ķà¹Ģà¸Ī":2659,"Ġà¸ģà¸²à¸£à¸Ī":2660,"à¸ļà¸ģ":2661,"Ġà¸ŀà¸£à¸£à¸Ħ":2662,"Ġà¹Ģà¸ªà¸²à¸£":2663,"oogle":2664,"Ġà¸«à¸Ļà¸²":2665,"Ġà¸Īà¸Ńà¸¡":2666,"Ġà¸ģà¸²à¸£à¸ªà¸Ńà¸Ļ":2667,"Ġà¸Ńà¸²à¸ļ":2668,"Ġà¹Ģà¸¢à¸²à¸§":2669,"Ġà¸Ńà¸³à¸Ļà¸²à¸Ī":2670,"à¸Ńà¸Ĥà¸²à¸¢":2671,"Ġà¸Ńà¸Ńà¸Ł":2672,"Ġà¸ģà¸©":2673,"à¹Ģà¸ģà¸°":2674,"à¸¥à¸°à¸Ħà¸£":2675,"Ġà¸©":2676,"à¸ĩà¹ģà¸¡":2677,"à¸Ħà¸§à¸²à¸¡à¸ªà¸³à¸Ħ":2678,"à¸Ĭà¸Ļà¸°":2679,"Ġà¸Ĭà¸²à¸£":2680,"à¹Ĥà¸Ńà¹Ģà¸ģà¸°":2681,"Ġ70":2682,"Ġà¸£à¸ªà¸Ĭà¸²à¸ķ":2683,"à¹Ĥà¸¥à¹Ģà¸¡à¸ķà¸£":2684,"Ġà¹ģà¸ľà¸¥":2685,"à¹ĸ":2686,"Ġà¸Ħà¸²à¸£à¸²à¹Ĥà¸Ńà¹Ģà¸ģà¸°":2687,"Ġ45":2688,"Ġà¸«à¸§à¸²à¸Ļ":2689,"à¸Ļà¸§à¸²à¸Ħà¸¡":2690,"Ġà¹Ĥà¸Ķà¸¢à¸ķà¸£à¸ĩ":2691,"Ġà¹Ħà¸Ĺ":2692,"à¸Ńà¸ĩà¹ĥà¸Ĭ":2693,"ev":2694,"à¸§à¸²":2695,"40":2696,"à¸¡à¸Ĭ":2697,"Ġà¹ģà¸ĸà¸§":2698,"11":2699,"Ġà¸§à¸Īà¸°":2700,"ont":2701,"Ġà¸ªà¸¡à¸²à¸£":2702,"aw":2703,"à¸ĩà¸Īà¸°":2704,"à¸ĩà¸Īà¸²à¸ģà¸Ļ":2705,"à¹Ģà¸ªà¸ŀà¸ķ":2706,"Ġà¸«à¸¡à¸²à¸¢à¹Ģà¸¥à¸Ĥ":2707,"per":2708,"à¸Ļà¸ľà¸¥":2709,"ish":2710,"Ġà¹ĵ":2711,"Ġ500":2712,"Ġà¹ģà¸Ļà¸§à¸Ĺà¸²à¸ĩ":2713,"Ġà¸Ħà¸§à¸²à¸¡à¸Īà¸£":2714,"Ġà¸ŀà¸¤à¸©à¸łà¸²à¸Ħà¸¡":2715,"à¸Ńà¸¢à¸¥à¸°":2716,"Ġà¸Ĺà¸°":2717,"Ġà¸ªà¸²à¸ĺà¸²à¸£à¸ĵ":2718,"Ġà¹ģà¸Ľà¸¥à¸ģ":2719,"uro":2720,"Ġà¹ģà¸Ńà¸Ļ":2721,"à¸łà¸²":2722,"à¸Ĺà¸¢à¸²à¸Ļ":2723,"Ġà¸ģà¸²à¸ĩà¹Ģà¸ģà¸ĩ":2724,"Ġà¹Ħà¸«à¸§":2725,"AM":2726,"Ġ2557":2727,"à¸Ķà¸Ļ":2728,"Ġà¸ŀà¸¤à¸ķ":2729,"Ġà¸¡à¸Ńà¹Ģà¸ķà¸Ńà¸£":2730,"à¸Ńà¸Ļà¹Ħà¸Ĥ":2731,"à¸Ńà¸Ļà¸²à¸Ħà¸ķ":2732,"sh":2733,"à¸§à¸Ľà¸£à¸°à¹Ģà¸Ĺà¸¨":2734,"pt":2735,"ork":2736,"90":2737,"Ġà¸¢à¸²à¸¡":2738,"à¸Ĺà¸£à¸ĩ":2739,"à¸Ľà¸ı":2740,"Ġhttps":2741,"à¸ĩà¸Ħà¸§à¸²à¸¡":2742,"à¸ªà¸Ńà¸ĩ":2743,"à¸Ńà¸Ļà¹Ħà¸«à¸§":2744,"own":2745,"ith":2746,"à¸ĩà¸§à¸¥":2747,"Ġà¸Ķà¸Ļà¸ķà¸£":2748,"à¸İà¸£":2749,"à¸Ļà¸«":2750,"à¸¢à¸¥":2751,"à¸ĵà¸«à¸ł":2752,"Ġà¸Ħà¸ĵ":2753,"Ġ81":2754,"ĠiPhone":2755,"à¸Ļà¸¡à¸²":2756,"Ġà¹Ģà¸ªà¸²":2757,"à¸Ļà¸Ļà¸³":2758,"à¸Ńà¸ĩà¸Ļà¸Ńà¸Ļ":2759,"ime":2760,"à¹Ģà¸Ĥà¸ķ":2761,"ame":2762,"Ġà¸Ńà¸Ńà¸ª":2763,"ory":2764,"Ġà¹Ģà¸Ľà¸Ńà¸£":2765,"88":2766,"à¸ŀà¸¢à¸²à¸ģà¸£":2767,"ber":2768,"à¸ļà¸ªà¸¡":2769,"OS":2770,"à¸ªà¸§":2771,"Ġ33":2772,"ly":2773,"Ġà¸ªà¸°à¸ªà¸¡":2774,"Ġà¹ĥà¸Ļà¸Ńà¸Ļà¸²à¸Ħà¸ķ":2775,"à¹Ħà¸«à¸¥":2776,"à¸ªà¹Ģà¸ĭ":2777,"à¸£à¸²à¸Ĭà¸ģà¸²à¸£":2778,"à¸§à¸¡à¸ĩà¸²à¸Ļ":2779,"à¹Ĥà¸Ķà¸¢":2780,"Ġà¹ģà¸Īà¸ģ":2781,"à¸Ļà¹Ģà¸Ī":2782,"Ġà¸¡à¸ĩà¸Ħà¸¥":2783,"à¸ķà¸°":2784,"à¸º":2785,"ix":2786,"ower":2787,"Ġà¸łà¸²à¸¢à¸Ļà¸Ńà¸ģ":2788,"ada":2789,"Ġà¸Ħà¸§à¸²à¸¡à¸Ķ":2790,"Ġà¹Ģà¸§à¸¥":2791,"Ġà¸ģà¸²à¸£à¹Ģà¸ĩ":2792,"out":2793,"Ġà¹ģà¸Ńà¸¥":2794,"ous":2795,"à¸¡à¸¢":2796,"à¸Łà¸Ńà¸£":2797,"Ġà¸¡à¸Ńà¸ĩà¹Ģà¸«":2798,"ĠLike":2799,"Ġ!!!":2800,"Ġà¸ľà¸¥à¹Ħà¸¡":2801,"à¹ĥà¸ļ":2802,"Ġà¸Ļà¸³à¹Ħà¸Ľ":2803,"Ġà¸Ńà¸ª":2804,"Ġ55":2805,"à¸ģà¸ģà¸²à¸£":2806,"à¸²à¸ĩà¸¡à¸²à¸ģ":2807,"Ġà¸Ļà¸²à¸¡":2808,"Ġà¸¥à¸²à¸Ķ":2809,"Ġà¸Ļà¸Ļà¸Ĺ":2810,"Ġà¸ŀà¸Ńà¸Ķ":2811,"à¸Ļà¹Ħà¸¡":2812,"à¸ĩà¹ĥà¸«à¸į":2813,"à¸Ħà¸¥à¸²à¸ģà¸£":2814,"romb":2815,"Ġà¸Ħà¸§à¸²à¸¡à¹ģà¸Ĥ":2816,"âĢĭ":2817,"à¹ģà¸§à¸£":2818,"AL":2819,"AS":2820,"Ġ06":2821,"Ġà¸Ħà¸ĩà¸Īà¸°":2822,"tern":2823,"Ð¸":2824,"ĠFacebook":2825,"à¸²à¸¢à¸£":2826,"à¸Ķà¸Ń":2827,"à¹Ģà¸Īà¸Ļ":2828,"Ġà¹Ħà¸Ľà¸Ķ":2829,"ĠOn":2830,"Ġà¸ĩà¸ļà¸Ľà¸£à¸°à¸¡à¸²à¸ĵ":2831,"mat":2832,"à¸ĵà¹ģà¸¡":2833,"Ġà¹Ĥà¸¥à¸«":2834,"Ġà¸ªà¸Ľà¸Ńà¸£":2835,"Ġà¸ģà¸£à¸°à¸Ĭ":2836,"à¸ģà¸²à¸£à¸¨":2837,"à¸Ĥà¸§":2838,"Ġà¹Ģà¸Ĺà¸¨à¸ļà¸²à¸¥":2839,"à¸Ļà¹ĥà¸«à¸¡":2840,"à¸²à¸§à¸ªà¸²à¸£":2841,"Ġne":2842,"à¹Ģà¸¡à¸¥":2843,"à¸Ĺà¸Ńà¸ĩ":2844,"à¸Ķà¸Ľà¸ģà¸ķ":2845,"Ġà¸Ńà¸Ńà¸ģà¸ģà¸³à¸¥":2846,"à¸£à¸²à¸¡":2847,"able":2848,"Ġà¸ĩà¸²à¸¡":2849,"Ġ07":2850,"Ġà¸ģà¸İ":2851,"à¸Ļà¸²à¸¢":2852,"Ġà¸ļà¸²à¸ĩà¸Ħà¸£":2853,"Ġà¸īà¸¥":2854,"ivers":2855,"à¸Ńà¸ĩà¸Ĺà¸²à¸ĩ":2856,"ïľ":2857,"Ġà¸Ľà¸²à¸£":2858,"à¸Ńà¸Ńà¸²à¸Ĭ":2859,"Ġà¸«à¸¡à¸²à¸¢à¸Ħà¸§à¸²à¸¡":2860,"Ġà¹ģà¸Ķà¸Ļ":2861,"Ġch":2862,"IT":2863,"Ġsh":2864,"à¸ģà¸Ĳà¸²à¸Ļ":2865,"Ġà¹ģà¸Ļà¸§à¸Ħ":2866,"ES":2867,"à¸Īà¸³à¸«à¸Ļ":2868,"Ġà¸īà¸²à¸ģ":2869,"Ġà¸ªà¸°à¸ŀà¸²à¸Ļ":2870,"Ġà¸¢à¸²à¹Ģà¸ªà¸ŀà¸ķ":2871,"lo":2872,"à¸ķà¹ĥà¸Ī":2873,"Ġà¸Ĺà¸°à¹Ģà¸ļ":2874,"Ġï¿½":2875,"à¸Ļà¸²à¸Ķ":2876,"Ġ300":2877,"à¸²à¸ĩà¹Ģà¸Ĭ":2878,"Ġà¸§à¸Ļ":2879,"à¸Ħà¸§à¸²à¸¡à¸ªà¸³à¹Ģà¸£":2880,"ress":2881,"ian":2882,"Ġà¸ĸà¸Ńà¸Ķ":2883,"à¸²à¸Ĭà¸Ļà¸°":2884,"Ġà¹Ģà¸«à¸¢":2885,"Ġà¸Ľà¸£à¸°à¸ªà¸ļà¸Ħà¸§à¸²à¸¡à¸ªà¸³à¹Ģà¸£":2886,"IC":2887,"Ġà¹ģà¸ķà¸ģà¸ķ":2888,"Ġà¹Ĥà¸Łà¸Ļ":2889,"à¸ªà¸²à¸¢":2890,"ld":2891,"Ġà¸£à¸²à¸¢à¸Ĭ":2892,"Ġà¸«à¸¥à¸ĩ":2893,"ãĤ":2894,"rombop":2895,"hlebitis":2896,"rombophlebitis":2897,"Ġà¹Ĥà¸£à¸Ħà¸ľ":2898,"Ġà¸¡à¸°à¹Ģà¸£":2899,"ake":2900,"Ġà¸ģà¸£à¸°à¸Īà¸²à¸¢":2901,"à¸¡à¸łà¸²à¸ŀ":2902,"ĠNew":2903,"Ġà¸Ĺà¸³à¹Ģà¸¥":2904,"à¸Ľà¸ķ":2905,"à¸²à¸¢à¸Ĺà¸Ńà¸Ķ":2906,"Ġà¹Ģà¸¢à¸Ńà¸£":2907,"à¸Ńà¸ĩà¸Ī":2908,"Ġà¸Ħà¸³à¸ķà¸Ńà¸ļ":2909,"Ġà¹Ģà¸Īà¸²à¸°":2910,"à¸ģà¸¢à¸łà¸²à¸ŀ":2911,"à¹ģà¸¥à¸°":2912,"à¹Ĥà¸Ĺà¸£":2913,"Ġà¹Ģà¸¢à¸²à¸§à¸Ĭà¸Ļ":2914,"att":2915,"sk":2916,"25":2917,"Ġà¸«à¸¡à¸§à¸Ķ":2918,"à¹Ģà¸ģà¸¥":2919,"à¸ķà¸Ńà¸¥":2920,"Ġà¹Ģà¸ªà¸¡":2921,"Ġà¸ģà¸²à¸£à¸Ľà¸£":2922,"à¸¡à¸§":2923,"Ġà¹Ģà¸Łà¸ª":2924,"Ġà¹Ĥà¸ĭà¸Ļ":2925,"Ġà¸Ħà¸§à¸²à¸¡à¹Ģà¸Ĥ":2926,"à¸²à¸Ľà¸£à¸°":2927,"Ġà¸Ľà¸°":2928,"ĠPh":2929,"Ġà¸§à¸ĩà¸¨":2930,"à¸Ĳà¸Ń":2931,"Ġà¸Ħà¸³à¹ģà¸Ļà¸°à¸Ļà¸³":2932,"à¸Ńà¹Ģà¸£":2933,"Ġà¸¢à¸²à¸§à¸Ļà¸²à¸Ļ":2934,"ey":2935,"à¸Ķà¸«à¸Ļ":2936,"Ġà¸£à¸°à¸ļà¸²à¸¢":2937,"Ġà¹Ģà¸ªà¸Ķ":2938,"Ġà¸£à¸²à¸¡":2939,"Ġà¸Ĺà¸²à¸ĩà¹Ģà¸¥":2940,"Ġà¸Īà¸²à¸Ļ":2941,"Ġà¹ģà¸Ĭà¸£":2942,"à¸Ńà¹Ģà¸ªà¸Ļà¸Ń":2943,"Ġà¹Ģà¸ļà¸¥":2944,"à¸Ķà¸ĭ":2945,"ĠUSA":2946,"Ġà¸ļà¸£à¸£à¸Ķà¸²":2947,"à¸©à¸Ĳ":2948,"Ġpro":2949,"........":2950,"ĠAs":2951,"Ġà¸Ńà¸Ńà¸ªà¹Ģà¸ķà¸£":2952,"à¸Ļà¸²à¸Ĺ":2953,"ath":2954,"hlebologist":2955,"à¸¢à¸ĩà¸£à¸²à¸¢":2956,"Ġà¸ªà¸ĩà¸Ħà¸£à¸²à¸¡":2957,"Ġvarices":2958,"Ġ34":2959,"à¸²à¸Ļà¸«à¸¥":2960,"ĠAir":2961,"ug":2962,"à¸Ļà¸Ĺà¸²à¸ĩà¸ģà¸²à¸£":2963,"Ġà¹Ģà¸Ĺà¸¨à¸ģà¸²à¸¥":2964,"à¸§à¸¢à¸ķ":2965,"à¸ĩà¸ļ":2966,"Ġà¸Ħà¸§à¸²à¸¡à¹Ģà¸Ĭ":2967,"à¸įà¸²":2968,"Ġà¸Ķà¸³à¸£à¸ĩ":2969,"Ġà¸Ľà¸£à¸°à¸ģà¸§à¸Ķ":2970,"ĠAnd":2971,"à¸£à¸²à¸Ī":2972,"Ġpl":2973,"Ġà¸ļà¸²à¸ĩà¸Ĺ":2974,"à¸ĵà¸Ħ":2975,"Ġ2556":2976,"Ġad":2977,"à¸ĺà¸¢à¸¡":2978,"à¸¢à¸§à¸¢":2979,"Ġà¸Ľà¸£à¸°à¸¢":2980,"Ġà¸¡à¸«à¸²à¸Ĭà¸Ļ":2981,"à¸ģà¸Ľà¸£à¸°":2982,"Ġà¸Ħà¸§à¸²à¸¡à¸Ń":2983,"à¸ģà¸³à¸¥":2984,"Ġ2015":2985,"à¸ªà¸§à¸Ļ":2986,"Ġà¸ªà¸ĩà¸ª":2987,"ĠCol":2988,"Ġà¸§à¸Ń":2989,"à¸Ĺà¸°à¹Ģà¸¥":2990,"Ġà¸Ĺà¸Ńà¸Ķ":2991,"amb":2992,"Ġà¸¡à¸²à¸¢":2993,"Ġà¸Īà¸¡":2994,"à¸¢à¸²à¸§":2995,"à¹Ĥà¸Ľà¸£":2996,"35":2997,"à¸Ńà¸ŀ":2998,"à¸Ĺà¸ĺà¸¨":2999,"à¸§à¹Ģà¸£":3000,"Ġà¸Ľà¸ģà¸Ľ":3001,"à¸²à¸«à¸²à¸ģ":3002,"Ġà¸ķà¸£à¸²":3003,"à¸Ľà¸£à¸°à¸ªà¸ļ":3004,"ĠSup":3005,"Ġà¸Ħà¸Ńà¸¥":3006,"à¸ļà¸Ľ":3007,"Ġà¸ļà¸²à¸Ļ":3008,"à¸²à¸¡à¹Ģà¸Ļ":3009,"Ġà¸ªà¸ķà¸£":3010,"à¸ľà¸ªà¸¡":3011,"ign":3012,"Ġà¹Ģà¸¥à¸Ĥà¸Ĺ":3013,"à¹ģà¸Ļà¸§":3014,"AC":3015,"Ġà¸¡à¸Ńà¸ĩà¸«à¸²":3016,"à¹ģà¸ŀà¸£":3017,"port":3018,"à¸Ĳà¸Ńà¹Ģà¸¡à¸£":3019,"Ġ87":3020,"Ġà¸ļà¸§à¸ģ":3021,"60":3022,"ĠGoogle":3023,"à¸Ńà¸ĩà¸¢à¸Ļà¸ķ":3024,"Ġà¸¢à¸°":3025,"Ġà¸ĩà¸ļ":3026,"à¹ģà¸Ń":3027,"à¸ģà¸©à¸£":3028,"ich":3029,"Ġà¹ģà¸ļà¸ķà¹Ģà¸ķà¸Ńà¸£":3030,"à¸Ńà¸ªà¸Ńà¸ļ":3031,"hai":3032,"à¸¡à¹Ħà¸Ľ":3033,"Ġà¸Ĺà¸Ķà¸¥à¸Ńà¸ĩ":3034,"à¹Ķ":3035,"à¸Ķà¸§à¸ĩ":3036,"ction":3037,"Ġà¸¡à¸²à¸Ķ":3038,"ĠBe":3039,"Ġde":3040,"ÑĤ":3041,"Ġà¸ģà¸²à¸¢":3042,"Ġ04":3043,"Ġthrombophlebitis":3044,"à¸ģà¸Ĭà¸²à¸¢":3045,"à¸Ńà¸¢à¸ģà¸§":3046,"à¹Ģà¸Ĺà¸²":3047,"Ġ48":3048,"Ġà¸Īà¸ĩ":3049,"Ġà¸£à¸ĸà¸ļ":3050,"Ġà¸ŀà¸¡":3051,"Ġà¸«à¸¡à¸²à¸¢à¸Ħà¸§à¸²à¸¡à¸§":3052,"à¸¥à¸ķ":3053,"Ġà¸Ħà¸§à¸²à¸¡à¸¢":3054,"Ġà¸Ľà¸£à¸°à¹Ģà¸¡":3055,"Ġà¸¥à¸Ńà¸¢":3056,"Ġà¸«à¸¡à¸²":3057,"à¸³à¸ģà¸§":3058,"Ġà¸ªà¸Ļà¸²à¸¡à¸ļ":3059,"Ġà¸Ľà¸£à¸°à¸ªà¸²à¸Ļ":3060,"Ġà¸ŀà¸²à¸£":3061,"Ġà¸ªà¸ĸà¸²à¸Ľ":3062,"Ġà¹Ģà¸Ńà¸ģ":3063,"Ġà¹Ĥà¸Īà¸Ĺà¸¢":3064,"Ġà¸Ħà¸§à¸²à¸¡à¹Ģà¸«":3065,"à¹Ģà¸ŀà¸²à¸°":3066,"Ġà¸Ĥà¸Ńà¸ĩà¹ģà¸Ĺ":3067,"à¸ŀà¸£à¸£à¸ĵ":3068,"à¸Ńà¸Ľà¸Ľ":3069,"à¸Ħà¸£à¸ĩ":3070,"à¸²à¸©à¸ĵ":3071,"Ġ03":3072,"Ġà¸¢à¸Ńà¸Ķà¸Ļ":3073,"à¸¡à¸łà¸²à¸©à¸ĵ":3074,"à¹Ħà¸ģ":3075,"Ġà¸ªà¸£à¸£à¸ŀ":3076,"à¸£à¸£à¸ł":3077,"à¸£à¸£à¸ĸ":3078,"à¸²à¸«à¸²":3079,"Ġ05":3080,"à¸Ńà¸ĩà¹Ģà¸£":3081,"à¸¡à¸Ħà¸£à¸Ńà¸ĩ":3082,"ĠLe":3083,"Ġà¸ĩà¸§à¸Ķ":3084,"Ġà¸ģà¸²à¸£à¸§":3085,"Ġà¸ĭà¸²à¸Ļ":3086,"à¸¨à¸²":3087,"à¸ĩà¹ģà¸ģ":3088,"à¸ŀà¹Ģà¸Ķà¸Ĺ":3089,"ĠUnivers":3090,"à¸¢à¸§à¸¢à¸²":3091,"Ġtr":3092,"ros":3093,"à¸³à¹Ģà¸£":3094,"ary":3095,"old":3096,"Ġà¸ģà¸²à¸£à¸Ľà¸ı":3097,"à¸Ķà¸Ī":3098,"Ġà¸£à¸ĸà¹Ħà¸Ł":3099,"à¸£à¸©à¸°":3100,"Ġà¸Ļà¸³à¹Ģà¸Ĥ":3101,"à¸ķà¸³":3102,"à¸ĩà¸§":3103,"à¸Ľà¸ģà¸Ħà¸£à¸Ńà¸ĩ":3104,"à¸¢à¸Ńà¸ĩ":3105,"à¸²à¸ĩà¸«":3106,"Ġà¸Ńà¸²à¸§":3107,"à¸ĺà¸¢à¸²":3108,"Ġà¹Ģà¸ģà¸£":3109,"à¸²à¸ķà¸²":3110,"Ġà¸ģà¸³à¹Ħà¸£":3111,"Ġà¸ªà¸łà¸²":3112,"ĠSc":3113,"à¸ģà¹Ģà¸ģà¸Ńà¸£":3114,"22":3115,"à¹Ħà¸«à¸¡":3116,"ĠFor":3117,"Ġà¹Ģà¸¥à¸Ń":3118,"ase":3119,"Ġà¸Ńà¸ł":3120,"à¹ģà¸Ĺà¸ģ":3121,"Ġà¹Ģà¸ĭà¸Ļà¸ķ":3122,"à¸§à¸ķ":3123,"Ġ>>":3124,"à¸Ńà¸Ļà¹ģà¸Ń":3125,"ĠHot":3126,"Ġà¸ªà¸²à¸£à¸°":3127,"à¸ĩà¸ģà¸£":3128,"à¹Ģà¸Īà¸£":3129,"Ġà¸Ħà¸²à¸Ĺ":3130,"Ġ37":3131,"oft":3132,"ĠTe":3133,"à¸²à¸Ńà¸¢":3134,"Ġà¸Ĥà¸§à¸Ķ":3135,"Ġà¸Ľà¸£à¸°à¸ģà¸²à¸£":3136,"Ġà¹Ģà¸ľà¸¢à¹ģà¸ŀà¸£":3137,"ĠâĢĶ":3138,"à¸Ĥà¸Ń":3139,"à¸Ńà¹Ģà¸Ľà¸¥":3140,"Ġà¸ģà¸£à¸²à¸":3141,"à¸ĸà¸¡":3142,"ool":3143,"à¸Ĭà¸Ļà¸°à¹Ģà¸¥":3144,"Ġà¸£à¸°à¸§":3145,"Ġà¸Ńà¸ļà¸£à¸¡":3146,"Ġà¸ģà¸³à¹ģà¸ŀà¸ĩ":3147,"Ġà¸Ħà¸Ļà¹Ģà¸Ķ":3148,"US":3149,"Ġà¸ĸà¸Ńà¸Ļ":3150,"oth":3151,"Ġun":3152,"Ġà¸¥à¸²à¸§":3153,"ĠPre":3154,"à¸²à¸ĩà¸Ħ":3155,"Ġà¸Ĺà¸²à¸ĩà¹Ģà¸Ĥ":3156,"à¸ģà¸Ĺà¸£à¸Ńà¸Ļ":3157,"Ġà¸Ĭà¸¥à¸ļ":3158,"indow":3159,"ĠBr":3160,"500":3161,"Ð½":3162,"Ġà¸Ħà¸§à¸²à¸¡à¸ĩà¸²à¸¡":3163,"Ġà¸Łà¸²":3164,"à¸²à¸ªà¸Ļ":3165,"à¸²à¸ĩà¸Ĭà¸²à¸ķ":3166,"ram":3167,"à¸Ńà¸ĩà¸ª":3168,"à¸¨à¸§":3169,"à¸Ļà¸Ł":3170,"Ġà¸Ħà¸£à¸Ńà¸ĩ":3171,"Ġà¸ģà¸£à¸Ńà¸ĩ":3172,"Ġà¸«à¸²à¸£":3173,"à¹Ħà¸ª":3174,"à¸¸à¹ĭ":3175,"uroder":3176,"à¸Ļà¹Ģà¸Ĭà¸ªà¹Ģà¸ķà¸Ńà¸£":3177,"ium":3178,"à¹ģà¸Ĭ":3179,"à¸²à¸ģà¸©":3180,"à¸ĩà¸Ĥà¸Ńà¸ĩ":3181,"matitis":3182,"urodermatitis":3183,"à¸ĺà¸ł":3184,"à¹Ħà¸Ľà¸ĸ":3185,"Ġà¸£à¸§à¸¡à¹Ħà¸Ľà¸ĸ":3186,"ade":3187,"Ġà¹ģà¸¡à¸Ļà¹Ģà¸Ĭà¸ªà¹Ģà¸ķà¸Ńà¸£":3188,"à¸ļà¹Ģà¸Ħà¸¥":3189,"à¸§à¸ĩà¸«à¸Ļ":3190,"Ġà¸ļà¸²à¸ĩà¸Ńà¸¢":3191,"ĠMan":3192,"à¸ģà¸ªà¸Ļà¸²à¸Ļ":3193,"Ġà¸Īà¸Ńà¸Ķ":3194,"Ġà¹Ħà¸Ľà¹Ģà¸Ĺ":3195,"ĠAc":3196,"hailand":3197,"Ġà¹ģà¸§à¸°":3198,"ĠRes":3199,"Ġà¸ģà¸Ń":3200,"Ġà¸Ļà¸Ń":3201,"à¸§à¸Ļà¸ľà¸ªà¸¡":3202,"Ġà¸¢à¸²à¸Ļ":3203,"à¸Ħà¸¥à¸²à¸¢":3204,"Ġà¸Ńà¸¥":3205,"Ġà¸Ńà¸Ļà¸²à¸Ħà¸ķ":3206,"iss":3207,"Ġà¸Ńà¸ĩà¸¨à¸²":3208,"Ġ<":3209,"Ġà¹Ģà¸ªà¸Ļ":3210,"mer":3211,"Ġà¸ļà¸Ńà¸£":3212,"à¸Ļà¸Īà¸£":3213,"à¸Ķà¸«à¸²":3214,"à¸£à¸£à¸¢à¸²":3215,"Ġà¹ģà¸Ńà¸Ļà¸Ķ":3216,"à¹Ģà¸ĺ":3217,"à¸Ńà¸Ļà¹ģà¸ģ":3218,"à¸Ńà¸³à¸Ļà¸²à¸Ī":3219,"Ġà¸łà¸²à¸©à¸²à¹Ħà¸Ĺà¸¢":3220,"Ġ2014":3221,"Ġà¸ģà¸£à¸°à¸Ĺà¸³":3222,"à¸¡à¹Ģà¸¥":3223,"Ġà¸Ħà¸§à¸²à¸¡à¸ªà¸³à¹Ģà¸£":3224,"ĠSam":3225,"roid":3226,"Ġà¸Ĭà¸Ļà¸°à¹Ģà¸¥":3227,"ance":3228,"Ġà¸Ńà¸Ńà¸ªà¹Ģà¸ķà¸£à¹Ģà¸¥":3229,"15":3230,"à¸Ľà¸²à¸ģ":3231,"à¸¢à¸¡à¸Ĭà¸¡":3232,"Ġ38":3233,"Ġphlebologist":3234,"ĠCont":3235,"Ġà¸¥à¸²à¸Ļ":3236,"Ġà¸Ļà¸²à¸Ļà¸²à¸Ĭà¸²à¸ķ":3237,"à¸³à¹Ģà¸ª":3238,"Ġà¹Ķ":3239,"ph":3240,"à¹Ĥà¸Ħà¸£":3241,"ank":3242,"à¸Ļà¸£":3243,"à¸Ļà¸ł":3244,"Ġà¸ķà¸ģà¸¥à¸ĩ":3245,"Ġà¸£à¸°à¸¢à¸°à¸¢à¸²à¸§":3246,"à¹Ģà¸ĭà¸¥":3247,"pe":3248,"à¸§à¸²à¸Ļ":3249,"ult":3250,"à¸§à¸£à¸£à¸ĵ":3251,"Ġ89":3252,"af":3253,"à¸¢à¸Ļà¸ª":3254,"à¸§à¹Ģà¸¡":3255,"Ġor":3256,"ux":3257,"Ġà¸ªà¸²à¸¢à¸ķà¸²":3258,"atch":3259,"Ġà¸Ľà¸£à¸°à¸Ī":3260,"Ġà¸®à¸Ńà¸£":3261,"à¸ģà¹ģà¸ªà¸Ķà¸ĩ":3262,"Ġà¹Ħà¸ķà¸£":3263,"à¸Ķà¸ĩà¸Ħà¸§à¸²à¸¡":3264,"à¸Ńà¸³à¸Ļà¸§à¸¢à¸Ħà¸§à¸²à¸¡à¸ªà¸°à¸Ķà¸§à¸ģ":3265,"Ġ59":3266,"Ġà¸ģà¸Ńà¸ļ":3267,"Ġà¹Ĥà¸Ľà¸£à¸ķ":3268,"ÑĢ":3269,"Ġà¸«à¸£à¸Ńà¸ģ":3270,"à¸Ļà¹Ģà¸Ľ":3271,"ara":3272,"Ġà¸įà¸²à¸ķ":3273,"Ġà¸Ŀà¸Ļ":3274,"Ġà¸ªà¸°à¸Ĺ":3275,"à¸Ħà¸£à¸²à¸§":3276,"à¹Ĵ":3277,"ï¿½ï¿½ï¿½ï¿½":3278,"azada":3279,"à¸ģà¸²à¸£à¸Ħ":3280,"à¸Ļà¹Ģà¸Ļ":3281,"à¹Ģà¸ŀà¸¥":3282,"ĠAB":3283,"Ġà¹Ģà¸ļà¸£":3284,"Ġà¸ģà¸ª":3285,"ĠCent":3286,"à¸ĩà¸Ħà¸²":3287,"Ġà¹Ħà¸Ľà¸«à¸²":3288,"Ġà¸łà¸²à¸ŀà¸ĸ":3289,"Ġà¹Ĥà¸Ĥ":3290,"à¸²à¸ĵà¸²à¸Ī":3291,"EC":3292,"à¸²à¸ģà¸ģ":3293,"Ġà¹Ģà¸ģà¸©à¸ķà¸£à¸ģà¸£":3294,"à¸¢à¸Ķà¸Ļà¸²à¸¡":3295,"Ġà¹Ħà¸¥à¸Ļ":3296,"Ġà¸Ļà¸²à¸ĩà¸ªà¸²à¸§":3297,"à¸ģà¸ķà¸²":3298,"à¸Ńà¸Ļà¸«à¸¥":3299,"à¸¡à¹Ħà¸Ľà¸Ķ":3300,"à¸§à¹ģà¸ķ":3301,"à¸£à¸£à¸©à¸²":3302,"Ġà¹ķ":3303,"à¸Ļà¹Ģà¸Ĺà¸Ńà¸£":3304,"Ġà¸Ĥà¸Ļà¸ª":3305,"à¸ģà¸°":3306,"à¸²à¸ĩà¸Ī":3307,"Ġà¹ģà¸£à¸ĩà¸ĩà¸²à¸Ļ":3308,"à¸ģà¸§à¸Ļ":3309,"ĠSm":3310,"orld":3311,"ext":3312,"à¸Ķà¸ĩà¸²à¸¡":3313,"à¸Ķà¸§":3314,"Ġà¸ªà¸³à¸£à¸§à¸Ī":3315,"à¸įà¹ģà¸Ī":3316,"70":3317,"Ġà¸ķà¸³à¸Ļà¸²à¸Ļ":3318,"Ġneurodermatitis":3319,"à¸Ļà¸Ńà¸ĩ":3320,"ull":3321,"Ġà¹Ĥà¸«":3322,"Ġà¸ªà¹Ģà¸Ľà¸Ļ":3323,"ence":3324,"à¸²à¸Ĭà¸¡":3325,"Ġà¸Ńà¸²à¹Ģà¸ĭ":3326,"à¸ªà¸ª":3327,"ater":3328,"ann":3329,"Ġà¸Ńà¸³à¸Ļà¸§à¸¢":3330,"Ġà¸ĭà¸Ńà¸ĩ":3331,"à¸Ĵà¸Ļà¸²à¸ģà¸²à¸£":3332,"indows":3333,"Ġà¸§à¸²à¸ĩà¹ģà¸ľà¸Ļ":3334,"Ġà¸ªà¸Ķà¹ĥà¸ª":3335,"ĠTags":3336,"à¸²à¸Ļà¸ķ":3337,"ĠGr":3338,"à¸¨à¸¥":3339,"à¸ķà¸°à¸§":3340,"à¹ģà¸ļ":3341,"à¸²à¸Ŀ":3342,"18":3343,"Ġà¸§à¸£":3344,"amp":3345,"à¸Ļà¹Ģà¸ģ":3346,"Ġà¹Ģà¸Ĺà¸£à¸Ķ":3347,"OM":3348,"à¸Ńà¹ģà¸¡":3349,"ĠUniversity":3350,"Ġà¸§à¸²à¸Ķ":3351,"Ġà¸Ħà¸£à¸Ńà¸ļà¸Ħà¸¥":3352,"à¹ĵ":3353,"à¸Ľà¸£à¸°à¸ªà¸ļà¸ģà¸²à¸£à¸ĵ":3354,"Ġà¸ªà¸ķà¸²à¸£":3355,"à¹Ĥà¸Ķà¸¢à¸ªà¸²à¸£":3356,"à¸£à¸°à¹Ģà¸ļ":3357,"ģà¸¥":3358,"à¸²à¸ŀà¹Ģà¸Ī":3359,"à¸¢à¸ĩà¸Ķ":3360,"Ġà¸Ĥà¸Ńà¸ĩà¸Ĥà¸§":3361,"à¸ĩà¹Ģà¸Ķ":3362,"ĠWh":3363,"OT":3364,"coin":3365,"Ġà¸ģà¸²à¸£à¸Ľà¸£à¸°à¸ģà¸§à¸Ķ":3366,"à¸Ľà¸Ľ":3367,"Ġà¸ªà¸ļ":3368,"Ñģ":3369,"Ġà¸£à¸ŀ":3370,"ri":3371,"à¸Ķà¹Ģà¸ŀ":3372,"à¸Ńà¹Ħà¸Ķ":3373,"Club":3374,"ĠHe":3375,"à¸Ńà¸«":3376,"ah":3377,"à¹Ĥà¸Ĭ":3378,"Ġà¸Ľà¸Ĺ":3379,"Ġà¸¥à¸ĩà¸Ĺà¸°à¹Ģà¸ļ":3380,"Ġà¹Ħà¸ª":3381,"Ġà¸¨à¸²à¸ªà¸Ļà¸²":3382,"ĠDe":3383,"à¸ĩà¸Ńà¸Ńà¸ģ":3384,"Ġà¹Ģà¸ķà¸°":3385,"Ġà¹Ĥà¸®à¸¡":3386,"à¸īà¸°à¸Ļ":3387,"Ġà¸Ħà¸§à¸²à¸¡à¸ªà¸Ļà¹ĥà¸Ī":3388,"Ġà¹ģà¸ģà¸°":3389,"à¸Ļà¸²à¸§":3390,"Ġ....":3391,"à¸Ķà¸ªà¸£à¸£":3392,"Ġà¸£à¸ĸà¹Ħà¸Łà¸Ł":3393,"à¸Ńà¹Ħà¸Ľà¸Ļ":3394,"Ġà¸Ĺà¸Ńà¸ĩà¸Ħà¸³":3395,"ĠMar":3396,"Ġà¸ļà¸²à¸Ķà¹Ģà¸Ī":3397,"Ġ--":3398,"Ġ44":3399,"16":3400,"Ġà¹Ģà¸Ńà¸²à¸Ĭà¸Ļà¸°":3401,"Ġ150":3402,"____":3403,"ĠThai":3404,"12":3405,"ĠDr":3406,"ual":3407,"Ġà¸łà¸²":3408,"Ġà¸µ":3409,"Ġà¸Ķà¸Ńà¸¥à¸¥":3410,"Ġà¸ªà¸ĸà¸²à¸Ļà¸°":3411,"Ġà¸«à¸¡à¸§à¸ģ":3412,"à¸§à¸ª":3413,"Ġà¸ķà¸¥à¸Ńà¸Ķà¸Īà¸Ļ":3414,"à¸Ĥà¸§à¸²à¸ĩ":3415,"Ġà¸Ĺà¸²à¸§à¸Ļ":3416,"Ġà¸ªà¸£à¸°à¸§":3417,"à¸¡à¸¡à¸Ńà¸ĩ":3418,"à¸Īà¸³à¹Ģà¸Ľ":3419,"Ġà¸Ŀà¸²":3420,"à¸Ńà¸²à¸¨":3421,"Ġà¸ģà¸²à¸£à¸Ħà¸§à¸ļà¸Ħ":3422,"ĠGB":3423,"à¸ģà¸ªà¸²à¸§":3424,"Ġà¸Ħà¸§à¸²à¸¡à¸ŀà¸£":3425,"à¸£à¸£à¸¢":3426,"à¸ģà¸£à¸°à¸Ĺà¸³":3427,"Ġà¸¨à¸²à¸ªà¸ķà¸£":3428,"Ġà¸²à¸ĩ":3429,"Ġ42":3430,"Ġà¸ģà¸£à¸²à¸Ł":3431,"te":3432,"Ġà¸ŀà¸§à¸ĩ":3433,"à¸ªà¸²à¸¡":3434,"à¸§à¹Ģà¸¥à¸Ĥ":3435,"Ġà¹ģà¸¥à¸ģà¹Ģà¸Ľà¸¥":3436,"Ġà¸ģà¸²à¸£à¹Ģà¸Ĥ":3437,"Ġ56":3438,"à¹Ģà¸Ħà¸Ĭ":3439,"à¹Ĩà¹Ĩ":3440,"Ġà¸Ńà¸²à¸«à¸²à¸£à¹Ģà¸ªà¸£":3441,"Ġà¸§à¸£à¸£à¸ĵ":3442,"EL":3443,"Ġà¸ģà¸¥à¸¡":3444,"oto":3445,"Ġ58":3446,"à¸ªà¸¡à¸Ħà¸§à¸£":3447,"à¸ĩà¸Ńà¸³à¸Ļà¸§à¸¢à¸Ħà¸§à¸²à¸¡à¸ªà¸°à¸Ķà¸§à¸ģ":3448,"ps":3449,"Ġà¸£à¸ĵ":3450,"Ġà¸Ĥà¸ļ":3451,"Ġ84":3452,"Ġà¸Ķà¸Ńà¸Ļ":3453,"à¸£à¸£à¸²à¸Ĭ":3454,"Ġà¹Ħà¸ĭà¸ª":3455,"Ġporn":3456,"à¸Ĺà¸¯":3457,"Ġà¹Ģà¸Ĭà¸¥":3458,"à¸Ńà¸Ļà¸Ħà¸¥à¸²à¸¢":3459,"à¸Ķà¹ĥà¸Ī":3460,"Ġà¸Ľà¸£à¸°à¸Ĭà¸²à¸ª":3461,"à¸ļà¹Ĥà¸¥à¸ģ":3462,"Ġà¸ķà¸²à¸¡à¸¡à¸²":3463,"Ġà¸Ĺà¸²à¸ĩà¹Ģà¸Ķ":3464,"Ġà¸¡à¸§à¸¢":3465,"Ġà¹Ģà¸Ńà¸ģà¸¥":3466,"ital":3467,"à¸¢à¸ĩà¸ŀà¸Ń":3468,"ĠAD":3469,"Ġ39":3470,"à¸Ķà¸ŀà¸¥":3471,"Ġà¸¥à¸³à¹Ħà¸ª":3472,"à¹Į,":3473,"Ġà¸Ĺà¸²à¸£à¸ģ":3474,"Ġà¹Ģà¸Ħà¸ª":3475,"à¸Ķà¸Ĺà¸°à¹Ģà¸ļ":3476,"Ġà¸Ĥà¸Ńà¸Ļà¹ģà¸ģ":3477,"Ġph":3478,"Ġ250":3479,"Ġà¸£à¸£":3480,"ĠSM":3481,"itcoin":3482,"à¸§à¸Ĭ":3483,"Ġ94":3484,"Ġà¸Ħà¸Ļà¸Ķ":3485,"à¸ģà¸£à¸°à¸Ķ":3486,"à¸Ļà¸Ńà¸²à¸Ĺ":3487,"Ġà¸Īà¸Ļà¸ģà¸£à¸°à¸Ĺ":3488,"ale":3489,"à¹Ĥà¸¡à¸Ļ":3490,"ĠFl":3491,"TS":3492,"Ġ2555":3493,"Ġà¸Ńà¸²à¸ļà¸Ļ":3494,"ove":3495,"Ġà¸ĩà¸²à¸Ļà¸§":3496,"Ġà¹Ģà¸§à¸Ļ":3497,"Ġà¸łà¸²à¸¢à¸«à¸¥":3498,"Ġonline":3499,"à¸Ľà¸£à¸°à¸Ķ":3500,"à¸Ńà¸ĩà¸ªà¸³":3501,"à¸Ķà¸ŀà¸¥à¸²à¸Ķ":3502,"antip":3503,"à¸²à¸§à¸Ĥà¸Ńà¸ĩ":3504,"à¹Ĥà¸¢à¸ĩ":3505,"à¸ªà¸ģ":3506,"Ġà¸ªà¹ģà¸ķ":3507,"Ġà¸ģà¸¥à¸¢":3508,"Ġà¸ŀà¸Ńà¹ĥà¸Ī":3509,"Ġà¸ŀà¸ĩà¸©":3510,"à¸§à¸ĩà¸Ļ":3511,"à¸Ļà¸Ľà¸£à¸°à¸Īà¸³":3512,"Ġà¹ĥà¸Ļà¸ģà¸£à¸ĵ":3513,"à¸Īà¸²à¸Ħ":3514,"se":3515,"ĠLED":3516,"à¸Ńà¸ĩà¸ªà¸³à¸Ń":3517,"à¸ļà¸«à¸Ļ":3518,"Ġ53":3519,"à¸Ńà¸²à¸Ĺ":3520,"à¸Ķà¹Ģà¸ŀà¸¥":3521,"Ġà¹ģà¸ĸà¸¥à¸ĩ":3522,"à¸ģà¹ĥà¸Ī":3523,"Ġà¸Ĺà¸£à¸²à¸¢":3524,"----------------":3525,"à¹Ĥà¸ĭ":3526,"à¸ĩà¸«à¸²à¸£":3527,"eng":3528,"Ġà¹Ĥà¸¥à¸«à¸°":3529,"Ġà¸łà¸£à¸£à¸¢à¸²":3530,"à¹Ģà¸Ħà¸¡":3531,"Ġ2013":3532,"à¸«à¸§à¸²à¸Ļ":3533,"à¸Ļà¸Ľà¸£à¸°à¹Ĥà¸¢à¸Ĭà¸Ļ":3534,"ĠWindows":3535,"Ġà¹Ģà¸Ŀ":3536,"Ġ2012":3537,"Ġ::":3538,"ĠAut":3539,"Ġà¸«à¸Ļà¸²à¸§":3540,"Ġà¸Ħà¸¥à¸²à¸ª":3541,"Ġà¸ģà¸¥à¸²":3542,"à¸Ħà¸£à¹Ģà¸¥":3543,"Ġà¸Ńà¸²à¸ª":3544,"Ġà¸īà¸²à¸¢":3545,"ĠÂ·":3546,"à¸ķà¸²à¸¥":3547,"Ġà¸«à¸¥à¸§à¸ĩà¸Ľ":3548,"load":3549,"à¸³à¸Ļà¸²à¸į":3550,"à¸Īà¸Īà¸²à¸£à¸°":3551,"Ð¾Ð":3552,"Ġà¸¡à¸¥":3553,"à¸ªà¸Ļà¹Ģà¸Ĺà¸¨":3554,"Ġà¸Ľà¸£à¸°à¸ĸà¸¡":3555,"à¹Ģà¸ļà¸Ńà¸£":3556,"ĠBlack":3557,"Ġà¸¡à¸²à¸ģà¸¢":3558,"ĠLine":3559,"à¸Ħà¸Ń":3560,"à¹Ĳà¹Ĳ":3561,"à¹ģà¸ķà¸ģà¸ķ":3562,"à¸ģà¸¡":3563,"Ġ$":3564,"à¸§à¸Ń":3565,"Ġ57":3566,"à¸¡à¸ģ":3567,"à¸īà¸ļ":3568,"Ġà¸Ħà¸§à¸²à¸¡à¸ªà¸°":3569,"ĠHome":3570,"ĀĀ":3571,"Ġà¸¡à¸²à¸Ķà¸£":3572,"int":3573,"à¸²à¸Ļà¸ļà¸Ļ":3574,"Ġcl":3575,"à¸ĩà¸ŀ":3576,"à¸³à¹Ģà¸ĩ":3577,"Ġà¹Ģà¸ģà¸£à¸Ķ":3578,"à¸¥à¸°à¸Ħà¸Ļ":3579,"à¸©à¸İ":3580,"à¸ļà¸Ĺà¸§à¸Ļ":3581,"à¸įà¹Ģà¸ª":3582,"OL":3583,"Ġjob":3584,"Ġà¹Ģà¸¥à¹Ģà¸ĭà¸Ńà¸£":3585,"Ġà¹Ħà¸Ļ":3586,"à¹Ģà¸ģà¸ĵà¸ĳ":3587,"over":3588,"Ġà¸ģà¸²à¸£à¸Ńà¸Ńà¸ģà¸":3589,"à¸įà¸¥":3590,"à¹Ģà¸Ľà¸£":3591,"ino":3592,"14":3593,"Ġà¸ľà¸ĩ":3594,"à¸Ļà¸ªà¸Ķ":3595,"à¸²à¸ªà¸¡":3596,"Ġà¸Ħà¸£à¸ļà¸§à¸ĩà¸Īà¸£":3597,"à¸«à¸²à¸Ķ":3598,"Ġà¸¢à¸ģà¹Ģà¸¥":3599,"à¸ĩà¹Ģà¸¥":3600,"à¸Ķà¸«à¸§":3601,"Ġwith":3602,"Ġà¹Ģà¸ļà¸²à¸°":3603,"à¸¡à¸¡à¸Ļà¸²":3604,"à¹Ģà¸Ħà¸¢":3605,"à¸Ľà¸£à¸°à¸ķ":3606,"ãĢ":3607,"Ġà¸Īà¸Ķà¸Ĺà¸°à¹Ģà¸ļ":3608,"ĠApple":3609,"à¸ªà¸Ļà¸Ńà¸ĩ":3610,"à¸³à¸ķà¸ģ":3611,"à¸§à¸¥à¸°à¸Ħà¸£":3612,"Ġà¸Ńà¸²à¸«à¸²à¸£à¹Ģà¸Ĭ":3613,"Ġà¹Ĥà¸Ĺà¸Ļ":3614,"à¸ģà¸£à¸°à¸ļ":3615,"à¹Ģà¸ªà¸ĺ":3616,"Ġ).":3617,"à¹Ģà¸ŀà¸ĵ":3618,"Ġà¸¡à¸²à¸«à¸²":3619,"Ġà¸£à¸§à¸¢":3620,"Ġro":3621,"ition":3622,"Ġà¸Ńà¸¢à¸²à¸ģà¹Ħà¸Ķ":3623,"Ġà¸¡à¸Ńà¸ĩà¸§":3624,"Ġà¹Ĥà¸Ħà¸¡":3625,"Ġà¹Ħà¸ĩ":3626,"Ġà¸ŀà¸Ńà¸ªà¸¡à¸Ħà¸§à¸£":3627,"à¸ĩà¸Ńà¸²à¸¢":3628,"à¹Ļ":3629,"Ġà¸ģà¸Ńà¸ļà¸Ķ":3630,"à¸Ļà¹Ģà¸¥à¸ª":3631,"à¸Ĺà¸£à¸£":3632,"IL":3633,"à¸ģà¸ŀà¸£":3634,"Ġà¹Ĥà¸¡à¹Ģà¸Ķ":3635,"Ġis":3636,"mail":3637,"à¸Ŀà¸²à¸ģ":3638,"ĠGClub":3639,"à¸¡à¸ª":3640,"à¹Ģà¸Ħà¸£à¸Ķ":3641,"Ġpr":3642,"à¸Ļà¸Ĺà¸²à¸Ļ":3643,"ĠAndroid":3644,"Ġà¸Ħà¸§à¸²à¸¡à¸«à¸¡à¸²à¸¢":3645,"Ġà¸Ĭà¸³à¸£à¸°à¹Ģà¸ĩ":3646,"Ġà¸ģà¸³à¸ģ":3647,"Ġà¸ĺà¸²à¸ķ":3648,"Ġà¸ģà¸²à¸į":3649,"Ġà¸ŀà¸£à¸°à¸£à¸²à¸¡":3650,"à¸ļà¸§":3651,"Ġà¸ķà¸Ńà¸ļà¸ªà¸Ļà¸Ńà¸ĩ":3652,"Ġà¸Ĥà¸ļà¸§à¸Ļ":3653,"ĠMic":3654,"ys":3655,"à¸Ĳà¸¯":3656,"Ġà¹ģà¸ĸà¸ļ":3657,"ode":3658,"Ġà¹Ģà¸¥à¸Ļà¸ª":3659,"24":3660,"Ġ43":3661,"ĠSk":3662,"à¸Ĭà¸²à¸Ĭ":3663,"Ġà¹ģà¸Ħà¸¥":3664,"à¸²à¸§à¸ĸ":3665,"Ġ54":3666,"à¹ģà¸ĭ":3667,"Ġà¹Ħà¸¥à¸Ł":3668,"à¸²à¸¡à¸ģà¸¥à¸²à¸ĩ":3669,"Ġà¸ģà¸Ńà¸ĩà¸«à¸Ļ":3670,"17":3671,"à¸ĵà¸ĳà¸¥":3672,"à¸Īà¸²":3673,"Ġbl":3674,"Ġà¸Ķà¸Ńà¸¥à¸¥à¸²à¸£":3675,"à¸ĩà¹ģà¸ģà¸£":3676,"ĠSP":3677,"min":3678,"Ġà¸ģà¸£à¸°à¹ģà¸Ĺà¸ģ":3679,"à¸²à¸§à¸£":3680,"à¸²à¸ĩà¹ĥà¸Ļ":3681,"==":3682,"à¸ķà¸Ĭ":3683,"Ġà¸«à¸Ńà¸¢":3684,"à¸ģà¸³à¹Ģà¸Ļ":3685,"Ġle":3686,"ube":3687,"Ġà¸Ĭà¸²à¸¢à¸«à¸²à¸Ķ":3688,"Ġà¹Ģà¸ŀà¸Ĭà¸£à¸ļ":3689,"Ġà¸ģà¸²à¸£à¹Ģà¸¥":3690,"Ġà¸ģà¸²à¸£à¸Ńà¸Ńà¸ģà¸ģà¸³à¸¥":3691,"yn":3692,"Ġà¸ªà¸²à¸£à¸ŀ":3693,"Ġà¹ģà¸ļà¸Ļ":3694,"ouse":3695,"Ġà¹Ģà¸¢à¸Ńà¸£à¸¡":3696,"à¸ķà¸£à¹Ģà¸Ħà¸£à¸Ķ":3697,"à¸«à¸Ńà¸¡":3698,"<<":3699,"à¹Ĥà¸¢à¸ķ":3700,"Ġà¸Ĺà¸³à¹Ģà¸Ľ":3701,"Ġà¸ģà¸£à¸Ķ":3702,"à¸Ńà¸¡à¹Ĥà¸¢à¸ĩ":3703,"Ġà¸ĭà¸¡":3704,"Ġà¸Ĭà¸²à¸§à¹Ħà¸Ĺà¸¢":3705,"Ġav":3706,"Ġà¸£à¸°à¸¢à¸°à¸ª":3707,"à¸Ļà¹Ĥà¸Ķ":3708,"à¸ļà¹Ģà¸ĩ":3709,"à¸ģà¸Ńà¸ļà¸£à¸¡":3710,"Ġà¹Ģà¸Ļà¸Ń":3711,"Ġà¹Ģà¸«à¸ĩ":3712,"Ġlazada":3713,"à¸£à¸Ńà¸ļ":3714,"Ġà¸¥à¸ĩà¸ª":3715,"à¸ŀà¸¤":3716,"à¸ŀà¸Ńà¹ĥà¸Ī":3717,"à¸Ļà¸ĺà¸¡":3718,"à¸Īà¸²à¸£à¸ĵ":3719,"à¸²à¸ĩà¹ĥà¸Ķ":3720,"Ġà¸Ĥà¸¢à¸°":3721,"ical":3722,"à¸ĩà¹Ģà¸Ľ":3723,"ĠOnline":3724,"ĠIntern":3725,"à¹ģà¸ģà¸Ļ":3726,"Ġà¸¥à¸§à¸Ķ":3727,"Ġà¹Ħà¸¡à¹Ĥà¸Ħà¸£":3728,"Ġà¹Ģà¸Īà¸¥":3729,"à¸Ńà¸Īà¸²à¸ģ":3730,"Ġ46":3731,"à¸²à¸Ĺà¸²à¸ĩ":3732,"Ġà¸ģà¸²à¸£à¸ģà¸£à¸°à¸Ĺà¸³":3733,"und":3734,"Ġà¸ģà¸£à¸°à¹Ģà¸ļ":3735,"Ġà¹Ģà¸Ĭà¸¥à¸ĭ":3736,"Ġà¸Ħà¸§à¸²à¸¡à¹ģà¸ķà¸ģà¸ķ":3737,"Ġà¸Ĺà¸²à¸ĩà¸§":3738,"Ġà¹Ģà¸Īà¸Ļ":3739,"à¸ªà¸²à¸ĺà¸²à¸£":3740,"cess":3741,"Ġà¸ģà¸²à¸£à¸ĭ":3742,"Ġ64":3743,"Ġà¸ģà¸²à¸£à¹Ģà¸¡":3744,"ush":3745,"à¸¨à¸Ĺà¸²à¸ĩ":3746,"à¸Ķà¸³à¹Ģà¸Ļ":3747,"ĠYou":3748,"à¸ĩà¹Ģà¸ŀà¸¥à¸ĩ":3749,"Ġà¸ģà¸²à¸£à¸ģ":3750,"Ġà¸Ļà¸²à¸¢à¸ģ":3751,"à¸Ķà¸ŀ":3752,"Ġà¸Ħà¸¥à¸Ńà¸Ķ":3753,"Ġà¹Ģà¸ŀà¸£à¸²à¸°à¸īà¸°à¸Ļ":3754,"Ġà¸Ĺà¸Ķ":3755,"Ġà¹ģà¸ľà¸Ļà¸Ĺ":3756,"Ġat":3757,"ĠAm":3758,"ªà¸²à¸Ĺ":3759,"à¸¡à¸²à¸£":3760,"33":3761,"Ġà¸ĩà¸²":3762,"à¹ĺ":3763,"ĠOff":3764,"à¸Ńà¸ĩà¹Ģà¸¥":3765,"à¹Ħà¸Ĥà¸Ľ":3766,"Ġà¹ģà¸Ĭà¸¡à¹Ģà¸Ľ":3767,"Ġà¹Ħà¸Ńà¹Ģà¸Ķ":3768,"sung":3769,"à¹Ģà¸®":3770,"Ġà¸łà¸²à¸Ħà¸£":3771,"Ġà¸Ľà¸£à¸²à¸ªà¸²à¸Ĺ":3772,"ĠOr":3773,"à¸£à¸ĩà¸Ħ":3774,"Ġà¹ģà¸ªà¸Ķà¸ĩà¹ĥà¸«":3775,"à¸ĩà¸ģà¸²à¸£":3776,"à¹Ĥà¸ļ":3777,"19":3778,"Ġà¸Ħà¸§à¸²à¸¡à¸ĸ":3779,"Ġà¹ģà¸«à¸§à¸Ļ":3780,"Ġbe":3781,"à¹Ģà¸¨à¸£à¸©à¸Ĳà¸ģ":3782,"Ġà¸Ĺà¸°à¸¥":3783,"Ġà¸£à¸ļà¸ģà¸§à¸Ļ":3784,"à¸ģà¸ŀà¸²":3785,"yl":3786,"Ġà¸ķà¸£à¸°à¸ģ":3787,"ĠPost":3788,"à¹Ĥà¸£à¸ĩ":3789,"à¸³à¸ª":3790,"PS":3791,"Ġà¸Ńà¸°à¹Ħà¸«à¸¥":3792,"Ġà¸ģà¸²à¸£à¸Ľà¸£à¸°à¹Ģà¸¡":3793,"à¸ĺà¸²à¸ķ":3794,"Ġà¸¡à¸¡":3795,"à¸§à¸§":3796,"à¸ļà¸Ńà¸Ļ":3797,"à¸²à¸¯":3798,"Ġà¹Ģà¸¨à¸©":3799,"Ġà¸£à¸²à¸Ħ":3800,"à¸²à¸ĩà¸ķ":3801,"à¸ĺà¸£à¸£à¸¡à¸Ļ":3802,"row":3803,"à¹ģà¸Ĭà¸¡à¸Ľ":3804,"Ġ49":3805,"Ġà¸¢à¸Ńà¸Ķà¸Ĥà¸²à¸¢":3806,"Ġà¹ĸ":3807,"à¹Ģà¸Ķà¸Ńà¸£":3808,"Ġà¸«à¸²à¸¢à¹ĥà¸Ī":3809,"Ġà¸ªà¸³à¸£à¸Ńà¸ĩ":3810,"à¸ªà¸ĸà¸²à¸Ļ":3811,"à¸Ĳà¸ĺà¸£à¸£à¸¡à¸Ļ":3812,"à¸ĺà¸¢à¸¡à¸¨":3813,"ĠCar":3814,"ational":3815,"Ġà¸¥à¸Ńà¸ĩà¸Ķ":3816,"à¸ģà¸³à¸ģ":3817,"Ġå":3818,"à¸²à¸ģà¸¢":3819,"Ġz":3820,"Ġà¸ĭà¸Ńà¸Ł":3821,"Ġà¸łà¸²à¸Ħà¹ĥà¸ķ":3822,"à¸¢à¸ĩà¹ģà¸ķ":3823,"à¸³à¸Ĺ":3824,"Ġà¸ªà¸Ńà¸ļà¸£à¸²à¸Ħà¸²":3825,"Ġà¹ģà¸Ĺà¸Ļà¸Ĺ":3826,"ged":3827,"à¸²à¸ļà¸£":3828,"Ġà¸Ńà¸Ńà¸Ļ":3829,"Ġà¹Ģà¸Ħà¸£à¸Ķ":3830,"ĺħ":3831,"à¸Īà¸Ńà¸Ķ":3832,"ĠAM":3833,"Ġà¹Ĥà¸Ĭà¸Ħà¸Ķ":3834,"à¸Ĺà¸ĺà¸¨à¸²à¸ªà¸Ļà¸²":3835,"Ġà¸ĩà¸Ķà¸ĩà¸²à¸¡":3836,"à¸Īà¸Ńà¸Ķà¸£à¸ĸ":3837,"à¸Ķà¸¥à¸¡":3838,"à¸ĺà¸£à¸£à¸¡à¸Ĭà¸²à¸ķ":3839,"Ġà¸£à¸°à¸¢à¸°à¸Ĺà¸²à¸ĩ":3840,"Ġà¸£à¸Ńà¸Ķ":3841,"à¸ĩà¸Ħà¸²à¸£":3842,"Ġà¸Ķà¸Ńà¸¢":3843,"à¸²à¸§à¸«à¸Ļ":3844,"à¸Ńà¸²à¸£":3845,"à¸Ħà¸£à¸ĩà¸²à¸Ļ":3846,"à¸¥à¸Ń":3847,"enc":3848,"Ġà¸Ļà¸ŀ":3849,"Ġà¸¥à¸ĩà¸ķ":3850,"Ġà¸ŀà¸£à¸°à¸£à¸²à¸Ĭà¸Ĺà¸²à¸Ļ":3851,"Ġ400":3852,"Ġà¸ļà¸£à¸¡":3853,"Ġà¸¥à¸Ķà¸Ļ":3854,"Ġà¸ªà¸§à¸£à¸£à¸Ħ":3855,"ĠUSB":3856,"Ġà¸ŀà¸²à¸ĵ":3857,"ownload":3858,"Ġà¸ģà¸²à¸£à¹Ģà¸ģà¸©à¸ķà¸£":3859,"Ġà¹Ĥà¸ķà¹Ĥà¸¢à¸ķ":3860,"du":3861,"à¸ģà¸ł":3862,"Ġà¸ļà¸Ķ":3863,"Ġà¹ģà¸¡à¸¥à¸ĩ":3864,"Ġà¸Ľà¸£à¸°à¹Ģà¸ŀà¸ĵ":3865,"Ġà¸ŀà¸²à¸¢":3866,"à¸¥à¸¢à¸ģà¸£à¸£à¸¡":3867,"Ġà¹Ģà¸Ńà¸²à¹ĥà¸Ī":3868,"Ġà¸ŀà¸£à¸°à¸ļà¸£à¸¡":3869,"Ġà¸ªà¸Ńà¸Ķà¸Ħà¸¥":3870,"Ġà¸ģà¸²à¸įà¸Īà¸Ļ":3871,"à¸ģà¸²à¸£à¸ļ":3872,"Ġà¸Ĺà¸ļà¸Ĺà¸§à¸Ļ":3873,"à¸Ńà¸ĩà¹ĥà¸Ļ":3874,"apan":3875,"Ġà¸ģà¸£à¸°à¸«à¸Ļ":3876,"à¹ģà¸ªà¸ĩ":3877,"à¸Ńà¸ķà¸ģà¸¥à¸ĩ":3878,"Ġà¸Ħà¸§à¸²à¸¡à¸¥":3879,"à¹Ĥà¸ŀà¸ĩ":3880,"Ġ65":3881,"Ġà¸Ĥà¸Ńà¸ĩà¹Ģà¸¥":3882,"à¸©à¸Ĳà¸²à¸Ļ":3883,"à¸Ńà¸«à¸Ļ":3884,"anc":3885,"à¸¨à¸Īà¸£à¸£à¸¢":3886,"à¸Ĭà¸ģà¸²à¸¥":3887,"Ġà¸ľà¸¥à¸ģà¸²à¸£":3888,"Ġà¸¥à¸Ķà¸£à¸²à¸Ħà¸²":3889,"Ġà¸ģà¸£à¸°à¹Ģà¸Ĺ":3890,"Ġà¸ģà¸Ĺ":3891,"à¸ĵà¸łà¸²à¸ŀà¸Ķ":3892,"à¸ªà¹Ģà¸ķ":3893,"Ġà¸£à¸°à¸¢à¸Ńà¸ĩ":3894,"ID":3895,"à¸§à¸ģà¸£à¸£à¸¡":3896,"à¸Ļà¸Ķà¸²à¸¥":3897,"à¸Ĭà¸¡à¸ŀ":3898,"à¸Ķà¸«à¸¡à¸²à¸¢":3899,"à¸²à¸§à¸Ķ":3900,"à¸§à¸ĩà¸¨":3901,"à¸£à¸²à¸©":3902,"Ġ95":3903,"Ġï":3904,"à¸¨à¸§à¸ģà¸£à¸£à¸¡":3905,"Ġà¸ªà¸¡à¸£à¸£à¸ĸ":3906,"à¸ĩà¸Ħà¸£à¸£à¸ł":3907,"Ġà¹ģà¸Łà¸£":3908,"Ġ52":3909,"ĠSuper":3910,"à¸Ńà¸ĩà¸ģà¸ĩ":3911,"Ġà¸łà¸²à¸£à¸ģ":3912,"Ġpantip":3913,"Ġà¸ªà¸²à¸¢à¸ģà¸²à¸£à¸ļ":3914,"CD":3915,"à¸Ħà¸Ĺ":3916,"77":3917,"arket":3918,"66":3919,"à¸Ļà¹Ģà¸Ħà¸¢":3920,"34":3921,"oyal":3922,"Ġà¸Ľà¸Ńà¸Ļà¸Ķ":3923,"Ġà¸ģà¸²à¸£à¸ŀà¸Ļ":3924,"à¹Ĥà¸Ł":3925,"à¸§à¸Ļà¸¡à¸²à¸ģ":3926,"Ġà¹Ģà¸Ńà¸Ļ":3927,"app":3928,"uck":3929,"Ġo":3930,"Ġà¸ŀà¸ģà¸ŀà¸²":3931,"à¸Ńà¸ĩà¸§":3932,"Ġà¸Ħà¸³à¸ŀ":3933,"à¸Ńà¸ĩà¸ªà¸³à¸Ńà¸²à¸ĩ":3934,"ise":3935,"à¹Ģà¸¡à¸Ńà¸£":3936,"à¸ķà¸¨à¸²à¸ªà¸ķà¸£":3937,"à¸§à¸Ĺ":3938,"Ġà¹ģà¸ģà¸Ļ":3939,"à¸¨à¸ŀ":3940,"Ġà¸ªà¹Ģà¸Ľà¸Ħ":3941,"ĠFr":3942,"à¸Ĥà¸ª":3943,"Ġà¸Ľà¸£à¸°à¸Ĭà¸²à¸ģà¸£":3944,"ĠPower":3945,"à¸įà¸įà¸²à¸ķà¸£":3946,"à¸Ńà¸ĩà¹Ĩ":3947,"Ġà¹Ĥà¸Ķà¸¢à¸£à¸§à¸¡":3948,"à¸Ķà¸²à¸¢":3949,"Ġà¸ªà¸Ľà¸²":3950,"à¸ĩà¸Ħà¹Ĥà¸Ľà¸£":3951,"oll":3952,"ĠID":3953,"ina":3954,"ĠGl":3955,"Ġsp":3956,"ĠAS":3957,"Ġà¸Ħà¸§à¸²à¸¡à¸Ĺ":3958,"à¸£à¸²à¸Ķ":3959,"à¸ĩà¸Ĥà¸¥à¸²":3960,"Ġà¸Ľà¸£à¸°à¸¡à¸§à¸¥":3961,"Ġà¸ªà¸ĩà¸Ĥà¸¥à¸²":3962,"à¸ģà¹ģà¸¥":3963,"à¸¢à¸¢":3964,"Ġà¸ŀà¸°":3965,"ert":3966,"ave":3967,"Ġà¸ŀà¸²à¸ģà¸¢":3968,"Ġà¹Ģà¸ŀà¸²à¸°":3969,"à¸§à¸¢à¸§":3970,"à¸¨à¸²à¸Ī":3971,"à¸ģà¸Ŀ":3972,"Ġà¸¥à¸³à¹Ĥà¸ŀà¸ĩ":3973,"Ġà¸Ĺà¸³à¸ļ":3974,"!!":3975,"à¸ģà¸²à¹ģà¸Ł":3976,"à¸Ńà¸ĩà¸«à¸²":3977,"ote":3978,"à¸¡à¸ŀà¸£à¸°":3979,"Ġ555":3980,"Ġ75":3981,"ator":3982,"à¸²à¸ĩà¸Ĥà¸§à¸²à¸ĩ":3983,"Ġà¸ļà¸³à¸ļ":3984,"ĠEd":3985,"à¸Ńà¹Ħ":3986,"à¸£à¸°à¸§":3987,"à¸²à¸Ł":3988,"Ġà¸Īà¸²à¸£":3989,"Ġà¸ģà¸²à¸£à¸ĩà¸²à¸Ļ":3990,"Ġà¸ļà¸Ĺà¸ļà¸²à¸Ĺ":3991,"à¸¡à¸ªà¸£":3992,"Ġà¸£à¸Ńà¸ĩà¸Ĭà¸Ļà¸°à¹Ģà¸¥":3993,"ini":3994,"Ġà¹Ĥà¸ŀà¸ĺ":3995,"UR":3996,"à¸´.":3997,"Ġà¸Ľà¸£à¸°à¸ĸà¸¡à¸¨":3998,"Ġà¹Ģà¸Ńà¸ģà¸Ĭà¸Ļ":3999,"Ġml":4000,"Ġà¹Ħà¸§à¸£":4001,"ĠOne":4002,"Ġà¹Ħà¸§à¸Ĺ":4003,"OP":4004,"form":4005,"à¸£à¸£à¸²à¸Ĭà¸ª":4006,"Ġà¸¥à¸ĩà¸ªà¸Ļà¸²à¸¡":4007,"à¸£à¸²à¸©à¸İà¸£":4008,"Ġà¹Ĥà¸Īà¸¡à¸ķ":4009,"club":4010,"à¸§à¸ļ":4011,"75":4012,"Ġà¸Ļà¸Ħà¸£à¸£à¸²à¸Ĭà¸ª":4013,"Ġà¸Ńà¸ļà¸Ń":4014,"Ġà¸ķà¸Ńà¸Ļà¹ģà¸£à¸ģ":4015,"ĠMe":4016,"à¹Ģà¸«à¸¥à¸§":4017,"Ġà¸«à¸¥à¸²à¸Ļ":4018,"à¸ªà¸£à¸£à¸ŀ":4019,"Ġà¸ŀà¸¢à¸²à¸ļà¸²à¸¥":4020,"à¸Ŀà¸Ļ":4021,"à¸Ĺà¸£à¸£à¸¨":4022,"à¸ŀà¸²à¸ģà¸©":4023,"Ġà¸īà¸¥à¸Ńà¸ĩ":4024,"Ġà¸ŀà¸ĩà¸¨":4025,"ĠEng":4026,"à¸´à¹ĭ":4027,"Ġà¹ģà¸Ńà¸Ľ":4028,"36":4029,"à¸Īà¸³à¸ģ":4030,"à¸Ĺà¸£à¸£à¸¨à¸ģà¸²à¸£":4031,"à¹Ħà¸«":4032,"à¸§à¸¢à¸ĩà¸²à¸¡":4033,"à¸ľà¸ªà¸²à¸Ļ":4034,"ĠAll":4035,"Ġà¸²à¸Ļ":4036,"yst":4037,"Ġà¸§à¸²à¸£":4038,"Ġà¸ļà¸§à¸¡":4039,"Ġà¸Ħà¸§à¸²à¸¡à¸ªà¸§à¸¢à¸ĩà¸²à¸¡":4040,"Ġà¹Ħà¸§à¸Ļ":4041,"Ġà¸Ļà¸³à¹Ħà¸Ľà¹ĥà¸Ĭ":4042,"ĠCal":4043,"Ġà¸Ľà¸£à¸°à¸Ĭà¸²":4044,"Ġmm":4045,"ize":4046,"à¸²à¸ģà¸§":4047,"à¸Ħà¸Ħ":4048,"à¸Ľà¸°":4049,"ream":4050,"à¸Ńà¸Ļà¸§":4051,"à¸Ńà¸ĩà¸Ľà¸£à¸°à¸Ĭ":4052,"page":4053,"Ġà¸ģà¸²à¸¥":4054,"à¹Ĺ":4055,"à¸ŀà¸²à¸£":4056,"Ġà¹Ĵà¹ķà¹ķ":4057,"ĠIP":4058,"Ġà¹Ĥà¸Ķà¸¢à¹Ģà¸īà¸ŀà¸²à¸°à¸Ńà¸¢":4059,"Ġà¹Ģà¸Ħà¸¡":4060,"ĠCo":4061,"ĠFan":4062,"à¸²à¸¢à¸Ķà¸²à¸¢":4063,"à¸Ńà¸ĩà¹Ģà¸ŀà¸¥à¸ĩ":4064,"rol":4065,"ambl":4066,"à¸Ļà¸ŀà¸ļ":4067,"Ġà¹Ģà¸¥à¸Ļ":4068,"Ġà¹Ĥà¸«à¸¡à¸Ķ":4069,"ĠRoyal":4070,"ĠWeb":4071,"à¸įà¹Ģà¸ķ":4072,"ere":4073,"Ġ):":4074,"ons":4075,"Ġà¹Ģà¸¨à¸£à¸©à¸Ĳ":4076,"à¹ģà¸£":4077,"ĠDes":4078,"Ġà¸Ĥà¸²à¸¢à¸ª":4079,"ics":4080,"28":4081,"Ġà¸«à¸Ļà¸Ń":4082,"à¸Ļà¸ªà¸¡à¸²à¸Ĭ":4083,"à¸²à¹ģà¸ģ":4084,"ĠPC":4085,"à¸¡à¸£":4086,"olid":4087,"à¹ģà¸Īà¸ĩ":4088,"Ġà¹ģà¸ķà¸°":4089,"Ġà¸Ĥà¸Ńà¸ĩà¹ĥà¸Ĭ":4090,"à¸Ńà¸ĩà¸Ĺ":4091,"Ġ\\":4092,"à¸¡à¸²à¸ª":4093,"à¹ģà¸ĸ":4094,"à¸Ńà¸¢à¸¥à¸ĩ":4095,"Ġà¹Ģà¸ģà¸¢":4096,"bo":4097,"Ġà¸ģà¸Ńà¸ĩà¸ģà¸¥à¸²à¸ĩ":4098,"à¸ŀà¸ļ":4099,"à¸¢à¸Ļà¹Ħà¸Ľ":4100,"Ġà¹Ĵà¹ķà¹ĸ":4101,"à¸¢à¸ģà¸£":4102,"ount":4103,"à¸§à¸Īà¸£":4104,"à¸§à¸¥à¸Ĭà¸Ļ":4105,"à¸ļà¸²à¸ģ":4106,"à¹Ģà¸ģà¸¡":4107,"ĠHotel":4108,"Ġà¸ļà¸£à¸£à¸¥":4109,"Ġà¸ı":4110,"Ġà¸ªà¸²à¸ĺà¸²à¸£à¸ĵà¸°":4111,"à¸§à¸Ħà¸£à¸²à¸§":4112,"Ġà¸Ħà¸Ļà¸¥à¸°":4113,"Ġà¹Ĥà¸ī":4114,"ĠSamsung":4115,"Ġà¸·":4116,"à¸Ńà¸Ļà¹Ģà¸Ķ":4117,"à¹ģà¸¢à¸ģ":4118,"Ġà¸ªà¸§à¸¡à¹ĥà¸ª":4119,"à¸²à¸Ļà¹Ģà¸Ķ":4120,"à¸²à¸ĩà¸«à¸²à¸ģ":4121,"Ġà¹Ģà¸ģà¸ĵà¸ĳ":4122,"air":4123,"à¸Ļà¸ķà¸²":4124,"Ġà¹ģà¸Ĥà¸§à¸ĩ":4125,"Ġà¸ªà¸ĩà¸ļ":4126,"Ġà¸ĭà¸Ńà¸Łà¸ķ":4127,"à¸ļà¸¢":4128,"à¹Ģà¸ģà¸Ī":4129,"à¹Ģà¸ĭà¸Ļ":4130,"à¸Ńà¸£à¸²":4131,"Ġà¸ŀà¸£à¸°à¸Ļà¸Ħà¸£":4132,"à¸¥à¸³à¸Ķ":4133,"Ġà¸ģà¸²à¸£à¸ĸ":4134,"ĠST":4135,"Ġà¸ªà¸£à¸£":4136,"à¸ķà¸¢à¸ģà¸£à¸£à¸¡":4137,"ata":4138,"Ġà¹Ĥà¸ŀà¸ª":4139,"??":4140,"à¸ļà¹Ģà¸Ľà¸¥":4141,"aster":4142,"Ø§":4143,"à¹Ģà¸Ńà¸²":4144,"Ġà¸Ĥà¸²à¸¢à¸Ĥà¸Ńà¸ĩ":4145,"Ġà¸£à¸ĸà¸ķ":4146,"Ġà¸Ľà¸²à¸Ļ":4147,"à¸ªà¸ªà¸²à¸§":4148,"à¸ªà¸ªà¸²à¸§à¸°":4149,"à¸³à¹Ģà¸ªà¸¡à¸Ń":4150,"Ġ120":4151,"Ġà¸Ļà¸²à¸¢à¸ģà¸£":4152,"26":4153,"Ġà¸ªà¹ģà¸ķà¸Ļà¹Ģà¸¥à¸ª":4154,"Ġac":4155,"DA":4156,"Ġà¹Ģà¸ĭà¸Ļ":4157,"its":4158,"Ġà¸ªà¸²à¸£à¹Ģà¸Ħà¸¡":4159,"Ġà¹Ģà¸Ńà¸§":4160,"à¸²à¸ģà¸²à¸ģ":4161,"à¸Ķà¹Ģà¸£":4162,"Ġà¸Ĭà¸¥":4163,"Ġà¸Ľà¸ģ":4164,"Ġà¸ķà¸²à¸ģ":4165,"Ġà¹Ģà¸¥à¸°":4166,"à¸§à¸ĩà¸Īà¸£à¸Ľ":4167,"à¸§à¸Ļà¸¡":4168,"ĠSw":4169,"Ġà¸Ħà¸³à¸Ļ":4170,"à¸Ńà¸ĩà¸§à¸ĩà¸Īà¸£à¸Ľ":4171,"Ġà¸Ľà¸£à¸²à¸ļ":4172,"à¸Ķà¹Ģà¸«à¸ķ":4173,"Ġà¸ľà¸ªà¸¡à¸ľà¸ªà¸²à¸Ļ":4174,"Ġà¹Ĥà¸Ĺà¸©":4175,"à¸²à¸Ńà¸Ńà¸ģ":4176,"Ġà¸Īà¸³à¹Ģà¸¥à¸¢":4177,"à¸Ľà¹Ħ":4178,"13":4179,"à¸Ľà¹Ħà¸ķà¸¢":4180,"à¸³à¸£à¸§à¸Ī":4181,"INE":4182,"Ġà¸¢à¸Ļ":4183,"Ġà¸īà¸°à¸Ļ":4184,"à¸ªà¸ĩà¸Ĩ":4185,"Ġà¸ŀà¸¤à¸«":4186,"Ġà¹Ģà¸ľà¸Ĭ":4187,"ĠKn":4188,"Ġà¸£à¸§à¸¡à¸ģ":4189,"ĠComp":4190,"à¸Ļà¸²à¸ĩ":4191,"Ġà¸¥à¸²à¸ģ":4192,"Ġà¸Ļà¸Ńà¸ģà¹Ģà¸«à¸Ļ":4193,"Ġà¹Ħà¸ļ":4194,"à¸Ĺà¸ĺà¸²":4195,"Ġ2554":4196,"à¹Ģà¸ľ":4197,"à¸ĩà¸ģà¸§":4198,"à¸ĩà¸ļà¸Ľà¸£à¸°à¸¡à¸²à¸ĵ":4199,"à¸ģà¸ŀà¸Ļ":4200,"Ġ47":4201,"à¸ĵà¸ŀ":4202,"Ġà¸£à¸²à¸¢à¸§":4203,"à¸ļà¸ĸ":4204,"à¸£à¸²à¸Īà¸£":4205,"Ġà¸Ħà¸£à¸ļà¸ĸ":4206,"à¸Ļà¸Ķà¸²à¸¥à¹ĥà¸Ī":4207,"à¸²à¸Ĥà¸²à¸¢":4208,"ero":4209,"ĠRead":4210,"Ġà¸ªà¸²à¸Ĥà¸²à¸§":4211,"Ġà¸¡à¸²à¸ķà¸£à¸ģà¸²à¸£":4212,"aya":4213,"Ġà¸£à¸³":4214,"Ġà¸«à¸ĩà¸ª":4215,"Ġno":4216,"igital":4217,"obile":4218,"Ġà¸ľà¸¥à¸ľà¸¥":4219,"à¸¢à¸ĺà¸£à¸£à¸¡":4220,"à¸Ĺà¸ĺà¹Ģà¸Ī":4221,"à¸²à¹Ħà¸£":4222,"let":4223,"reen":4224,"à¸Ļà¹ĥà¸Ļ":4225,"Ġà¸ģà¸²à¸£à¹Ģà¸¢":4226,"à¸²à¸ŀà¸£à¸°":4227,"à¸Ľà¸£à¸²à¸ģà¸²à¸£":4228,"Ġà¸Łà¸²à¸£":4229,"ound":4230,"à¸ªà¸ĩà¸Ħ":4231,"à¸Ļà¸²à¸ģà¸²à¸£":4232,"à¸«à¸£à¸²":4233,"ĠNov":4234,"à¸¡à¸Ĺà¸£":4235,"Ġà¸ģà¸²à¸£à¸Ńà¸ļà¸£à¸¡":4236,"Ġà¹Ĥà¸ģà¸ĩ":4237,"Ġà¸Ĺà¸³à¸Ħà¸§à¸²à¸¡":4238,"Ġà¸Ļà¸Ļà¸Ĺà¸ļ":4239,"Ġà¸«à¸ģ":4240,"à¸Ħà¸¡":4241,"ĠGal":4242,"Ġà¹Ħà¸Ľà¸¡à¸²":4243,"Ġà¸Ĺà¸Ļà¸Ĺà¸²à¸Ļ":4244,"45":4245,"à¸Ńà¹Ģà¸Ĺ":4246,"Ġà¸Ħà¸§à¸²à¸¡à¸Ī":4247,"à¸ģà¸Ł":4248,"Ġint":4249,"UN":4250,"à¸²à¸Ĺà¸²à¸¢":4251,"Ġà¸¢à¸ģà¹Ģà¸§":4252,"Ġà¸Ħà¸§à¸²à¸¡à¸«à¸¥":4253,"Ġà¸ªà¸¡à¸Ķ":4254,"Ġà¸Ľà¸£à¸°à¸ģà¸§à¸Ķà¸£à¸²à¸Ħà¸²":4255,"Ġ82":4256,"Ġà¸Ĭà¸¡à¸ŀ":4257,"à¸²à¸£à¸ŀ":4258,"à¸ŀà¸ĺ":4259,"Ġà¹Ĥà¸ĭà¸¥":4260,"à¸²à¸«à¸§à¸²à¸Ļ":4261,"à¹Ģà¸«à¸¡à¸²à¸°":4262,"Ġà¸¥à¸³à¸Ķ":4263,"ĠÄ":4264,"à¸Ľà¸ĸ":4265,"à¸ģà¸²à¸£à¸ļà¸£":4266,"Ġà¹ģà¸£à¸ĩà¸ļ":4267,"à¸ļà¸Ńà¸²à¸ģà¸²à¸¨":4268,"à¸§à¸Ļà¸ļ":4269,"à¸Ļà¹ģà¸Ķà¸Ļ":4270,"»¿":4271,"Ġà¸ŀà¸£à¸°à¸£à¸²à¸Ĭà¸ļ":4272,"erv":4273,"à¹Ĥà¸Ĥ":4274,"à¸Ļà¹ģà¸Ķà¸Ķ":4275,"à¸Ļà¸Ńà¸Ńà¸ģà¹Ģà¸ī":4276,"ateg":4277,"à¸²à¸©à¸İà¸£":4278,"Ġà¹Ĥà¸ļà¸Ļ":4279,"à¸§à¸£à¸Ńà¸¢":4280,"à¸Ķà¸«à¸¢":4281,"à¸²à¹Ĩ":4282,"à¸©à¸ĵ":4283,"ĠSE":4284,"Ġà¸«à¸¥à¸²à¸¢à¸Ńà¸¢":4285,"iam":4286,"à¸ģà¸¥à¸ĩà¸Ĺ":4287,"Ġà¸ļà¸£à¸£à¹Ģà¸Ĺà¸²":4288,"à¸Ľà¸ĭ":4289,"ware":4290,"Ġà¸¢à¸ĩ":4291,"cl":4292,"Ġup":4293,"à¸Ńà¸ĩà¸«à¸¡à¸²à¸¢":4294,"ives":4295,"à¸¢à¸įà¸Ĺà¸Ńà¸ĩ":4296,"Ġà¸¡à¸²à¸ģà¹Ģà¸ģ":4297,"à¸²à¸Ļà¹ĥà¸Ļ":4298,"Ġ.....":4299,"Ġà¸Ħà¸£à¸Ńà¸ļà¸Ħà¸£à¸Ńà¸ĩ":4300,"Ġà¸ĸà¸Ļ":4301,"Ġ2010":4302,"XX":4303,"Ġà¸ŀà¸£à¸¡":4304,"à¸ļà¹ĥà¸Ĭ":4305,"ication":4306,"itt":4307,"à¸Ļà¹ģà¸«à¸¥à¸°":4308,"Ġà¹Ħà¸ľ":4309,"à¸¹à¹Ĭ":4310,"Ġà¸¡à¸°à¸Ļà¸²à¸§":4311,"¤à¸ķ":4312,"Ġà¸Ħà¸§à¸²à¸¡à¸Ľà¸£à¸°":4313,"Ġà¸ļà¸£à¸£à¸¢à¸²à¸¢":4314,"Ġ2011":4315,"ĠBang":4316,"ĠArch":4317,"à¸Ńà¸ĩà¹Ħà¸«":4318,"à¸Ľà¸£à¸°à¸Īà¸³à¸§":4319,"Ġà¹Ģà¸Īà¸Ķ":4320,"Ġà¸¡à¸£":4321,"view":4322,"à¸§à¸Ĥà¸²à¸§":4323,"ille":4324,"ĠSmart":4325,"Ġà¹ģà¸ľà¸ĩ":4326,"Ġà¸ģà¸ļ":4327,"à¸ªà¸³à¸£à¸§à¸Ī":4328,"Ġà¸¢à¸ģà¸£à¸°à¸Ķ":4329,"Ġà¸ªà¸²à¸ģà¸¥":4330,"Ġà¸§à¸²à¸Ļ":4331,"Ġà¸ģà¸²à¸£à¹ģà¸ŀà¸Ĺà¸¢":4332,"Ġcm":4333,"ĠIN":4334,"à¸Ļà¹Ģà¸Ļà¸Ńà¸£":4335,"à¹Ħà¸ĭà¸Ħ":4336,"Ġà¸ªà¸ģà¸£":4337,"ĠWorld":4338,"Ġ***":4339,"à¸¡à¸²à¸ķà¸£":4340,"39":4341,"Ġà¸Ħà¸Ńà¸Ļà¹Ģà¸ª":4342,"à¸Ńà¸²à¸ĵà¸²à¸Ī":4343,"Ġà¸ľà¸¥à¸¥":4344,"Ġà¸Ĺà¸²à¸ĩà¸ģà¸²à¸£à¹Ģà¸ĩ":4345,"à¸³à¸¢à¸²":4346,"Ġà¸ĭà¸Ń":4347,"oh":4348,"à¸Ļà¹Ĥà¸£à¸Ħ":4349,"à¸Ĺà¸Ĭ":4350,"à¸Ļà¸¢à¸³":4351,"à¸ķà¸³à¹ģà¸«à¸Ļ":4352,"Ġal":4353,"ĠIS":4354,"axy":4355,"ĠPM":4356,"Ġà¸ģà¸¥à¸²à¸ĩà¸Ħ":4357,"à¸¤à¸Ĺà¸ĺ":4358,"à¸£à¸£à¸Ĺ":4359,"ement":4360,"Ġà¹Ģà¸Īà¸£à¸Īà¸²":4361,"IG":4362,"Ġà¹Ģà¸«à¸¡à¸²":4363,"à¸¢à¸Ĺ":4364,"Ġà¸£à¸²à¸ģ":4365,"37":4366,"Ġan":4367,"Ġà¹Ģà¸ŀà¸¨à¸Ĭà¸²à¸¢":4368,"à¸§à¹Ģà¸Ĺ":4369,"Ġà¸Ĺà¸²à¸¢":4370,"Ġà¹Ĥà¸§":4371,"Ġà¸ģà¸Ńà¸¥":4372,"Ġà¸Ķà¸²à¸£":4373,"à¸¡à¸ĩà¸Ħà¸¥":4374,"à¹Ģà¸ģà¸©":4375,"Ġà¸¨à¸ŀ":4376,"à¹Ĥà¸Ľà¸£à¸ĩ":4377,"29":4378,"Ġà¸Ħà¸Ļà¸Ĥ":4379,"à¸²à¹Ħà¸¡":4380,"aut":4381,"Ġà¸¥à¸³à¸Ľ":4382,"lect":4383,"à¸§à¸Ļà¸Ľà¸£à¸°à¸ģà¸Ńà¸ļ":4384,"Ġyou":4385,"à¸ģà¸Ńà¸ģ":4386,"à¸Ħà¸Ķ":4387,"Ġà¹ģà¸¥à¸Ļà¸Ķ":4388,"à¹Ĥà¸ķà¸£":4389,"à¸Ļà¸Ĺà¸Ļà¸²":4390,"ding":4391,"ep":4392,"à¸£à¸²à¸ĭ":4393,"Ġà¸ĸà¸¥":4394,"à¸ªà¸²à¸ļ":4395,"Ġà¸Ĺà¸²à¸ĩà¹ĥà¸Ļ":4396,"Ġà¸¡à¸Ńà¸ļà¹ĥà¸«":4397,"à¸Ķà¹Ģà¸ģ":4398,"Ġhe":4399,"Ġà¸ģà¸ķ":4400,"rav":4401,"Ġà¸§à¸ĩà¸Īà¸£":4402,"ĠÑ":4403,"Ġà¸«à¸¥à¸²à¸¢à¸Ħà¸£":4404,"Ġà¹ģà¸Ĥà¸§à¸Ļ":4405,"Ġà¸Ľà¸¥à¸Ńà¸¡":4406,"Ġá":4407,"Ġà¹Ģà¸¥à¸Ĥà¹Ģà¸Ķ":4408,"à¸²à¸ĩà¸Ń":4409,"Ġà¸ģà¸²à¸£à¹Ģà¸Ħà¸¥":4410,"ĠRo":4411,"à¸Ńà¸ĩà¸Ĭ":4412,"à¸Ľà¸ªà¸£à¸£à¸Ħ":4413,"Ġà¸Ļà¸³à¹Ħà¸Ľà¸ª":4414,"ĠPR":4415,"à¸²à¹Ģà¸Ķ":4416,"ĠPlus":4417,"Ġà¸Ĺà¸ĺ":4418,"Ð»":4419,"Ġà¹Ģà¸ĩà¸²":4420,"Ġà¸¥à¸³à¸Ľà¸²à¸ĩ":4421,"à¸Ļà¸Ī":4422,"Ġà¸¡à¸²à¸Ļ":4423,"à¸ķà¸³à¸£à¸§à¸Ī":4424,"eek":4425,"ĠPlay":4426,"ĠAng":4427,"ier":4428,"Ġex":4429,"Ġfacebook":4430,"¸ı":4431,"Ġu":4432,"Ġà¸ªà¸łà¸²à¸ŀà¹ģà¸§à¸Ķà¸¥":4433,"IP":4434,"à¸ªà¸³à¸Ļ":4435,"ron":4436,"****":4437,"à¸Ķà¸ĩà¸Ħà¸§à¸²à¸¡à¸Ħ":4438,"à¸Ńà¸ĩà¸Ľà¸£à¸°à¸Ķ":4439,"Ġà¸Ļà¸£":4440,"Ġ69":4441,"ĠMA":4442,"ĠSl":4443,"à¸ģà¸ĺ":4444,"à¸ģà¸£à¸°à¸Ī":4445,"à¹Ģà¸¥à¹Ģà¸ĭ":4446,"Ġ41":4447,"Ġà¸Ķà¸§à¸ĩà¸ķà¸²":4448,"Ġà¸¡à¸Ńà¸ª":4449,"Ġà¸Ħà¸¥à¸²à¸ªà¸ª":4450,"Ġà¸£à¸²à¸ĩ":4451,"à¸²à¸Ħà¸£":4452,"à¸Ļà¸Ĭà¸¡":4453,"Ġà¹Ħà¸«":4454,"Ġà¸¡à¸²à¹Ģà¸¥à¹Ģà¸ĭ":4455,"à¸§à¸ķà¸Ļ":4456,"ĠPal":4457,"ĠDis":4458,"Ġà¸Ĺà¸Ń":4459,"Ġus":4460,"ony":4461,"Ġà¹ģà¸ľà¸Ļà¸ģà¸²à¸£":4462,"Ġà¸Ħà¸§à¸²à¸¡à¸Ŀ":4463,"à¸£à¸°à¸¥":4464,"Ġà¸ģà¸£à¸°à¹Ĥà¸Ķ":4465,"Ġ++":4466,"Ġà¸§à¸¢":4467,"Ġà¸Ĺà¸³à¸Ńà¸²à¸«à¸²à¸£":4468,"Ġà¸ŀà¸£à¸«à¸¡":4469,"ener":4470,"Ġà¸ģà¸£à¸°à¸Ĺà¸ļ":4471,"Ġà¸łà¸²à¸Ħà¹Ģà¸«à¸Ļ":4472,"Ġà¸£à¸²à¸©à¸İà¸£":4473,"Ġà¹ģà¸«à¸¥à¸¡":4474,"à¸Ńà¸ģà¸ª":4475,"à¸ĺà¸£":4476,"à¹Ħà¸¥à¸Ĺ":4477,"à¸Ńà¸ĩà¹Ģà¸ª":4478,"ĠFanpage":4479,"à¹Ģà¸ªà¸Ļ":4480,"à¸Ľà¸£à¸°à¸ģà¸²à¸¨":4481,"à¹ģà¸ĭà¸¡":4482,"Ġà¸ģà¸£à¸°à¹Ĥà¸Ľà¸£à¸ĩ":4483,"Ġà¸ªà¸ĸà¸²à¸Ļà¸¨":4484,"âĢĶ":4485,"Ġà¹Ĥà¸£à¸¡":4486,"à¸ļà¸Ł":4487,"à¸Ńà¸¡à¹ģà¸ĭà¸¡":4488,"Ġà¸Ľà¸¥à¸Ķ":4489,"ife":4490,"à¸Ĺà¸¢à¸²à¸Ļà¹ģà¸«":4491,"à¸Ńà¸ģà¸³":4492,"earch":4493,"Ġ199":4494,"Ġà¸ĩà¸ģ":4495,"arm":4496,"à¸Īà¸ĩ":4497,"Ġà¸§à¸°":4498,"FA":4499,"Ġà¸£à¸²à¸Ĭà¸ł":4500,"Ġà¸Ĺà¸°à¹Ģà¸¥à¸ªà¸²à¸ļ":4501,"à¸ªà¸§à¸£à¸£à¸Ħ":4502,"Ġà¸Īà¸Ļà¸ģà¸§":4503,"Ġà¸Ľà¸¥à¸Ńà¸Ķ":4504,"Ġem":4505,"Ġà¸Ħà¸§à¸²à¸¡à¸ģ":4506,"ï¸ı":4507,"Ġres":4508,"à¸ģà¹Ģà¸ī":4509,"ĠÃ©":4510,"à¸Ļà¸Ħà¸§à¸²à¸¡":4511,"à¸³à¸«à¸Ńà¸¡":4512,"Ġà¸£à¸²à¸Ĭà¸ļ":4513,"Ġà¸Ĥà¸Ńà¸£":4514,"ING":4515,"ĠUp":4516,"38":4517,"Ġâľ":4518,"à¸ĩà¸ĸ":4519,"à¹Ĥà¸Ħà¸Ļ":4520,"à¸¢à¹Ģà¸§à¸¥à¸²":4521,"Ġà¸ĸà¸²à¸§à¸£":4522,"à¹Ģà¸Ńà¸ª":4523,"à¹Ĥà¸ª":4524,"à¸ļà¸²à¸ĩ":4525,"Ġà¹Ģà¸§à¸Ĭ":4526,"à¸Ĺà¸£à¸Ľà¸£à¸²à¸ģà¸²à¸£":4527,"à¸¢à¸Ķà¸²à¸¢":4528,"à¸¢à¸Ĭà¸Ļà¸°":4529,"à¹Ģà¸ĸ":4530,"ĠCenter":4531,"à¸¢à¸§à¸°à¹Ģà¸ŀà¸¨":4532,"44":4533,"à¸Ļà¹Ģà¸«à¸ķ":4534,"Ġà¹Ĥà¸ª":4535,"à¹Ĥà¸Łà¸Ļ":4536,"ru":4537,"à¸Ńà¸ĩà¸Ħà¸£":4538,"à¸Ĺà¸£à¸²à¸¢":4539,"kok":4540,"ĠTagged":4541,"Ġà¸Ļà¸²à¸Ļà¸²":4542,"Ġà¸ªà¹ģà¸ģà¸Ļ":4543,"à¹Ĥà¸Ħ":4544,"Ġà¹Ģà¸Ńà¸Ĭ":4545,"Ġ66":4546,"ĠTw":4547,"ĠEl":4548,"à¸²à¸ĺà¸£à¸£à¸¡":4549,"à¸ĩà¸ŀà¸Ńà¹ĥà¸Ī":4550,"Ġà¸¥à¸²à¸Ķà¸ŀà¸£":4551,"Ġà¹Ģà¸¡à¸²":4552,"Ġ\":":4553,"à¸ģà¸«à¸į":4554,"Ġ2553":4555,"Ġà¸ģà¸Ĺà¸¡":4556,"Ġà¸ľà¸¥à¸Ľà¸£à¸°à¹Ĥà¸¢à¸Ĭà¸Ļ":4557,"Ġà¸ķà¸£à¸ĩà¸Ĥ":4558,"à¸ķà¸¢à¸ªà¸²à¸£":4559,"à¸Ľà¸Ĺà¸£à¸ĩ":4560,"ern":4561,"à¸ªà¸ļà¸Ķ":4562,"ĠMP":4563,"iy":4564,"à¸Ńà¸ĺ":4565,"Ġà¸ģà¸²à¸£à¸Ńà¸Ļ":4566,"à¹Ħà¸ģà¸¥":4567,"à¸£à¸°à¸Ķ":4568,"à¸ģà¸¥à¸¡":4569,"à¸Ńà¸ģà¸¥":4570,"ĠPart":4571,"Ġ600":4572,"ĠBitcoin":4573,"ric":4574,"Ġà¸Ļà¸³à¸¡à¸²à¹ĥà¸Ĭ":4575,"Ġà¹ģà¸Ľà¸£à¸ĩ":4576,"Ġ{":4577,"Ġà¸ģà¸¥à¸²à¸ĩà¹Ģà¸¡":4578,"ĠTV":4579,"ject":4580,"à¸ķà¸ķà¸²":4581,"Ġà¸ģà¸£à¸²à¸ļ":4582,"ana":4583,"ĠTO":4584,"Ġà¹Ģà¸ķà¸²":4585,"à¸Ĺà¸ĺà¸¨à¸²à¸ªà¸ķà¸£":4586,"ĠNo":4587,"Ġà¹ģà¸Ĥà¸ģ":4588,"à¸¤à¸©à¸İ":4589,"Ġà¸ªà¸łà¸²à¸§à¸°":4590,"ery":4591,"à¸¡à¸²à¸¥":4592,"Ġ1000":4593,"Ġà¹ģà¸ģà¸¥":4594,"Ġ2562":4595,"à¸ŀà¸²":4596,"Ġà¸¡à¸Ńà¸ªà¹Ĥà¸ģ":4597,"Ġà¸ģà¸£à¸°à¹Ĥà¸Ķà¸Ķ":4598,"Ġas":4599,"à¸Ķà¹Ħà¸Ľ":4600,"à¸ķà¸Ľà¸£à¸°à¸Īà¸³à¸§":4601,"Ġà¸Ĺà¸³à¸£":4602,"ĠGalaxy":4603,"Ġà¸Ľà¸£à¸²à¸¨":4604,"Ġà¸Ħà¸§à¸²à¸¡à¸ŀ":4605,"ts":4606,"à¹ĥà¸¢":4607,"à¸Ļà¹Ħà¸Ľà¸ķà¸²à¸¡":4608,"Ġà¸£à¸²à¸¨":4609,"à¸¢à¸ł":4610,"Ġ97":4611,"LE":4612,"edia":4613,"Ġà¸´":4614,"Ġà¸Ĳ":4615,"less":4616,"à¸Īà¸ļ":4617,"à¸£à¸²à¸Ĭà¸ĺà¸²à¸Ļ":4618,"à¸ļà¸¥à¸£à¸²à¸Ĭà¸ĺà¸²à¸Ļ":4619,"Ġà¸ļà¸ģà¸ŀà¸£":4620,"à¸ķà¸§à¸£à¸£à¸©":4621,"ystem":4622,"à¸ĩà¸ªà¸§":4623,"à¸Ĺà¸Ļ":4624,"à¸ģà¸Ľà¸£à¸°à¸ªà¸ĩà¸Ħ":4625,"bn":4626,"Ġà¸Ħà¸£à¸²à¸§à¸Ļ":4627,"à¸¡à¹Ģà¸Ľà¸į":4628,"à¸Īà¸īà¸£":4629,"Ġà¹Ĥà¸Ħà¸ķà¸£":4630,"era":4631,"Ġà¸Ħà¸Ńà¸Ļà¸ģà¸£":4632,"à¸ķà¸²à¸¢":4633,"à¸¥à¹Ģà¸¥":4634,"Ġà¹Ģà¸«à¸£à¸Ń":4635,"Ġà¹ģà¸ļà¸Ħà¸Ĺ":4636,"Ġà¹Ģà¸Ĭà¸Ł":4637,"me":4638,"à¸Īà¸į":4639,"Ġà¸ļà¸£à¸²":4640,"à¸Ńà¸ĩà¸«à¸¥":4641,"Ġ51":4642,"Ġà¸ģà¸²à¸£à¸Ľà¸ģà¸Ħà¸£à¸Ńà¸ĩ":4643,"Ġà¸¥à¸³à¸ļà¸²à¸ģ":4644,"ton":4645,"à¸Ħà¸³à¸Ľà¸£":4646,"Ġà¹ģà¸Ńà¸Ķ":4647,"à¸ĵà¸ĺà¸£à¸£à¸¡":4648,"Ġà¹Ģà¸Ķà¸Ĭ":4649,"à¸Ńà¹Ģà¸ģ":4650,"Ġà¹ģà¸Ħà¸£":4651,"Â¸":4652,"co":4653,"aph":4654,"Ġà¸Ńà¸ŀà¸²à¸£":4655,"Ġà¸«à¸¡à¸§à¸Ķà¸«à¸¡":4656,"à¸Ńà¸ĩà¸Ľà¸£":4657,"AP":4658,"Ġà¸ķà¸£à¸°à¸«à¸Ļ":4659,"89":4660,"Ġà¸Ħà¸£à¸ļà¸Ħà¸£":4661,"Ġà¹Ĥà¸ķà¹Ģà¸ģ":4662,"Ġà¸£à¸ĸà¸ļà¸£à¸£à¸Ĺ":4663,"Ġà¸ģà¸£à¸°à¹Ģà¸ŀà¸²à¸°":4664,"do":4665,"Ġà¸Ĺà¸§à¸²à¸£":4666,"à¸«à¸²à¸£à¸ª":4667,"27":4668,"Ġà¸¡à¸Ķ":4669,"eth":4670,"Ġà¸Ĺà¸³à¸ģ":4671,"Ġ85":4672,"ĠMy":4673,"Ġà¸Ľà¸Ńà¸Ķ":4674,"Ġà¸Ńà¸²à¸ªà¸²":4675,"ĠAg":4676,"à¸«à¸¥à¸²à¸Ķ":4677,"à¸³à¹ģà¸Ĥ":4678,"à¸²à¸£à¸ĸà¸Ļà¸²":4679,"Ġà¸«à¸ĩ":4680,"Ġà¸¡à¸Ńà¸Ļ":4681,"reat":4682,"Ġà¸«à¸¥à¸Ńà¸ģ":4683,"Ġà¹Ģà¸ļà¸Ļ":4684,"Ġà¸Ħà¸§à¸²à¸¡à¸ªà¸³à¸Ħ":4685,"Ġà¹Ħà¸¡à¸¥":4686,"à¸²à¹Ģà¸ª":4687,"ĠManag":4688,"ĠDigital":4689,"Ġà¸Ķà¸³à¸Ļ":4690,"âĢ¦âĢ¦":4691,"à¸ģà¸³à¹Ħà¸£":4692,"à¸¢à¸¡à¸ķ":4693,"ĠFree":4694,"ĠEP":4695,"tr":4696,"Ġà¹Ĥà¸į":4697,"Ġà¸ļà¸£à¸²à¸ĭ":4698,"Ġsc":4699,"à¸¡à¸ĩ":4700,"Ġà¸Ħà¸§à¸²à¸¡à¸ļ":4701,"à¹Ģà¸¡à¸Ļà¸ķ":4702,"à¸Ļà¸§à¸ĵ":4703,"à¸Ħà¸Ĭ":4704,"Ġà¸ŀà¸Ńà¸£":4705,"à¸Ļà¹ģà¸ļà¸ļ":4706,"Ġà¹Ħà¸Ķà¸£":4707,"à¸¡à¸Ļà¸²à¸Ħà¸¡":4708,"à¸£à¸Ķà¸ģ":4709,"Ġà¸Ľà¸£à¸°à¸ªà¸²à¸Ĺ":4710,"à¸Ńà¸¡à¸ŀ":4711,"à¸²à¸ĺà¸£à¸£à¸¡à¹Ģà¸Ļ":4712,"ideo":4713,"à¸ĩà¸ĩ":4714,"Ġà¸¡à¸²à¸¥":4715,"Ġà¸Ľà¸£à¸°à¸Īà¸³à¹Ģà¸Ķ":4716,"Ġ.,":4717,"à¸¢à¹ĥà¸Ī":4718,"ious":4719,"à¸Ķà¹ģà¸¢":4720,"Ġà¸Ĺà¸³à¸ķà¸²à¸¡":4721,"Ġà¸«à¸¡à¸Ńà¸Ļ":4722,"Ġà¸Ĭà¸²à¸¢à¹ģà¸Ķà¸Ļ":4723,"Ġà¹Ħà¸®à¹Ĥà¸¥":4724,"Ġà¹Ħà¸Ńà¸Ĺ":4725,"à¸ģà¸«à¸¥":4726,"à¸ģà¸¤à¸ķ":4727,"Ġà¸Ħà¸§à¸²à¸¡à¸ªà¸°à¸Ķà¸§à¸ģ":4728,"à¸ªà¸¡à¹Ģà¸Ķ":4729,"à¸¥à¸²à¹Ģà¸Īà¸Ļ":4730,"Ġà¸Łà¸Ń":4731,"à¸Ķà¸²à¸Ļ":4732,"duct":4733,"Ġà¹ĥà¸ļà¸Ńà¸Ļ":4734,"Ġà¸¨à¸²à¸¥à¸²":4735,"à¸Ķà¸Īà¸³à¸«à¸Ļ":4736,"oliday":4737,"alth":4738,"Ġà¸ŀà¸¥à¸Ńà¸¢":4739,"Ġà¸Ħà¸Ńà¸¥à¸¥à¸²à¹Ģà¸Īà¸Ļ":4740,"ĠMod":4741,"ĠNet":4742,"eed":4743,"Ðº":4744,"Ġbr":4745,"à¸Ļà¸°":4746,"Ġà¹ģà¸Ŀ":4747,"à¸²à¸Ļà¹Ģà¸¡":4748,"Ġ}":4749,"à¸Ķà¸Ĥà¸²à¸Ķ":4750,"à¹Ĥà¸¥à¸ģà¸£":4751,"ĠGu":4752,"à¸ŀà¸²à¸¢":4753,"à¸§à¸¡à¹ĥà¸Ļ":4754,"à¸Ķà¹ģà¸ªà¸Ķà¸ĩ":4755,"à¸¢à¸ļà¸ĩ":4756,"ĠiPad":4757,"Ġà¸Ħà¸³à¸Ļà¸§à¸ĵ":4758,"Ġà¸łà¸²à¸£à¸°":4759,"Ġà¸Ħà¸§à¸²à¸¡à¸«à¸¥à¸²à¸ģà¸«à¸¥à¸²à¸¢":4760,"Ġà¸Ħà¸£à¸²à¸ļ":4761,"Ġà¸ĩà¸Ń":4762,"IM":4763,"à¸²à¹Ģà¸Ĺ":4764,"200":4765,"Ġà¹Ĥà¸ł":4766,"à¸įà¸Ĭà¸²":4767,"Ġà¸Ĭà¸¡à¸£à¸¡":4768,"à¸Ĺà¸ļ":4769,"âĢľ":4770,"Ġà¹Ģà¸ļà¸ª":4771,"Ġà¸ªà¸²à¸¢à¸ŀ":4772,"à¸³à¸ľ":4773,"alk":4774,"Ġà¹Ģà¸Łà¸ĭ":4775,"yle":4776,"à¹ģà¸ľà¸¥":4777,"65":4778,"ĠBET":4779,"Ġà¸ªà¸Ļà¸Ńà¸ĩ":4780,"land":4781,"ning":4782,"à¸§à¸ĸ":4783,"Ġ^":4784,"à¸ģà¸£à¸ĺ":4785,"Ġà¸ľà¸²":4786,"Ġà¸Ķà¸Ńà¸ģà¹Ģà¸ļ":4787,"ĠShop":4788,"Ġà¸ģà¸£à¸£à¸¡à¸ģà¸²à¸£à¸ľ":4789,"sp":4790,"à¸Ľà¸Ĳà¸¡":4791,"Ġà¸ªà¸¡à¸²à¸ĺ":4792,"Ġà¸£à¸¡":4793,"à¹ģà¸ĩ":4794,"ĠInt":4795,"Ġà¸ģà¸²à¸£à¹Ģà¸Īà¸£":4796,"Ġà¸ªà¸¡à¸Ħà¸§à¸£":4797,"à¸²à¸Ļà¸ģà¸²à¹ģà¸Ł":4798,"Ġà¸¥à¸ĩà¸¡":4799,"chn":4800,"ors":4801,"Ġà¸ªà¸²à¸ĺà¸²à¸£à¸ĵà¸ª":4802,"à¸Ļà¸§à¸²à¸¢":4803,"à¹Ĥà¸¢à¸Ħ":4804,"Ġà¸Ļà¸Ħà¸£à¸Ľà¸Ĳà¸¡":4805,"Ġà¹Ħà¸®à¹Ħà¸¥à¸Ĺ":4806,"uz":4807,"Ġà¹ģà¸Ĺà¸ļà¸Īà¸°":4808,"Ġà¸ĩà¸²à¸Ļà¹ģà¸ķ":4809,"à¸Ļà¸£à¸°à¸ļà¸ļ":4810,"Ġà¸Ľà¸£à¸²à¸¨à¸Īà¸²à¸ģ":4811,"Ġà¸Ħà¸ª":4812,"ĠQu":4813,"à¸ĩà¸¢à¸²à¸ģ":4814,"ĠIm":4815,"à¸Ńà¹Ģà¸Ĭ":4816,"IR":4817,"ason":4818,"ĠâĨ":4819,"ose":4820,"Ġà¹Ĥà¸Ľà¸£à¹Ģà¸Ī":4821,"ĠâĢ¦.":4822,"fer":4823,"Ġà¸ĩà¸ĩ":4824,"Ġà¸¡à¸°à¸ŀà¸£":4825,"Ġwh":4826,"à¸ģà¸Ľà¸£à¸ģ":4827,"Ġà¸ķà¸³à¸«à¸Ļ":4828,"Ġà¹ģà¸Ļà¸°":4829,"à¸²à¸ģà¸Ĥ":4830,"à¸ģà¸©à¸²à¹Ĥà¸£à¸Ħ":4831,"Ġà¹Ģà¸ģà¸©":4832,"Ġà¸ģà¸¥à¸²à¸ĩà¹ģà¸Ī":4833,"com":4834,"work":4835,"Ġà¸ĺà¸²à¸Ļ":4836,"Ġà¸Ļà¸²à¸Ħ":4837,"Ġà¸Ħà¸§à¸²à¸¡à¸ªà¸Ļ":4838,"à¸²à¸ĩà¸ļ":4839,"Ġà¸ļà¸£à¸£à¸Ĺ":4840,"Ġà¸ģà¸¥à¹Ħà¸ģ":4841,"à¸ļà¸²à¸Ĺà¸ªà¸¡à¹Ģà¸Ķ":4842,"Ġà¸Ħà¸¡":4843,"Ġà¸ŀà¸Ńà¸Ĺ":4844,"à¸Ńà¹Ĥà¸£à¸Ħ":4845,"Ġme":4846,"Ġà¸£à¸Ļ":4847,"Ġ800":4848,"à¸Ľà¸¥à¸²à¸¢":4849,"à¸Ńà¸¢à¸Ķ":4850,"Ġà¸Ĺà¸Ķà¹ģà¸Ĺà¸Ļ":4851,"Ġà¹ģà¸Ħà¸¡à¹Ģà¸Ľà¸į":4852,"à¸§à¹Ģà¸£à¸²":4853,"Ġà¹Ĩà¸Ħà¸Ļ":4854,"Ġà¹Ģà¸Ļà¸¢":4855,"à¸§à¸«":4856,"Ġà¸Ľà¸Ń":4857,"Ġà¹Ĥà¸¡à¸ĩ":4858,"Ġam":4859,"Ġà¹ģà¸ľà¸Ļà¸ģ":4860,"Ġà¸Ńà¸²à¸Ļ":4861,"à¸²à¸Īà¸²à¸£à¸¢":4862,"Ġà¸Ńà¹Ģà¸Ļ":4863,"à¸£à¸©à¸ĵ":4864,"Ġà¸£à¸ĸà¸Ī":4865,"23":4866,"Ġà¸ķà¸²à¸¡à¸ģà¸İà¸«à¸¡à¸²à¸¢":4867,"Ġà¸ŀà¸£à¸°à¸ļà¸²à¸Ĺà¸ªà¸¡à¹Ģà¸Ķ":4868,"Ġà¸ĭà¸²à¸ģ":4869,"Ġà¸Ħà¸¡à¸Ĭ":4870,"à¸Ķà¸£à¸°à¸§":4871,"ama":4872,"Ġà¹ģà¸£à¸ĩà¸Ķ":4873,"Ġà¹Ĥà¸ĭà¹Ģà¸Ĭ":4874,"ĠCas":4875,"Ġà¸º":4876,"à¸®à¸Ńà¸¥":4877,"Ġà¹ĩ":4878,"Ġà¹Ģà¸ĸà¸Ńà¸°":4879,"rop":4880,"à¹Ĥà¸Ĺà¸£à¸¨":4881,"Ġà¸Īà¸ķ":4882,"Ġà¸ģà¸²à¸£à¸§à¸²à¸ĩ":4883,"à¸Ľà¸£à¸°à¸Ĺà¸²à¸Ļ":4884,"à¸²à¸Īà¸°à¹Ģà¸Ľ":4885,"à¸ĺà¸£à¸£à¸¡à¸£à¸²à¸Ĭ":4886,"ĠHy":4887,"à¸ķà¸Ńà¸ļà¹ģà¸Ĺà¸Ļ":4888,"à¸Ńà¸Ī":4889,"à¸ªà¸Ńà¸¢":4890,"Ġplay":4891,"Ġà¸Ļà¸Ħà¸£à¸¨à¸£":4892,"à¸Ńà¸²à¸Ĭ":4893,"ĠArchives":4894,"à¸Ļà¸¢à¸Ļà¸ķ":4895,"à¸ģà¸£à¸°à¸Ļ":4896,"Ġà¹Ģà¸ľà¸²":4897,"oon":4898,"Ġà¹ģà¸Ļà¸ļ":4899,"Ġà¹ģà¸ªà¸§à¸ĩ":4900,"Ġà¸¡à¸Ķà¸¥":4901,"CT":4902,"Ġà¸ľà¸¥à¸ķà¸Ńà¸ļà¹ģà¸Ĺà¸Ļ":4903,"à¸¢à¸§à¸ļ":4904,"à¹Ģà¸Ķà¸Ĭ":4905,"à¸Ļà¸Ħà¸¥":4906,"à¸Ħà¸§à¸²à¸¡à¸ªà¸Ļà¹ĥà¸Ī":4907,"Ġà¸ªà¸³à¹Ģà¸Ļ":4908,"Ġà¸¢à¸Ń":4909,"Ġà¸«à¸¡à¸Ńà¸ģ":4910,"Ġà¸®à¸²à¸£":4911,"hlebology":4912,"ĠDownload":4913,"Ġà¸«à¸²à¸ĩ":4914,"Ġà¸Ħà¸Ļà¹Ģà¸£à¸²":4915,"à¸¡à¸ĺà¸²à¸Ļ":4916,"Ġà¹Ĥà¸¥à¹Ĥà¸ģ":4917,"à¸ªà¸²à¸ĺà¸²à¸£à¸ĵà¸°":4918,"Ġà¹Ĥà¸Ĺà¸£à¸Ĺ":4919,"à¸ģà¸£à¸°à¸ļà¸°":4920,"ĠMarket":4921,"à¸§à¸Ļà¸£":4922,"à¸ģà¸³à¸«à¸Ļà¸Ķ":4923,"Ġà¸ļà¸³":4924,"Ġà¸ŀà¸£à¸°à¸£à¸²à¸Ĭà¸§":4925,"Ġà¹ģà¸Ĭà¸¡à¸ŀ":4926,"Ġà¸Īà¸³à¹Ģà¸ŀà¸²à¸°":4927,"ĠSC":4928,"à¸§à¹Ģà¸£à¸²à¸°":4929,"Ġà¹Ĥà¸Ħà¸¡à¹Ħà¸Ł":4930,"ĠGold":4931,"Ġà¹Ħà¸Ĺà¸¢à¹ģà¸¥à¸Ļà¸Ķ":4932,"à¸ļà¹Ħà¸Ķ":4933,"ĠPhlebology":4934,"à¸Ľà¸Ńà¸ĩ":4935,"à¸Ļà¸ĺà¸£à¸£à¸¡à¸Ĭà¸²à¸ķ":4936,"urn":4937,"à¸Ķà¸ļ":4938,"Ġà¸Ĺà¸²à¸ĩà¸ģà¸²à¸£à¹ģà¸ŀà¸Ĺà¸¢":4939,"Ġà¸¥à¸³à¸ķ":4940,"à¸Ļà¹Ģà¸§":4941,"à¸ªà¹Ħà¸ķà¸¥":4942,"ĠAngel":4943,"à¸ªà¸łà¸²":4944,"à¸¡à¸ĭ":4945,"Ġà¸ªà¸Ńà¸ļà¸ªà¸§à¸Ļ":4946,"Ġà¸ķà¸²à¸Ĥ":4947,"à¸ļà¹Ģà¸¥":4948,"à¸Ħà¹Ģà¸ģà¸Ī":4949,"Ġà¸ªà¸ģà¸Ńà¸£":4950,"Ġà¹Ĥà¸¡à¹Ģà¸Ķà¸¥":4951,"à¸ĩà¹Ĥà¸ķ":4952,"ION":4953,"ĠMus":4954,"Ġà¸£à¸ĸà¸ģà¸£à¸°à¸ļà¸°":4955,"ä¸":4956,"à¸Ńà¸ĩà¸¢":4957,"à¹Ģà¸¡à¸°":4958,"onda":4959,"à¸¡à¸ŀà¸£à¸°à¹Ģà¸ģ":4960,"ĠDay":4961,"à¸§à¸Ļà¸Ĺ":4962,"à¸Ķà¸Ł":4963,"Ġà¹Ĺ":4964,"Ġà¹Ĥà¸īà¸¡":4965,"iness":4966,"ïľĭ":4967,"21":4968,"à¹Ĥà¸Ĥà¸Ĺ":4969,"âĢĶâĢĶ":4970,"Ġà¸Ħà¸§à¸²à¸¡à¸Ĥ":4971,"à¸²à¸Ļà¸Ĥà¸²à¸¢":4972,"à¸ĩà¸¡à¸Ńà¸ļ":4973,"à¹Ģà¸Ńà¸ģà¸Ĭà¸Ļ":4974,"à¸¡à¹Ģà¸¡à¸Ńà¸£":4975,"Ġim":4976,"Ġà¸Ĭà¸ĩ":4977,"à¸Ĺà¸°":4978,"à¹Ģà¸¥à¸ª":4979,"Ġà¸ªà¸²à¸£à¸ªà¸Ļà¹Ģà¸Ĺà¸¨":4980,"à¸ļà¸Ĺà¸ļà¸²à¸Ĺ":4981,"ĠMac":4982,"IV":4983,"Ġà¸ķà¸Ń":4984,"Ġà¸Ľà¸İ":4985,"Ġcont":4986,"ĠClub":4987,"à¸£à¸ĸà¹Ħà¸Ł":4988,"à¸«à¸¡à¸Ń":4989,"Ġà¸«à¸¥à¸²à¸¢à¸Ĭà¸Ļ":4990,"ĠBTS":4991,"Ġà¸ģà¸£à¸°à¸Ľ":4992,"à¸£à¸ģà¸£à¸£à¸¡":4993,"à¸ģà¹Ģà¸ģà¸ĵà¸ĳ":4994,"ĠBar":4995,"à¸Ńà¸¢à¸Ĺ":4996,"à¸²à¹ģà¸Ĭà¸¡à¸Ľ":4997,"Ġà¸ŀà¸£à¸°à¸¡à¸«":4998,"Ġà¹Ģà¸¡à¸Ĺ":4999,"à¹Ģà¸Ĺà¸Ļà¸Ļ":5000,"Ġà¸Ĳà¸²à¸Ļà¸Ĥ":5001,"à¸Ĺà¸«à¸²à¸£":5002,"Ġà¸Ħà¸§à¸²à¸¡à¹Ģà¸Ħà¸£":5003,"Ġà¹Ĩà¹Ĩ":5004,"Ġà¸§à¸ª":5005,"EM":5006,"Ġà¸Ľà¸Ĳà¸¡":5007,"à¸Ļà¸ģà¸²à¸£à¸¨":5008,"Ġà¸ļà¸²à¸ĩà¸Ļà¸²":5009,"ĠBu":5010,"à¸Łà¸£":5011,"85":5012,"à¸£à¸²à¸Īà¸²à¸£à¸¢":5013,"Ġop":5014,"vent":5015,"à¸²à¸¢à¹ĥà¸Ļ":5016,"à¸Ļà¹ģà¸Ļ":5017,"à¸ģà¸£à¸¢à¸²à¸Ļà¸¢à¸Ļà¸ķ":5018,"à¸²à¸ŀà¸£à¸°à¸¢à¸²":5019,"à¹Ģà¸Īà¸²à¸°":5020,"à¸Ļà¹Ĥà¸Ķà¸Ļ":5021,"à¹Ĥà¸¡à¸¢":5022,"Ġà¸Ļà¸²à¸ĩà¹Ģà¸Ńà¸ģ":5023,"urg":5024,"à¸Ńà¸Ķà¸£":5025,"ĠHigh":5026,"Ġà¸¢à¸ģà¸ķ":5027,"à¹ģà¸Ļà¸°":5028,"Ġà¸ķà¸²à¸¡à¸Ľà¸ģà¸ķ":5029,"Ġà¹Ĥà¸Ħà¸¥":5030,"obet":5031,"Ġà¸¡à¸ķ":5032,"Ġà¸Ĥà¸¡":5033,"à¸²à¸¢à¸²à¸¡":5034,"à¸²à¸¨à¸²à¸¥":5035,"Ġà¹Ħà¸ķà¸£à¸¡à¸²à¸ª":5036,"à¹ģà¸Ļà¸§à¹Ĥà¸Ļ":5037,"Ġà¹Ģà¸ł":5038,"Ġà¸¥à¸§à¸Ķà¸¥à¸²à¸¢":5039,"Ġà¸Ĺà¸²à¸ĩà¹Ģà¸ŀà¸¨":5040,"áŀ":5041,"yt":5042,"Ġà¸īà¸¥à¸²à¸Ķ":5043,"à¸Īà¸įà¸ł":5044,"à¸¡à¸°à¹Ģà¸£":5045,"Ġà¸ªà¸°à¹Ģà¸ģ":5046,"Ġà¸Ļà¸Ķ":5047,"à¸ģà¹Ģà¸Ĥ":5048,"à¸§à¸²à¸ª":5049,"ei":5050,"Ġà¹į":5051,"Ġà¸Ĥà¸Ī":5052,"AD":5053,"Ġà¸ģà¸£à¸Ńà¸ģ":5054,"à¸¨à¸ģ":5055,"à¸Ħà¸§à¸²à¸¡à¸«à¸¡à¸²à¸¢":5056,"oint":5057,"ĠApp":5058,"Ġà¸ģà¸³à¸«à¸Ļà¸Ķà¹ĥà¸«":5059,"à¸ļà¸Ńà¸¥":5060,"à¸Ĭà¸ª":5061,"Ġà¹ģà¸ªà¸ĩà¹ģà¸Ķà¸Ķ":5062,"Ġà¸Ĺà¸²à¸ĩà¸«à¸¥à¸§à¸ĩ":5063,"man":5064,"Ġwill":5065,"Ġà¸ķà¸ģà¹ĥà¸Ī":5066,"à¸²à¸łà¸²à¸ŀ":5067,"à¸ĩà¹Ģà¸Ļ":5068,"ĠServ":5069,"ĠâĢĭâĢĭ":5070,"à¸£à¸ļ":5071,"TC":5072,"à¸Ļà¸īà¸ļ":5073,"Fi":5074,"49":5075,"à¹Ĥà¸¥à¸«":5076,"à¸²à¸ªà¸ķà¸£à¸²à¸Īà¸²à¸£à¸¢":5077,"à¸ķà¸³à¸ļà¸¥":5078,"Ġà¹Ħà¸Ĺà¸£":5079,"Ġ2552":5080,"Ġmore":5081,"à¸Ļà¸¥":5082,"à¸Ľà¹Ģà¸Ľà¸Ńà¸£":5083,"à¸Ļà¹ĥà¸«à¸į":5084,"Ġà¸±":5085,"ĠTen":5086,"à¸£à¸¢":5087,"ek":5088,"Ġà¸Ľà¸£à¸°à¸Ĭà¸²à¸ĺ":5089,"à¹Ģà¸§à¸¥à¸²à¸Ļ":5090,"à¸²à¸ĩà¸Ĺà¸²à¸ĩ":5091,"à¸ĩà¸ªà¸²à¸§":5092,"Ġà¸ŀà¸£à¸°à¹Ģà¸Ńà¸ģ":5093,"à¸ĩà¹Ģà¸ģ":5094,"Ġà¸ĩà¸Ķ":5095,"à¸ŀà¸¢à¸²à¸¢à¸²à¸¡":5096,"Ġà¹ģà¸Ńà¸¡":5097,"Ġà¹Ħà¸Ĭà¸¢":5098,"ĠLos":5099,"à¸£à¸Ļ":5100,"à¹Ģà¸¡à¸Ļ":5101,"ĠCH":5102,"rosoft":5103,"à¹ģà¸¥à¸ķ":5104,"Ġà¸Ĺà¸²à¸ĩà¸ģà¸²à¸£à¹Ģà¸¡":5105,"Ġà¹Ĥà¸£à¸Ħà¸¡à¸°à¹Ģà¸£":5106,"à¸Ĺà¸ĺà¸£":5107,"ny":5108,"ĠInst":5109,"Ġà¸ªà¸²à¸£à¸Ńà¸²à¸«à¸²à¸£":5110,"Ġà¸¨à¸²à¸ªà¸Ļ":5111,"ĠFull":5112,"Ġà¸£à¸Ķ":5113,"à¸²à¹Ģà¸Ń":5114,"Ġà¸ªà¸¥à¸°":5115,"à¸Ļà¹Ģà¸Ħà¸£":5116,"Ġà¸Ľà¸¥à¸²à¸¢à¸Ĺà¸²à¸ĩ":5117,"à¸ĩà¹Ģà¸£":5118,"à¸Ļà¹ģà¸¥à¸°":5119,"Ġà¸łà¸²à¸ŀà¸£à¸§à¸¡":5120,"à¸Ħà¸Ńà¸Ļ":5121,"à¹Ģà¸Ļà¸ª":5122,"à¸ŀà¸²à¸ģà¸©à¸²":5123,"à¸ªà¸ĩà¸ļ":5124,"ĠWi":5125,"Ġà¸Ľà¸£à¸²à¸ģà¸İ":5126,"à¸Ķà¸£à¸ĺà¸²à¸Ļ":5127,"à¸ģà¸Ńà¸®à¸Ńà¸¥":5128,"Ġà¹Ģà¸ļà¸£à¸ģ":5129,"à¸£à¸²à¸ª":5130,"ral":5131,"à¸ģà¸ĩà¸²à¸Ļà¹Ģà¸Ĥà¸ķ":5132,"à¹Ĥà¸¡à¸Ĺ":5133,"Ġà¹Ģà¸Ħà¸²à¸£à¸ŀ":5134,"Ġà¸ģà¸²à¸£à¸§à¸²à¸ĩà¹ģà¸ľà¸Ļ":5135,"ville":5136,"à¸³à¸ŀ":5137,"Ġà¹ģà¸Ńà¸ŀà¸ŀà¸¥":5138,"Ġà¸ªà¸£à¸£à¸ŀà¸ª":5139,"à¸Ļà¹Ħà¸£":5140,"Ġà¸ªà¸§à¸Ķ":5141,"à¸Ńà¹Ģà¸ŀà¸¥à¸ĩ":5142,"Ġà¹ģà¸Ńà¸Ļà¸ķ":5143,"Ġà¸Ħà¸£à¸²à¸§":5144,"Ġ77":5145,"à¸ļà¸£à¸Ńà¸ļ":5146,"ĠSport":5147,"à¸įà¸Ĭà¸²à¸ķ":5148,"Ġà¸ģà¸²à¸įà¸Īà¸Ļà¸ļ":5149,"Ġà¹Ĥà¸Ńà¹Ģà¸Ħ":5150,"Ġà¸Ħà¸ļ":5151,"à¸§à¸²à¸ĩà¹ĥà¸Ī":5152,"à¸²à¸«à¸£":5153,"Ġà¹Ĥà¸ļà¸ªà¸ĸ":5154,"aj":5155,"ated":5156,"à¸ŀà¸¤à¸ķ":5157,"Ġà¸¡à¸²à¸£à¸Ķà¸²":5158,"Ġà¸¡à¸§à¸¥":5159,"Ġà¹ĥà¸Ħà¸£à¹Ĩ":5160,"Ġà¸¡à¸«à¸²à¸¨à¸²à¸¥":5161,"à¸Ĭà¸įà¸²":5162,"à¸³à¸ķà¸²":5163,"Ġà¹ģà¸Ńà¸¥à¸ģà¸Ńà¸®à¸Ńà¸¥":5164,"Ġà¹Ģà¸ļà¸£à¸Ħ":5165,"Ġà¹Ĥà¸Ľà¸£à¹Ĥà¸¡à¸Ĺ":5166,"udio":5167,"à¸Ļà¸ķà¸Ļà¸²à¸ģà¸²à¸£":5168,"Ġà¸£à¸ģ":5169,"AG":5170,"à¸Ļà¸Ĥà¸²":5171,"Ġà¸Ķà¸Ńà¸ģà¸":5172,"Ġà¸Ħà¸£à¸ļà¸£à¸Ńà¸ļ":5173,"à¸Īà¸ª":5174,"à¸Ĺà¸§":5175,"à¸§à¸²à¸Ķ":5176,"Ġà¸Ĥà¸ĵà¸°à¹Ģà¸Ķ":5177,"Ġà¸Ńà¸³à¸Ļà¸§à¸¢à¸Ħà¸§à¸²à¸¡à¸ªà¸°à¸Ķà¸§à¸ģ":5178,"Ġweb":5179,"ĠAA":5180,"OC":5181,"oud":5182,"à¸³à¸Ń":5183,"Ġà¸ªà¸Ļà¸Ĺà¸Ļà¸²":5184,"Ġà¸«à¸¢à¸Ķ":5185,"Ġà¸¥à¸³à¸ŀ":5186,"ĠChe":5187,"à¸Ńà¸¢à¸Ńà¸Ķ":5188,"à¸Ńà¸ĩà¸ªà¸¡":5189,"Ġà¸«à¸¥à¸²à¸ģ":5190,"à¸Ĺà¸¢à¸²à¸Ħà¸¡":5191,"Ġ%,":5192,"Ġà¸ªà¸²à¸ĺ":5193,"Ġà¸ªà¸ģà¸¥":5194,"âĢ¦]":5195,"à¸Ļà¹ģà¸¥à¸°à¸ģ":5196,"ĠInd":5197,"Ġà¸Ĭà¸²à¸§à¸ķ":5198,"Ġà¸Ńà¸Ńà¸Łà¸Ł":5199,"à¹Ģà¸¢à¸²":5200,"ĠFile":5201,"à¸ªà¸Ńà¸Ļ":5202,"à¸Ļà¹Ģà¸¡":5203,"Ġà¸įà¸²à¸ĵ":5204,"Ġdis":5205,"rid":5206,"à¸¡à¹ģà¸Ĥ":5207,"à¸²à¸Ńà¸²à¸ģà¸²à¸¨":5208,"Ġà¸Ľà¸£à¸°à¹Ĥà¸¢à¸Ħ":5209,"ïľĬ":5210,"Ġà¸ªà¸¡à¸²":5211,"ble":5212,"bobet":5213,"Ġà¹ģà¸®à¸¡":5214,"vis":5215,"Ġline":5216,"à¸¡à¸Ŀ":5217,"roup":5218,"à¸Ńà¸Ļà¸¢":5219,"Ġà¸Ķà¸ĩ":5220,"à¸ķà¸£à¸§à¸Ī":5221,"ica":5222,"Ġà¸Ĥà¸¢à¸²à¸¢à¸ķ":5223,"ĠHoliday":5224,"Ġen":5225,"à¸¨à¸²à¸¥":5226,"Ġà¹ĺ":5227,"Ġà¸ªà¸²à¸Ļ":5228,"Ġà¹Ħà¸ĭà¸ķ":5229,"à¸¡à¸¡à¸²à¸ģà¸Ĥ":5230,"à¸«à¸Ļà¸²à¸§":5231,"Ġ[âĢ¦]":5232,"à¸Ĺà¸ģ":5233,"Ġà¸Ĥà¸Ļà¸¡à¸Ľ":5234,"à¸ĩà¸ģà¸°":5235,"à¸ĩà¸«à¸¥":5236,"ins":5237,"Ġà¸ļà¸°":5238,"ĠPol":5239,"Ġà¸¢à¸²à¸¢":5240,"Ġà¸ģà¸²à¸£à¸ªà¸³à¸£à¸§à¸Ī":5241,"à¹Ģà¸īà¸¥":5242,"ĠStar":5243,"à¸²à¸¢à¸Ĺà¸Ńà¸Ķà¸ªà¸Ķ":5244,"iver":5245,"Ġà¸Īà¸³à¸ŀ":5246,"à¸¡à¸ŀà¸£":5247,"ifi":5248,"ĠBangkok":5249,"à¸¡à¸Ľà¸£à¸°à¸ª":5250,"à¸£à¸²à¸ĩà¸§":5251,"à¸²à¸ģà¸ģà¸²":5252,"Ġà¸Ľà¸£à¸°à¸ªà¸ĩà¸Ħ":5253,"Ġà¸Ĥà¸§à¸ļ":5254,"Ġà¸ľà¸ļ":5255,"à¸ļà¸Ľà¸§à¸Ķ":5256,"Ġà¸ĸà¸Ńà¸¢":5257,"Ġà¸Ĺà¸¤à¸©à¸İ":5258,"ĠCR":5259,"à¸²à¸ģà¸Ńà¸²à¸ģà¸²à¸¨":5260,"oot":5261,"ited":5262,"à¸«à¸²à¸£à¸²à¸Ĭ":5263,"ĠAV":5264,"ĠSch":5265,"tion":5266,"ĠBus":5267,"à¸ªà¸£à¸£à¸ŀà¸ª":5268,"à¸Ĺà¹Ģà¸¡":5269,"à¸²à¸ĩà¸ªà¸£à¸£à¸ŀà¸ª":5270,"Ġà¹Ģà¸Ĺà¸£à¸Ļà¸Ķ":5271,"ats":5272,"Ġà¸Ħà¸²à¸Ķà¸«à¸§":5273,"Ġà¸Ńà¸§à¸ļ":5274,"à¸«à¸²à¸£à¸ĩà¸²à¸Ļ":5275,"à¸Ļà¹Ģà¸ŀ":5276,"Ġà¹ģà¸ªà¸Ķà¸ĩà¸§":5277,"à¸§à¹ģà¸¡":5278,"Ġ62":5279,"UT":5280,"ange":5281,"Ġà¸Ĵ":5282,"Ġà¸Ħà¸¥à¸²à¸¢":5283,"Ġse":5284,"Ġà¸Ĺà¸³à¸Ħà¸§à¸²à¸¡à¹Ģà¸Ĥ":5285,"Ġà¹Ģà¸ļà¸Ĺ":5286,"Ġà¸¥à¸°à¹Ģà¸¡":5287,"Ġà¸«à¸²à¸Ķà¹ĥà¸«à¸į":5288,"à¸Ľà¸£à¸²à¸¡":5289,"à¸Īà¸Īà¸£":5290,"Ġà¹ģà¸Łà¸¥":5291,"Ġà¹ģà¸Łà¸Ļà¸Ħà¸¥":5292,"Ġà¸ģà¸¥à¸Ńà¸ĩ":5293,"à¸²à¹ĥà¸ļ":5294,"ype":5295,"Ġà¸ģà¸²à¸£à¸Ĭ":5296,"Ġà¸¥à¸°à¸¥à¸²à¸¢":5297,"Ġà¸Ļà¸Ńà¸Ļà¸«à¸¥":5298,"Ġà¸ĺà¸Ļà¸ļ":5299,"ĠPer":5300,"Ġà¸¥à¸Ńà¸ģ":5301,"Ġà¸īà¸°":5302,"ĠiOS":5303,"Ġà¸Ńà¸Ńà¸¡":5304,"ĠDV":5305,"à¸ģà¸©à¸²à¸ĺ":5306,"Ġà¸®à¸Ńà¸¥":5307,"ĠRed":5308,"Ġà¹Ħà¸ŀà¸£":5309,"à¸¢à¸ļà¸ªà¸ĩà¸ļ":5310,"Ġà¸ģà¸§à¸²à¸ĩ":5311,"à¸¡à¸¥":5312,"Ġà¸ľà¸Ń":5313,"ĠSoc":5314,"itch":5315,"Ġà¸ļà¸²à¸¢":5316,"Ġæ":5317,"Ġà¸¡à¸£à¸Ķà¸ģ":5318,"à¸Łà¹Ģà¸Ł":5319,"900":5320,"ember":5321,"Ġà¹Ģà¸Ĺà¸§":5322,"à¹Ħà¸ĭà¸Ķ":5323,"à¸Ńà¸Ļà¸ķ":5324,"ĠMobile":5325,"Ġà¸ĩà¸²à¸Ļà¸ģà¸²à¸£":5326,"à¸²à¸Ļà¸Ļà¸Ńà¸ģ":5327,"UB":5328,"Ġà¸£à¸²à¸¢à¹Ģà¸Ķ":5329,"à¸ĵà¸«à¸¡à¸Ń":5330,"Ġà¸ŀà¸£à¸°à¸¢à¸²":5331,"Ġà¹ģà¸¡à¸ĩà¸¡":5332,"MS":5333,"AND":5334,"evel":5335,"any":5336,"Ġhall":5337,"AY":5338,"Ġ2551":5339,"Ġà¸ªà¸«à¸ģà¸£à¸ĵ":5340,"à¸ĩà¸Ĩ":5341,"à¸Ĺà¸³à¸ģà¸²à¸£":5342,"à¸Ńà¸ģà¸ĭ":5343,"à¸ĩà¸Ľà¸§à¸ĩ":5344,"ĠCap":5345,"Ġare":5346,"ï»¿":5347,"Ġà¸Ķà¸³à¸£à¸ĩà¸ķà¸³à¹ģà¸«à¸Ļ":5348,"Ġà¸ģà¸²à¸§":5349,"à¸Ķà¸«":5350,"Ġà¹Ĥà¸Ķà¸¢à¸ª":5351,"à¸Ħà¸²à¸¢":5352,"ĠMag":5353,"ĠNe":5354,"67":5355,"ild":5356,"ĠCP":5357,"Ġà¹ģà¸Ķà¸Ķ":5358,"ĠOut":5359,"Ġà¸¤à¸Ĺà¸ĺ":5360,"ĠPark":5361,"à¸Ńà¹Ħà¸«à¸£":5362,"Ġà¹Ģà¸Ĺà¸¨à¸ļà¸²à¸¥à¸ķà¸³à¸ļà¸¥":5363,"à¸ªà¸²à¸«":5364,"à¸¡à¸Ķ":5365,"rip":5366,"inal":5367,"ĠInternational":5368,"Ġà¸ģà¸²à¸£à¸Ĥà¸Ļà¸ª":5369,"à¸²à¸ĩà¹Ģà¸Ħ":5370,"à¸ģà¸ķà¸²à¸ģà¸Ńà¸²à¸ģà¸²à¸¨":5371,"Ġ360":5372,"ĠWhite":5373,"Ġà¸Ĺà¸²à¸ĩà¸Ńà¸Ńà¸ģ":5374,"à¸Ńà¸ĩà¸ªà¸²à¸§":5375,"à¹Ĥà¸£à¸Īà¸Ļ":5376,"32":5377,"ĠVal":5378,"Ġà¸Ľà¸£à¸°à¸ĺà¸²à¸Ļà¸²à¸ĺ":5379,"ĠCam":5380,"à¸Ħà¸ķ":5381,"à¸Ńà¹Ģà¸¥":5382,"Ġà¹Ģà¸Ĺà¸Ľ":5383,"à¸§à¸°":5384,"à¸ķà¹Ģà¸ķà¸Ńà¸£":5385,"Ãł":5386,"Ġà¸ªà¸¡à¸£à¸£à¸ĸà¸Ļà¸°":5387,"Ġà¸Ĺà¸²à¸ª":5388,"Ġà¸ķà¸²à¸¡à¸«à¸²":5389,"ĠLINE":5390,"âĺħ":5391,"à¸Ńà¸ł":5392,"Ġte":5393,"ane":5394,"Ġà¸£à¸²à¸¢à¸Ī":5395,"Ġà¹Ĥà¸Ķà¸¢à¸ªà¸²à¸£":5396,"Ġà¸ģà¸Ńà¸ĩà¸«à¸¥":5397,"ift":5398,"ĠØ":5399,"Ġà¹Ģà¸ģà¸ķ":5400,"Ġà¸Ĺà¸²à¸ĩà¹Ģà¸¨à¸£à¸©à¸Ĳà¸ģ":5401,"69":5402,"à¹ĥà¸Ħà¸£":5403,"Ġà¹Ģà¸īà¸¢":5404,"Ġà¸ŀà¸§à¸ĩà¸¡à¸²à¸¥":5405,"Ġà¸ŀà¸£à¸°à¹Ģà¸Ħà¸£":5406,"ĀĀĀĀ":5407,"Ġà¸Ĺà¸²à¸ĩà¸ļ":5408,"à¸ļà¸ļà¸Ĺ":5409,"ories":5410,"Ġà¸§à¸ĩà¹Ģà¸ĩ":5411,"à¸Ľà¸Ĺ":5412,"Ġà¹ģà¸Ļà¸§à¹Ĥà¸Ļ":5413,"ooth":5414,"Ġsm":5415,"arg":5416,"ward":5417,"ota":5418,"Ġà¹Ģà¸Īà¸Ńà¸ģ":5419,"à¸£à¸ł":5420,"Ġnet":5421,"Ġà¹Ħà¸Ńà¸ĭ":5422,"Ġà¹ģà¸ģà¸£à¸Ļà¸Ķ":5423,"press":5424,"Ġà¹ģà¸ªà¸Ķà¸ĩà¸ľà¸¥":5425,"à¸ŀà¸£à¸£à¸ĵà¸ļ":5426,"Ġfl":5427,"à¸²à¸£à¸²à¸Ĭà¸ģà¸²à¸£à¸Ī":5428,"à¸ģà¹Ģà¸ĭà¸¥":5429,"à¹Ģà¸«à¸¡à¸²à¸°à¸ªà¸¡":5430,"à¸ľà¸¥à¸ķ":5431,"UM":5432,"Ġ110":5433,"Ġà¸Ĺà¸³à¹Ģà¸Ļ":5434,"Ġà¸Ħà¸§à¸²à¸¡à¹Ģà¸«à¸¡à¸²à¸°à¸ªà¸¡":5435,"à¸¡à¸²à¸Ļ":5436,"Ġà¸Į":5437,"Ġà¸Ħà¸§à¸²à¸¡à¸ŀà¸¢à¸²à¸¢à¸²à¸¡":5438,"ym":5439,"irl":5440,"ĠIs":5441,"ĠPar":5442,"à¸ķà¸ĭ":5443,"à¸ģà¸£à¸²à¸Ļà¸ķ":5444,"à¸ļà¹Ģà¸ļ":5445,"Ġà¸ļà¸§à¸Ĭ":5446,"à¸¡à¸Ļà¸ķà¸£":5447,"ĠÃł":5448,"les":5449,"Ġà¸¨à¸ķà¸§à¸£à¸£à¸©":5450,"ĠTR":5451,"Ġà¸Īà¸Ķà¸«à¸¡à¸²à¸¢":5452,"ĠBig":5453,"à¸Ńà¹Ģà¸ŀà¸¥":5454,"Ġag":5455,"Ġà¸ŀà¸£à¸°à¸ĺà¸²à¸ķ":5456,"à¸Łà¸²":5457,"à¸ļà¸ķà¸²":5458,"à¸įà¸Ĭà¸§à¸Ļ":5459,"Ġà¸£à¸§à¸¡à¸ķ":5460,"Ġà¹Ĵà¹ķà¹ĸà¹ĳ":5461,"ĠComm":5462,"Ġadmin":5463,"äº":5464,"Ġà¸ķà¸Ńà¸Ļà¹Ģà¸Ĭ":5465,"ings":5466,"iforn":5467,"Ġà¸¢à¸¨":5468,"Ġà¸ªà¸ĩà¸ģà¸£à¸²à¸Ļà¸ķ":5469,"OD":5470,"à¸ģà¹Ħà¸¡":5471,"à¸¨à¸ķà¸°à¸§":5472,"Ġà¹Ļ":5473,"Ġcon":5474,"Ġà¸ģà¸²à¸£à¸Ľà¸£à¸°à¸¡":5475,"Ġ//":5476,"Ġà¸¡à¸ĵ":5477,"à¸²à¸§à¸²à¸ª":5478,"ifornia":5479,"à¸¢à¹Ģà¸ĩ":5480,"Ġà¸¡à¸ĵà¸ĳà¸¥":5481,"à¹Ĥà¸ŀà¸ģ":5482,"ets":5483,"à¸Ľà¸²":5484,"à¸Ķà¹Ĥà¸Ńà¸ģà¸²à¸ª":5485,"Ġà¸ģà¸²à¸¬":5486,"Ġà¹ģà¸«à¸¥à¸°":5487,"Ġà¹Ģà¸ĭà¸Ł":5488,"Ġà¸Ńà¸ļà¸ķ":5489,"Ġà¸ķà¸²à¸¡à¸¥à¸³à¸Ķ":5490,"à¸¢à¸Ļà¹Ģà¸Ľ":5491,"orr":5492,"Ġà¸Ľà¸£à¸°à¹Ģà¸ªà¸£":5493,"68":5494,"Ġ900":5495,"à¸Ħà¸²à¸¡":5496,"à¸²à¸įà¸²":5497,"Ġà¸ŀà¸£à¸£à¸©à¸²":5498,"à¹ģà¸¥à¸£":5499,"IA":5500,"à¸¡à¸Ļà¸ķ":5501,"Ġà¸ŀà¸Ľ":5502,"Ġà¸ļà¸²à¸ª":5503,"à¸ģà¸¥à¸²à¸ĩà¸§":5504,"Ġà¸ļà¸Ĺà¹Ģà¸£":5505,"ner":5506,"à¸Ļà¹Ģà¸ĩ":5507,"Ġà¸ªà¸Ķà¸Ĭ":5508,"Ġà¸ªà¸ĩà¸§à¸Ļ":5509,"à¹Ĥà¸Ī":5510,"ĠCalifornia":5511,"bnb":5512,"Ġà¹Ģà¸Ħà¸Ļ":5513,"na":5514,"Ġà¸Ĥà¹Ĥà¸¡à¸¢":5515,"ett":5516,"à¸§à¹Ĩ":5517,"Ġunder":5518,"à¸ªà¸²à¸«à¸ģ":5519,"ĠAss":5520,"Ġà¸ģà¸²à¸£à¸ľ":5521,"rain":5522,"Ġ67":5523,"à¸łà¸²à¸¢à¹ĥà¸Ļ":5524,"à¸¨à¸Ļà¸²":5525,"à¸²à¹Ģà¸«à¸ķ":5526,"à¸«à¸§à¸¢":5527,"à¹Ĥà¸Ĭà¸Ħ":5528,"à¸²à¸Ļà¸²à¸¢":5529,"Ġà¸£à¸Ĺ":5530,"Ġà¸«à¸Ńà¸ŀ":5531,"ĠDesign":5532,"Ġà¸Ńà¸Ńà¸ģà¹Ģà¸Ķ":5533,"Ġà¸£à¸ĵà¸£à¸ĩà¸Ħ":5534,"à¸Į":5535,"à¸²à¹Ģà¸Ńà¸¥":5536,"Hz":5537,"ology":5538,"ĠToy":5539,"à¸¥à¸²à¸Ķ":5540,"ping":5541,"Ġà¸Ľà¸²à¸ģà¸ģà¸²":5542,"OW":5543,"Ġà¸Ļà¸²à¸ĩà¹ģà¸ļà¸ļ":5544,"Ġà¸ľà¸¥à¸Ķ":5545,"à¸Ļà¸«à¸Ńà¸¡":5546,"ouch":5547,"gram":5548,"Ġà¹Ĥà¸£à¹ģà¸¡":5549,"à¸Ńà¸¡à¸§à¸¥à¸Ĭà¸Ļ":5550,"AB":5551,"à¸ŀà¸Ļ":5552,"ao":5553,"ĠMet":5554,"ott":5555,"ĠAirbnb":5556,"à¸Ńà¸ģà¸³à¸«à¸Ļà¸Ķ":5557,"ĠXXX":5558,"Ġà¹Ĥà¸Īà¸Ĺà¸ģ":5559,"Ġà¹ģà¸ŀà¸¥à¸ķ":5560,"95":5561,"Ġà¸ģà¸£à¸°à¹Ģà¸Ī":5562,"Ġip":5563,"Ġà¸Ħà¸²à¸Ļ":5564,"Ġà¸ªà¸ª":5565,"à¸Ļà¸Ĺà¸Ļ":5566,"Ġà¸§à¸Ńà¸¥":5567,"Ġà¸ļà¸²à¸ĩà¸ģà¸Ńà¸ģ":5568,"ve":5569,"à¸ļà¸ľà¸¡":5570,"Ġà¸Ĺà¸³à¸Ļà¸Ńà¸ĩ":5571,"ĠTop":5572,"ĠMon":5573,"Ġà¸Ńà¸Ńà¸ģà¸Ńà¸²à¸ģà¸²à¸¨":5574,"à¸ĩà¹Ģà¸Ħà¸£à¸²à¸°à¸«":5575,"Ġà¸ģà¸¥à¸²à¸ĩà¸§":5576,"Ġà¸ģà¸²à¸£à¸Ŀ":5577,"Ġ2000":5578,"itter":5579,"Ġà¹ģà¸ĩ":5580,"Ġà¸Ħà¸¥à¸²":5581,"Ġà¹ĥà¸Ļà¹Ģà¸Ħà¸£":5582,"à¸Ĺà¸¢à¸²à¸ģà¸£":5583,"à¸Ĳà¸²à¸Ļà¸°":5584,"à¸ģà¸łà¸²à¸ŀ":5585,"Ġpost":5586,"Ġà¹Ĥà¸ģà¸£à¸ĺ":5587,"à¸Ĭà¸Ĭ":5588,"à¸ĩà¸ªà¸£à¸£à¸Ħ":5589,"osh":5590,"ubl":5591,"à¸Ńà¹ĥà¸Ī":5592,"Ġà¹Ģà¸¥à¸ª":5593,".)":5594,"à¹Ģà¸¢à¸²à¸§":5595,"Ġ2009":5596,"Ġ2550":5597,"................":5598,"Ġà¹ĥà¸ļà¹Ħà¸¡":5599,"Ġà¸Ĥà¸²à¸¢à¸Ķ":5600,"Ġà¸ŀà¸į":5601,"Ġà¹Ģà¸§à¸¥à¸²à¸Ļ":5602,"à¸²à¸Ļà¸Ĥà¸²à¸¢à¸¢à¸²":5603,"à¹Ĥà¸¢à¸ĺ":5604,"à¸Ļà¸ªà¸²à¹Ģà¸«à¸ķ":5605,"Ġà¹Ĥà¸£à¹ģà¸¡à¸Ļà¸ķ":5606,"Ġà¸Ħà¸§à¸²à¸¡à¹ģà¸£à¸ĩ":5607,"à¸§à¸Ļà¸ģà¸¥à¸²à¸ĩ":5608,"Ġà¹Ģà¸¢à¸Ńà¸£à¸¡à¸Ļ":5609,"Ġà¸ªà¸²à¸ĺà¸²à¸£à¸ĵà¸£":5610,"Ġà¸ģà¸Ńà¸Ķ":5611,"à¸ĸà¸Ļà¸Ļ":5612,"à¹Ģà¸§à¸¢":5613,"Ġà¹ģà¸ŀà¸¥à¸ķà¸Łà¸Ńà¸£":5614,"Ġà¸Ħà¸Ļà¸ŀ":5615,"Ġà¸ªà¸°à¹Ĥà¸ŀà¸ģ":5616,"à¸Ķà¸¡à¸¨":5617,"Ġà¸Īà¸³à¸¥à¸Ńà¸ĩ":5618,"esh":5619,"ĠAngeles":5620,"à¸²à¸ģà¸£à¸£à¸¡":5621,"à¹Ĥà¸«":5622,"à¹Ĥà¸Ĺà¸£à¸Ĺ":5623,"à¸£à¸ĵà¸²à¸ģà¸²à¸£":5624,"Ġ68":5625,"Ġà¸Īà¸Ńà¸«":5626,"ĠSH":5627,"48":5628,"Ġà¸Ĭà¸²à¸į":5629,"Ġà¹Ĥà¸Łà¸ģ":5630,"ĠArt":5631,"Ġà¸ªà¸¡à¸¡à¸ķ":5632,"Ġà¸Ħà¸ĩà¸Ńà¸¢":5633,"Ġà¸ļà¸³à¹Ģà¸ŀ":5634,"Ġnew":5635,"à¸¢à¸łà¸²à¸ŀ":5636,"Ġà¸ªà¹Ģà¸Ľà¸Ńà¸£":5637,"à¹Ģà¸§à¸¨":5638,"ĠPS":5639,"ĠSME":5640,"à¸Ļà¹Ħà¸Ĭà¸ª":5641,"47":5642,"ĠWar":5643,"à¸Ļà¸ĩ":5644,"à¸Ķà¹ģà¸Ľà¸¥à¸ĩ":5645,"Ġhallux":5646,"Ġà¸ªà¸ļà¸²à¸¢à¹ĥà¸Ī":5647,"à¸²à¸§à¸¥":5648,"à¹Ħà¸Ń":5649,"à¸Ļà¸Ĺà¸£à¸²":5650,"Ġà¸ļà¸²à¸Ķ":5651,"Ġà¹Ĥà¸Īà¸£":5652,"à¸Ľà¸£à¸°à¸ªà¸²à¸Ĺ":5653,"à¸³à¹Ģà¸łà¸Ń":5654,"Ġà¹Ĥà¸ģà¸°":5655,"Ġà¸Ħà¸£à¸²à¸ĩ":5656,"à¸§à¹ģà¸Ĺà¸Ļà¸Īà¸³à¸«à¸Ļ":5657,"ĠPosted":5658,"à¸Ľà¸£à¸°à¸§":5659,"à¸īà¸¥à¸Ńà¸ĩ":5660,"à¸¢à¸ĩà¹ĥà¸ķ":5661,"à¸§à¸¢à¸ĭ":5662,"à¸¨à¸§à¸ģà¸£":5663,"à¹Ģà¸ļà¸²":5664,"ki":5665,"à¸ģà¸£à¸²à¸Ĭ":5666,"Ġà¸ķà¸Ńà¸ļà¸ģà¸¥":5667,"31":5668,"Ġà¹Ħà¸ĸ":5669,"ĠGame":5670,"Ġà¸®à¸Ńà¸Ļà¸Ķ":5671,"à¸Ńà¸ģà¸§":5672,"Ġà¹Ĥà¸ĭà¸Łà¸²":5673,"à¹Ģà¸ŀà¸Ĭà¸£":5674,"ma":5675,"à¹Ģà¸©":5676,"à¸¢à¹ĥà¸«à¸¡":5677,"ĠHonda":5678,"à¸ļà¸¡à¸Ńà¸ļ":5679,"Ġ180":5680,"à¸Ĺà¸£à¸ĩà¸Īà¸³":5681,"ĠTrans":5682,"ĠTrip":5683,"à¸²à¸ľà¸¥":5684,"Ġà¸Ħà¸§à¸²à¸¡à¸Ĺà¸£à¸ĩà¸Īà¸³":5685,"Ġà¸ķà¸ģà¹Ģà¸Ľ":5686,"à¸¡à¸ĵà¸ĳà¸¥":5687,"Ġà¸Ħà¸²à¹Ģà¸Ł":5688,"à¸ķà¸Ļà¸²":5689,"________":5690,"à¸Ńà¹ĥà¸«à¸¡":5691,"Ġà¸Ĺà¸Ļà¸²à¸¢":5692,"ody":5693,"ven":5694,"à¹Ħà¸ŀà¸£":5695,"Ġà¸£à¸ĸà¸£":5696,"Ġà¸Īà¸Ķà¸Īà¸³":5697,"Ġà¸Īà¸²à¸ĩ":5698,"Ġà¸Ĺà¸³à¹Ģà¸Ńà¸²":5699,"ĠMicrosoft":5700,"que":5701,"à¸Ķà¸²à¸§":5702,"à¸¢à¸ĩà¹Ģà¸«à¸Ļ":5703,"Ġà¸ĺà¸£à¸£à¸¡à¸°":5704,"Ġà¹Ħà¸Ĺà¸¢à¸£":5705,"à¸¥à¸ª":5706,"ĠLove":5707,"à¸ļà¸ļà¸²à¸Ķà¹Ģà¸Ī":5708,"TH":5709,"Ġà¸ģà¸²à¸£à¹ģà¸ģ":5710,"ĠOp":5711,"iet":5712,"Ġà¸ŀà¸Ńà¸ģ":5713,"ole":5714,"ution":5715,"Ġit":5716,"pr":5717,"Ġà¹Ĥà¸Ħà¸£":5718,"Ġ000":5719,"iel":5720,"à¸Ńà¸ĩà¸Ń":5721,"à¸§à¸Ħà¸¥":5722,"Ġà¸§à¸²à¸£à¸°":5723,"IF":5724,"Ġà¹ģà¸ļà¸£":5725,"à¸¢à¸Ī":5726,"à¸Ńà¸ĩà¸Ł":5727,"Ġà¹ģà¸Ľà¸£":5728,"ravel":5729,"ĠNE":5730,"Ġà¸Ħà¸ªà¸Ĭ":5731,"Ġà¸ķà¸¥à¸²à¸Ķà¸Ļ":5732,"Ġ101":5733,"à¸įà¸Ī":5734,"ĠCD":5735,"à¸²à¸§à¸Ĥà¸Ńà¸ĩà¹Ģà¸Ħà¸£":5736,"à¹Ħà¸®":5737,"Ġà¸¢à¸²à¸Ļà¸¢à¸Ļà¸ķ":5738,"à¸įà¸įà¸²à¹Ĥà¸Ĺ":5739,"Ġà¸ªà¸łà¸²à¸ŀà¸Ńà¸²à¸ģà¸²à¸¨":5740,"Ġgl":5741,"Ġà¸ķà¸Ńà¸ļà¸£":5742,"oom":5743,"à¸²à¸§à¸ļ":5744,"à¸Ļà¸Ħà¸Ķ":5745,"à¸ĩà¸Ľà¸£à¸°à¹Ģà¸Ĺà¸¨":5746,"à¸ĩà¸Ľà¸£à¸°à¹Ģà¸Ĺà¸¨à¹Ħà¸Ĺà¸¢":5747,"ments":5748,"à¸Ńà¸§à¸²à¸Ļ":5749,"ser":5750,"Ġà¸ķà¸£à¸ĩà¸ģ":5751,"Ġà¹Ĥà¸ļà¸£":5752,"Ġà¸Ńà¹Ģà¸Ļà¸ģà¸Ľà¸£à¸°à¸ªà¸ĩà¸Ħ":5753,"ĠÅ":5754,"à¸²à¸ªà¸²à¸§":5755,"Ġà¸«à¸¥à¸ļ":5756,"Ġà¸Ľà¸£à¸°à¸ªà¸²à¸Ļà¸ĩà¸²à¸Ļ":5757,"way":5758,"Ġà¸Ļà¸²à¸Ļà¹Ĩ":5759,"à¸ªà¸¥à¸²à¸¡":5760,"ĠKnox":5761,"ano":5762,"Ġà¸«à¸¢à¸²à¸ļ":5763,"à¹Ĥà¸ļà¸£à¸²à¸ĵ":5764,"à¸ŀà¸Ļà¸ĺ":5765,"Ġà¹ģà¸Łà¸£à¸Ļà¹Ħà¸Ĭà¸ª":5766,"Ġà¹Ĥà¸Ńà¸¥":5767,"ĠMR":5768,"Ġà¸ŀà¸£à¸£à¸ĵ":5769,"Ġpre":5770,"Ġà¸¥à¸ĩà¸Ļà¸²à¸¡":5771,"Ġà¸Ĥà¸Ńà¸ĩà¸Ĭ":5772,"Ġ98":5773,"ĠCard":5774,"Ġà¸Ńà¸§à¸¢":5775,"Ġà¸łà¸£":5776,"Ġ081":5777,"essee":5778,"oss":5779,"Ġà¸ŀà¸£à¸°à¸ļà¸£à¸¡à¸£à¸²à¸Ĭ":5780,"Ġà¹Ģà¸¥à¸Ĥà¸²à¸ĺ":5781,"à¸Ļà¸Ĺà¸ļ":5782,"Ġà¹Ĥà¸Ĥà¸ĩ":5783,"à¸ģà¸Ńà¸²à¸¨":5784,"ĠEm":5785,"ĠNext":5786,"Ġà¹ĥà¸¢":5787,"ĠAC":5788,"à¸ĵà¸ª":5789,"Ġà¸Ľà¸ģà¸Ħà¸£à¸Ńà¸ĩ":5790,"Ġà¹Ģà¸łà¸ª":5791,"ump":5792,"ĠAP":5793,"ĠKnoxville":5794,"à¸ľà¸¥à¹Ħà¸¡":5795,"Ġà¸ŀà¸£à¸°à¸ªà¸ĩà¸Ĩ":5796,"TR":5797,"ĠTenne":5798,"Ġà¸ģà¸©à¸²":5799,"EE":5800,"auty":5801,"à¸Ļà¸Ħà¸§":5802,"TM":5803,"ular":5804,"à¸¢à¸§à¸Ļ":5805,"ĠCan":5806,"à¸«à¸¥à¸²à¸ļ":5807,"Ġà¸Ĥà¸Ļà¸¢":5808,"Ġà¸Łà¸Ńà¸ĩ":5809,"à¸ªà¸ĩà¸Ħà¸£à¸²à¸¡":5810,"à¸ļà¹Ģà¸«":5811,"Ġ86":5812,"ĠTenneessee":5813,"Ġà¹ģà¸ĸà¸¥à¸ĩà¸Ĥ":5814,"Ġà¸ģà¸°à¸Ĺ":5815,"Ġà¸§à¸¥":5816,"à¸ªà¸²à¸£à¸ªà¸Ļà¹Ģà¸Ĺà¸¨":5817,"ĠWe":5818,"Ġà¸£à¸²à¸Ħà¸²à¹ģà¸ŀà¸ĩ":5819,"à¸¢à¸Ńà¸¡":5820,"Ġà¸ĭà¸Ńà¸ª":5821,"ĠCity":5822,"ute":5823,"Ġintl":5824,"Ġorg":5825,"à¸ģà¸²à¸£à¹ĥà¸Ĭ":5826,"ft":5827,"à¹ģà¸ĸà¸§":5828,"ĠHu":5829,"Ġhd":5830,"Ġà¸Ķà¸²à¸§à¸£":5831,"à¸³à¸ļà¸²à¸ģ":5832,"TER":5833,"ĠLight":5834,"Ġà¹ģà¸Ńà¸Ľà¹Ģà¸Ľ":5835,"à¸¿":5836,"Ġà¸Ħà¸Ńà¸Ļà¹Ĥà¸Ķà¸¡":5837,"Ġà¸Ħà¸Ļà¹Ħà¸Ĥ":5838,"Ġà¸Ħà¸§à¸²à¸¡à¸ªà¸ĩà¸ļ":5839,"à¹Ģà¸Ĺà¸ŀ":5840,"à¸²à¸Ĭà¸²à¸¢":5841,"à¸²à¸§à¹Ģà¸§à¸Ńà¸£":5842,"ading":5843,"à¸ĺà¸Ļ":5844,"à¸Ľà¸¥à¸²":5845,"Ġà¸Ķà¸²à¸ļ":5846,"à¸ģà¸²à¸£à¹Ģà¸¡":5847,"Ġà¹Ĥà¸¢à¸Ļ":5848,"Ġà¸ªà¸£à¸£à¸ŀà¸Ħ":5849,"Ġà¹Ĥà¸Łà¸¡":5850,"à¸ģà¸£à¸§":5851,"à¸Ĥà¸²à¸Ķ":5852,"à¹ģà¸¢à¸°":5853,"Ġà¸ģà¸£à¸°à¹Ģà¸Ķ":5854,"à¸ªà¸°à¹Ģà¸ģà¸©":5855,"Ġà¸ªà¸£à¸°à¸ļ":5856,"Ġà¹ĳà¹Ĳ":5857,"Ġà¸²à¸¢":5858,"à¸Ńà¸Ļà¸Ķà¸Ńà¸Ļ":5859,"à¸¥à¸¢à¹Ģà¸Ķà¸Ĭ":5860,"å¤":5861,"ĠSn":5862,"Ġà¹Ģà¹Ģà¸¥":5863,"Ġview":5864,"à¸ĩà¸ľ":5865,"ĠServer":5866,"ĠMot":5867,"Ġà¹ĥà¸Ļà¹ģà¸ĩ":5868,"ĠSystem":5869,"Ġà¸¥à¸Ńà¸Ļà¸Ķà¸Ńà¸Ļ":5870,"Ġ---":5871,"Ġà¹ģà¸£à¸¡":5872,"Ġà¸łà¸²à¸§":5873,"Ġ72":5874,"à¸įà¸Ĭà¸²à¸ģà¸²à¸£":5875,"ĠSec":5876,"à¸¥à¸°à¸§":5877,"Ġà¸łà¸²à¸ŀà¸¥":5878,"Ġà¹ģà¸ī":5879,"à¸£à¸²à¸ĺ":5880,"enz":5881,"Ġà¹Ģà¸Ļà¸¡":5882,"Ġà¸Ńà¸²à¸ĵà¸²à¸Ī":5883,"OK":5884,"Ġà¸®à¸Ńà¸ķ":5885,"Ġtit":5886,"ley":5887,"à¸²à¸ĩà¹Ħà¸ģà¸¥":5888,"à¹Ģà¸©à¸ģ":5889,"Ġà¹Ħà¸Łà¹Ģà¸ļà¸Ńà¸£":5890,"ĠUl":5891,"Ġà¸¢à¸¡":5892,"Ġà¹Ģà¸¨à¸£":5893,"Ġà¸¡à¸ģ":5894,"ĠClass":5895,"ĠLa":5896,"Ġà¹ģà¸ķà¸ĩ":5897,"à¸ĵà¸¥":5898,"à¸Ńà¸Ļà¸²à¸¡":5899,"Ġà¸Ĺà¸²à¸Ļà¸Ńà¸²à¸«à¸²à¸£":5900,"ck":5901,"à¸ļà¹Ħà¸¥":5902,"ĠGclub":5903,"Ġà¸ģà¸²à¸£à¸Ĺà¸Ķà¸¥à¸Ńà¸ĩ":5904,"Ġcol":5905,"à¸Ńà¸¡à¸ļ":5906,"Ġà¸Ľà¸£à¸²à¸ļà¸Ľà¸£à¸²à¸¡":5907,"à¸Ńà¸³à¹Ģà¸łà¸Ń":5908,"à¸ļà¸ĩà¸²à¸Ļ":5909,"Ġà¹Ĥà¸łà¸Ĭà¸Ļ":5910,"erb":5911,"Ġà¸Īà¸³à¸ŀà¸§à¸ģ":5912,"St":5913,"sc":5914,"Ġà¸Ńà¸¢à¸²à¸ģà¸£":5915,"vious":5916,"Ġ96":5917,"Ð°Ð":5918,"attle":5919,"Ġà¸ªà¸²à¸§à¸ģ":5920,"irect":5921,"à¸Ļà¸§à¸¥":5922,"à¸²à¸«à¸į":5923,"Ġà¸§à¸²à¸ĩà¹Ģà¸Ķ":5924,"à¸²à¸«à¸Ļà¸°":5925,"pro":5926,"Ġ2019":5927,"Ġà¹ģà¸ģà¸£":5928,"Ġà¸ªà¸ģà¸¥à¸Ļà¸Ħà¸£":5929,"Ġà¸Ĺà¸³à¸Ļà¸²à¸¢":5930,"à¸ģà¸Ħà¸¥":5931,"Ġà¸Īà¸Ļà¹Ħà¸Ķ":5932,"à¸Ļà¸ķà¸²à¸ķ":5933,"à¸Ķà¹Ģà¸§":5934,"Ġà¸ŀà¸Ļà¸¡":5935,"Ġà¸ªà¸Ľà¸£":5936,"à¸²à¸¢à¹ģà¸£à¸ĩ":5937,"Ġà¹ĥà¸Īà¸Ķ":5938,"à¸ģà¸£à¸°à¸Īà¸²à¸¢":5939,"Ġ700":5940,"Ġà¸ģà¸²à¸£à¸¢":5941,"Ġà¸ªà¸³à¹Ģà¸Ļà¸²":5942,"à¸²à¹Ģà¸Ľ":5943,"à¸²à¸Ļà¸Ĺà¸²à¸Ļ":5944,"Ġ.)":5945,"Ġà¸ģà¸£à¸°à¸ª":5946,"Ġà¸Ĥà¸Ńà¸ĩà¸Ĭà¸³à¸£":5947,"à¹Ĥà¸¢à¸Ļ":5948,"Ġ1688":5949,"Ġ83":5950,"à¸ķà¸²à¸£":5951,"ĠSil":5952,"à¸Ļà¹Ĥà¸¥à¸«":5953,"à¹ĥà¸ģà¸¥":5954,"Ġà¹ģà¸Ĺà¸ĩà¸«à¸§à¸¢":5955,"Ġà¸£à¸²à¸§à¸ģ":5956,"ĠSeries":5957,"Ġap":5958,"Ġà¸§à¸Ķ":5959,"yr":5960,"Ġà¸ģà¸²à¸£à¸Ł":5961,"Ġà¹ģà¸Ħà¸ļ":5962,"à¸ļà¸Ĺà¸£à¸²à¸ļ":5963,"Ġà¸Ŀà¸Ļà¸ķà¸ģ":5964,"à¹Ģà¸ģà¸²à¸°":5965,"Ġà¸ļà¸²à¸£à¸¡":5966,"à¸¡à¸Ī":5967,"Ġà¸£à¸°à¸ĩ":5968,"à¸Ļà¹ģà¸Ļà¸¥":5969,"à¸¡à¸²à¸ķà¸£à¸Ĳà¸²à¸Ļ":5970,"ĠIt":5971,"Ġà¸¥à¸ĩà¹Ĥà¸Ĺà¸©":5972,"à¸Ńà¸Īà¸²à¸ģà¸Ļ":5973,"à¸§à¸¢à¸Ķ":5974,"à¸²à¸ĩà¸łà¸²à¸ŀ":5975,"Ġphp":5976,"Ġ\",":5977,"Ġà¸ļà¸Ńà¸ª":5978,"Ġà¸Ľà¸£à¸°à¸«à¸¥à¸²à¸Ķ":5979,"Ġà¸¡à¸«à¸ģà¸£à¸£à¸¡":5980,"Ġà¹Ģà¸Ķà¸Ļ":5981,"Ñĥ":5982,"Ġà¹Ĥà¸ĭà¸Ķà¸²":5983,"Ġà¸Īà¸³à¹Ħà¸Ķ":5984,"Ġà¹ģà¸Ħà¸Ļ":5985,"ĠMin":5986,"Ġà¸§à¸£à¸£à¸Ħ":5987,"ĠSol":5988,"Ġà¸Ļà¸ª":5989,"Ġà¸ªà¸Ļà¸²à¸¡à¸ģ":5990,"Ġà¸ªà¹Ģà¸Ľà¸£à¸¢":5991,"ĠTechn":5992,"à¸£à¸£à¸Ķ":5993,"Ġà¸ķà¸£à¸ĩà¸ģà¸¥à¸²à¸ĩ":5994,"ĠGo":5995,"Ġà¸Ħà¸§à¸²à¸¡à¸Ľà¸£à¸°à¸Ĺ":5996,"Ġà¹Ĥà¸¥à¸Ĭ":5997,"AV":5998,"à¸Ńà¸Ļà¸Ļ":5999,"Ñĭ":6000,"shop":6001,"Ġà¸ŀà¸°à¹Ģà¸¢à¸²":6002,"à¸¢à¸²à¸ĩ":6003,"à¸ļà¸Ńà¸£":6004,"à¸²à¹ģà¸ķ":6005,"à¸Ħà¸¡à¸Ļà¸²à¸Ħà¸¡":6006,"ask":6007,"à¸Ķà¸³à¸£":6008,"CH":6009,"à¸Ńà¸ĩà¸¡à¸²à¸Īà¸²à¸ģ":6010,"ĠTHE":6011,"à¸ĩà¹Ģà¸Ĺà¸£à¸²":6012,"Ġà¹Ħà¸Ńà¸¨":6013,"à¸ģà¸£à¸¡":6014,"Ġà¸Īà¸²à¸ģà¹Ħà¸Ľ":6015,"Ġà¸ĺà¸Ļà¸²":6016,"Ġà¸īà¸°à¹Ģà¸Ĭ":6017,"Ġà¹ģà¸Ľà¸£à¸£":6018,"ĠMB":6019,"Ġà¸Ĺà¸²à¸ĩà¸ª":6020,"Ġà¸ģà¸²à¸¬à¸ª":6021,"fl":6022,"Ġà¹ģà¸Ħà¸¥à¹Ģà¸ĭ":6023,"Ġà¸ķà¸£à¸²à¸ļ":6024,"Ġab":6025,"à¸³à¸Ĺà¸°à¹Ģà¸¥":6026,"à¸¥à¹Ĥà¸Ķ":6027,"Ġà¹Ģà¸Ħà¸²à¸Ļ":6028,"Ġ%)":6029,"<<<<":6030,"à¹Ĥà¸¥à¸Ļ":6031,"Ġà¸Ĭà¸³à¸Ļà¸²à¸į":6032,"Ġà¹ģà¸Ħà¸§":6033,"Ġà¹Ĥà¸Ľà¹Ĥà¸¥":6034,"Ġà¸ĩà¸Ħ":6035,"Ġà¸ķà¸°à¸¥":6036,"à¸ĵà¸łà¸²à¸ŀà¸Ĭ":6037,"à¸¡à¹Ģà¸«à¸¥à¸§":6038,"Ġà¸Ħà¸§à¸²à¸¡à¸«à¸§":6039,"à¸Ńà¸£à¸Ńà¸ĩ":6040,"enter":6041,"Ġà¸ķà¸¥à¸ģ":6042,"à¸²à¸ı":6043,"à¸£à¸°à¹Ģà¸Ĥ":6044,"à¹ĥà¸ļà¹Ħà¸¡":6045,"ĠMal":6046,"à¸¢à¸ĩà¸Ħ":6047,"Ġà¹Ĥà¸Ķà¸¢à¸£à¸Ńà¸ļ":6048,"Ġà¸ªà¸²à¸§à¸Ļ":6049,"ĠPH":6050,"ĠPalace":6051,"con":6052,"Ñı":6053,"Ġà¸ķà¸²à¸£à¸²à¸ĩà¹Ģà¸¡à¸ķà¸£":6054,"à¸Ńà¸Ļà¸ļ":6055,"Ġind":6056,"à¸£à¸¡à¸²à¸Ļ":6057,"ating":6058,"ĠHouse":6059,"Ġà¸ģà¸³à¹Ģà¸Ļ":6060,"ĠAnt":6061,"à¸Ńà¸ĩà¸Ħà¸Ńà¸¡à¸ŀ":6062,"eel":6063,"Ġà¹Ģà¸Łà¸ĭà¸ļ":6064,"Ġart":6065,"ĠAR":6066,"Ġà¸Ļà¸Ħà¸£à¸ªà¸§à¸£à¸£à¸Ħ":6067,"à¸Ńà¸¢à¸²à¸ģ":6068,"td":6069,"à¸Ļà¸²à¸¢à¸ģ":6070,"Ġà¸ªà¸Ħ":6071,"ĠIT":6072,"ĠBlue":6073,"Ġà¹Ģà¸ŀà¸Ķà¸²à¸Ļ":6074,"à¸ķà¸ķà¸²à¸Ļ":6075,"Ġ63":6076,"à¸łà¸²à¸©":6077,"Ġà¸Ħà¸Ńà¸¡à¸¡":6078,"Ġà¹Ĥà¸Ķà¸¢à¸Ľà¸ģà¸ķ":6079,"de":6080,"Ġ][":6081,"ĠForex":6082,"Ġà¹ģà¸Ĺà¸£":6083,"oz":6084,"à¸¡à¹Ģà¸Ĺ":6085,"Ġà¸Ħà¸ĵà¸°à¸£":6086,"ĠPort":6087,"à¸Ńà¸ĩà¸«à¸¥à¸§à¸ĩ":6088,"à¸§à¸łà¸²à¸ŀ":6089,"à¸Ħà¸ĭ":6090,"Ġà¹Ĥà¸£à¸Ħà¸ķ":6091,"Ġà¸ģà¸²à¸£à¸ļà¸£à¸£":6092,"Ġà¸Ħà¸£à¸²":6093,"ĠHP":6094,"yc":6095,"à¸Ľà¸£à¸°à¸ĺà¸²à¸Ļ":6096,"Ġà¸«à¸¡à¸²à¸¢à¹Ģà¸«à¸ķ":6097,"ĠMore":6098,"Ġà¸Īà¸³à¸ķ":6099,"Ġà¸¡à¸²à¹ģà¸£à¸ĩ":6100,"ari":6101,"Ġ2008":6102,"à¹ģà¸«à¸ĩ":6103,"à¸²à¸Ļà¸Ļà¸²":6104,"Ġà¹ģà¸Ĺà¸£à¸ģ":6105,"ena":6106,"Ġà¹ģà¸Ľà¸Ķ":6107,"Ġà¹Ĥà¸ģà¸¥":6108,"à¸§à¸¢à¸Ńà¸£":6109,"à¸Ĭà¸Ńà¸ļ":6110,"Ġà¸ģà¸Ħ":6111,"Ġà¸¥à¸ŀà¸ļ":6112,"à¸Ħà¸³à¸ĸà¸²à¸¡":6113,"Ġà¸¥à¸¥":6114,"à¸ģà¸Ŀà¸Ļ":6115,"à¸Ķà¸ī":6116,"Ġà¹Ħà¸¥à¸Ĺ":6117,"Ġà¹Ħà¸Ħ":6118,"ĠPL":6119,"à¸¢à¸Ħ":6120,"à¸Ħà¸§à¸²à¸¡à¸ķ":6121,"Ġthailand":6122,"Ġà¸£à¸°à¸ļà¸ļà¸Ľà¸ı":6123,"Ġà¸Ħà¸§à¸²à¸¡à¸Ĭà¸Ńà¸ļ":6124,"ï¼":6125,"Ġmp":6126,"ĠBlu":6127,"Ġà¸¡à¸«à¸²à¸ª":6128,"oe":6129,"à¸³à¸Ī":6130,"Ġà¸ģà¸£à¸°à¸Ĺà¸£à¸§à¸ĩà¸ģà¸²à¸£":6131,"Ġà¸Ľà¸²à¸¥":6132,"Ġà¹ģà¸®à¸£":6133,"à¹Ģà¸¨à¸£":6134,"à¹Ĥà¸Ħà¸£à¸ĩ":6135,"à¸ģà¸ģà¸²à¸£à¸°":6136,"Ġà¸ķà¸ļ":6137,"Ġà¸§à¸²à¸£à¸ªà¸²à¸£":6138,"Ġà¸Ĥà¸Ńà¹Ĥà¸Ĺà¸©":6139,"ency":6140,"agon":6141,"oke":6142,"ĠBM":6143,"Ġà¸ĭà¸²à¸£":6144,"Ġà¸Ĥà¸Ńà¸ļà¹Ģà¸Ĥà¸ķ":6145,"Ġà¸£à¸Ńà¸¢à¸¢":6146,"à¸Ħà¸§à¸²à¸¡à¹Ģà¸Ľ":6147,"Ġà¸ļà¸ģ":6148,"iambl":6149,"Ġà¹ģà¸ļà¸ļà¸Ńà¸¢":6150,"lex":6151,"Ġsex":6152,"à¸²à¸²":6153,"Ġà¸Īà¸Ńà¸£":6154,"79":6155,"à¸ĩà¸Ľà¸ı":6156,"Ġ125":6157,"son":6158,"Ġà¸Ĥà¸Ńà¸Ńà¸Ļ":6159,"Ġà¹Ĥà¸Ķà¸¢à¸Ń":6160,"à¸Ķà¹Ģà¸ķà¸£":6161,"ĠEngine":6162,"akeoto":6163,"Ġwilliambl":6164,"Ġwilliamblakeoto":6165,"Ġà¹Ĥà¸Ħà¸Ļ":6166,"Ġà¸Ńà¸²à¸Ĭà¸į":6167,"Ġà¸ĩà¸²à¸Ļà¹Ģà¸¥":6168,"à¸ļà¸ģà¸²à¸£":6169,"à¸Ļà¸ªà¸³à¸Ħ":6170,"à¸Ńà¸ģà¸²à¸£":6171,"Ġà¹Ģà¸¡à¸Ĩ":6172,"ames":6173,"à¸Ńà¸ĩà¸Ńà¸²à¸«à¸²à¸£":6174,"Ġà¸Ńà¸§à¸Ķ":6175,"à¸ģà¸Ħà¸²à¸¡":6176,"ĠCL":6177,"à¸Ķà¹Ĩ":6178,"Ġà¸ªà¸Ķà¹Ĩ":6179,"à¸§à¸ŀà¸£à¸£à¸ĵ":6180,"à¸ĩà¹Ģà¸Ń":6181,"à¸Ľà¸£à¸°à¸¡à¸²à¸ĵ":6182,"Ġà¹Ĳ":6183,"à¸Ľà¸ģà¸²à¸£":6184,"Ġà¹Ĥà¸£à¸Ļ":6185,"Ġà¹Ģà¸¢à¸Ļ":6186,"à¹Ģà¸ŀà¸£à¸²à¸°":6187,"à¹Ģà¸Ļà¸Ńà¸£":6188,"à¸§à¸£à¸£à¸ĵà¸ł":6189,"ĠStr":6190,"ĠInter":6191,"à¸Ńà¸Ļà¸ģà¸¥":6192,"à¸ŀà¹Ģà¸Ķà¸ķ":6193,"Ġà¸ļà¸Ńà¸¢":6194,"ĠâĢº":6195,"àº":6196,"à¸Ħà¸Ńà¸¡":6197,"Ġà¹Ģà¸ļà¸Ļà¸ĭ":6198,"Ġdr":6199,"ĠAuto":6200,"Ġà¸ķà¸°à¸ģà¸£":6201,"à¹ģà¸¥à¸ģ":6202,"Ġà¸ªà¹Ħ":6203,"à¸¢à¸Ļà¹ģà¸ļà¸ļ":6204,"ĠBack":6205,"au":6206,"ĠCle":6207,"Ġà¹Ģà¸ķà¸¢":6208,"Ġà¸§à¸²à¸¥":6209,"Ġà¹ģà¸Ńà¸Łà¸£":6210,"à¸ļà¸Ĭ":6211,"Ġà¹ģà¸Ħà¸Ľà¸ĭ":6212,"Ġà¸Ĺà¸³à¸Ľà¸£à¸°à¸ķ":6213,"à¸ªà¸²à¸Ħà¸£":6214,"à¸¹à¹ĭ":6215,"ĠUFA":6216,"Ġhot":6217,"ĠBusiness":6218,"à¸¢à¸¨":6219,"à¸Ħà¸§à¸²à¸¡à¸Īà¸³à¹Ģà¸Ľ":6220,"à¸§à¸Ķà¸²":6221,"à¹Ģà¸ĭà¸Ļà¸Ńà¸¥":6222,"Ġtag":6223,"46":6224,"à¸Ńà¸¢à¸¥":6225,"Ġà¸£à¸°à¸¡":6226,"box":6227,"ĠEX":6228,"à¹ĥà¸«à¸¥":6229,"ĠMaster":6230,"ji":6231,"ĠNot":6232,"Ġà¹Ģà¸Łà¸£":6233,"Ġà¸ªà¸Ļà¸Ńà¸ĩà¸Ħà¸§à¸²à¸¡à¸ķ":6234,"OV":6235,"à¸Ļà¹ģà¸Ļà¸§":6236,"Ġà¸īà¸¥à¸²à¸ģ":6237,"Ġà¸ŀà¸£à¸°à¸Ńà¸²à¸Ĺ":6238,"à¸£à¸ĵà¸°":6239,"ĠII":6240,"à¸Ńà¸ģà¸ªà¸£à¸£":6241,"Ġà¸ļà¸²à¸Ľ":6242,"à¸³à¸ļà¸¥":6243,"à¸²à¸£à¸Ħà¸²à¸¡":6244,"ese":6245,"Ġà¸¡à¸«à¸²à¸ªà¸²à¸£à¸Ħà¸²à¸¡":6246,"à¸²à¸Ľà¸¥":6247,"Ġà¸Ľà¸²à¸ĩ":6248,"Ġà¹ĥà¸Ļà¸Ļà¸²à¸¡":6249,"ĠÙ":6250,"play":6251,"Ġqu":6252,"ene":6253,"à¸¢à¸Ļà¸Ńà¸Ļ":6254,"à¸²à¸ľà¸¥à¸²à¸į":6255,"à¸Ĭà¸°":6256,"itor":6257,"à¸¡à¹Ĩ":6258,"à¸Ĳà¸§":6259,"Ġà¸Ĺà¸³à¹Ģà¸ĩ":6260,"ĠFiled":6261,"Ġà¹ģà¸ļà¸¥":6262,"à¸ģà¸¯":6263,"à¸Ħà¸§à¸²à¸¡à¸ľ":6264,"à¸²à¸ĩà¸Ļà¸Ńà¸ģ":6265,"à¸ŀà¸ŀ":6266,"Ġà¸Ľà¸£à¸°à¸ŀà¸¤à¸ķ":6267,"Ġà¸Ĥà¸Ńà¸ĩà¸Ķ":6268,"à¹Ħà¸«à¸§":6269,"Ġà¹Ħà¸Ńà¹Ĥà¸Łà¸Ļ":6270,"Ġsup":6271,"Ġà¸Ľà¸ķ":6272,"ĠSS":6273,"à¸Ńà¹Ģà¸¢":6274,"à¸£à¸²à¸Ĭà¸Ńà¸²à¸ĵà¸²à¸Ī":6275,"à¸Ńà¸Ńà¸ģà¹ģà¸ļà¸ļ":6276,"ĠMult":6277,"à¸§à¸¢à¹Ģà¸ķ":6278,"à¸§à¸ģà¸²à¸¨":6279,"à¹Ģà¸Ķà¸¢":6280,"à¸¢à¸Ļà¸£à¸ĸ":6281,"Ġà¹Ħà¸ģà¸Ķ":6282,"Ġà¸ĸà¸²à¸Ķ":6283,"ĠBy":6284,"ĠAL":6285,"Ġà¹ģà¸ªà¸§à¸ĩà¸«à¸²":6286,"à¸Ħà¸£à¸Ńà¸ļ":6287,"ĠCr":6288,"à¹Ģà¸«à¸¢":6289,"à¸Ļà¸²à¸Ķà¸²":6290,"à¸Ĺà¸£à¸ªà¸²à¸Ħà¸£":6291,"Ġà¸£à¸²à¸ģà¸":6292,"Ġà¸Ľà¸¥à¸²à¸¢à¸Ľ":6293,"Ġà¹ģà¸ĭà¸¡":6294,"à¹Ģ":6295,"Ġà¸ªà¹Ģà¸ķà¹Ģà¸Ķ":6296,"à¹ģà¸Ĥà¸ģ":6297,"à¸Ķà¸ģà¸İà¸«à¸¡à¸²à¸¢":6298,"Ġà¸ģà¸Ķà¸Ľ":6299,"à¹ĮâĢĿ":6300,"à¸ŀà¸¢à¸ŀ":6301,"Ġid":6302,"hor":6303,"Ġà¸Ĺà¸£à¸ĩà¸ľà¸¡":6304,"Ġsl":6305,"à¸Łà¸Ĺ":6306,"ĠãĢ":6307,"Ġfrom":6308,"ĠPrin":6309,"Ġà¸ľà¸Ńà¸¡":6310,"à¹Ģà¸ĭà¹Ĥà¸¥à¸Ļ":6311,"Ġà¹Ģà¸ģà¸ª":6312,"Ġà¸łà¸²à¸§à¸Ļà¸²":6313,"Ġà¹Į,":6314,"other":6315,"à¸§à¸Ļà¸ķà¸³à¸ļà¸¥":6316,"oney":6317,"Ġà¹Ĥà¸£à¸Ħà¸«":6318,"à¸ļà¹Ģà¸«à¸¡à¸²":6319,"Ġdes":6320,"Ġà¸ģà¸§à¸Ļ":6321,"Ġà¸Ħà¸³à¸Ńà¸ĺ":6322,"à¸²à¹Ģà¸¥":6323,"ka":6324,"à¸Ļà¸«à¸¡":6325,"à¹Ģà¸Ĺà¸¥":6326,"ĠÂ®":6327,"à¸Ńà¸¢à¸Ħà¸£":6328,"Ġà¹Ģà¸ªà¸ĸ":6329,"Ġà¹Ģà¸ŀà¸¥à¸¢":6330,"Ġà¸Łà¸¥":6331,"Ġà¸ªà¸«à¸łà¸²à¸ŀ":6332,"ĠUK":6333,"Ġthai":6334,"ĠUV":6335,"à¸ģà¸£à¸°à¸Ĺà¸£à¸§à¸ĩ":6336,"ips":6337,"à¸ĩà¸¨à¸£":6338,"à¹Ģà¸ģà¸£à¸Ķ":6339,"à¸ªà¸£à¸²à¹Ģà¸Ńà¸¥":6340,"ï¿½ï¿½ï¿½ï¿½ï¿½ï¿½ï¿½ï¿½":6341,"Ġ78":6342,"Ġà¸¡à¸Ĺ":6343,"ĠService":6344,"Ġà¸Ľà¸£à¸°à¸Ĺà¸²à¸Ļ":6345,"Ġà¸Ļà¸Ĥ":6346,"Ġà¹Ĥà¸Ħà¸ģ":6347,"à¸²à¸Ľà¸£à¸°à¸ķ":6348,"ĠProduct":6349,"Ġall":6350,"erc":6351,"à¹Ĥà¸Ķà¸£":6352,"à¸Ļà¹Ģà¸ĭà¸Ńà¸£":6353,"Ġà¸ģà¸£à¸°à¹Ģà¸ŀà¸²à¸°à¸Ńà¸²à¸«à¸²à¸£":6354,"Ġà¸Ľà¸²à¸ģà¸":6355,"à¸ĺà¸²":6356,"à¸ļà¸ªà¸§à¸Ļ":6357,"à¸¡à¸Ĥà¸Ļà¸²à¸Ķ":6358,"Ġà¸Ķà¸Ńà¸Ĺ":6359,"Ġà¸ķà¸³à¸£à¸²":6360,"Ġà¸Ĺà¸²à¸ĩà¸Ĥ":6361,"Ġà¸ŀà¸ģ":6362,"Ġà¸Ħà¸ķ":6363,"Ġsbobet":6364,"Ġà¸Ńà¸Ńà¸ģà¸ĭ":6365,"reet":6366,"Ġà¸Ĥà¸Ńà¸ĩà¸Ĺ":6367,"Ġà¹Ĥà¸«à¸Ķ":6368,"à¸³à¸Ļà¸¡":6369,"à¸²à¸£à¸Ńà¸ļ":6370,"Ġà¸Ĺà¸Ńà¸ĩà¹ģà¸Ķà¸ĩ":6371,"Ġà¹ģà¸Ńà¸Ľà¸ŀà¸¥":6372,"Ġà¹Ĵà¹Ķ":6373,"ĠWin":6374,"Ġà¸Ļà¸²à¸¢à¸ģà¸¯":6375,"Ġà¹Ģà¸¡à¸²à¸ª":6376,"Ġà¸Ĺà¸³à¸ķ":6377,"Ġà¹Ģà¸ļà¸¥à¹Ģà¸¢":6378,"ĠPass":6379,"à¸ģà¸©à¸²à¸ķ":6380,"unction":6381,"Ġà¸¡à¸°à¹Ģà¸Ĥ":6382,"po":6383,"ĠOffice":6384,"Ġà¸ŀà¸ļà¹Ģà¸«":6385,"Ġà¸Ńà¸²à¸«à¸²à¸£à¸ģà¸¥à¸²à¸ĩà¸§":6386,"Ġà¸ķà¸Ńà¸ļà¸Ħà¸³à¸ĸà¸²à¸¡":6387,"Ġà¹Ĥà¸łà¸Ĭà¸Ļà¸²à¸ģà¸²à¸£":6388,"ĠPrevious":6389,"à¸ģà¸©à¸²à¸Ľà¸£à¸°à¸ķ":6390,"Ġà¸Ńà¸Ńà¹Ĥà¸ķ":6391,"78":6392,"īà¸¥":6393,"Ġ79":6394,"uter":6395,"====":6396,"à¸Ļà¸ªà¸²à¸¢":6397,"Ġ160":6398,"Ġà¹ģà¸ªà¸ĩà¸ªà¸§":6399,"Ġà¸Ńà¸²à¸ĵ":6400,"Ġà¸Ħà¸§à¸²à¸¡à¹Ģà¸Īà¸£":6401,"ĠSoft":6402,"ĠÂ«":6403,"à¸ģà¸ģà¸":6404,"ye":6405,"ature":6406,"à¸²à¸Ļà¹Ģà¸ģ":6407,"à¸³à¹ĥà¸Ī":6408,"Ġà¸ģà¸²à¸£à¹ģà¸ª":6409,"ĠTime":6410,"à¸ĩà¸¥":6411,"Ġgo":6412,"Ġà¸ŀà¸ļà¸Ľà¸°":6413,"à¸£à¸²à¸į":6414,"Ġà¸Ľà¸£à¸°à¸¡à¸§à¸¥à¸ľà¸¥":6415,"à¸§à¸ĭ":6416,"à¸ļà¸£à¸²à¸Ĭà¸ģà¸²à¸£":6417,"à¸ĩà¸ģà¸£à¸ĵ":6418,"ĠSony":6419,"atur":6420,"Ġà¹Ģà¸¡à¸ķà¸ķà¸²":6421,"Ġà¹Ģà¸Ĺà¸§à¸Ķà¸²":6422,"Ġà¹ģà¸Ħà¸Ļà¸²à¸Ķà¸²":6423,"Ġà¸£à¸²à¸Ĭà¸§à¸ĩà¸¨":6424,"ĠInternet":6425,"Ġà¹Ģà¸§à¸¢":6426,"à¸§à¹ĥà¸«à¸¡":6427,"off":6428,"à¹Ģà¸Ĺà¸Ħ":6429,"Ġà¸ĺà¸ĩ":6430,"ience":6431,"à¸§à¸ĵ":6432,"à¸Ńà¸Ļà¹ģà¸£à¸ĩ":6433,"ĠBook":6434,"à¸Ļà¹ĥà¸Ķ":6435,"aint":6436,"à¸Ķà¹Ģà¸ģà¸¥":6437,"Ġà¹Ģà¸¥à¸ģ":6438,"ict":6439,"Ġjapan":6440,"Ġà¸¡à¸§à¸¢à¹Ħà¸Ĺà¸¢":6441,"Ġà¸Ľà¸¥à¸§à¸ģ":6442,"à¸²à¹Ħà¸«à¸¡":6443,"Ġà¹ģà¸Łà¸¥à¸Ĭ":6444,"Ġà¸Ħà¸§à¸²à¸¡à¸ªà¸°à¸Ńà¸²à¸Ķ":6445,"à¸ķà¸¥à¸Ńà¸Ķ":6446,"la":6447,"Ġà¸ŀà¸£à¸°à¸Ļà¸Ħà¸£à¸¨à¸£":6448,"Ġà¸ŀà¸£à¸°à¸£à¸²à¸Ĭà¸Ķà¸³à¸£":6449,"Ġà¹Ģà¸Ĥà¸ķà¹Ĥà¸Ĺà¸©":6450,"à¸Ķà¸Ĥà¸§à¸²à¸ĩ":6451,"Ġà¸ģà¸¤à¸©":6452,"Ġà¸łà¸²à¸¢à¹ĥà¸Ļà¸ļ":6453,"OU":6454,"Ġfree":6455,"evelop":6456,"Ġà¹Ĥà¸«à¸§":6457,"Ġ=\"":6458,"à¸Ńà¸®":6459,"à¸ĩà¸Ńà¸²à¸«à¸²à¸£":6460,"Ġcar":6461,"à¸Ńà¸Īà¸³à¸ģ":6462,"Ġà¹Ĥà¸ľà¸¥":6463,"à¸²à¸Ļà¹Ģà¸£":6464,"Ġà¹Ģà¸ĭà¸ķ":6465,"à¸Ķà¸ĩà¸Ħà¸§à¸²à¸¡à¸¢":6466,"ÐµÐ":6467,"à¸£à¸²à¸«":6468,"ashion":6469,"Ġà¹Ħà¸®à¹Ĥà¸Ķà¸£":6470,"ĠâĢİ":6471,"Ġà¸ľà¸¥à¸Ĥ":6472,"Ġà¸ŀà¸²à¸Ļ":6473,"à¸Ńà¸²à¸įà¸²":6474,"Ġà¸ķà¸£à¸²à¸Ķ":6475,"à¸Ľà¹Ĥà¸Ľ":6476,"Ġbitcoin":6477,"ĠSu":6478,"à¸Ńà¸¢à¹Ģà¸Ń":6479,"ĠPan":6480,"Ġgel":6481,"à¸Ļà¹Ħà¸«à¸§":6482,"à¸Ńà¸¡à¸ª":6483,"Ġoff":6484,"Ġà¹Ģà¸Ľà¸Ļ":6485,"red":6486,"ĠDec":6487,"Ġà¹Ģà¸ŀà¸²":6488,"ĠAdd":6489,"à¹Į)":6490,"Ġà¸£à¸²à¸Ķ":6491,"à¸ĩà¸Ĭà¸Ļà¸°à¹Ģà¸¥":6492,"irt":6493,"Ġà¸ķà¸£à¸¡":6494,"Ġà¸łà¸ŀ":6495,"à¸²à¸Ńà¸²à¸ģà¸²à¸¨à¸¢à¸²à¸Ļ":6496,"à¸£à¸²à¸ķ":6497,"Ġà¸Ļà¸£à¸²à¸ĺ":6498,"Ġ350":6499,"Ġà¸£à¸ĸà¹Ģà¸Ĥ":6500,"ĠControl":6501,"Ġ71":6502,"Ġâĺħ":6503,"Ġak":6504,"à¸ĩà¹Ģà¸ª":6505,"à¸ģà¸²à¸£à¸ļà¸Ķ":6506,"Ġà¸Ĺà¸Ńà¸¡":6507,"uy":6508,"Ġà¸Ľà¸£à¸²à¸£à¸ĸà¸Ļà¸²":6509,"à¹Ĥà¸ģà¹ģà¸¥à¸ķ":6510,"à¸£à¸¡à¸«":6511,"Ġshop":6512,"à¸Ńà¸Ļà¹Ĥà¸¢à¸Ļ":6513,"Ġà¸§à¸²à¸¢":6514,"Ġà¹ģà¸Ħà¸¡":6515,"ĠNews":6516,"ents":6517,"ĠKey":6518,"à¸ĩà¹ĥà¸Ķ":6519,"Ġà¹Ģà¸Ľà¹Ģà¸Ľà¸Ńà¸£":6520,"ovie":6521,"âĢĻ":6522,"ĠSun":6523,"ĠColle":6524,"Ġ2007":6525,"à¸²à¸ļà¸Ļ":6526,"ĠDVD":6527,"Ġà¸¡à¸Ńà¸ļà¸«à¸¡à¸²à¸¢":6528,"Ġà¸£à¸°à¸¥":6529,"word":6530,"à¹Ģà¸ģà¸ª":6531,"à¸¡à¸ªà¸²à¸§":6532,"ĠWork":6533,"Ġà¹Ģà¸īà¸ŀà¸²à¸°à¸ķ":6534,"Ġà¸Ńà¸Ńà¸ģà¹Ģà¸ª":6535,"Ġà¸ģà¸£à¸°à¸Ķà¸²à¸Ļ":6536,"Ġà¸Ĭà¸²à¸¢à¸«à¸Ļ":6537,"Ġà¹Ģà¸ģà¸£à¸ĩ":6538,"à¸Ľà¸£à¸¡":6539,"à¸Ĺà¸¥":6540,"ior":6541,"à¸ĩà¹ĥà¸ª":6542,"Ġà¸Ĭà¸Ļà¸ļà¸Ĺ":6543,"ĠVar":6544,"Ġà¸Ħà¸§à¸²à¸¡à¹Ģà¸ģ":6545,"à¸ķà¸£à¸łà¸²à¸ŀ":6546,"Ġà¹Ĩà¹Ĩà¹Ĩ":6547,"à¸Ńà¸ĩà¸Ĭà¸²à¸¢":6548,"Ġà¸ªà¸«à¸£à¸²à¸Ĭà¸Ńà¸²à¸ĵà¸²à¸Ī":6549,"à¸²à¸ģà¸£à¸ĵ":6550,"burg":6551,"Ġà¸İ":6552,"ĠCS":6553,"à¸§à¸¢à¹Ģà¸«à¸ķ":6554,"à¸¡à¸«à¸²à¸Ķ":6555,"Ġà¸ŀà¸įà¸²":6556,"Ġà¸«à¸²à¹Ģà¸ĩ":6557,"Ġà¸ªà¸²à¸¢à¹Ħà¸Ł":6558,"AI":6559,"à¸Ńà¸ģà¹Ģà¸ļ":6560,"Ġà¸£à¸°à¸§à¸²à¸ĩ":6561,"ĠSU":6562,"Ġà¸¡à¸Ļà¸ķ":6563,"Ġà¸§à¸²à¸Ķà¸łà¸²à¸ŀ":6564,"à¸Ķà¸¡à¸ªà¸¡à¸ļ":6565,"Ġà¸¥à¸²à¸¢à¸Ļ":6566,"Ġà¸ģà¸£à¸°à¸Ĺà¸£à¸§à¸ĩà¸¨":6567,"à¹Ģà¸ļà¸²à¸«à¸§à¸²à¸Ļ":6568,"ĠView":6569,"à¸§à¹Ģà¸Ĥ":6570,"Ġà¹Ģà¸¥à¸ªà¹Ģà¸ķ":6571,"à¸Ńà¸ªà¸ĩà¸ª":6572,"ĠSocial":6573,"Ġà¸ģà¸³à¹ģà¸ŀà¸ĩà¹Ģà¸ŀà¸Ĭà¸£":6574,"Ġà¸Ļà¸²à¸§":6575,"Ġà¸«à¸£à¸Ń":6576,"ĠStore":6577,"ĠUFABET":6578,"Ġcas":6579,"âĢ¢":6580,"outube":6581,"aby":6582,"Ġà¸ķà¸²à¸¡à¹ĥà¸Ī":6583,"plication":6584,"ĠOpt":6585,"à¸Ńà¸¨":6586,"ĠBest":6587,"Ġ74":6588,"à¸¢à¸Ļà¸Ļà¸²":6589,"à¸ĺà¸¢":6590,"Ġà¸Ńà¸ĩà¸¨à¸²à¹Ģà¸ĭà¸¥":6591,"Ġà¸Ńà¸ĩà¸¨à¸²à¹Ģà¸ĭà¸¥à¹Ģà¸ĭ":6592,"à¸ĵà¸§":6593,"à¹Ģà¸Īà¸²à¸°à¸Īà¸ĩ":6594,"Ġà¹Ģà¸īà¸ŀà¸²à¸°à¹Ģà¸Īà¸²à¸°à¸Īà¸ĩ":6595,"Ġà¸Ńà¸£à¸£à¸ĸ":6596,"++":6597,"Ġà¸ķà¸¥à¸²à¸Ķà¸«à¸¥":6598,"Ġà¸Ĥà¸Ńà¸ĩà¸ģ":6599,"ĠKing":6600,"ĵà¸£":6601,"Ġà¹Ģà¸§à¸ªà¸ķ":6602,"ĠLim":6603,"Ġà¹Ĥà¸£à¸Ħà¹Ģà¸ļà¸²à¸«à¸§à¸²à¸Ļ":6604,"Ġà¸łà¸²à¸Ħà¹Ģà¸Ńà¸ģà¸Ĭà¸Ļ":6605,"ids":6606,"Ġà¸Ħà¸Ńà¸¥à¹Ģà¸¥":6607,"Ġà¸ķà¸°à¸ģ":6608,"à¸Ħà¸Ńà¸¢":6609,"Ġ76":6610,"Ġà¸Ĭà¸²à¸¢à¸Ŀ":6611,"ĠLive":6612,"à¸²à¸ŀà¸¢":6613,"gr":6614,"à¸¡à¹ĥà¸Ī":6615,"Ġà¸¢à¸Ńà¸ĩ":6616,"à¸²à¸ĩà¸¥":6617,"Ġà¹Ĥà¸ķà¸°":6618,"à¸ķà¹Ģà¸Ļà¸ª":6619,"Ġà¹ĥà¸Īà¸ģà¸¥à¸²à¸ĩ":6620,"à¸Ńà¸ļà¹ģà¸Ĺà¸Ļ":6621,"Ġà¸£à¸Ńà¸Ħà¸Ńà¸¢":6622,"à¸¢à¸ĩà¸¥":6623,"date":6624,"Ġà¸łà¸²à¸Ħà¸Ń":6625,"ĠSal":6626,"à¸Ļà¸Ħà¸ķ":6627,"à¸ģà¸Ĺà¸Ńà¸ĩ":6628,"top":6629,"Ġà¹Ģà¸Ĺà¸£":6630,"à¹Ģà¸Ħà¸£à¸Ļ":6631,"Ġà¸¥à¸Ńà¸Ļ":6632,"ĠBB":6633,"ĠAb":6634,"à¸Ńà¸Ńà¸ĩ":6635,"ĠExc":6636,"à¸Ļà¸łà¸²à¸ŀ":6637,"agen":6638,"à¸§à¸Ļà¸£à¸²à¸Ĭà¸ģà¸²à¸£":6639,"Ġà¸įà¸²":6640,"à¸²à¸¢à¸Ĺà¸³":6641,"Ġà¸Ľà¸Ńà¸¢":6642,"Ġà¸ŀà¸ļà¸ģ":6643,"erry":6644,"Ġà¸®à¸°":6645,"à¹ģà¸£à¸ĩà¸ĩà¸²à¸Ļ":6646,"à¸Ńà¸Ńà¸¢":6647,"ĠCOM":6648,"Ġà¹Ģà¸§à¸Ľ":6649,"Ġà¸¡à¸²à¸ªà¹Ģà¸ķà¸Ńà¸£":6650,"Ġà¸Ľà¸Ļ":6651,"à¸«à¸²à¸£à¸ĺ":6652,"Ġà¹ģà¸ļà¸ļà¸Łà¸Ńà¸£":6653,"ĠGener":6654,"à¸ļà¸²à¸Ļ":6655,"ĠLtd":6656,"à¹Ĥà¸Ĩà¸©":6657,"MA":6658,"à¸¬à¸²à¸¥":6659,"à¸Ńà¸ĩà¸Ħà¸²à¸¢":6660,"Ġà¸ģà¸³à¸Ļ":6661,"Ġ=>":6662,"Ġà¹Ĥà¸Ķà¸Ļà¹ĥà¸Ī":6663,"à¸ĵà¸Ħà¸£":6664,"à¸ģà¸ªà¸Ńà¸Ļ":6665,"Ġà¸®à¸Ńà¸¥à¸¥":6666,"Ġà¹Ħà¸Ľà¸£à¸©à¸ĵ":6667,"Ġà¸ģà¸²à¸£à¹ģà¸ªà¸Ķà¸ĩà¸Ħà¸§à¸²à¸¡à¸Ħ":6668,"Ġà¸Ħà¸²à¸Ķà¸ģà¸²à¸£à¸ĵ":6669,"Ġà¸ģà¸²à¸£à¸ķà¸²à¸¡":6670,"à¸£à¸Ńà¸Ķ":6671,"Ġà¸«à¸Ļà¸Ńà¸ĩà¸Ħà¸²à¸¢":6672,"Ġà¹Ħà¸Ķà¸Ńà¸²à¸£":6673,"à¸Ĥà¸²à¸§":6674,"da":6675,"Ġà¸¸":6676,"Ġà¸Ħà¸§à¸²à¸¡à¸ģà¸¥":6677,"à¸ļà¸ļà¸Ńà¸£":6678,"Ad":6679,"à¸Ħà¸ĵà¸°":6680,"ĠSD":6681,"à¸²à¸Ńà¸²à¸§à¸²à¸ª":6682,"Ġà¸ĩà¸²à¸Ļà¸¨":6683,"Ġà¸Ħà¸Ńà¸Ļà¹Ģà¸Ĺ":6684,"Ġà¹ģà¸Ľà¸°":6685,"Ġà¹ģà¸¡à¸ķà¸Ĭ":6686,"à¸²à¸¢à¸ļ":6687,"Ġà¸Ĺà¸²à¸ĩà¸Ķ":6688,"à¸ģà¸²à¸Ĥ":6689,"Ġà¸ķà¸²à¸¥":6690,"amblia":6691,"els":6692,"à¸²à¸§à¹Ĥà¸ŀ":6693,"à¸Ħà¸³à¹ģà¸«à¸ĩ":6694,"à¸Ķà¸ķà¸²":6695,"ĠSet":6696,"ler":6697,"à¸ŀà¸Ļà¸¡":6698,"Ġà¹Ħà¸Ĭ":6699,"Ġà¸Ľà¸£à¸²à¸ģà¸ıà¸ģà¸²à¸£à¸ĵ":6700,"à¸ªà¸«":6701,"à¸²à¸Ĺà¸£":6702,"Ġà¸ļà¸Ĺà¹Ģà¸ŀà¸¥à¸ĩ":6703,"ST":6704,"à¸¢à¸Ńà¸¡à¸£":6705,"Ø§Ù":6706,"à¸ªà¸²à¸ĺà¸²à¸£à¸ĵà¸ª":6707,"à¸Ĺà¸¢à¸²à¹Ģà¸Ĥà¸ķ":6708,"Ġseek":6709,"Ġà¹Ģà¸Ĥà¸²à¹ĥà¸«à¸į":6710,"Ġà¹Ģà¸Ļà¸ķ":6711,"ival":6712,"Ġ220":6713,"à¸³à¸Ļà¸§à¸ĵ":6714,"ions":6715,"à¹ģà¸Ĺà¸Ħ":6716,"à¸ªà¸²à¸ģà¸¥":6717,"ĠTour":6718,"Ġ105":6719,"Ġà¸Ķà¸Ńà¸Ļà¹Ģà¸¡":6720,"Ġà¹Ħà¸¡à¸Ħ":6721,"à¸¨à¸Ļà¸Ħà¸ķ":6722,"Ġà¸łà¸²à¸Ĭà¸Ļà¸°":6723,"à¸ģà¸«à¸¥à¸²à¸Ļ":6724,"à¸ĩà¸ĩà¸²":6725,"ĠPe":6726,"à¸Ħà¸¥à¸Ńà¸Ķ":6727,"Ġà¸¡à¸°à¸¡":6728,"ĠIC":6729,"Ġà¸ļà¸²à¸¥":6730,"Ġà¸ªà¸ģà¸Ľà¸£à¸ģ":6731,"Ġà¹Ĥà¸ĸ":6732,"à¹ģà¸Ľà¸£":6733,"Ġout":6734,"Ġà¹ģà¸ªà¸Ķà¸ĩà¸ĸ":6735,"Ġà¸£à¸²à¸Ħà¸²à¸ª":6736,"à¸ļà¸²":6737,"Ġà¸Ķà¸ģ":6738,"ĠLog":6739,"à¸§à¸¢à¸Ħà¸§à¸²à¸¡":6740,"Ġà¸¢à¸ģà¸¢":6741,"à¸Ħà¹ĥà¸«à¸¡":6742,"Ġà¹Ģà¸Īà¸¡à¸ª":6743,"Ġà¸Ļà¸°à¸Ī":6744,"Ġà¸Ľà¸£à¸°à¸Īà¸§à¸ļà¸Ħ":6745,"ĠÃ¡":6746,"Ġ~":6747,"Ġà¸Ĭà¸²à¸Ļ":6748,"Ġà¸ģà¸²à¸£à¸Ħà¸³à¸Ļà¸§à¸ĵ":6749,"à¸Ľà¹Ĥà¸łà¸Ħ":6750,"ae":6751,"Ġà¸³":6752,"ĠCateg":6753,"ĠNetwork":6754,"à¸Ŀà¸£":6755,"à¸²à¸ģà¸Īà¸Ļ":6756,"Ġà¹ģà¸ģà¸ĩ":6757,"Ġá»":6758,"Ġà¹Ĥà¸Ķà¸¢à¹Ģà¸īà¸¥":6759,"Ġà¸Ĥà¸Ļà¸²à¸Ļ":6760,"Ġà¹ģà¸ĭà¸ĩ":6761,"à¸¨à¸§à¸£":6762,"à¸Ńà¸ĩà¸ķà¸²à¸¡":6763,"Ġà¸§à¸Ńà¸£":6764,"Ġà¸Łà¸²à¸Ļ":6765,"à¸²à¸ģà¸¥à¸³à¸ļà¸²à¸ģ":6766,"Ġà¸ķà¸£à¸ĩà¹Ħà¸«à¸Ļ":6767,"à¹Ģà¸¥à¸ĩ":6768,"à¸Ļà¸¢à¸Ńà¸¡":6769,"ĠReview":6770,"Ġà¹Ĥà¸Ķà¹Ģà¸¡à¸Ļ":6771,"Ġà¹ģà¸¡à¸ĩ":6772,"EA":6773,"ĠGreen":6774,"ĠISO":6775,"Ġà¹ģà¸ªà¸Ķà¸ĩà¸Ħà¸§à¸²à¸¡à¸Ħ":6776,"Ġà¹Ģà¸Ľà¸²":6777,"Ġà¸ŀà¸Ńà¹Ģà¸ŀ":6778,"Ġà¸łà¸²à¸Ħà¸§":6779,"ĠCor":6780,"Ġà¸ķà¸Ńà¸Ļà¸ģà¸¥à¸²à¸ĩ":6781,"à¸ĵà¸²à¸ĺ":6782,"Ġà¹Ĥà¸«à¸¡":6783,"0000":6784,"Ġà¸¨à¸²à¸ª":6785,"Ġà¸Ńà¸Ļà¸²à¸¡":6786,"ĠCall":6787,"Ġthis":6788,"ĠInn":6789,">>":6790,"à¸²à¸Ĺà¸³":6791,"ĠAward":6792,"Ġà¸Ĥà¸Ńà¸ĩà¸ķà¸¥à¸²à¸Ķ":6793,"Ġà¸ģà¸ı":6794,"Ġ''":6795,"Ġà¹ĥà¸Ļà¹Ģà¸§à¸¥à¸²à¸Ļ":6796,"board":6797,"ml":6798,"ĠMini":6799,"Ġà¸ªà¸Ń":6800,"Ġà¸¢à¸°à¸¥à¸²":6801,"yd":6802,"à¹Ģà¸ģà¸¡à¸ª":6803,"Ġà¸ĩà¸²à¸Ļà¸ŀ":6804,"à¸¥à¸Ĥ":6805,"Ġru":6806,"à¹ģà¸¥à¸°à¸ŀ":6807,"Ġà¸Ħà¸§à¸²à¸¡à¹Ģà¸Ħà¸¥":6808,"ĠCO":6809,"Ġà¸Ħà¸ĵà¸°à¸§":6810,"ness":6811,"Ġà¸ķà¸¥à¸Ńà¸Ķà¹Ħà¸Ľ":6812,"Ġà¸Ħà¸§à¸²à¸¡à¹Ģà¸Ī":6813,"Ġà¹Ģà¸Ĭà¸Ń":6814,"ĠâĨĴ":6815,"ĠRE":6816,"86":6817,"ĠMax":6818,"ative":6819,"Ġà¸Ļà¸Ħà¸£à¸ŀà¸Ļà¸¡":6820,"à¸¢à¸ģà¸²à¸£":6821,"ĠJapan":6822,"ĠðŁĴ":6823,"Ġà¹Ģà¸ŀà¸²à¹Ģà¸§à¸Ńà¸£":6824,"--------------------------------":6825,"ita":6826,"Ġà¸ªà¸¥à¸²à¸¢":6827,"IO":6828,"ĠJun":6829,"à¸Ķà¸ľ":6830,"59":6831,"erg":6832,"à¸īà¸²à¸¢":6833,"ĠSing":6834,"à¸²à¹ĥà¸Ķ":6835,"à¹Ħà¸¥à¸Ļ":6836,"Ġà¸Ħà¸§à¸²à¸¡à¸§":6837,"à¸ĩà¸łà¸²à¸¢à¹ĥà¸Ļ":6838,"ĠDet":6839,"Ġur":6840,"Ġà¹Ħà¸Łà¹ģà¸Ļà¸Ļ":6841,"à¸²à¸§à¸Ħ":6842,"Ġà¹Ĥà¸ĩ":6843,"ĠBank":6844,"à¸³à¸ľà¸¥à¹Ħà¸¡":6845,"ĠNote":6846,"à¸Ńà¸Ĭ":6847,"à¸Ľà¸£à¸°à¸Ĭà¸²à¸Ĭà¸Ļ":6848,"Ġà¹Ħà¸Ńà¸Ķ":6849,"à¹Ĥà¸Ĩà¸©à¸ĵà¸²":6850,"Ġlamblia":6851,"à¸įà¸²à¸ĵ":6852,"Ġà¸Ĥà¸Ńà¸ĩà¸§":6853,"à¸Ńà¸Ļà¹ĥà¸Ī":6854,"à¸ªà¸²à¸§à¸£":6855,"ism":6856,"rown":6857,"à¸²à¹ģà¸¡":6858,"oda":6859,"Ġà¸Ĭà¸Ķ":6860,"à¸²à¹Ģà¸¡":6861,"à¸¥à¸ģà¸£à¸°":6862,"à¸¬à¸²à¸¥à¸ĩà¸ģà¸£à¸ĵ":6863,"à¸ĩà¹Ĥà¸£à¸Īà¸Ļ":6864,"DF":6865,"à¸Ńà¸ĩà¸ªà¸Ńà¸Ļ":6866,"à¸Ħà¸§à¸²à¸¡à¸Ħ":6867,"Ġà¸¡à¸«à¸²à¸£à¸²à¸Ĭ":6868,"à¸Ńà¸ĩà¹ģà¸ķ":6869,"à¸Ļà¸Ŀà¸²à¸ģ":6870,"IK":6871,"Ġà¸Ĭà¸°à¸¥à¸Ń":6872,"à¸¨à¸Ļà¸°":6873,"Ħ¢":6874,"Ġà¹Ĥà¸Ńà¸ļ":6875,"à¹Ģà¸¢à¸ĭ":6876,"à¸ķà¸£à¸Ķ":6877,"Ġà¹Ĥà¸¢à¸Ħà¸°":6878,"à¸Ńà¹Ħà¸£":6879,"Ġà¸¢à¸Ńà¸¡à¹ĥà¸«":6880,"à¸ŀà¸¥à¸Ńà¸Ķ":6881,"ĠBL":6882,"icle":6883,"ĠProgram":6884,"Ø±":6885,"à¸Ļà¸Ĺà¸Ńà¸ĩ":6886,"ĠElect":6887,"à¸¢à¸ļà¸ŀà¸¥":6888,"âĺħâĺħ":6889,"Ġà¸Ħà¸§à¸²à¸¡à¹ĥà¸Ļ":6890,"hev":6891,"Ġà¹Ĥà¸Łà¸¥":6892,"site":6893,"Ġà¸Ľà¸£à¸°à¸ĺà¸²à¸Ļà¸ģà¸£à¸£à¸¡à¸ģà¸²à¸£":6894,"Ġà¸ªà¸£à¸£à¸«à¸²":6895,"à¸²à¸§à¹Ĥà¸ŀà¸Ķ":6896,"à¸łà¸ŀ":6897,"ĠData":6898,"Ġà¸ŀà¸²à¸ª":6899,"Ġà¸ľà¸ªà¸²à¸Ļ":6900,"ĠGPS":6901,"à¸ŀà¸¤à¸ģà¸©":6902,"Ġà¹Ĥà¸ªà¸¡":6903,"Ġà¸§à¸²à¸ĩà¹ĥà¸Ī":6904,"à¸£à¸°à¸¢à¸°":6905,"Ġà¸ŀà¸£à¸°à¹Ģà¸¢à¸ĭ":6906,"afe":6907,"à¸Ńà¸ªà¸Ńà¸ļà¸ĸà¸²à¸¡":6908,"à¸²à¸ªà¸°":6909,"à¸£à¸Ńà¸¢":6910,"à¸Ļà¸ªà¸Ļ":6911,"à¸Ĵà¸Ļà¸°":6912,"Ġà¸ļà¸Ńà¸Ļ":6913,"Ġtha":6914,"Ġà¹Ħà¸Ńà¸Ķà¸Ńà¸¥":6915,"Ġà¸¢à¸²à¸ª":6916,"à¸¡à¸¤à¸Ĺà¸ĺ":6917,"ĠCha":6918,"Ġà¸Ķà¸³à¸£à¸ĩà¸Ĳà¸²à¸Ļà¸°":6919,"Ġà¹Ĥà¸Ľà¸£à¹Ģà¸Īà¸Ħ":6920,"visor":6921,"à¸§à¸Ħ":6922,"à¸²à¹Ģà¸ļ":6923,"PP":6924,"Ġà¸Ńà¸²à¸ªà¸²à¸ªà¸¡":6925,"ks":6926,"à¸Ķà¹Ģà¸¢":6927,"Ġà¸«à¸Ńà¸Ľà¸£à¸°à¸Ĭ":6928,"Ġà¸Ĥà¸²à¸Ķà¸Ĺ":6929,"Ġ^^":6930,"Ġà¸ĺà¸²à¸£":6931,"ĠON":6932,"à¸Ļà¸Ĺà¸£à¸¡à¸«":6933,"à¸Īà¸ŀà¸£à¸°à¸Ľà¸£à¸¡":6934,"à¸Ļà¸Ĺà¸£à¸¡à¸«à¸²à¸ł":6935,"Ġà¸ģà¸³à¸«à¸Ļà¸Ķà¸ģà¸²à¸£":6936,"Ġsk":6937,"Ġà¸¤à¸ģà¸©":6938,"ĠGroup":6939,"iang":6940,"tect":6941,"ĠHealth":6942,"Ġà¸Ļà¸£à¸ģ":6943,"Ġà¸«à¸¥à¸Ńà¸Ķà¹Ħà¸Ł":6944,"Ġà¸ģà¸§à¸²à¸Ķ":6945,"ĠÃĹ":6946,"ĠMAX":6947,"Ġà¸ģà¸²à¸¡":6948,"Ġà¸Ļà¸Ħà¸£à¸Ļà¸²à¸¢à¸ģ":6949,"Ġà¸«à¸²à¸§":6950,"br":6951,"à¸¡à¸Ħà¸Ļ":6952,"Ġà¸ķà¸£à¸ĩà¹Ĩ":6953,"Ġà¹ĥà¸Ļà¸ª":6954,"à¹Ģà¸ŀà¸¨à¸ª":6955,"ĠFood":6956,"à¹ģà¸Ľà¸¥":6957,"56":6958,"ĠTrue":6959,"à¹Ģà¸Ĥà¸²à¹Ħà¸Ł":6960,"ĠAv":6961,"Ġà¸Łà¸Ńà¸ģ":6962,"ĠAct":6963,"Ġà¸ļà¸Ńà¸ģà¹Ģà¸¥":6964,"Ġ/%":6965,"Ġà¹ģà¸ľà¸Ļà¸ĩà¸²à¸Ļ":6966,"Ġà¸ģà¸£à¸°à¸Ĺà¸°":6967,"à¸Ńà¸ĩà¸Ĥà¸Ń":6968,"à¸Łà¹Ģà¸§à¸Ńà¸£":6969,"ĠInf":6970,"à¸Ļà¹ĥà¸¢":6971,"à¸¢à¸ªà¸³à¸Ħ":6972,"Ġar":6973,"Ġà¸ģà¸£à¸¡à¸ģà¸²à¸£":6974,"arge":6975,"Ġà¹Ĥà¸Ķà¸¢à¹Ħà¸¡":6976,"Ġà¹ģà¸£à¸ĩà¸¡":6977,"ĠWatch":6978,"à¸ĩà¸«à¸¡à¸²à¸¢":6979,"à¸Ĥà¸²à¸¡":6980,"ĠWater":6981,"Ġ168":6982,"ÑĮ":6983,"à¸Ķà¹Ģà¸§à¸¥à¸²":6984,"Ġà¸Ĥà¸Ńà¸ĩà¹Ģà¸«à¸¥à¸§":6985,"Ġcomp":6986,"Ġà¹ĥà¸Ļà¸Ĥà¸ĵà¸°à¹Ģà¸Ķ":6987,"à¹Ģà¸§à¸Ļ":6988,"Ġà¹Ģà¸Ĺà¸Ńà¸£":6989,"à¸¥à¸°à¸¥à¸²à¸¢":6990,"eter":6991,"ĠColl":6992,"à¸²à¹ģà¸Ĥ":6993,"à¸²à¸§à¸ķ":6994,"Ġà¸«à¸¡à¸Ķà¸ª":6995,"Ġtime":6996,"Ġà¹Ģà¸¡à¸¢":6997,"Ġà¹Ģà¸Ħà¸²":6998,"Ġà¹Ħà¸Łà¹ģà¸Ļà¸Ļà¸ĭ":6999,"Ġà¸¥à¸°à¸¡":7000,"ty":7001,"ĠMay":7002,"ĠGM":7003,"à¸Ħà¸²à¸¢à¹Ģà¸Ħ":7004,"Ġà¸łà¸²à¸¢à¹ĥà¸Ļà¸Ľà¸£à¸°à¹Ģà¸Ĺà¸¨":7005,"Ġà¸§à¸ĩà¸©":7006,"asy":7007,"à¸¢à¸ļà¹Ģà¸£":7008,"Ġ2549":7009,"Ġà¸¢à¸Ńà¸Ķà¸®":7010,"à¹ģà¸ķà¸ģ":7011,"à¸łà¸²à¸ŀà¸¢à¸Ļà¸ķà¸£":7012,"à¸Ķà¹Ģà¸Ĺ":7013,"à¸¢à¹ģà¸¥":7014,"Ġà¸Ħà¸§à¸²à¸¡à¸Ĭà¸³à¸Ļà¸²à¸į":7015,"otion":7016,"Ġà¸ĸà¸¡":7017,"Ġà¸ĩà¸Ńà¸ģ":7018,"Ġcan":7019,"Ġà¸ŀà¸£à¸°à¸Ĺ":7020,"à¸Ķà¸ªà¸£":7021,"à¹Ģà¸Ķà¸Ļ":7022,"Ġà¸ĺà¸£":7023,"ĠTo":7024,"Ġà¸ļà¸Ńà¸Ķ":7025,"Ġyour":7026,"à¸ŀà¸¢à¸²à¸ģà¸£à¸ĺà¸£à¸£à¸¡à¸Ĭà¸²à¸ķ":7027,"à¸Ķà¹Ģà¸Ĭà¸¢":7028,"VC":7029,"à¸ģà¸£à¸ŀ":7030,"ĠSpec":7031,"à¸¥à¹Ģà¸¥à¸Ńà¸£":7032,"Ġà¹Ģà¸Ħà¹Ģà¸ļ":7033,"Ġà¸Ľà¸£à¸²à¸Ī":7034,"ily":7035,"Ġ170":7036,"76":7037,"Ġà¸ģà¸²à¸ĩà¹Ģà¸ģà¸ĩà¹ĥà¸Ļ":7038,"by":7039,"Ġà¹Ģà¸£à¸Ĺ":7040,"por":7041,"uss":7042,"Ġà¸ªà¹Ħà¸¥à¸Ķ":7043,"ĠLife":7044,"Ġà¸ģà¸£à¸°à¸Ĺà¸£à¸§à¸ĩà¸ªà¸²à¸ĺà¸²à¸£à¸ĵà¸ª":7045,"à¸Ļà¹Ģà¸Ĥà¸²":7046,"Ġà¸£à¸³à¸¥":7047,"Ġà¸ĵà¸£à¸ĩà¸Ħ":7048,"Ġà¸§à¸Ńà¸Ļ":7049,"Ġà¹Ģà¸ľà¸¥à¸Ń":7050,"à¸§à¸ľ":7051,"Ġà¸ĸà¸²":7052,"à¸£à¸¡à¸¢":7053,"Ġà¸łà¸²à¸©à¸²à¸Ī":7054,"UL":7055,"à¸²à¸Ħà¸§à¸²à¸¡":7056,"à¸Ļà¸£à¸²à¸¢":7057,"Ġ130":7058,"à¸ģà¸£à¸Ńà¸ĩ":7059,"ĠManager":7060,"Ġà¸«à¸¡à¸²à¸ģ":7061,"Ġâĸ":7062,"Ġà¸Ħà¸Ħ":7063,"ga":7064,"à¸¢à¸ĵ":7065,"Ġà¸«à¸Ļà¸Ĺà¸²à¸ĩ":7066,"Ġback":7067,"worm":7068,"à¸²à¸Ħà¸¥":7069,"à¸ŀà¸£à¸°à¸Ħ":7070,"Ġà¸«à¸¥à¸ļà¸«à¸Ļ":7071,"Ġà¹Ĥà¸Ħà¸£à¸ĩà¸ĩà¸²à¸Ļ":7072,"Ġà¸Ķà¸²à¸§à¹Ģà¸Ĺ":7073,"Ġà¸Ńà¸²à¸«à¸²à¸£à¸Ĺà¸°à¹Ģà¸¥":7074,"ĠKh":7075,"à¸ŀà¸ŀà¸²à¸Ļ":7076,"à¸Ńà¸¡à¸¥":7077,"tra":7078,"TV":7079,"esk":7080,"à¹ģà¸Ħà¸¥à¸Ļ":7081,"Ġ......":7082,"lish":7083,"à¸¡à¸Ĥà¸Ļ":7084,"Ġà¹Ģà¸ĭà¸£à¸²à¸¡":7085,"à¸Ķà¹Ħà¸Ł":7086,"Ġà¸ľà¸¥à¸ģà¸³à¹Ħà¸£":7087,"à¸§à¸ĩà¹ģà¸£à¸ģ":7088,"Ġà¸ģà¸²à¸£à¸Īà¸£à¸²à¸Īà¸£":7089,"ĠSou":7090,"ĠVis":7091,"Ġà¸Ĭà¸ģ":7092,"Ġser":7093,"ori":7094,"ĠPrem":7095,"Ġà¸Ĺà¸¢":7096,"à¸ĩà¸ģà¸°à¸ª":7097,"à¸¢à¹Ĥà¸Ļ":7098,"TE":7099,"à¸ķà¸£à¸²à¸Ķ":7100,"à¹Ĥà¸ī":7101,"Ġà¸£à¸Ńà¸Ļ":7102,"raph":7103,"Ġà¸Ķà¸Ńà¸£":7104,"agram":7105,"Ġà¹Ĥà¸Ĭà¸ķ":7106,"à¸ļà¸Ń":7107,"ĠBR":7108,"Ġà¸Ľà¸£à¸°à¸Īà¸³à¸§":7109,"Ġà¸ķà¸£à¸§":7110,"ĠLCD":7111,"xxx":7112,"Ġà¸£à¸²à¸Ĭà¸Ńà¸²à¸ĵà¸²à¸Ī":7113,"à¸Ķà¸Ľà¸£à¸°à¸ªà¸ĩà¸Ħ":7114,"Ġà¸«à¸¥à¸Ńà¸ģà¸¥":7115,"etooth":7116,"rot":7117,"ĠAN":7118,"HD":7119,"à¸²à¸Ĭà¸²à¸Ķ":7120,"à¸Ĺà¸Ķà¸ªà¸Ńà¸ļ":7121,"à¹Ģà¸¥à¸Ļ":7122,"ĠToyota":7123,"à¸ĩà¸ģà¸³":7124,"ĠVol":7125,"Ġ93":7126,"Ġà¸£à¸²à¸Ĭà¸²":7127,"à¹Ģà¸Ńà¹Ģà¸Ĭ":7128,"Ġà¹Ģà¸Ħà¸£à¸Ļ":7129,"42":7130,"à¹Ĥà¸¨à¸ģ":7131,"Ġà¸Ĥà¸§à¸²à¸ĩ":7132,"ĠSur":7133,"Ġà¸Ļà¸²à¸¢à¸Ī":7134,"ĠMS":7135,"à¸ªà¸³à¸£à¸Ńà¸ĩ":7136,"ĠReal":7137,"Ġà¸ģà¸£à¸°à¸ļà¸Ńà¸ģ":7138,"Ġà¸ģà¸°à¸Ľ":7139,"Ġà¹Ĥà¸Ħà¸£à¸²à¸Ĭ":7140,"Ġmin":7141,"ĠShow":7142,"à¸ļà¹Ģà¸ģ":7143,"Ġà¸ªà¸§à¸Ļà¸ªà¸²à¸ĺà¸²à¸£à¸ĵà¸°":7144,"à¸²à¹ĥà¸Īà¸ľ":7145,"à¸Ńà¸¢à¸ķ":7146,"Ġà¸Ľà¸²à¸Ļà¸ģà¸¥à¸²à¸ĩ":7147,"à¸¢à¸ĩà¹Ĥà¸Ĭà¸Ħ":7148,"Ġà¸Ķà¸§à¸¥":7149,"à¸ªà¸ľ":7150,"ĠHar":7151,"à¸Ńà¸ĩà¸«":7152,"à¸ŀà¹Ģà¸ģà¸£à¸Ķ":7153,"Ġà¸ķà¸²à¸¡à¹Ģà¸§à¸¥à¸²":7154,"Ġà¸Ļà¸ķ":7155,"à¸łà¸²à¸§à¸°":7156,"aker":7157,"Sh":7158,"Ġà¸ŀà¸£à¸£à¸Ħà¸ģà¸²à¸£à¹Ģà¸¡":7159,"ĠICD":7160,"Ġà¸ģà¸¥à¸¡à¸ģà¸¥":7161,"à¸Ńà¸ĩà¸ĭ":7162,"à¸Ļà¸Ľà¸ģà¸ķ":7163,"Ġà¹Ģà¸£à¸¢":7164,"Ġà¸ģà¸²à¸£à¸Ĺà¸³":7165,"à¸ķà¸£à¸²à¸Ķà¸Ńà¸ģà¹Ģà¸ļ":7166,"ĠResort":7167,"Ġà¹Ĥà¸¢à¸ģ":7168,"ĠCE":7169,"Ġà¸ŀà¸£à¸°à¸£à¸²à¸Ĭà¸²":7170,"à¸²à¸Ľà¸£à¸°à¸Ĺ":7171,"ĠMusic":7172,"Ġà¸Ļà¸ļ":7173,"Ġà¸Ľà¸°à¸Ĺà¸°":7174,"Ġpart":7175,"ĠEnter":7176,"Ġht":7177,"ĠGen":7178,"à¸ĩà¸Ľà¸¥":7179,"à¸Ķà¹Ģà¸ª":7180,"à¸¨à¸§à¸£à¸£à¸©":7181,"illa":7182,"Ġà¸Ķà¸Ńà¸Ĺà¸Ħà¸Ńà¸¡":7183,"Ġà¸Ĥà¸³":7184,"Ġà¹Ĥà¸Ħà¸¥à¸Ļ":7185,"Ġà¸Ľà¸ģà¸Ħà¸¥":7186,"Ġà¸Ĺà¸³à¸Ħà¸§à¸²à¸¡à¸£":7187,"à¸ģà¸Ľà¸¥à¸²":7188,"ĠCloud":7189,"##":7190,"Ġà¸Ńà¸²à¸Ĭà¸įà¸²à¸ģà¸£à¸£à¸¡":7191,"ÛĮ":7192,"Ġç":7193,"Ġà¸ľà¸Īà¸įà¸ł":7194,"à¸Ħà¸°à¹ģà¸Ļà¸Ļ":7195,"Ġà¸ªà¹Ĥà¸ķà¸£":7196,"Ġà¸Ħà¸§à¸²à¸¡à¸Īà¸³":7197,"Ġà¸Ĺà¸¨à¸§à¸£à¸£à¸©":7198,"à¸²à¸ĩà¸ĩà¸²à¸Ļ":7199,"à¹Ģà¸ªà¸¡":7200,"ĠFil":7201,"Ġ140":7202,"Ġà¸ļà¸§à¸£":7203,"Ġà¸Ľà¸ķà¸Ĺ":7204,"å½":7205,"we":7206,"à¸§à¸¢à¸Ħà¸§à¸²à¸¡à¸Īà¸³":7207,"à¸¢à¸¡à¸ŀà¸£":7208,"ĠOpen":7209,"à¸¢à¸Ļà¸²à¸Ĺ":7210,"ĠWord":7211,"à¸Ĺà¹Ģà¸¡à¸Ļà¸Ĺ":7212,"à¸Ńà¸ļà¸£":7213,"ĠContin":7214,"Ġà¸Ħà¸²à¸ĸ":7215,"à¸¥à¸Ľà¸§":7216,"Ġvs":7217,"âĸ":7218,"Ġà¹Ģà¸Ķà¸¢":7219,"Ġà¹ģà¸ļà¸ĩà¸Ħ":7220,"Ġ086":7221,"à¸²à¹Ģà¸ŀ":7222,"à¸ģà¸£à¸§à¸²à¸¥":7223,"à¸¢à¸ĩà¸ª":7224,"utt":7225,"Ġà¹Ĥà¸Ļà¸Ļ":7226,"à¸³à¸£à¸§à¸¢":7227,"à¸ªà¸ģà¸²à¸£":7228,"Ġà¸£à¸°à¸ļà¸Ńà¸ļ":7229,"ura":7230,"Ġà¸¢à¸³":7231,"800":7232,"Ġà¸Ĭà¸¥à¸Ľà¸£à¸°à¸Ĺà¸²à¸Ļ":7233,"à¸Ńà¸ģà¸ģà¸¥":7234,"ĠCream":7235,"à¸£à¸Ń":7236,"Ġà¸¢à¸Ńà¸Ļ":7237,"Ġà¹Ģà¸¥à¸§à¸£":7238,"Ġà¸ŀà¸£à¸°à¸¡à¸«à¸²à¸ģà¸©":7239,"Ġà¸«à¸²à¸Ĺà¸²à¸ĩ":7240,"Ġà¸ĩà¸²à¸Ļà¸ģ":7241,"à¸Ńà¹Ģà¸ķ":7242,"Ġà¹Ĥà¸Ĭà¸Ħà¸¥":7243,"Ġà¸£à¸²à¸¡à¸Ń":7244,"Ġà¸«à¸²à¸ģà¸§":7245,"ĠBrand":7246,"ely":7247,"Ġà¸Ľà¸£à¸²à¸ĵ":7248,"à¸ªà¸£à¸ĵ":7249,"à¸²à¸ĩà¸«à¸¥":7250,"à¸Ķà¸Ĺà¸Ļ":7251,"Ġà¸Ńà¸²à¸¥":7252,"Ġà¹Ģà¸ĭà¸²":7253,"Ġone":7254,"ĠDS":7255,"Ġà¹Ģà¸ļà¸²à¸«à¸§à¸²à¸Ļ":7256,"Ġà¸Ħà¸Ńà¸Ļà¹Ģà¸ĭ":7257,"Ġà¸ģà¸£à¸Ńà¸ļà¸£":7258,"Ġ089":7259,"Ġà¸£à¸Ńà¸ĩà¸Ľà¸£à¸°à¸ĺà¸²à¸Ļ":7260,"ĠLink":7261,"à¸Ńà¸ĩà¸Ħà¸¥à¸Ńà¸Ķ":7262,"ĠMedia":7263,"Ġà¹ĥà¸Ļà¸«à¸¥à¸§à¸ĩ":7264,"Ġà¹ģà¸ªà¸Ķà¸ĩà¸Ńà¸Ńà¸ģ":7265,"GA":7266,"à¸ļà¸Ĺà¸Ńà¸Ķ":7267,"Ġà¹Ģà¸ģà¸²":7268,"Ġtop":7269,"fect":7270,"à¸ĩà¸¨":7271,"ss":7272,"Ġnot":7273,"ines":7274,"à¸ļà¹ģà¸ķ":7275,"Ġà¹Ĥà¸«à¸§à¸ķ":7276,"Ġà¹Ģà¸¥à¸ªà¹Ģà¸ļ":7277,"room":7278,"ĠRem":7279,"Ġà¸Ķà¸°":7280,"TA":7281,"à¸Ľà¸£à¸°à¸Ĭà¸²à¸ĺ":7282,"Ġà¸Łà¸²à¸¢":7283,"à¹Ħà¸ŀ":7284,"ĠCM":7285,"ield":7286,"à¸Ńà¹Ģà¸Ĺà¸¨":7287,"Ġà¸£à¸²à¸¢à¹ĥà¸«à¸į":7288,"Ġà¸£à¸Ńà¸ĩà¸ŀ":7289,"84":7290,"à¸Ńà¸Ļà¸Ń":7291,"ova":7292,"ĠMed":7293,"ĠPack":7294,"à¸ŀà¸²à¸£à¸²":7295,"à¸§à¹Ģà¸ªà¸£":7296,"Ġ92":7297,"gan":7298,"Ġà¹Ģà¸¢à¸Ńà¸°à¹ģà¸¢à¸°":7299,"à¸¡à¸Ļà¸§à¸¥":7300,"Ġpm":7301,"Ġà¸¢à¸Ńà¸Ķà¹Ģà¸Ĥà¸²":7302,"Ġà¹Ĥà¸ļà¸§":7303,"Ġà¸ŀà¸Īà¸Ļ":7304,"à¸Ĭà¸°à¸ķà¸²":7305,"à¸ĩà¸ģà¸£à¸²à¸Ļ":7306,"à¸Ĳà¸ªà¸łà¸²":7307,"Ġà¸Īà¸³à¸Ļà¸³":7308,"à¹Ģà¸Ńà¸Ł":7309,"à¸Ļà¸Ķà¸²":7310,"Ġà¸Ļà¸Ńà¸ģà¸ļ":7311,"Ġà¹Ģà¸Łà¸£à¸¡":7312,"Ġà¸¢à¸²à¸ĩà¸ŀà¸²à¸£à¸²":7313,"Ġà¸«à¸¢à¸Ńà¸Ķ":7314,"Ġà¹Ģà¸ŀà¸¨à¸ª":7315,"Ġà¸ģà¸Ķà¸Ķ":7316,"ĠâĿ":7317,"Ġ102":7318,"ume":7319,"Ġà¹Ĥà¸£à¸Ħà¸ł":7320,"à¸ģà¸ģà¸£à¸°":7321,"à¸²à¸§à¸«à¸²":7322,"à¸ĩà¸¢à¸²à¸ĩ":7323,"Ġà¸Ńà¸Ķà¸Ĺà¸Ļ":7324,"à¸²à¹ĥà¸«à¸¡":7325,"ĠSan":7326,"à¸¢à¹ģà¸¥à¸°à¸ŀ":7327,"à¸¢à¸Ļà¸«à¸Ļ":7328,"Ġà¸ŀà¸£à¸°à¸ĺà¸£à¸£à¸¡":7329,"à¸ĩà¸ªà¸¡":7330,"Ġng":7331,"ĠâĦ¢":7332,"Ġà¸¥à¸Ńà¸Ķ":7333,"400":7334,"à¸Ĺà¸Ĺ":7335,"Ġà¹Ĥà¸Ķà¸¡":7336,"Ġà¸Ļà¸²à¸¡à¸ªà¸ģ":7337,"ĠHi":7338,"Ġper":7339,"ring":7340,"Ġà¸Ľà¸£à¸°à¸Ħ":7341,"ll":7342,"ient":7343,"à¸²à¸ĩà¸Ĺà¸Ńà¸ĩ":7344,"à¸¢à¸įà¹Ģà¸ĩ":7345,"Ġà¸ªà¹Ģà¸ģ":7346,"à¸Ķà¸Ńà¸ģ":7347,"ÑģÑĤ":7348,"ĠXL":7349,"Ġà¸Ħà¸³à¸£":7350,"à¸įà¸¡à¸ĵ":7351,"à¸ģà¹Ģà¸Ķ":7352,"ĠBMW":7353,"Ġà¹Ģà¸ļà¸įà¸Ī":7354,"Ġ91":7355,"à¸ģà¸ģà¸¥":7356,"get":7357,"à¸ıà¸Ĳ":7358,"à¸įà¸Īà¸£":7359,"à¸ľà¸¥à¸ģà¸£à¸°":7360,"à¸ľà¸¥à¸ģà¸£à¸°à¸Ĺà¸ļ":7361,"ĠTel":7362,"Ġà¸Ļà¸§à¸¥":7363,"Ġà¸£à¸°à¸Ļà¸Ńà¸ĩ":7364,"ĠSub":7365,"ĠSEO":7366,"Ġ73":7367,"ĠðŁĵ":7368,"Ġà¸ģà¸ĭ":7369,"à¸Ķà¸¡à¸²":7370,"à¸ģà¸£à¸°à¹ģà¸Ĺà¸ģ":7371,"Ġà¸Ļà¸³à¸ŀà¸²":7372,"à¸Ńà¸ģà¹Ģà¸Ĥà¸²":7373,"ĠSchool":7374,"ĠÐ¿":7375,"Ġà¹Ģà¸ªà¸ŀ":7376,"à¸Ĺà¸¢à¸²à¸ģà¸²à¸£":7377,"à¸Ļà¸£à¸°à¸¢à¸°":7378,"Ġà¸Ńà¸²à¹Ģà¸Ī":7379,"ĠUN":7380,"Ġà¸£à¸²à¸Ļ":7381,"Ġà¸Ħà¸³à¸ªà¸Ńà¸Ļ":7382,"à¹Ħà¸Ĺ":7383,"Ġà¸ĵà¸²":7384,"à¸Ķà¹Ĥà¸Ĺà¸©":7385,"à¸įà¸ŀ":7386,"åı":7387,"vit":7388,"amm":7389,"ĠABS":7390,"Ġà¹Ĥà¸Ĭà¸Ħà¸¥à¸²à¸ł":7391,"Ġà¸Ńà¸§à¸ģà¸²à¸¨":7392,"Ġà¹ģà¸Ľà¸¥à¸ģà¹ĥà¸«à¸¡":7393,"ret":7394,"Ġà¸ŀà¸«à¸¥":7395,"Ġà¸§à¸Ĭ":7396,"ANG":7397,"Ġà¸Ĺà¸²à¸£":7398,"à¸Ľà¸ģà¸²à¸£à¸°":7399,"ĠColor":7400,"Ġà¹Ģà¸Ĺà¸¨à¸ļà¸²à¸¥à¹Ģà¸¡":7401,"book":7402,"Ġà¸ģà¸ĩ":7403,"à¸ļà¸Ńà¸Ķ":7404,"ovo":7405,"Ġà¹ģà¸§à¸£":7406,"ĠMr":7407,"ublic":7408,"Ġà¸Ĺà¸²à¸ĩà¹Ħà¸Ķ":7409,"Ġà¹ģà¸Ħà¸¡à¸Ľ":7410,"Ð²":7411,"à¸Ńà¸ªà¸²à¸¢":7412,"AK":7413,"ĠSize":7414,"uki":7415,"Ġà¸£à¸²à¸ļ":7416,"ĠAcc":7417,"à¹įà¹ī":7418,"Ġà¸Ħà¸ĵà¸°à¸Ĺà¸³à¸ĩà¸²à¸Ļ":7419,"ĠMarketing":7420,"à¸£à¸ķ":7421,"à¸Ħà¸§à¸²à¸¡à¸Ń":7422,"Ġà¸Ħà¸§à¸²à¸¡à¸ķà¸²à¸¢":7423,"à¸Ļà¹Ĥà¸ķ":7424,"Ġà¹Ģà¸Ĺà¸²":7425,"à¸Ħà¸ªà¸¡":7426,"ĠSK":7427,"à¸§à¸«à¸Ńà¸ģ":7428,"æľ":7429,"Ġà¸£à¸Ńà¸ļà¸Ĥ":7430,"ĠIB":7431,"à¸Īà¸īà¸²":7432,"ĠAI":7433,"à¸Ļà¹ģà¸ļ":7434,"87":7435,"Ġà¹Ģà¸Ńà¸¡":7436,"ĠHand":7437,"à¸§à¸Ļà¸²":7438,"à¸ģà¸Ķà¸²à¸«à¸²à¸£":7439,"à¸§à¸Ļà¸ªà¸³à¸Ħ":7440,"Ġà¸ķà¸¥à¸Ńà¸Ķà¸Ĭ":7441,"à¸§à¸¡à¸ªà¸¡":7442,"Ġ.......":7443,"à¸²à¸ŀà¸Ļ":7444,"Ġà¸£à¸²à¸¡à¸Ħà¸³à¹ģà¸«à¸ĩ":7445,"ĠVideo":7446,"Ġà¸ŀà¸£à¸°à¸Ń":7447,"ider":7448,"Ġà¸¥à¸Ĺ":7449,"Ġà¹Ģà¹Ģà¸ķ":7450,"à¸¢à¸ļà¹Ģà¸ªà¸¡":7451,"Ġà¸Ĥà¸Ńà¸Ńà¸ł":7452,"irst":7453,"Ġà¸ķà¸¥à¸²à¸Ķà¸«":7454,"à¸Ļà¸£à¸ĸ":7455,"Ġà¸ŀà¸¥à¹Ģà¸¡":7456,"à¸Ļà¸¥à¸ĩà¸Ĺ":7457,"à¸ĩà¹Ģà¸«":7458,"à¸£à¸²à¸Ĭà¸²":7459,"ĠStand":7460,"ĠProject":7461,"à¸Ķà¸³à¸£à¸ĩ":7462,"à¸Ķà¸§à¸²à¸ĩ":7463,"Ġà¹Ģà¸Ħà¸£à¸²à¸°à¸«":7464,"åħ":7465,"ĠMicro":7466,"Ġà¹Ĥà¸ļà¸£à¸ģà¹Ģà¸ģà¸Ńà¸£":7467,"ios":7468,"à¸Ļà¸²à¸ĸ":7469,"Ġà¸¢à¸²à¸Ļà¸ŀ":7470,"Ġà¸¢à¸²à¸Ļà¸ŀà¸²à¸«à¸Ļà¸°":7471,"ĠGrand":7472,"Ġà¸Ħà¸²à¸ĸà¸²":7473,"Ġà¸£à¸ĸà¹Ģà¸Ĭ":7474,"urr":7475,"Ġà¸ķà¸²à¸¡à¸Ħà¸³":7476,"à¸Ľà¸Ĭ":7477,"Ġà¹Ģà¸ªà¸§à¸Ļà¸²":7478,"Ġà¸¥à¸Ķà¸Ħà¸§à¸²à¸¡à¸Ń":7479,"ĠðŁĺ":7480,"Ġà¹Ĥà¸«à¸Ļ":7481,"arn":7482,"Ġà¸ªà¸£à¸°à¹ģà¸ģ":7483,"ĠProf":7484,"aris":7485,"Ġseb":7486,"à¹ĳà¹ĳ":7487,"Ġà¸ŀà¸£à¸°à¸ł":7488,"Ġà¹Ģà¸Ĭà¸Ļ":7489,"à¸ªà¸ķà¸²à¸£":7490,"à¸Ļà¸ģà¸³à¹Ģà¸Ļ":7491,"Ġà¹Ĥà¸ªà¸Ķ":7492,"Ġà¹Ģà¸Īà¸ķà¸Ļà¸²":7493,"omy":7494,"led":7495,"à¸Ļà¸ģà¸²à¸£à¸ŀà¸Ļ":7496,"Ġà¹ģà¸ŀà¸Ħà¹Ģà¸ģà¸Ī":7497,"Ġà¸¥à¸ĩà¸§":7498,"Ġà¸¨à¸²à¸ªà¸ķà¸£à¸²à¸Īà¸²à¸£à¸¢":7499,"CE":7500,"Ġà¸Ĺà¸³à¸ģà¸³à¹Ħà¸£":7501,"ora":7502,"Ġà¸ģà¸²à¸ĩà¹Ģà¸ģà¸ĩà¸Ĥ":7503,"à¸Ńà¸ĩà¸Ľà¸ı":7504,"ĠTravel":7505,"à¸Ħà¸§à¸²à¸¡à¸ªà¸²à¸¡à¸²à¸£à¸ĸ":7506,"aki":7507,"à¸ĺà¸£à¸£à¸¡à¸Ķà¸²":7508,"PG":7509,"Ġà¸ģà¸²à¸ģ":7510,"à¸ģà¸Ĺà¸²à¸¢":7511,"Ġà¸Ħà¸§à¸²à¸¡à¹Ħà¸¡":7512,"à¸¢à¸ĩà¹ĥà¸Ķ":7513,"bid":7514,"Ġà¸¡à¸Ńà¸ĩà¸Ķ":7515,"Ġà¸Ļà¸²à¸¢à¹ģà¸ŀà¸Ĺà¸¢":7516,"ĠSeason":7517,"à¸ģà¸£à¸ŀà¸£à¸£à¸Ķ":7518,"OB":7519,"Ġ240":7520,"eta":7521,"à¸ģà¹Ģà¸§à¸¥à¸²":7522,"Ġà¸«à¸¥à¸²":7523,"Ġà¹ģà¸Ľà¸ĭ":7524,"à¸Ńà¸£à¸ª":7525,"à¤":7526,"à¸ļà¹ģà¸Ĥà¸ģ":7527,"à¸¢à¸§à¸ĭ":7528,"à¹Ģà¸ĭà¹Ĥà¸¥":7529,"à¹Ģà¸ĭà¹Ĥà¸¥à¸Ļà¸²":7530,"à¹ģà¸¥à¸ģà¹Ģà¸Ľà¸¥":7531,"Ġà¸ķà¸²à¸¡à¸«à¸¥":7532,"oph":7533,"Ġà¹ģà¸Ĥà¸Ļà¸Ĥà¸²":7534,"à¸ļà¹Ģà¸Ĭ":7535,"à¸ļà¸ªà¸ĸ":7536,"à¸ĩà¸ģà¸²":7537,"à¹Ĥà¸ļà¸ªà¸ĸ":7538,"ific":7539,"ror":7540,"Ġà¹Ĥà¸ģà¸Ķ":7541,"à¸ŀà¸²à¸ĵ":7542,"Ġà¸¥à¸ģ":7543,"à¸¨à¸¡":7544,"à¸Ńà¸ĩà¹Ĥ":7545,"ĠOct":7546,"43":7547,"à¸Ļà¹ģà¸ķ":7548,"Ġà¸Ħà¸§à¸²à¸¡à¹Ģà¸Ħ":7549,"phone":7550,"à¹Ĥà¸Ķà¸¢à¸ķà¸¥à¸Ńà¸Ķ":7551,"ĠWire":7552,"ility":7553,"Ġà¸¡à¸²à¹Ĥà¸Ķà¸¢à¸ķà¸¥à¸Ńà¸Ķ":7554,"Ġà¸Ķà¸£à¸²à¸¡":7555,"Ġche":7556,"à¸įà¸«à¸²à¸¢":7557,"Ġà¸§à¸ĩà¸ģà¸¥à¸¡":7558,"Ġà¸Ľà¸£à¸°à¸ģà¸ļ":7559,"à¸ĩà¹ģà¸Ĭà¸¡à¸Ľ":7560,"Ġà¹ģà¸Ĭà¸Ĺ":7561,"ights":7562,"à¸Ļà¸£à¸°à¹Ģà¸ļ":7563,"Ġà¸£à¸²à¸ļà¸£":7564,"Ġà¸ŀà¸£à¸°à¸Ļà¸²à¸ĩ":7565,"à¸Ħà¸Ńà¸£":7566,"ĠStart":7567,"ations":7568,"à¸²à¸ĩà¸Ĭ":7569,"Ġà¸ģà¸£à¸²à¸Łà¸Ł":7570,"Ġà¸Ĺà¸°à¹Ģà¸¥à¸²à¸°":7571,"ĠRec":7572,"Ġmy":7573,"ĠNEW":7574,"à¹Ģà¸Ĺà¸Ħà¸Ļ":7575,"rad":7576,"ĠOS":7577,"Ġà¸Ńà¸Ľ":7578,"ĠAsia":7579,"Ġà¹Ģà¸¡à¸°":7580,"Ġà¹Ĥà¸£à¸¢":7581,"********":7582,"Ġpx":7583,"Ġ108":7584,"bps":7585,"Tube":7586,"awei":7587,"à¸ģà¸ģà¸²à¸£à¹Ģà¸¡":7588,"Ġà¸£à¸¨":7589,"Ġà¹Ĥà¸Ľà¸£à¸Ķà¹Ģà¸ģà¸¥":7590,"Ġgoogle":7591,"ĠManagement":7592,"Ġà¹ģà¸¡à¸Ļà¸¯":7593,"ney":7594,"omen":7595,"à¹Ĥà¸ģà¸ĩ":7596,"Ġà¸Ľà¸£à¸°à¸ĵ":7597,"à¸¢à¸įà¸Ĺà¸Ńà¸ĩà¹ģà¸Ķà¸ĩ":7598,"Ġà¹ģà¸¥à¸Ļ":7599,"Ġà¸Ľà¸£à¸°à¸Ĭà¸²à¸Ħà¸¡":7600,"Ġapp":7601,"ĠLimited":7602,"à¸Ľà¸£à¸°à¸Īà¸³à¸ķ":7603,"Ġurl":7604,"Ġà¹Ĥà¸ŀà¸¥":7605,"ĠBre":7606,"ĠCamera":7607,"à¸¡à¸«à¸²à¸¢":7608,"ĠDel":7609,"ĠMRT":7610,"à¸£à¸²à¸«à¸¡à¸ĵ":7611,"rome":7612,"round":7613,"ĠGR":7614,"Ġà¹ģà¸ģà¸°à¸ªà¸¥":7615,"Ġà¸Ļà¸³à¹ģà¸ªà¸Ķà¸ĩ":7616,"apy":7617,"Ġà¸Ĥà¸²à¸Ķà¹ģà¸Ħà¸¥à¸Ļ":7618,"Ġà¸¡à¸«à¸²à¸ªà¸¡":7619,"à¹ģà¸Ĺà¸£à¸ģ":7620,"à¹Ģà¸®à¸²à¸ª":7621,"Ġà¸ŀà¸²à¸Ķ":7622,"Ġà¸Ķà¸§à¸ĩà¸Ńà¸²à¸Ĺ":7623,"ĠDevelop":7624,"Ġà¸ģà¸²à¸£à¸Ķà¸³à¹Ģà¸Ļ":7625,"Ġdo":7626,"azon":7627,"Ġworld":7628,"à¸Ĭà¸¥":7629,"Ġà¹Ħà¸ģà¸£":7630,"à¸Ĺà¸ĺà¸£à¸ĵ":7631,"ĠComments":7632,"Ġà¹ģà¸ŀà¸Ĺ":7633,"Ġ)âĢĿ":7634,"à¸Ńà¸ģà¸¢":7635,"Ġà¸ķà¸¥à¸Ńà¸Ķà¸ģà¸²à¸¥":7636,"à¹ĥà¸Īà¹Ħà¸Ķ":7637,"gor":7638,"à¹Ģà¸Ļà¸Ĭ":7639,"à¹ģà¸«à¸§à¸Ļ":7640,"ĠFu":7641,"ĠAIS":7642,"96":7643,"Ġà¸Īà¸³à¸Ħ":7644,"41":7645,"Ġà¸£à¸Ńà¸ļà¸ķ":7646,"ĠBluetooth":7647,"à¸¢à¸ģà¸ģ":7648,"Ġà¸°":7649,"Ġà¹Ĥà¸¥à¸ķ":7650,"Ġà¸¥à¸²à¸Ķà¸ģà¸£à¸°à¸ļ":7651,"à¸Ħà¸Ńà¸ļ":7652,"zh":7653,"Ġà¸Īà¸ļà¹Ģà¸ģà¸¡":7654,"Ġà¸Ĥà¸Ńà¸ĩà¸£à¸²à¸ĩà¸§":7655,"Ġà¸ĭà¸Ńà¸Ļ":7656,"à¸³à¸Ħà¸²à¸į":7657,"Ġà¸£à¸Ńà¸ļà¸Ħà¸Ńà¸ļ":7658,"Ġà¸ģà¸£à¸£":7659,"Ġà¹ĥà¸ļà¸£":7660,"Ġà¹ĥà¸Ļà¸Ĺà¸²à¸ĩ":7661,"ĠCasino":7662,"Ġà¹Ħà¸ļà¸Ħ":7663,"Ġà¹Ħà¸Ńà¸¨à¸ģà¸£":7664,"Ġà¹Ģà¸Ĺà¸£à¸Ļà¹Ģà¸Ļà¸Ńà¸£":7665,"à¸²à¸ĩà¸§à¸²":7666,"Ġà¸ķà¸²à¸£à¸²à¸ĩà¸§à¸²":7667,"à¸Ńà¹ĥà¸ļ":7668,"à¸ļà¸ŀ":7669,"Ġà¸ªà¸ĩà¸Ĩ":7670,"à¹Ģà¸§à¸Ĺ":7671,"elf":7672,"Ġà¹ģà¸¡à¸Ħ":7673,"Ġà¸Ļà¸²à¸£":7674,"ĠSim":7675,"Ġà¸Ľà¸£à¸°à¸ģà¸Ńà¸ļà¸Ńà¸²à¸Ĭ":7676,"ĠBeauty":7677,"atter":7678,"ĠAccess":7679,"Ġà¸Ĺà¸¢à¸Ńà¸¢":7680,"Ġà¹Ģà¸Ĥà¸¢":7681,"ĠBro":7682,"Ġman":7683,"ĠGS":7684,"uri":7685,"à¸ªà¸Ńà¸ļà¸ªà¸§à¸Ļ":7686,"à¹Ģà¸Ķà¸²":7687,"Ġà¸Ļà¸Ļ":7688,"Ġà¸ģà¸¨":7689,"à¸Īà¸ģà¸²à¸£à¸¨":7690,"Ġà¸«à¸¥à¸Ńà¸ģà¸¥à¸§à¸ĩ":7691,"à¸³à¸Ŀà¸Ļ":7692,"ermal":7693,"Ġà¸Ĥà¸ļà¸§à¸Ļà¸ģà¸²à¸£":7694,"à¸²à¹Ģà¸ĩ":7695,"à¸ĩà¸Ľà¸£à¸°à¸ķ":7696,"à¸ļà¸£à¸£":7697,"Ġà¸ĩà¸§à¸ĩ":7698,"umb":7699,"ham":7700,"Ġà¹Ģà¸Ķà¸²":7701,"ional":7702,"cept":7703,"Ġà¸Ĭà¸Ķà¹ĥà¸Ĭ":7704,"eland":7705,"Ġà¸Ħà¸³à¸¨":7706,"atic":7707,"Ġà¸¡à¸Ńà¸ĩà¸Ĥ":7708,"DR":7709,"Ġà¸Ħà¸§à¸²à¸¡à¹Ħà¸§":7710,"Ġà¹ĳà¹Ĵ":7711,"Ġà¸ŀà¸§":7712,"Ġà¸ģà¸£à¸°à¸ľà¸¡":7713,"à¸¡à¸īà¸¥à¸Ńà¸ĩ":7714,"ĠAt":7715,"Home":7716,"à¸²à¸ĩà¹Ģà¸ģ":7717,"Ġà¸Ĥà¸Ńà¸ĩà¸Īà¸£":7718,"Ġà¸ŀà¸¢à¸²à¸ģà¸£à¸ĵ":7719,"ady":7720,"Ġà¹ģà¸Ľà¸¥à¸ģà¹ĥà¸Ī":7721,"EX":7722,"à¸¥à¸¡à¸Ńà¸Ļ":7723,"à¸ĭà¸ĭ":7724,"à¸²à¸ĩà¸ŀ":7725,"à¸§à¸Ļà¹ģà¸ļ":7726,"à¸ļà¸Ĭà¸²à¸ķ":7727,"à¸²à¸ķà¸Ńà¸ļà¹ģà¸Ĺà¸Ļ":7728,"Ġà¸ģà¸£à¸°à¹Ģà¸Ĭ":7729,"à¸Ķà¹ģà¸ķ":7730,"Ġà¹Ĥà¸Łà¸£":7731,"Ġà¸Ħà¸§à¸²à¸¡à¸Ľà¸£à¸°à¸ªà¸ĩà¸Ħ":7732,"à¸ķà¸²à¹Ģà¸¥":7733,"ense":7734,"Ġà¸ģà¸£à¸°à¸ļà¸°":7735,"à¸Ńà¹Ģà¸«à¸ķ":7736,"Ġ1080":7737,"ĠRet":7738,"ĠReg":7739,"ya":7740,"ĠLG":7741,"à¹Ĥà¸®":7742,"ray":7743,"à¸Ķà¸Ľ":7744,"ĠBo":7745,"Ġà¹ģà¸ĭà¸¥à¸¡à¸Ńà¸Ļ":7746,"Ġhome":7747,"à¸ªà¸¡à¸£à¸ª":7748,"Ġà¸ªà¸²à¸£à¸Ľà¸£à¸°à¸ģà¸Ńà¸ļ":7749,"Ġà¸ģà¸Ľ":7750,"Ġà¸Ħà¸§à¸²à¸¢":7751,"orrhe":7752,"Ġà¸ļà¸²à¸ĩà¸£à¸²à¸¢":7753,"ãĥ¼":7754,"Ġà¹ģà¸ŀà¸°":7755,"Ġà¸Ľà¸£à¸°à¸ªà¸ļà¸Ľ":7756,"Ġà¸Ľà¸°à¸ģà¸²à¸£":7757,"à¸Ńà¸ĩà¸ªà¸ĩà¸ª":7758,"Ġà¸Ńà¸Ńà¸£":7759,"ĠPay":7760,"Ġà¸£à¸°à¸Ķà¸¡":7761,"Ġà¸¡à¸Ńà¸¥à¸¥":7762,"yo":7763,"ized":7764,"Ġà¸Ħà¸£à¸²à¸¡":7765,"Ġà¹Ĥà¸Ĺà¸£à¸Ħà¸¡à¸Ļà¸²à¸Ħà¸¡":7766,"Ġà¸«à¸¥à¸ĩà¹ĥà¸«à¸¥":7767,"Ġmic":7768,"à¸¡à¸«à¸²à¸Ķà¹Ħà¸Ĺà¸¢":7769,"Ġà¹Ħà¸«à¸¥à¹Ģà¸§":7770,"Ġà¸Ĭà¸²à¸§à¸Ļà¸²":7771,"Ġà¸ļà¸¡à¸Ī":7772,"à¸ķà¸£à¸²à¸ª":7773,"à¸Ļà¹Ģà¸ª":7774,"Ġà¸ªà¸²à¸Ĺà¸£":7775,"ĠIntel":7776,"Ġà¸£à¸ķ":7777,"81":7778,"Ġà¸Ĭà¸²à¹Ģà¸Ĥ":7779,"à¸²à¸ĩà¹Ħà¸£à¸ļ":7780,"formation":7781,"ĠAUS":7782,"ĠYouTube":7783,"ĠCore":7784,"Ġà¹Ģà¸ªà¸²à¹Ģà¸Ĥ":7785,"à¸Ľà¸£à¸²à¸£à¸ĸà¸Ļà¸²":7786,"Ġà¸Ħà¸Ļà¹Ģà¸ģ":7787,"ĠFire":7788,"ĠEp":7789,"à¸²à¸ĩà¸£":7790,"à¸Ķà¸Ļà¸ķà¸£":7791,"à¸ŀà¸Ńà¹Ģà¸ŀ":7792,"600":7793,"âĢĭâĢĭ":7794,"CO":7795,"Ġà¸Ńà¸§à¸¢à¸ŀà¸£":7796,"à¸Īà¸ŀà¸Ńà¹Ģà¸ŀ":7797,"uch":7798,"ĠFlash":7799,"oice":7800,"Ġ450":7801,"Ġà¸ģà¸²à¸Ļ":7802,"ger":7803,"à¸¡à¸«à¸²à¸¢à¹ĥà¸Ī":7804,"Ġà¸ªà¸²à¸«à¸£":7805,"Ġserv":7806,"Ġà¸ģà¸£à¸°à¸Ĺà¸£à¸§à¸ĩà¸ģà¸²à¸£à¸Ħà¸¥":7807,"à¸ģà¸Ľà¸£à¸°à¸ģ":7808,"Ġà¸¡à¸°à¸Ĥà¸²à¸¡":7809,"Ġà¸ģà¸£à¸°à¸Ĺà¸£à¸§à¸ĩà¸¡à¸«à¸²à¸Ķà¹Ħà¸Ĺà¸¢":7810,"Ġà¸ªà¸§à¸Ļà¸ªà¸Ļ":7811,"appy":7812,"à¸Ĭà¸Ķà¸²":7813,"Ġà¸ĩà¸²à¸Ļà¸Ńà¸²à¸Ĭ":7814,"Ġà¹Ģà¸ģà¸©à¸¡":7815,"Ġà¸¡à¸²à¸ķ":7816,"ä¹":7817,"ĠRob":7818,"Ġà¸ľà¸¥à¸ģà¸²à¸£à¸Ķà¸³à¹Ģà¸Ļ":7819,"à¸Ńà¸ĩà¸¥":7820,"Ġà¹ģà¸Ŀà¸ĩ":7821,"Ġà¸«à¸Ńà¸ļ":7822,"ĠTechnology":7823,"Ġà¸Ħà¸ĩà¸Ĺ":7824,"Ġà¸Ħà¸Ļà¸ķ":7825,"Ġà¸Ĺà¸³à¹Ģà¸¥à¸Ĺ":7826,"Ġà¹ģà¸ªà¸ļ":7827,"ĠRel":7828,"Ġà¸§à¸ķ":7829,"Ġà¸Ļà¸²à¹Ĥà¸Ļ":7830,"à¸¡à¸¡à¸²":7831,"à¸ģà¸Ķà¸Ķ":7832,"thailand":7833,"ource":7834,"ĠCode":7835,"Ġà¸Ļà¸²à¸ĩà¸Ł":7836,"ĠPA":7837,"ĠBox":7838,"Ġà¸ĭà¸Ńà¸ģ":7839,"ohn":7840,"Ġà¸ªà¸ģà¸²à¸¢":7841,"Ġà¹Ģà¸«à¸§":7842,"In":7843,"Ġà¸ŀà¸²à¸£à¸²":7844,"ĠFR":7845,"amin":7846,"Ġdownload":7847,"à¸Ļà¸²à¸ĩà¹Ģà¸Ī":7848,"à¸Īà¸ŀà¸£à¸°à¸Ļà¸²à¸ĩà¹Ģà¸Ī":7849,"à¸£à¸²à¸¨":7850,"ĠES":7851,"Ġ2006":7852,"ĠLip":7853,"à¸Ķà¸īà¸²à¸ģ":7854,"ĠApplication":7855,"Ġà¸Ńà¸ŀà¸¢à¸ŀ":7856,"à¸Ńà¹ĥà¸Ķ":7857,"Ġthat":7858,"à¸²à¸¢à¸Ļà¸Ńà¸ģ":7859,"ĠTable":7860,"ury":7861,"à¸²à¸Īà¸²":7862,"à¸Īà¸ŀà¸£à¸°à¸£à¸²à¸Ĭ":7863,"ather":7864,"Ġà¸Ħà¸ĵà¸²à¸Īà¸²à¸£à¸¢":7865,"Ġà¸ªà¸ĸà¸²à¸Ľà¸Ļ":7866,"ĠEv":7867,"Ġà¸Ħà¸§à¸²à¸¡à¸«à¸Ļ":7868,"ĠmA":7869,"ĠWr":7870,"Ġà¹ģà¸¥à¸Ķ":7871,"Ġà¸Ĥà¸Ńà¸ĩà¸Ŀà¸²à¸ģ":7872,"82":7873,"Ġà¸¥à¸²à¸ł":7874,"Ġà¸ŀà¸¢à¸²à¸Ļ":7875,"Ġà¸Ľà¸§à¸Ķà¸«":7876,"à¸²à¸¢à¹ģà¸ŀ":7877,"à¸ªà¸¡à¸²à¸ĺ":7878,"à¹ģà¸Ĥà¸Ļ":7879,"Ġà¸ģà¸²à¸£à¸Ķà¸³à¸£à¸ĩ":7880,"ĠCN":7881,"ĠDrive":7882,"erson":7883,"Ġà¸ļà¸²à¸ĩà¹ģà¸«":7884,"Ġà¸ķà¸²à¸¡à¸ķ":7885,"za":7886,"Ġà¸¨à¸²à¸¥à¹Ģà¸Ī":7887,"ĠCry":7888,"Ġà¸Ħà¸§à¸²à¸¡à¸Ħà¸²à¸Ķ":7889,"ĠâĻ":7890,"order":7891,"990":7892,"ĠHard":7893,"ĠOF":7894,"à¸Ļà¹ģà¸¡":7895,"à¸Ļà¹Ģà¸Ń":7896,"Ġà¸£à¸²à¸Ĭà¸¡à¸ĩà¸Ħà¸¥":7897,"ĠFre":7898,"à¸Īà¸³à¸¥à¸Ńà¸ĩ":7899,"Ġà¸ªà¸«à¸ŀ":7900,"Ġà¸ľà¸¥à¹Ģà¸ª":7901,"å®":7902,"à¸ģà¸ªà¸£":7903,"Ġà¸ģà¸²à¸£à¸£à¸°":7904,"ĠSiam":7905,"thai":7906,"Ġà¸Ĥà¸Ļà¸²à¸Ķà¸Ĺ":7907,"Advisor":7908,"Ġed":7909,"Ġà¹Ģà¸Ńà¸²à¸Ĺ":7910,"ĠPage":7911,"Ġà¸Ĺà¸²à¸ĩà¸ģà¸²à¸¢":7912,"à¸Ńà¹Ģà¸Ķ":7913,"ĠDo":7914,"ĠGe":7915,"Ġà¸ķà¸ģà¸«à¸Ļ":7916,"ĠGT":7917,"Ġgclub":7918,"61":7919,"esta":7920,"à¸¨à¸²à¸ªà¸ķà¸£à¸²à¸Īà¸²à¸£à¸¢":7921,"Ġà¸Ħà¸§à¸²à¸¡à¸ĩ":7922,"Ġà¸ģà¸ªà¸Ĺà¸Ĭ":7923,"ape":7924,"à¸Ļà¸ļà¸Ļ":7925,"à¸³à¸ŀà¸£":7926,"ih":7927,"als":7928,"Ġà¸ľà¸¥à¸£à¸§à¸¡":7929,"ĠÂ©":7930,"HA":7931,"Ġà¸Ĺà¸³à¸ĩà¸²à¸Ļà¸«à¸Ļ":7932,"ird":7933,"à¸¢à¸Ļà¸Īà¸ļ":7934,"à¸¢à¸ķà¸°à¸§":7935,"Ġà¸Īà¸²à¸¡":7936,"Ġà¸Ĺà¸ļ":7937,"Ġà¸ĸà¸Ļà¸Ńà¸¡":7938,"à¸£à¸²à¸ķà¸£":7939,"Ġà¸ŀà¸£à¸°à¸Ħà¸£":7940,"Ġà¸ŀà¸«à¸¥à¹Ĥà¸¢à¸ĺ":7941,"ĠCC":7942,"à¸ĩà¹Ģà¸Īà¸Ńà¸£":7943,"Ġà¹Ģà¸Ļà¸Ĭ":7944,"ĠEnglish":7945,"ĠBlog":7946,"à¸²à¹ģà¸ķà¸°":7947,"à¸Ļà¹ģà¸ľà¸¥":7948,"ĠJul":7949,"Ġà¸Ńà¸²à¸ķ":7950,"ersion":7951,"ĠSeattle":7952,"97":7953,"Ġà¸ľà¸¥à¸ģà¸²à¸£à¹ģà¸Ĥ":7954,"Ġà¸Ļà¸²à¸¢à¸Ĺ":7955,"bidding":7956,"Ġvideo":7957,"Ġà¸Ńà¹Ĥà¸¨à¸ģ":7958,"Ġà¸Ľà¸£à¸°à¸ģà¸Ńà¸ļà¸ģà¸²à¸£":7959,"à¸ļà¸¡à¸Ńà¸ļà¸«à¸¡à¸²à¸¢":7960,"ĠEL":7961,"Ġà¸ªà¸ŀ":7962,"Ġà¸Ĺà¸²à¸ĩà¸Ī":7963,"Ġà¸ģà¸²à¸£à¸ķà¸Ńà¸ļà¸£":7964,"à¸ĩà¸ŀà¸²":7965,"ĠSkin":7966,"ule":7967,"à¸Ńà¸ĩà¹ĥà¸«à¸¡":7968,"Ġà¸¥à¸¡à¸«à¸²à¸¢à¹ĥà¸Ī":7969,"à¸ģà¹ģà¸«":7970,"Ġà¸¡à¸«à¸²à¸¥":7971,"Ġà¹Ģà¸Ļà¸£à¸¡":7972,"Ġà¸īà¸Ļà¸§à¸Ļ":7973,"Ġà¸Ľà¸£à¸°à¸ģà¸²à¸¨à¸Ļ":7974,"å½©":7975,"Ġà¸Ľà¸£à¸²à¸ģà¸²à¸£":7976,"ross":7977,"Ġà¹Ģà¸Ļà¸ª":7978,"ĠTripAdvisor":7979,"Ġà¸£à¸Ńà¸¢à¸ª":7980,"Ġà¸Ľà¸£à¸°à¹Ģà¸Ĺà¸¨à¸Ĭà¸²à¸ķ":7981,"Ġà¸ªà¸³à¸£à¸²à¸į":7982,"83":7983,"à¸ĩà¸Ľà¸£à¸°à¸ªà¸ĩà¸Ħ":7984,"Ġà¸ķà¸ģà¸ķ":7985,"Ġà¸ģà¸£à¸°à¸ļà¸§à¸Ļà¸ģà¸²à¸£à¸ľà¸¥":7986,"à¸Īà¸ŀà¸£à¸°à¸£à¸²à¸Ĭà¸Ķà¸³à¹Ģà¸Ļ":7987,"ates":7988,"à¸²à¸Ĺà¸³à¸ĩà¸²à¸Ļ":7989,"ĠCommun":7990,"à¸ķà¸ģ":7991,"ĠFin":7992,"à¸ªà¸§à¸¢":7993,"à¸Ľà¸£à¸°à¸Ĭà¸²à¸Ĭà¸²à¸ķ":7994,"ograph":7995,"Ġago":7996,"Ġ))":7997,"à¸²à¸Ľà¸ı":7998,"Ġà¹Ģà¸Ĥà¸¡à¸£":7999,"Ġà¸ªà¸Ńà¸ĩà¸Ĭ":8000,"à¸²à¸ªà¸°à¸ŀà¸²à¸¢":8001,"à¸ŀà¸£à¸¡":8002,"Ġmod":8003,"Ġseborrhe":8004,"Ġà¸ŀà¸¥à¹Ģà¸Ńà¸ģ":8005,"à¸Ńà¸¡à¸£à¸Ńà¸ļ":8006,"Ġà¹ģà¸ļà¸ģ":8007,"Ġà¸ĺà¸£à¸£à¸¡à¸ģà¸²à¸¢":8008,"obal":8009,"à¸§à¸Ļà¹Ģà¸ģ":8010,"Ġà¹Ģà¸īà¸ŀà¸²à¸°à¸Ĺ":8011,"Ġà¹ģà¸«à¸¡":8012,"à¸«à¸ĩ":8013,"300":8014,"ĠMotor":8015,"Ġà¸§à¸ĩà¸Ķà¸Ļà¸ķà¸£":8016,"Ġà¸Ĭà¸²à¸¡":8017,"à¸Ļà¸ģà¸²à¸£à¹Ģà¸ĩ":8018,"ĠMT":8019,"Ġà¹ĥà¸Ļà¸Ħà¸§à¸²à¸¡à¹Ģà¸Ľ":8020,"à¸²à¸¢à¸Ħà¸¥":8021,"à¸ĵà¸Ľà¸£à¸°à¹Ĥà¸¢à¸Ĭà¸Ļ":8022,"Ġiphone":8023,"Ġà¸Īà¸²à¸ģà¸ģ":8024,"ĠPhone":8025,"Â¸Â":8026,"Ġà¸Ļà¸¤":8027,"à¸¡à¸²à¸¢":8028,"Ġà¸Ļà¸²à¸¡à¸ļ":8029,"ization":8030,"Ġà¹Ħà¸Łà¸«à¸Ļ":8031,"à¸ĺà¸¢à¸²à¸¨":8032,"ĠFOR":8033,"Ġà¹Ģà¸Ļà¸ķà¸£":8034,"icial":8035,"Ġà¹ĥà¸ļà¸ªà¸¡":8036,"à¸ĩà¸Ń":8037,"Ġà¹ģà¸ģà¸Ļà¸Ļà¸³":8038,"ĠDC":8039,"Ġà¸ģà¸²à¸£à¸¥":8040,"ĠContinue":8041,"ally":8042,"Ġà¸Ħà¸Ļà¸ĩà¸²à¸Ļ":8043,"âĢĶâĢĶâĢĶâĢĶ":8044,"à¸©à¸¢à¸Ĭà¸Ļ":8045,"Ġà¸ľà¸¨":8046,"Ġ999":8047,"Ġseekers":8048,"Ġà¹ĳà¹ķ":8049,"Ġà¸Ħà¸§à¸²à¸¡à¸ĩà¸Ķà¸ĩà¸²à¸¡":8050,"ĠCB":8051,"Ġà¸ªà¸°à¸ģà¸Ķ":8052,"à¸³à¸¥à¸²à¸¢":8053,"ola":8054,"à¸§à¸²à¸£":8055,"à¸§à¸¢à¹Ħà¸¡":8056,"Ġï¼":8057,"Ġà¸ŀà¸Ńà¸¥":8058,"Ġà¸ªà¸¡à¸£à¸£à¸ĸà¸łà¸²à¸ŀ":8059,"à¸ķà¸Ļà¸£à¸²à¸Ĭ":8060,"Ġà¹Ħà¸Ńà¸Ħà¸Ńà¸Ļ":8061,"AIL":8062,"Ġà¸§à¸²à¸ĩà¸Ĥà¸²à¸¢":8063,"à¸ĩà¸ļà¸Ńà¸ģ":8064,"Ġà¸Ķà¸§à¸ĩà¸Ī":8065,"Ġà¸Ĥà¸Ńà¸Ħà¸§à¸²à¸¡":8066,"Ġà¸Ĺà¸¢à¸²":8067,"Cl":8068,"à¹īà¹į":8069,"Ġà¸Ĥà¸Ńà¸ļà¸ŀà¸£à¸°à¸Ħ":8070,"Ġà¹Ĥà¸£à¸ĩà¹Ħà¸Łà¸Ł":8071,"à¸²à¸§à¸¡à¸²":8072,"ĠMen":8073,"OG":8074,"à¹Ĥà¸¥à¸§":8075,"ster":8076,"Ġà¸Ħà¸£à¸¡":8077,"à¸§à¸²à¸«":8078,"tain":8079,"ustom":8080,"72":8081,"à¸Ńà¸«à¸¡":8082,"ĠGood":8083,"à¸§à¸ĩà¸ķ":8084,"Ġjav":8085,"ĠâĹ":8086,"à¸¡à¸ªà¸²à¸¢":8087,"Ġà¸ŀà¸£à¸ļ":8088,"Ġà¸Ŀà¸²à¸ģà¹Ģà¸ĩ":8089,"Ġà¸ªà¸¢à¸Ńà¸ĩ":8090,"à¸§à¸Ļà¸Ī":8091,"à¸¢à¸ĩà¹Ģà¸Ĺ":8092,"à¹Ģà¸ªà¸¡à¸Ń":8093,"à¸¢à¸ŀ":8094,"à¸Ńà¸ļà¸Īà¸°":8095,"Ġ2548":8096,"bet":8097,"à¸Ļà¹Ģà¸Ķà¸Ńà¸£":8098,"Ġà¸īà¸²à¸¢à¸²":8099,"à¹Ĥà¸ªà¸ĺà¸£":8100,"à¸ļà¹Ģà¸Ĥà¸²":8101,"74":8102,"à¸§à¸¢à¸¡":8103,"à¸Ńà¸ĩà¸ķà¸¥à¸²à¸Ķ":8104,"Ġà¸ļà¸Ļà¸ļà¸²à¸Ļ":8105,"ĠTa":8106,"ĠðŁĳ":8107,"ĠHuawei":8108,"à¹ģà¸Ŀ":8109,"Ġà¸ľà¸¥à¸ª":8110,"05":8111,"Ġà¸§à¸£à¸£à¸ĵà¸ģà¸£à¸£à¸¡":8112,"Ġà¸Ķà¸Ńà¸ĩ":8113,"ĠSearch":8114,"à¸Ļà¸Ķà¸£":8115,"ĠMV":8116,"Ġà¸ķà¸Ńà¸Ļà¹Ģà¸¢":8117,"à¸ĩà¸ŀà¸¥":8118,"à¸ĩà¸Ħà¸£":8119,"riend":8120,"Ġà¸Ńà¸Ńà¹Ģà¸Ķà¸Ńà¸£":8121,"raw":8122,"Ġà¸łà¸²à¸ŀà¸§à¸²à¸Ķ":8123,"Ġà¸Ĺà¸³à¸ľ":8124,"à¸²à¸ĩà¸²à¸Ļ":8125,"à¸Ľà¸£à¸°à¸Ĭà¸²à¸ª":8126,"Ġà¸Ħà¸Ļà¹ĥà¸Ĭ":8127,"ĠTwitter":8128,"Ġà¸ªà¸Ĺ":8129,"ĠCentral":8130,"à¸Ńà¹Ģà¸¡":8131,"à¸ģà¹Ģà¸Ĭ":8132,"à¸²à¸¢à¸¡":8133,"Ġà¸ģà¸²à¸£à¸Ľà¸£à¸°à¸¡à¸§à¸¥":8134,"ĠSum":8135,"iving":8136,"Ġà¸Ľà¸£à¸²à¸ģà¸ıà¸ķ":8137,"à¸ĩà¸ªà¸ģà¸Ľà¸£à¸ģ":8138,"à¸ªà¸°à¸Ńà¸²à¸Ķ":8139,"eep":8140,"Ġà¸Īà¸ģ":8141,"Ġà¸ĩà¸²à¸Ļà¸Ľà¸£à¸°à¸Īà¸³":8142,"à¸ģà¸ķà¸£":8143,"oi":8144,"Ġà¸Ĺà¸²à¸ĩà¸Ń":8145,"à¸Ńà¸ĩà¸Īà¸£":8146,"à¸³à¸¢":8147,"Ġà¸ªà¸ĩà¸§à¸Ļà¸ª":8148,"à¸ĵà¸ĳà¸°":8149,"Ġà¸Ļà¸¢":8150,"Ġ888":8151,"Ġà¸Ĺà¸²à¸¢à¸²à¸Ĺ":8152,"Ġà¹Ħà¸Ļà¸Ĺ":8153,"Ġà¸Ħà¸¥à¸Ń":8154,"ĀĀĀĀĀĀĀĀ":8155,"Ġ\",\"":8156,"100":8157,"Ġday":8158,"ĠUR":8159,"Ġà¸«à¸¡à¸Ńà¸ĩ":8160,"Ġà¸ªà¸°à¸ŀà¸²à¸¢":8161,"ĠMAXBET":8162,"ĠBel":8163,"à¸ªà¸«à¸ģà¸£à¸ĵ":8164,"ening":8165,"isk":8166,"à¸Ļà¸ģà¸¥":8167,"62":8168,"Ġà¸§à¸²à¸ĩà¹ģà¸ľ":8169,"Ġà¸¡à¸Ńà¸ĩà¹Ħà¸¡":8170,"ula":8171,"à¸§à¸ķà¸²":8172,"à¹Ģà¸§à¸Ĭ":8173,"à¹Ģà¸£à¸¨à¸§à¸£":8174,"Ġà¹ģà¸§à¸Ķà¸§à¸ĩ":8175,"crip":8176,"Ġà¸ģà¸³à¹Ģà¸£":8177,"Ġà¸ģà¸ģà¸":8178,"Ch":8179,"Ġà¸ĭà¸²à¸§":8180,"ĠGirl":8181,"ĠEN":8182,"Ġà¸Ńà¸Ńà¸ģà¹Ħà¸ĭà¸Ķ":8183,"Ġà¸Ħà¸Ļà¸ªà¸³à¸Ħ":8184,"à¹Ģà¸ĺà¸Ńà¸£":8185,"Ġà¹Ĵà¹ķà¹ĸà¹Ĳ":8186,"ĠâĢĤ":8187,"iter":8188,"Ġà¹Ģà¸«à¸ĩà¸²":8189,"à¸Ķà¸Ĭà¸¡à¸§":8190,"rust":8191,"à¸²à¸¢à¹Ħà¸Ķ":8192,"Ġà¸ķà¸£à¸²à¸ª":8193,"Ġla":8194,"ÐµÐ½":8195,"ĠMa":8196,"Ġindex":8197,"arat":8198,"asis":8199,"Book":8200,"à¸¥à¸Ł":8201,"Ġà¸Ħà¸§à¸²à¸¡à¸Ńà¸Ķ":8202,"Ġà¹Ģà¸ģà¸°":8203,"93":8204,"à¸²à¸Ļà¸ĭ":8205,"Ġà¸«à¸²à¸£à¸²à¸¢à¹Ħà¸Ķ":8206,"ĠÑĭ":8207,"Ġà¸ŀà¸Ńà¸ĩ":8208,"à¸¢à¸«à¸Ļ":8209,"à¸Ļà¸ªà¸°":8210,"à¸¢à¸¡à¸ģà¸²à¸£":8211,"à¹Ħà¸ĭà¸¡":8212,"Ġà¸¥à¸Ńà¸ª":8213,"ĠStreet":8214,"à¸²à¸£à¸¡à¸ĵ":8215,"amily":8216,"Ġà¸«à¸§à¸ĩ":8217,"Ġà¸§à¸²à¸Īà¸²":8218,"Ġà¹Ĥà¸ŀà¸£à¸ĩ":8219,"Ġmg":8220,"à¸Ľà¸£à¸°à¸¡à¸ĩ":8221,"ship":8222,"Ġà¹Ģà¸¥à¸Ĥà¸²à¸Ļ":8223,"ears":8224,"ĠHost":8225,"dr":8226,"à¸ģà¸©à¸²à¸ŀà¸¢":8227,"à¸ģà¸©à¸²à¸ŀà¸¢à¸²à¸ļà¸²à¸¥":8228,"à¸§à¸¨":8229,"à¸Ľà¸£à¸°à¸ģà¸²à¸¢":8230,"Ġpol":8231,"Ġà¸«à¸¢à¸ģ":8232,"day":8233,"Ġà¸Ħà¸²à¸ĩ":8234,"rog":8235,"ĠAnal":8236,"Ġà¸ĩà¸²à¸Ļà¸ļ":8237,"ENT":8238,"ĠSPF":8239,"Ġà¸ªà¸ĸà¸²à¸Ľà¸Ļà¸²":8240,"Ġmon":8241,"à¸Ķà¹Ģà¸ļ":8242,"à¸ĩà¹Ģà¸¡":8243,"Ġà¸®à¸§à¸ĩ":8244,"à¸²à¹Ħà¸Ĺ":8245,"Ġà¸ªà¸²à¸¢à¸ĩà¸²à¸Ļ":8246,"à¸ŀà¸²à¸Ĺ":8247,"à¹ģà¸Ĺà¸£":8248,"à¸Ļà¹ģà¸Ķà¸ĩ":8249,"uto":8250,"64":8251,"ants":8252,"Ġà¸ģà¸²à¸£à¹Ħà¸Łà¸Ł":8253,"Ġà¸Ħà¸³à¸Ĥà¸Ń":8254,"à¸ķà¸ķà¸²à¸Ħà¸²à¸£":8255,"Ġà¹ĥà¸ļà¹Ģà¸ªà¸£":8256,"Ġà¸ŀà¸£à¸°à¸£à¸²à¸Ĭà¸ŀ":8257,"ĠBal":8258,"¤à¸Ĺà¸ĺ":8259,"Ġà¸Ħà¸²à¸ļ":8260,"Ġà¸ªà¸¡à¸¡":8261,"Ġà¹Ģà¸Ńà¸²à¹ĥà¸Īà¹ĥà¸ª":8262,"Ġà¸ĸà¸§à¸²à¸¢à¸ŀà¸£à¸°":8263,"Ġà¸ŀà¸įà¸²à¹Ħà¸Ĺ":8264,"áĢ":8265,"Ġà¸ģà¸²à¸¢à¸łà¸²à¸ŀ":8266,"enn":8267,"à¹Ģà¸«à¸£":8268,"porn":8269,"Ġà¸ªà¸¥à¸²à¸ģà¸ģ":8270,"94":8271,"nxx":8272,"Ġhand":8273,"à¹Ģà¸ĵà¸£":8274,"Ġà¸Īà¸§":8275,"Ġà¹ĥà¸Ļà¸Ĥà¸ĵà¸°à¸Ļ":8276,"Ġà¸Ĺà¸£à¸¡à¸²à¸Ļ":8277,"à¸Ľà¸£à¸°à¸ªà¸²à¸Ļ":8278,"Ġhtml":8279,"à¸¡à¸łà¸²à¸£à¸°":8280,"aper":8281,"ĠMem":8282,"ĠStud":8283,"73":8284,"à¸°à¹ģà¸Ļà¸Ļ":8285,"à¸Ńà¸ģà¸Ħ":8286,"issan":8287,"be":8288,"Ġà¸¡à¹Ĥà¸Ļ":8289,"à¸ĩà¸Ĥà¸Ļà¸²à¸Ķ":8290,"ĠDou":8291,"à¸¥à¸ģà¸²à¸ģà¸£":8292,"Ġà¸ķà¸£à¸§à¸Īà¸Ī":8293,"Ġ128":8294,"ensor":8295,"Ġà¸Ńà¸²à¸ķà¸¡à¸²":8296,"Ġà¸ŀà¸²à¸§à¹Ģà¸§à¸Ńà¸£":8297,"Ġà¹Ģà¸Ķà¸§":8298,"à¸ĩà¹Ģà¸Ħà¸£":8299,"Ġsub":8300,"Ġà¹ģà¸Ħà¸¥à¸Ńà¸£":8301,"ĠTok":8302,"ĠGP":8303,"à¸§à¸²à¸Ĺ":8304,"ĠBi":8305,"ĠPin":8306,"Ġà¸ķà¸ģà¸Ħ":8307,"à¸Ĳà¸Ľà¸£à¸°":8308,"à¸Ńà¸Ļà¸Ĭ":8309,"à¹Ģà¸ģà¸©à¸¡":8310,"Ġà¹Ģà¸Ńà¸Łà¹Ģà¸§à¸Ńà¸£":8311,"Ġà¸ģà¸£à¸°à¹ģà¸ªà¹Ħà¸Łà¸Ł":8312,"à¸³à¸ĭ":8313,"Ġà¹ĥà¸Īà¸£":8314,"Ġà¸ŀà¸£à¸°à¸Ī":8315,"ĠEr":8316,"Ġà¸ªà¸Ńà¸Ļà¸ŀ":8317,"Ġà¸Ļà¸³à¸Ĺà¸²à¸ĩ":8318,"Ġà¸Ļà¸²à¸¢à¹ĥà¸«à¸į":8319,"à¸ģà¸©à¸²à¸ģà¸²à¸£":8320,"Ġà¸Ĥà¸Ńà¸ŀà¸£":8321,"uman":8322,"Ð¾Ð²":8323,"Ġà¸Ĺà¸²à¸ĩà¸Ĺà¸°à¹Ģà¸¥":8324,"Ġâľĵ":8325,"ä»":8326,"à¸ģà¸£à¸Ľà¸ģà¸Ħà¸£à¸Ńà¸ĩ":8327,"à¸ģà¸£à¸Ľà¸ģà¸Ħà¸£à¸Ńà¸ĩà¸ª":8328,"à¸Ńà¸ĩà¸ªà¸³à¸Ħ":8329,"Ġà¸£à¸°à¸ļà¸²à¸Ķ":8330,"Ġà¸Ľà¸¥à¸Ńà¸ģ":8331,"Ġà¹Ģà¸®à¸ĩ":8332,"à¸¤à¸ģà¸©":8333,"Pl":8334,"Ġà¸«à¸¢à¸§à¸Ļ":8335,"ĠFest":8336,"Ġà¸ķà¸ģà¸Ľà¸¥à¸²":8337,"Ġà¹Ĥà¸ĭà¹Ģà¸Ķ":8338,"bl":8339,"à¹Ĥà¸§":8340,"Ġwas":8341,"iya":8342,"à¹Ģà¸§à¸Ł":8343,"Ġà¸ģà¸³à¸¡à¸°":8344,"ĠTem":8345,"Ġà¸£à¸²à¸Ħà¸²à¸Ĥà¸²à¸¢":8346,"Ġà¸Ĭà¸³à¸£":8347,"à¹Ģà¸¥à¸ĭ":8348,"Ġà¸Ħà¸£à¸£à¸ł":8349,"Ġà¸Ĺà¸Ļà¸²à¸¢à¸Ħà¸§à¸²à¸¡":8350,"Ġà¹ģà¸ľà¸¥à¹Ģà¸Ľ":8351,"à¸Ńà¸Ńà¸Ļ":8352,"Ġà¹ģà¸ŀà¸Ļ":8353,"ARD":8354,"à¸įà¹ĥà¸Ī":8355,"Ġà¸ķà¸Ńà¸ģà¸¢":8356,"che":8357,"kk":8358,"à¸Ķà¸Ľà¸²à¸ģ":8359,"aser":8360,"ĠTit":8361,"à¸¢à¸²à¸Ĺ":8362,"à¹ģà¸Ľà¸¥à¸ģ":8363,"à¸Ħà¸§":8364,"Ġà¸Ľà¸£à¸°à¸¡à¸ĩ":8365,"à¸ķà¸£à¸²à¹ģà¸¥à¸ģà¹Ģà¸Ľà¸¥":8366,"Ġà¸Ļà¸Ńà¸£":8367,"à¸Ļà¸Ĺà¸°à¹Ģà¸ļ":8368,"à¸ģà¹Ģà¸ģ":8369,"à¸Ńà¸¨à¸Ńà¸ģ":8370,"à¸Ńà¸ĩà¸Ķà¸Ļà¸ķà¸£":8371,"ĠRoad":8372,"à¸¡à¸ĩà¸§à¸Ķ":8373,"Ġà¸ªà¸²à¸¢à¸ŀà¸²à¸Ļ":8374,"Ġà¸ķà¸Ńà¸ģ":8375,"à¸Ńà¸ĩà¸£à¸Ńà¸¢":8376,"ference":8377,"Ġà¸ģà¸²à¸£à¸ģà¸³à¸ģ":8378,"AA":8379,"98":8380,"Ġà¹ģà¸Ńà¸¡à¸Ľ":8381,"à¹ģà¸ģà¸£à¸ĩ":8382,"oma":8383,"à¹Ģà¸Łà¸Ńà¸£":8384,"à¸Ķà¸Ħà¸§à¸²à¸¡à¸ªà¸²à¸¡à¸²à¸£à¸ĸ":8385,"ĠPs":8386,"Ġà¸£à¸¡à¸§":8387,"Ġà¸ķà¸Ńà¸Ļà¸ģà¸¥à¸²à¸ĩà¸Ħ":8388,"ĠVit":8389,"Ġà¸§à¸ĩà¹ģà¸«à¸§à¸Ļ":8390,"ĠBag":8391,"63":8392,"unt":8393,"åĽ":8394,"à¸ĩà¸Ĺà¸³":8395,"Ġà¸ģà¸²à¸£à¸ĵ":8396,"Ġà¸ģà¸£à¸§à¸¢":8397,"omi":8398,"ĠAgoda":8399,"Ġà¸Ħà¸§à¸ļ":8400,"à¸Ħà¸Ľ":8401,"à¸Ĺà¸£à¸ªà¸ĩà¸Ħà¸£à¸²à¸¡":8402,"Ġà¸Ĭà¸£à¸²":8403,"Ġà¸ģà¸Ļ":8404,"Ġà¸Īà¸£à¸Ķ":8405,"à¸ĩà¹Ħà¸Ĺà¸¢":8406,"ĠPDF":8407,"Ġà¸£à¸°à¸Ĩ":8408,"à¹Ģà¸Ŀ":8409,"Ġà¸Ħà¸§à¸²à¸¡à¹ģà¸¡":8410,"FC":8411,"à¸§à¸¢à¸Ĥà¸§à¸²à¸ĩ":8412,"Ġà¸ªà¸§à¸Ļà¸ª":8413,"ami":8414,"Ġà¹ĳà¹ĳ":8415,"Web":8416,"Ġgr":8417,"à¸ĩà¹ĥà¸«à¸¡":8418,"à¸Ļà¹Ħà¸Ľà¹Ħà¸¡":8419,"ĠModel":8420,"à¸¡à¸ļ":8421,"ĠUSD":8422,"à¹Ħà¸ŀà¸£à¸ª":8423,"orth":8424,"Ġà¸¥à¸³à¸Ħà¸Ń":8425,"à¸¢à¸ĩà¸Ļà¸Ńà¸Ļ":8426,"à¹Ĥà¸¡à¸ĩà¸Ħ":8427,"Ġà¹Ģà¸§à¸¥à¸²à¸§":8428,"ACK":8429,"à¸§à¹ģà¸Ľà¸£":8430,"ĠEC":8431,"à¸§à¸Ļà¸°":8432,"à¸²à¸ŀà¸Ńà¹ĥà¸Ī":8433,"Ġà¹Ĥà¸Ļà¸°":8434,"à¸Īà¸Ķ":8435,"à¹Ĥà¸¥à¸¡":8436,"Ġà¹Ĥà¸Ńà¸Ĭà¸²":8437,"ĠPorn":8438,"à¸ªà¸²à¸Ĥ":8439,"ĠEMS":8440,"Ġà¸Ĩà¸²à¸ķ":8441,"net":8442,"dom":8443,"Ġà¹Ģà¸Ĺà¸ŀà¹Ģà¸Ī":8444,"light":8445,"ĠAmer":8446,"Ġà¸£à¸ĸà¹Ĥà¸Ķà¸¢à¸ªà¸²à¸£":8447,"à¹Ĥà¸ŀà¸ĺ":8448,"Ġà¸ķà¸°à¹ģà¸ģà¸£à¸ĩ":8449,"à¸ģà¸Ńà¸Ńà¸ģà¹ģà¸ļà¸ļ":8450,"ball":8451,"à¸²à¸ªà¸ķà¸²à¸ĩà¸Ħ":8452,"à¸§à¸ĩà¸«à¸¥":8453,"ĠED":8454,"à¸¡à¸ŀà¸£à¸£à¸©à¸²":8455,"ĠThis":8456,"Ġà¸ģà¸£à¸°à¸Ĺà¸³à¸ģà¸²à¸£":8457,"à¹ģà¸¥à¸°à¸ªà¸«à¸ģà¸£à¸ĵ":8458,"ars":8459,"à¸Ļà¸ģà¸¥à¸²à¸ĩ":8460,"à¸§à¹Ģà¸Ħà¸¥":8461,"Ġà¹Ĥà¸£à¸Īà¸Ļ":8462,"Ġà¸ĸà¸ģ":8463,"à¸Ļà¸ªà¸²à¸§":8464,"Ġ2547":8465,"à¸Ńà¹Ģà¸£à¸Ĭ":8466,"à¸Ľà¸£à¸°à¸ªà¸²à¸Ļà¸ĩà¸²à¸Ļ":8467,"Ġà¸ªà¸²à¸¡à¹Ģà¸ĵà¸£":8468,"Ġà¸ģà¸²à¸£à¸ķà¸£à¸§à¸Ī":8469,"à¹Ģà¸Ĺà¸ŀà¸£":8470,"ĠmAh":8471,"Ġà¸ŀà¸£à¸²à¸«à¸¡à¸ĵ":8472,"ĠCPU":8473,"ester":8474,"à¸¡à¸ªà¸²à¸¢à¸Ĭ":8475,"ĠBody":8476,"à¸¢à¸Ń":8477,"ĠPP":8478,"Ġà¸Ľà¸£à¸°à¸ŀ":8479,"Ġà¹ģà¸ĸà¸¥à¸ĩà¸ģà¸²à¸£à¸ĵ":8480,"Ġà¸©à¸²":8481,"ĠDirect":8482,"Ġà¹Ĥà¸£à¸ĩà¸ŀ":8483,"Ġà¸¡à¸¥à¸ŀ":8484,"Ġxx":8485,"Ġkey":8486,"à¸¨à¸§à¸ģà¸£à¸£à¸¡à¸¨à¸²à¸ªà¸ķà¸£":8487,"ĠUser":8488,"Ġà¸ģà¸£à¸°à¸ĸ":8489,"à¹Ģà¸Ķà¸ķ":8490,"à¸Ļà¸ģà¸£":8491,"Ġà¹ģà¸¡à¸Ĺ":8492,"Ġà¸īà¸¥à¸²à¸¡":8493,"Ġtitan":8494,"à¸Īà¸ŀà¸£à¸°à¹Ģà¸Ĺà¸ŀà¸£":8495,"à¸ķà¸Ļà¸£à¸²à¸Ĭà¸ª":8496,"à¸²à¹Ģà¸Ī":8497,"UE":8498,"Ġà¸Ĥà¸¥":8499,"à¸²à¸£à¸²à¸¡":8500,"à¸§à¸«à¸¥":8501,"Ġà¹Ģà¸Ĥà¸Ļ":8502,"à¸¢à¸ļà¹Ĩ":8503,"à¸ķà¸²à¸¡à¸Ńà¸ĩ":8504,"ĠEdition":8505,"à¸ģà¹Ģà¸¡":8506,"elandine":8507,"à¸ĵà¸¢":8508,"71":8509,"à¸²à¸ĩà¸ļà¸Ļ":8510,"à¸Ńà¹Ģà¸ªà¸Ļà¸Ńà¹ģà¸Ļà¸°":8511,"bon":8512,"istr":8513,"Ġà¸ªà¸¡à¸²à¸Ļ":8514,"à¸Ńà¸ĩà¸Ĥ":8515,"Ġà¸ķà¸Ńà¸ļà¹ģà¸Ĺà¸Ļ":8516,"Ġà¹ģà¸®à¸Ľà¸Ľ":8517,"à¸łà¸²à¸¢à¸Ļà¸Ńà¸ģ":8518,"Ġà¹ģà¸ĭà¸ĩà¸ķ":8519,"Ġà¸Ńà¸²à¸«à¸²à¸£à¸Ħ":8520,"Ġ[/":8521,"Ġà¹Ĥà¸Ķà¸¢à¸Ľà¸£à¸°à¸¡à¸²à¸ĵ":8522,"ĠÑģ":8523,"ibr":8524,"Ġà¹Ģà¸ĭà¹Ģà¸§":8525,"à¹Ģà¸Ĺà¸¡":8526,"à¸£à¸ĸà¸¢à¸Ļà¸ķ":8527,"Ġadd":8528,"Ġinf":8529,"Ġà¹Ħà¸¡à¹Ĥà¸Ħà¸£à¹Ĥà¸Łà¸Ļ":8530,"ĠEV":8531,"Ð¸Ð":8532,"ĠOT":8533,"gorod":8534,"Ġà¹Ĥà¸Ĩà¸©à¸ģ":8535,"Ġà¹Ħà¸Ńà¹Ģà¸Ĺà¸¡":8536,"à¸ģà¸ĩà¸²à¸Ļà¹ĥà¸«à¸į":8537,"ĠWireless":8538,"ĠHead":8539,"Ġà¸Ńà¸³à¸Ļà¸²à¸Īà¹Ģà¸Īà¸£":8540,"Ġà¸Ľà¸¥à¸²à¸«à¸¡":8541,"ĠLand":8542,"Ġà¹Ħà¸Ńà¸£":8543,"Ġ190":8544,"à¸²à¸£à¸²à¸ĩà¸§":8545,"????":8546,"Ġ535":8547,"à¸Ħà¹Ģà¸ģ":8548,"à¸ļà¸ķà¸²à¸¡à¸Ńà¸ĩ":8549,"Ġé":8550,"iber":8551,"Ġreading":8552,"92":8553,"ĠVS":8554,"obe":8555,"à¸£à¸ŀà¸²":8556,"oul":8557,"à¸Ńà¸ĩà¸Ĺà¸³":8558,"ĠRun":8559,"Ġà¸Ĥà¸Ńà¸ĩà¸«à¸§à¸²à¸Ļ":8560,"Ġà¸£à¸ĩà¸Ħ":8561,"ĠLong":8562,"Ġà¸Ħà¸§à¸²à¸¡à¹Ģà¸Ľà¸¥":8563,"à¸Ńà¸ģà¹Ĥà¸ģà¹ģà¸¥à¸ķ":8564,"Ġà¸ŀà¸¥à¸²à¸ĭ":8565,"à¸ªà¹Ĥà¸ģ":8566,"ĠType":8567,"Ġà¸ªà¸Ļà¸ĺ":8568,"à¸Ķà¹Ħà¸¡":8569,"Ġà¸«à¸¥à¸°":8570,"à¸²à¸łà¸£à¸ĵ":8571,"ichesk":8572,"à¹Ģà¸Ĺà¸¨à¸ģà¸²à¸¥":8573,"Ġà¹ĥà¸Īà¸¡à¸²":8574,"Ġà¸ªà¸°à¹Ģà¸Ĺ":8575,"Ġà¸ģà¸£à¸£à¸¡à¸§":8576,"à¸Ľà¸ĺà¸£à¸£à¸¡":8577,"Ġà¸Ľà¸²à¸¢":8578,"mar":8579,"à¸Ľà¸ł":8580,"fa":8581,"ails":8582,"Ġforex":8583,"à¸įà¸ģ":8584,"Ġà¸Ńà¸³à¸Ļà¸§à¸¢à¸ģà¸²à¸£":8585,"ĠAT":8586,"Ġve":8587,"à¸Ĭà¸Ļà¸¡à¸ŀà¸£à¸£à¸©à¸²":8588,"Ġà¹Ģà¸Ńà¹Ģà¸Ńà¸Ł":8589,"Ġà¹Ĵà¹Ĳ":8590,"à¸Ľà¸£à¸²à¸¢":8591,"à¸§à¹Ģà¸«à¸¥":8592,"Ġà¸«à¸²à¸ĩà¸Ī":8593,"à¸Ľà¸¥à¸Ńà¸¡":8594,"Ġà¸«à¸²à¸ĩà¸Īà¸£à¸°à¹Ģà¸Ĥ":8595,"Ġà¸ŀà¸²à¹Ģà¸¥à¸ĭ":8596,"à¹Ħà¸ģà¸£":8597,"Ġinst":8598,"ŀĸ":8599,"Ġà¹Ģà¸ģà¸Ī":8600,"Ġáº":8601,"Ġà¸ģà¸²à¸¥à¹Ģà¸§à¸¥à¸²":8602,"à¸Ĥà¸Ļà¸²à¸Ķ":8603,"Ġà¹Ĥà¸Ķà¸¢à¹Ģà¸£":8604,"à¸Ńà¸Ļà¹Ħà¸¡":8605,"ĠÐ²":8606,"à¸Ńà¸ĩà¸Ľà¸²à¸ģ":8607,"ĠDon":8608,"ĠSL":8609,"HI":8610,"Ġà¸ªà¸£à¸£à¸Ħ":8611,"ister":8612,"ude":8613,"araoke":8614,"à¸Ńà¸¡à¸ļà¸³à¸£":8615,"ĠAdv":8616,"Ġà¸ģà¸²à¸£à¸Ľà¸ģà¸Ľ":8617,"nect":8618,"Ġwork":8619,"ĠMHz":8620,"Ġà¹Ģà¸Ńà¹Ģà¸¢":8621,"Ġà¹Ħà¸«à¸Ļà¸Īà¸°":8622,"ĠNok":8623,"à¸ļà¹Ģà¸Ľ":8624,"Ġà¸ģà¸£à¸°à¸Ĺà¸³à¸Ħà¸§à¸²à¸¡à¸ľ":8625,"ĠÃ¼":8626,"à¸ªà¹Ģà¸ķà¸Ńà¸£à¸Ńà¸¥":8627,"Ġà¹Ģà¸¥à¸§":8628,"à¸ªà¸ķà¸£":8629,"ĠPVC":8630,"à¸ķà¹Ģà¸ĭà¸Ńà¸£":8631,"à¸Ńà¸ĩà¸Īà¸²à¸ģà¸§":8632,"ots":8633,"Ġà¸¥à¸ĩà¸Ħ":8634,"à¸²à¸Ĥà¸Ńà¸ĩà¸ļ":8635,"à¸Ńà¸Ķà¹ģà¸Ķà¸ĩ":8636,"ĠMil":8637,"ART":8638,"à¸ĩà¸Ħà¸³":8639,"Ġà¹Ģà¸Ħà¸²à¸°":8640,"Ġà¹Ģà¸ļà¸ķ":8641,"ARK":8642,"Ġà¸¿à¸¿":8643,"Ġà¸Ħà¸§à¸²à¸¡à¸ªà¸§":8644,"inburg":8645,"Ġà¸Īà¸£à¸²à¸Īà¸£":8646,"rustal":8647,"à¸ģà¸«à¸ģ":8648,"ĠTouch":8649,"Ġà¸Ńà¸¡à¸£":8650,"Ġà¸Ĭà¸Ķà¹Ģà¸Ĭà¸¢":8651,"yat":8652,"Ġà¹ģà¸ľà¸Ļà¸ģà¸ķ":8653,"yshev":8654,"à¸Ľà¸ªà¸ķ":8655,"Ġà¸Ħà¸£à¸Ńà¸ª":8656,"à¸ŀà¹Ģà¸£":8657,"Ġà¸Ĭà¸Ļà¸Ĭ":8658,"Ġï»¿":8659,"Ġà¹ģà¸Ļà¸Ļ":8660,"à¹Ħà¸Ľà¸£à¸©à¸ĵ":8661,"ĠRAM":8662,"à¹ĥà¸ł":8663,"ĠÂ°":8664,"Ġà¹Ģà¸§à¸ª":8665,"Ġà¸Ĺà¸³à¸ŀ":8666,"oday":8667,"Ġà¸ģà¸²à¸£à¸Ľà¸£à¸°à¸¡à¸§à¸¥à¸ľà¸¥":8668,"à¸ĩà¸Ħà¸³à¸ĸà¸²à¸¡":8669,"omb":8670,"Ġà¸Īà¸Ńà¸¡à¹Ģà¸ģà¸¥":8671,"à¸¢à¸ĩà¸£":8672,"Ġà¸¢à¸²à¸Ľà¸ı":8673,"à¸ĩà¹Ģà¸ģà¸ķà¹Ģà¸«":8674,"Ġà¸Ħà¸Ńà¸¥à¹Ģà¸¥à¸Ħà¸Ĭ":8675,"Ġà¸ģà¸£à¸ĩ":8676,"à¸²à¸ĩà¸Ķ":8677,"âľ":8678,"Ġcasino":8679,"Ġà¸£à¸ĸà¹Ģà¸ģ":8680,"Ġpc":8681,"Ġà¹Ģà¸Ĺà¸¨à¸ļà¸²à¸¥à¸Ļà¸Ħà¸£":8682,"Ġà¸Ľà¸§":8683,"à¸Ķà¸ľà¸¥":8684,"à¸ķà¸ĸà¸ģà¸£à¸£à¸¡":8685,"à¹Ħà¸ļ":8686,"à¸Ľà¹Ģà¸Ķà¸ķ":8687,"à¹Ĥà¸«à¸¡":8688,"Ġemail":8689,"Ġà¸Ļà¸²à¸ı":8690,"Ġcc":8691,"à¸²à¸®":8692,"à¸²à¸Ĩ":8693,"Ġà¸¡à¸²à¸ķà¸£à¸Ĳà¸²à¸Ļà¸ªà¸²à¸ģà¸¥":8694,"ãĥ³":8695,"Ġà¸®à¸§à¸ĩà¸Ī":8696,"à¸ªà¸¢":8697,"Ġ115":8698,"ĠVIP":8699,"Ġtrans":8700,"Ġà¹Ģà¸Ħà¸¥à¸¡":8701,"offee":8702,"Ġ320":8703,"Ġtw":8704,"Ġà¸Ľà¸¡":8705,"à¸²à¹Ģà¸īà¸¥":8706,"Ġà¸ķà¸Ńà¸ĩ":8707,"inc":8708,"Ġà¹Ħà¸Łà¹Ħà¸«à¸¡":8709,"Ġà¹Ģà¸ģà¸©à¸ķà¸£à¸ģà¸£à¸£à¸¡":8710,"ishi":8711,"à¸įà¸«à¸Ļ":8712,"à¸ĵà¸ľ":8713,"ÙĪ":8714,"ĠRS":8715,"ĠStation":8716,"Ġà¸ģà¸¥à¸ļ":8717,"à¸¢à¸Ļà¸¡à¸²":8718,"Ġà¸£à¸°à¸ļà¸²à¸¢à¸ª":8719,"Ġà¹Ħà¸ļà¸£":8720,"ĠCop":8721,"ĠCollagen":8722,"Pro":8723,"Ġpar":8724,"ĠPremium":8725,"annel":8726,"Ġà¸«à¸¥à¸ĩà¸£":8727,"ming":8728,"akh":8729,"Ġà¸ģà¸°à¸£":8730,"MI":8731,"Ġà¸Ĺà¸²à¸ĩà¸ģà¸²à¸£à¸Ħ":8732,"ij":8733,"ĠMach":8734,"Ġtar":8735,"Ġà¸Ļà¸²à¸¢à¸Ńà¸³à¹Ģà¸łà¸Ń":8736,"Ġbet":8737,"Ġà¸ªà¸§à¸Ķà¸¡à¸Ļà¸ķ":8738,"DO":8739,"à¸ĩà¹Ģà¸Ĭ":8740,"à¸Ļà¸Ĺà¸²":8741,"à¹Ģà¸¨à¸£à¸©à¸Ĳ":8742,"Ġà¸Ĥà¸²à¸ķ":8743,"ĠMir":8744,"à¸ĩà¸ªà¸²à¸£":8745,"Ġà¸Ńà¸ķ":8746,"à¸Ĭà¸Ĭà¸²":8747,"à¹ģà¸Ļà¸ģ":8748,"à¸¡à¹Ģà¸¨à¸£":8749,"Ġdet":8750,"ima":8751,"ĠEmail":8752,"Ġà¸¥à¸²à¸¡":8753,"à¸²à¸«à¸²à¸ģà¸§":8754,"ĠDI":8755,"ites":8756,"Ġà¸Ĥà¸Ļà¸¡à¸«à¸§à¸²à¸Ļ":8757,"à¸¢à¸Ńà¸Ķ":8758,"ĠNational":8759,"ĠFit":8760,"ðŁı":8761,"ĠPet":8762,"Ġà¸ŀà¸Ńà¹ģà¸¥":8763,"âĺ":8764,"ĠSte":8765,"ĠZero":8766,"à¸Ńà¸ĩà¸ľ":8767,"Ġà¸Ľà¸£à¸°à¸¡à¸²à¸Ĺ":8768,"ĠJohn":8769,"ĠSpecial":8770,"ities":8771,"umber":8772,"Ġset":8773,"à¸Ńà¸ļà¸Ń":8774,"Ġà¸§à¸Ńà¸¥à¹Ģà¸¥à¸¢":8775,"à¸ģà¸ĩà¸²à¸Ļà¸ªà¸Ńà¸ļà¸ªà¸§à¸Ļ":8776,"à¸ĩà¸ªà¸Ńà¸Ļ":8777,"à¸Ļà¸Ĺà¸³":8778,"à¸¡à¹ģà¸£à¸ģ":8779,"Ġà¸£à¸Ķà¸Ļ":8780,"merce":8781,"Ġplus":8782,"Ġà¸ģà¸¥à¸Ńà¸Ļ":8783,"Ġà¸Ķà¸²à¸Ķ":8784,"à¸ĺà¸²à¸£":8785,"Ġà¹Ģà¸ŀà¸¨à¸«à¸į":8786,"Ġà¹Ģà¸ŀà¸¥à¸²":8787,"Ġà¸Ĺà¸³à¹ĥà¸Ī":8788,"ĠFord":8789,"Ġà¹Ħà¸ļà¸Ļ":8790,"à¸¥à¸Ńà¸¢":8791,"Ġà¸ªà¸³à¸Ļà¸§à¸Ļ":8792,"Ġà¸ļà¸£à¸£à¸ĵ":8793,"ien":8794,"à¸ģà¸£à¸Ńà¸ļ":8795,"ĠLazada":8796,"à¸¡à¹ģà¸¡":8797,"oku":8798,"ply":8799,"ĠResearch":8800,"Ġà¸Ĺà¸²à¸ļ":8801,"ible":8802,"Ġà¸ļà¸Ńà¸ģà¸ķ":8803,"ĠCat":8804,"Ġà¸Ńà¸¡à¸ķ":8805,"raft":8806,"Ġà¸ķà¸£à¸§à¸Īà¸«à¸²":8807,"ĠLab":8808,"Ġwe":8809,"ĠNight":8810,"à¹Ģà¸Ńà¸¡":8811,"Ġ/>":8812,"EST":8813,"ĠInc":8814,"Ġ??":8815,"Ġà¸£à¸Ńà¸ģ":8816,"Ġà¸ģà¸ĩà¸ª":8817,"à¸£à¸²à¸Ĭà¸ģ":8818,"Ġà¸Ħà¸Ļà¹Ģà¸Ĥ":8819,"Ġq":8820,"à¸ĵà¸¢à¸²à¸¢":8821,"Ġà¸łà¸²à¸ŀà¸Ľà¸£à¸°à¸ģà¸Ńà¸ļ":8822,"łĢ":8823,"à¸Ķà¸«à¸ĩ":8824,"Ġà¸ĩà¸¡":8825,"Ġà¸£à¸²à¸§à¹Ĩ":8826,"à¸³à¹Ģà¸¢":8827,"Ġà¸Ńà¸Ńà¸ģà¸¤à¸Ĺà¸ĺ":8828,"Ġà¸ģà¸Ńà¸ĩà¸ģà¸³à¸¥":8829,"Ġà¸ģà¸²à¸£à¸¥à¸Ķ":8830,"house":8831,"Ġà¹Ģà¸Ļà¸¥":8832,"Ġà¸Ľà¸¥à¸²à¸¢à¹Ģà¸Ķ":8833,"à¹Ģà¸¥à¸ģ":8834,"Ġà¸ªà¸ĩà¹Ģà¸Ħà¸£à¸²à¸°à¸«":8835,"à¹Ĥà¸ģà¸Ļ":8836,"Ġà¸£à¸°à¸Ĺ":8837,"ovsk":8838,"Ġà¹ģà¸ªà¸Ķà¸ĩà¸Ħà¸§à¸²à¸¡à¸¢":8839,"Ġfr":8840,"Ġà¸¢à¸²à¸ģà¸¥à¸³à¸ļà¸²à¸ģ":8841,"Ġà¸ģà¸§à¸²":8842,"Ġent":8843,"Ġà¸¢à¸²à¸ļ":8844,"à¸²à¸Ľà¸Ļà¸ģ":8845,"Ġà¸Ħà¸§à¸²à¸¡à¸Ĺà¸Ļà¸Ĺà¸²à¸Ļ":8846,"awa":8847,"Ġà¸¢à¸¢à¸¢":8848,"54":8849,"Ġà¹Ĥà¸Ķà¸¢à¸¡à¸²à¸ģ":8850,"à¸²à¸«à¸²à¸į":8851,"Ġps":8852,"Ġà¸£à¸°à¸ļà¸ļà¸Ľà¸£à¸°à¸ªà¸²à¸Ĺ":8853,"ling":8854,"ONE":8855,"à¸ģà¸ļà¸²à¸ķà¸£":8856,"Ġà¸Ĺà¸²à¸ĩà¸ĺà¸£à¸£à¸¡à¸Ĭà¸²à¸ķ":8857,"Ġà¹Ĥà¸ģà¸Ļ":8858,"Ġà¸ģà¸²à¸£à¸ľà¸Īà¸įà¸ł":8859,"à¸Ķà¸Īà¸²":8860,"ĠApr":8861,"à¸Ĭà¸Į":8862,"Ġà¹ģà¸«à¸ģ":8863,"igment":8864,"Ġà¸Ļà¸²à¸ĸ":8865,"Ġà¹Ģà¸Ńà¸²à¹ģà¸ķ":8866,"Ġà¸ģà¸£à¸°à¸Ĭà¸²à¸ģ":8867,"urity":8868,"à¸¢à¹Ģà¸Ķ":8869,"à®":8870,"Ġsize":8871,"Ġà¸¡à¸ŀ":8872,"ĠKr":8873,"Ġà¸ķà¸ģà¸«à¸¥":8874,"à¸¢à¸ĩà¹Ħà¸®":8875,"à¸¥à¸Ĺ":8876,"Ġà¸¢à¹Ĥà¸ªà¸ĺà¸£":8877,"Ġ()":8878,"Ġà¹Ģà¸ªà¸¡à¸Ńà¹Ħà¸Ľ":8879,"ESS":8880,"Ġà¹Ħà¸ļà¹Ĥà¸Ń":8881,"à¸ĩà¸ªà¸Ńà¸ĩà¸Ŀ":8882,"à¸¡à¸ĸà¸Ļà¸Ļ":8883,"Ġà¹ģà¸®à¸Ļà¸Ķ":8884,"Ø§Ø":8885,"ĠComputer":8886,"Ġà¹Ħà¸®à¹Ĥà¸Ķà¸£à¹Ģà¸Īà¸Ļ":8887,"Ġà¹Ħà¸ļà¸Ļà¸²à¸£":8888,"Ġà¹Ģà¸Ĺà¸Ļà¸Ļ":8889,"à¸³à¹Ģà¸«à¸¥":8890,"à¸ķà¸ªà¸³à¸Ļ":8891,"Ġ3000":8892,"ĠâĢ¦..":8893,"à¸³à¹Ģà¸ķ":8894,"ĠGHz":8895,"Ġïľĭ":8896,"ocal":8897,"à¸¢à¸ªà¸¥à¸°":8898,"ĠÃŃ":8899,"ĠPlat":8900,"Ġà¸Ľà¸£à¸°à¸ģà¸²à¸¢":8901,"ĠStudio":8902,"Ġà¸ĸà¸Ńà¸Ļà¹Ģà¸ĩ":8903,"Ġà¹Ĥà¸ģà¸«à¸ģ":8904,"Ġà¸Ħà¸Ńà¸ģ":8905,"ĠOver":8906,"Ġà¸Ħà¸§à¸²à¸¡à¹Ģà¸Ķ":8907,"à¸²à¸ĩà¹Ģà¸ªà¸£":8908,"ĠBaby":8909,"à¸ļà¸Ľà¸£à¸°à¹Ĥà¸¢à¸Ĭà¸Ļ":8910,"à¸ªà¸«à¸£":8911,"Ġ750":8912,"orming":8913,"Ġà¸ªà¸¥à¸²à¸ģ":8914,"ĠâĢ¦âĢ¦":8915,"Ġà¸£à¸°à¹Ģà¸«à¸¢":8916,"ze":8917,"Ġcelandine":8918,"aterinburg":8919,"Ġlog":8920,"bit":8921,"Ġà¸ľà¸ģà¸ģ":8922,"ðŁĴ":8923,"Ġà¹Ħà¸¡à¹Ĥà¸Ħà¸£à¹Ģà¸§à¸Ł":8924,"Ġà¸£à¸Ńà¸ĩà¸ľ":8925,"put":8926,"à¸ļà¹Ģà¸ª":8927,"à¸¨à¸Ļà¸¨":8928,"ĠIns":8929,"aps":8930,"Ġà¹Ĥà¸łà¸Ħ":8931,"ĠSyn":8932,"Ġà¸¡à¸²à¸£à¸¢à¸²à¸Ĺ":8933,"à¸§à¸Ļà¸Ĭ":8934,"Ġgmail":8935,"BS":8936,"à¸Ļà¸ªà¸Ń":8937,"Ġà¸Ħà¸§à¸²à¸¡à¸Ńà¸ļà¸Ń":8938,"æĹ":8939,"à¸Ļà¹ģà¸ģ":8940,"arden":8941,"Ġà¸Ńà¸Ńà¸ģà¸ĩà¸²à¸Ļ":8942,"à¸Ńà¸ģà¸«":8943,"Ġ103":8944,"Ġà¸ªà¸²à¸£à¸Ħà¸Ķ":8945,"à¹Ģà¸Ńà¸ģà¸ªà¸²à¸£":8946,"Ġà¸Ĺà¸¨":8947,"Ġà¸§à¸Ńà¸¥à¸¥":8948,"à¸Ĥà¸Ļà¸ª":8949,"Ġà¹Ģà¸Ńà¸²à¹Ģà¸Ľ":8950,"ĠRock":8951,"Ġà¸Ĭà¸Ļà¸ģ":8952,"ermalink":8953,"à¸¨à¹Ģà¸«à¸Ļ":8954,"Ġà¸ĸà¸Ńà¸¢à¸«à¸¥":8955,"à¹Ĥà¸ģà¸ª":8956,"à¸«à¸²à¸ģ":8957,"58":8958,"à¸ģà¸¥à¸²":8959,"à¸Ńà¹Ħà¸§à¸£":8960,"Ġà¸Ľà¸£à¸°à¸łà¸²":8961,"Ġà¹Ģà¸Ķà¸Ĺ":8962,"à¸ĩà¸Ĥà¸²à¸£":8963,"à¸Ńà¸ĩà¸Ńà¸²à¸ļà¸Ļ":8964,"Ġà¸«à¸Ļà¸§à¸Ķ":8965,"Ġà¸Ĥà¸²à¸¢à¸ķ":8966,"ther":8967,"Ġà¹ģà¸ŀà¸Ĺà¸¢à¸¨à¸²à¸ªà¸ķà¸£":8968,"à¹Ģà¸Ĺà¸¨à¸¡à¸Ļà¸ķà¸£":8969,"Ġà¹Ģà¸®à¸Ķ":8970,"Ġà¸ĩà¸²à¸Ļà¹Ģà¸Ĺà¸¨à¸ģà¸²à¸¥":8971,"ÙĨ":8972,"ures":8973,"à¹ģà¸Ħà¸§à¸£":8974,"à¸°à¸Ĺà¸³à¸ĩà¸²à¸Ļ":8975,"Ġblog":8976,"Ġà¸ªà¸²à¸§à¹ĥà¸«à¸į":8977,"Ġà¹ģà¸Ŀà¸Ķ":8978,"Ġà¹Ĥà¸£à¸ĩà¸łà¸²à¸ŀà¸¢à¸Ļà¸ķà¸£":8979,"à¸Ļà¸¢à¸Ńà¸Ķ":8980,"Ġà¸ªà¸Ńà¸ļà¸Ħ":8981,"ĠJan":8982,"Ġà¸Ĥà¸Ķ":8983,"Ġà¸¢à¸Ļà¸ķ":8984,"Ġà¹Ģà¸ļà¸£à¸²à¸§":8985,"Ġà¸¡à¸«à¸²à¸Ļà¸Ħà¸£":8986,"à¸ģà¹Ģà¸ģà¸Ī":8987,"Ġà¹Ģà¸Ńà¸Ļà¹Ħà¸ĭà¸¡":8988,"EAN":8989,"Ġà¸Īà¸³à¸Ļà¸Ńà¸ĩ":8990,"à¸Ķà¸ģà¸£":8991,"Ġà¸ŀà¸²à¸«":8992,"Ġà¸ķà¸£à¸ĩà¸«à¸Ļ":8993,"Ġà¸Ĥà¸²à¸Ķà¹Ħà¸¡":8994,"à¸¡à¸ŀà¸¥":8995,"Ġà¸ĩà¸²à¸Ļà¸¨à¸ŀ":8996,"à¦":8997,"ĠSha":8998,"Ġà¸Īà¸³à¹Ħà¸§":8999,"à¹Ģà¸§à¸¥à¸²à¹Ģà¸Ķ":9000,"ĠTur":9001,"Ġà¸Ļà¸²à¸¢à¸ģà¹Ģà¸Ĺà¸¨à¸¡à¸Ļà¸ķà¸£":9002,"à¸Ĭà¸Ķ":9003,"Ġà¹ĥà¸Ļà¹Ģà¸§à¸¥à¸²à¹Ģà¸Ķ":9004,"Ġà¹Ģà¸Ńà¸Ń":9005,"Ġà¸Ķà¸§à¸ĩà¹ĥà¸Ī":9006,"FT":9007,"Ġà¹Ģà¸ŀà¸¥à¸ª":9008,"Ġà¸ľà¸Ķ":9009,"Ġà¸Ĺà¸³à¸Ķ":9010,"ĠQual":9011,"ĠRoom":9012,"à¸²à¸Ĥà¸Ńà¸ĩà¸£":9013,"Ġà¸ģà¸²à¸£à¸ļà¸³à¸ļ":9014,"à¸Ńà¸Ħà¸Ńà¸¢":9015,"Ġà¸ŀà¸¥à¹Ģà¸£":9016,"Ġà¹Ģà¸¥à¸Ĺ":9017,"Ġakrustal":9018,"Ġà¸Ĺà¸£à¸Ń":9019,"Ġà¸¥à¸Ń":9020,"à¸Ńà¸¡à¹Ģà¸ģà¸¥":9021,"à¸ļà¸łà¸²à¸©":9022,"à¹Ĥà¸Ńà¸Ļ":9023,"à¸ģà¸£à¸Ńà¸ģ":9024,"Ġà¸«à¸¥à¸Ńà¸Ķà¸Ńà¸²à¸«à¸²à¸£":9025,"à¸Ŀà¸Ńà¸¢":9026,"à¸£à¸ģà¸²à¸£":9027,"Ġà¸«à¸Ķ":9028,"Ġà¸«à¸¡à¸Ķà¸Ńà¸²à¸¢":9029,"ĠTim":9030,"à¸²à¸§à¹Ĩ":9031,"ãģ®":9032,"ĠProm":9033,"Ġà¸ķà¸£à¸ĩà¸Ī":9034,"Ġà¸ģà¸²à¸£à¹Ģà¸ľ":9035,"Ġà¸ĭà¸²à¸Ń":9036,"Ġà¸ģà¸£à¸ģ":9037,"ews":9038,"à¸²à¸Īà¸£":9039,"Ġà¹ģà¸Ńà¸Ķà¸¡":9040,"Ġà¸¢à¸²à¸ĩà¸£à¸ĸà¸¢à¸Ļà¸ķ":9041,"Ġà¸Ļà¸łà¸²":9042,"à¸¥à¸ĺà¸£à¸£à¸¡":9043,"ĠSale":9044,"Ġà¸¡à¸²à¹Ģà¸ģ":9045,"91":9046,"à¸ĩà¸£à¸ª":9047,"Ġà¸Ńà¸²à¸«à¸²à¸£à¸Ī":9048,"Ġli":9049,"à¸°à¸£à¸Ķ":9050,"pack":9051,"hd":9052,"à¸£à¸°à¸ļà¸²à¸¢":9053,"pos":9054,"Ġà¸ķà¸³à¸£à¸§à¸Īà¸ł":9055,"à¹ģà¸ªà¸ĩà¸Ńà¸²à¸Ĺ":9056,"Ġà¸Ħà¸Ļà¹ĥà¸Ķ":9057,"adem":9058,"Ġà¹ĥà¸Īà¸ĸ":9059,"ĠCase":9060,"Ġà¹Ģà¸īà¸¥à¸¢":9061,"Ġà¸£à¸°à¸ļà¸²à¸¢à¸Ńà¸²à¸ģà¸²à¸¨":9062,"Ġà¹Ģà¸īà¸ŀà¸²à¸°à¸Ĺà¸²à¸ĩ":9063,"df":9064,"à¸Ľà¸Ńà¸£":9065,"azz":9066,"Ġà¸ªà¸£à¸°à¸Ļ":9067,"ALL":9068,"ĠBO":9069,"ĠVR":9070,"acing":9071,"à¹Ĥà¸ªà¸Ķ":9072,"Ġà¸ªà¹Ĥà¸ķ":9073,"à¸¢à¸ĺà¸£à¸£à¸¡à¸¨à¸²à¸ªà¸ķà¸£":9074,"ender":9075,"Ġà¸¥à¸²à¸Ńà¸Ńà¸ģ":9076,"ĠTrain":9077,"ĠSky":9078,"Ġà¸Ĺà¸§à¸²à¸£à¸«à¸Ļ":9079,"ocation":9080,"à¹Ĳà¹Ĳà¹Ĳ":9081,"Ġà¸¥à¸³à¸Ļ":9082,"à¸Ńà¸ĩà¸ĸà¸Ļà¸Ļ":9083,"à¸¢à¸Ļà¸ŀ":9084,"à¸ļà¸ģà¸¥":9085,"ĠSpeed":9086,"à¸Ńà¸¢à¸Ħà¸³":9087,"Ġà¸Īà¸°à¹ģà¸Ī":9088,"à¸Ļà¹Ħà¸Ĺà¸Ļ":9089,"ĠOf":9090,"Ġà¸Łà¸²à¸Ķ":9091,"ani":9092,"à¸Ķà¸£à¸²à¸ķà¸£":9093,"ui":9094,"ĠCare":9095,"Ġà¸ļà¸²à¸ĩà¹Ģà¸ļà¸²":9096,"ĠNissan":9097,"ĠDual":9098,"ĠPres":9099,"door":9100,"uf":9101,"à¸£à¸«":9102,"Ġà¹Ħà¸¡à¹Ģà¸Ħ":9103,"à¸Ńà¸Ļà¸ªà¸Ļ":9104,"Ġà¹Ģà¸ŀà¸Ĭà¸£à¹Ģà¸ģà¸©à¸¡":9105,"igo":9106,"ĠAdmin":9107,"Ġà¸ŀà¸£à¸°à¸¡à¸«à¸²à¸ģà¸£":9108,"Ġà¹Ģà¸¡à¹Ģà¸Īà¸Ńà¸£":9109,"à¸Ļà¸Ńà¸²à¸¢":9110,"ĠBlock":9111,"Ġà¸Ħà¸§à¸²à¸¡à¸«":9112,"à¹Ħà¸ķà¸£":9113,"Ġà¸«à¸§à¸²à¸Ķ":9114,"Ġà¹ĥà¸Ŀ":9115,"Ġà¸Ľà¸Ļà¹Ģà¸Ľ":9116,"à¸ªà¸ĭ":9117,"ĠNotebook":9118,"osis":9119,"ĠCamp":9120,"Ġà¹Ģà¸ªà¸ģ":9121,"700":9122,"Ġà¸Ķà¸¡":9123,"à¹Ģà¸§à¸¥à¸²à¸Ļà¸²à¸Ļ":9124,"ato":9125,"Ġjobs":9126,"unch":9127,"Ġà¸§à¸Ĺ":9128,"ï¼Į":9129,"Ġà¹Ĥà¸¡à¹Ģà¸¥à¸ģ":9130,"à¸Ļà¸Ħà¸Ń":9131,"à¸Ħà¸£à¸Ńà¸ļà¸Ħà¸£":9132,"à¸Ńà¸ĩà¸ģà¸¥":9133,"Ġà¸ŀà¸£à¸°à¸Ļà¸²à¸¡":9134,"à¸§à¸¡à¹Ģà¸ŀà¸¨":9135,"à¸§à¸Ļà¸ł":9136,"çļ":9137,"à¸²à¸§à¹Ģà¸«à¸Ļ":9138,"Ġà¸Ħà¸§à¸²à¸¡à¸Ńà¸Ķà¸Ĺà¸Ļ":9139,"ucation":9140,"ĠSMEs":9141,"ĠSDA":9142,"Ġà¸Łà¸Ńà¸ĩà¸Ļ":9143,"à¸ŀà¸ŀà¸¥à¸²à¸¢":9144,"à¸Ńà¸Ńà¸³à¸Ļà¸§à¸¢":9145,"à¹Ģà¸łà¸²":9146,"ages":9147,"ewel":9148,"ĠLE":9149,"Ġjp":9150,"Ġà¸Ľà¸ª":9151,"à¹Ģà¸ľà¸²":9152,"ĠLeg":9153,"à¸Ķà¸Ļà¸Ńà¸Ļ":9154,"AW":9155,"à¸¥à¸Ī":9156,"Ġà¸¢à¸²à¸ģà¸Īà¸Ļ":9157,"à¸²à¹ģà¸¥":9158,"Ġà¸¥à¸ĩà¸Ħà¸°à¹ģà¸Ļà¸Ļ":9159,"à¹Ģà¸ŀà¸£à¸²à¸°à¸§":9160,"ĠTC":9161,"Ġà¸ģà¸²à¸£à¹Ģà¸Ĺ":9162,"à¸²à¹ģà¸£à¸ĩ":9163,"ĠIM":9164,"à¸ģà¸²à¹ĥà¸ķ":9165,"Ġà¹Ģà¸ģà¸¨":9166,"à¸Ńà¸¢à¸ª":9167,"à¸Ńà¸ĩà¸Ńà¸ģ":9168,"use":9169,"Ġà¸¡à¸²à¸Ļà¸°":9170,"Ġà¸£à¸°à¸¢à¸°à¹Ħà¸ģà¸¥":9171,"ä¸Ń":9172,"Ġet":9173,"my":9174,"ones":9175,"Ġà¹Ģà¸Ľà¸£à¸¡":9176,"EP":9177,"ĠUs":9178,"Ġclass":9179,"Ġà¹Ģà¸Ļà¹Ģà¸ĺà¸Ńà¸£":9180,"à¸¡à¸Ńà¹Ģà¸ķà¸Ńà¸£":9181,"Ġà¸Ļà¸§à¸¡":9182,"Ġà¸«à¸Ļà¸²à¹ģà¸Ļ":9183,"à¸Ĺà¸§à¸²à¸£":9184,"Ġà¸Ĺà¸Ńà¸ĩà¹Ģà¸«à¸¥":9185,"ĠFashion":9186,"à¸¡à¸ģà¸³à¹Ģà¸Ļ":9187,"Ġà¸ģà¸²à¸£à¸ļà¸£à¸£à¸¢à¸²à¸¢":9188,"à¸įà¸įà¸²à¸ģà¸²à¸¨":9189,"âŀĸ":9190,"Ġà¸ģà¸¡à¸¥":9191,"Ġà¸ģà¸ģà¸ķ":9192,"ĠMC":9193,"à¹Ĥà¸ĺ":9194,"ĠÐ¸":9195,"à¸Ļà¸ŀà¸£à¸°":9196,"ĠPhot":9197,"anch":9198,"Ġ+++":9199,"Ġà¸Ĺà¸§à¸ĩ":9200,"Ġà¸¥à¸³à¸¥à¸Ńà¸ĩ":9201,"ĠWith":9202,"à¹Ģà¸Īà¸Ļà¸ķ":9203,"Ġ210":9204,"à¹ģà¸Ńà¸ķ":9205,"à¸¡à¸Ĺà¸°à¹Ģà¸¥":9206,"Com":9207,"ĠTOY":9208,"à¸£à¸°à¸¡":9209,"ĠGlobal":9210,"Ġà¸ģà¸£à¸°à¸Ĺà¸£à¸§à¸ĩà¸ŀà¸²à¸ĵ":9211,"âĢ¦âĢ¦âĢ¦âĢ¦":9212,"à¸§à¸¡à¹ĥà¸Ī":9213,"Ġà¹ģà¸ļà¸ĩà¸ģ":9214,"ique":9215,"à¸ģà¸ģà¸İà¸«à¸¡à¸²à¸¢":9216,"ĠÃ³":9217,"ĠCollection":9218,"Ġà¹Ģà¸Ĥà¸¡":9219,"ĠPhoto":9220,"Ġkaraoke":9221,"à¹ģà¸Ĺà¸£à¸ģà¸ĭ":9222,"ĠAuthor":9223,"Ġdesign":9224,"à¸¢à¸¡à¸«":9225,"Ġà¹ģà¸Ńà¸Ļà¸Ķà¸£":9226,"ĠSound":9227,"ĠAmazon":9228,"oung":9229,"ĠWal":9230,"à¸Ńà¸Łà¸Ĺ":9231,"ĠGeneral":9232,"Ġà¹Ģà¸Ļà¸Ńà¸°":9233,"Ġà¸ļà¸²à¸ĩà¹ģà¸Ħ":9234,"Ġinter":9235,"à¸įà¸ļ":9236,"Ġà¹Ĵà¹ķà¹Ķ":9237,"52":9238,"II":9239,"ĠChar":9240,"uit":9241,"à¹Ħà¸Ĺà¸¡":9242,"Ġcomment":9243,"ammer":9244,"Ġà¸Ľà¸Ĳ":9245,"Ġà¸ļà¸²à¸Ķà¹ģà¸ľà¸¥":9246,"ĠAF":9247,"ĠHero":9248,"Ġà¸ģà¸²à¸£à¹Ģà¸ľà¸²à¸ľà¸¥à¸²à¸į":9249,"Ġà¸ļà¸¥à¸Ńà¸Ļà¸Ķ":9250,"à¹Ģà¸Ĺà¸Ļ":9251,"ORT":9252,"à¸Ĥà¸²":9253,"olution":9254,"LS":9255,"Ġà¸Ħà¸Ńà¸Ļà¹Ģà¸Ĺà¸Ļà¸ķ":9256,"Ġà¹ĳà¹ĵ":9257,"to":9258,"à¸Ļà¸Īà¸°":9259,"à¸²à¸ĩà¸Īà¸°":9260,"Ġà¸ªà¸ĸà¸²à¸Ļà¸Ľà¸£à¸°à¸ģà¸Ńà¸ļà¸ģà¸²à¸£":9261,"fr":9262,"ĠVe":9263,"ĠDR":9264,"à¸Ļà¹Ħà¸ŀ":9265,"ideos":9266,"ĠFe":9267,"Ġà¸Ħà¸²à¸Ķà¸Ħ":9268,"Ġà¹ģà¸Ħà¸Ľ":9269,"Ġà¸Ĺà¸²à¸ĩà¸£à¸²à¸Ĭà¸ģà¸²à¸£":9270,"à¹Ģà¸īà¸ŀà¸²à¸°":9271,"ĠBeach":9272,"à¸Ńà¸ģà¸²à¸£à¸£":9273,"ĠPop":9274,"Ġà¸ķà¸°à¹Ģà¸ģ":9275,"Ġà¸ªà¸²à¸£à¸łà¸²à¸ŀ":9276,"à¸¥à¹Ĥà¸Ĭ":9277,"ĠMiss":9278,"ç¥":9279,"Ġà¸ķà¸¥à¸Ńà¸Ķà¸Ĺ":9280,"Ġcam":9281,"Ġà¸ļà¸Ńà¸ļ":9282,"à¹Ģà¸ªà¸²à¸£":9283,"ffect":9284,"Ġà¸«à¸²à¸Ķà¸Ĺà¸£à¸²à¸¢":9285,"à¹Ģà¸¥à¸ķ":9286,"à¸§à¸ģà¸¥à¸²à¸ĩ":9287,"à¸Ļà¸Ŀà¸£":9288,"Ġà¹Ģà¸Ńà¸Ļà¸ģà¸Ľà¸£à¸°à¸ªà¸ĩà¸Ħ":9289,"ĠChr":9290,"Ġà¸Ľà¸Ĳà¸¡à¸§":9291,"Ġà¸Ĥà¸Ńà¸ĩà¹Ģà¸ª":9292,"artment":9293,"zy":9294,"Ġà¸£à¸ĸà¸ĸ":9295,"NA":9296,"à¹Ģà¸Ĺà¸£":9297,"Ġbit":9298,"Ġsw":9299,"face":9300,"Ġà¹Ĥà¸¥à¸Ī":9301,"à¸²à¹ĥà¸Īà¸ĩ":9302,"à¸¥à¸²à¸ģ":9303,"otherapy":9304,"Ġà¹Ģà¸ļà¹Ģà¸ģà¸Ńà¸£":9305,"Ġà¸Ħà¸§à¸²à¸¡à¸Īà¸³à¹Ģà¸Ľ":9306,"Ġà¸Ĺà¸£à¸§à¸ĩ":9307,"53":9308,"Ġà¸ģà¸İà¹Ģà¸ģà¸ĵà¸ĳ":9309,"Ġà¸ģà¸£à¸°à¸Ĺà¸£à¸§à¸ĩà¹Ģà¸ģà¸©à¸ķà¸£":9310,"à¸ģà¸Ĭà¸§à¸Ļ":9311,"Ġ2546":9312,"à¸²à¸¨à¸ģ":9313,"Ġà¸¡à¸²à¸ªà¸Ķ":9314,"57":9315,"Ġà¸«à¸§à¸Ļ":9316,"Ġà¸Ľà¸£à¸°à¸«à¸¥à¸²à¸Ķà¹ĥà¸Ī":9317,"Ġà¸«à¸²à¹Ħà¸¡":9318,"ĠNokia":9319,"à¸¥à¸Ľà¸²à¸ģà¸£":9320,"CTV":9321,"UD":9322,"Ġà¹Ĥà¸¡à¸ļà¸²à¸¢":9323,"ustr":9324,"ĠSlim":9325,"à¹Ģà¸¥à¸Ļà¹Ħà¸Ĺà¸Ļ":9326,"Ġà¸ĳ":9327,"ĠSo":9328,"Ġ:)":9329,"à¸ķà¸£à¸ĩà¸Ĥ":9330,"Ġcolor":9331,"Ġà¸Ħà¸§à¸²à¸¡à¸Ńà¸¢à¸²à¸ģ":9332,"ĠDisc":9333,"à¸Ķà¸ľà¸¡":9334,"à¸ķà¸Ļà¹Ĥà¸ģà¸ª":9335,"à¸Ļà¸¥à¸¡":9336,"Ġà¸Ńà¸²à¸ļà¹ģà¸Ķà¸Ķ":9337,"Ġà¸ģà¸£à¸¡à¸ª":9338,"Ġà¸ªà¸¡à¸Īà¸£":9339,"ello":9340,"Ġà¹Ģà¸ŀà¸£":9341,"à¸§à¸¡à¸Ĺ":9342,"Ġà¹ĥà¸Ħà¸£à¸ģ":9343,"ĠMM":9344,"ĠShare":9345,"Ġblack":9346,"Ġreal":9347,"à¸Ļà¸£à¸§à¸¡":9348,"à¸ģà¸£à¸ļ":9349,"IE":9350,"Ġà¸ĩà¸Ļ":9351,"ĠUltra":9352,"Ġlink":9353,"à¸İà¸ģ":9354,"à¸ļà¸ªà¸²à¸Ļ":9355,"Ġà¸ªà¸²à¸¢à¸Ļ":9356,"Ġà¸£à¸§à¸ļ":9357,"à¸Ļà¸ŀà¸£":9358,"Ġà¸Ĺà¸²à¸§à¹Ģà¸§à¸Ńà¸£":9359,"Ġà¹ģà¸«à¸§à¸ģ":9360,"Ġ\")":9361,"à¸¢à¸ĺà¸²à¸Ļ":9362,"à¸Ļà¸ĺà¸£":9363,"ĠWiFi":9364,"à¸¢à¸ĩà¸Ĥ":9365,"à¸Ńà¸ģà¸³à¹Ģà¸Ļ":9366,"uff":9367,"Ġà¸§à¸²à¹Ģà¸¥à¸Ļà¹Ħà¸Ĺà¸Ļ":9368,"Ġà¸ģà¸²à¸Ļà¸ķ":9369,"ĠUpdate":9370,"ĠForm":9371,"Ġà¸Īà¸Ńà¹ģà¸ªà¸Ķà¸ĩ":9372,"Ġseborrheic":9373,"ĠRad":9374,"à¸²à¸£à¸«":9375,"Ġà¸£à¸ĸà¸¡à¸Ńà¹Ģà¸ķà¸Ńà¸£":9376,"Ġà¸ķà¸Ńà¸Ļà¸Īà¸ļ":9377,"gid":9378,"à¸§à¸ĩà¹ĥà¸¢":9379,"Ġà¸ªà¸ĩà¸ªà¸²à¸£":9380,"Ġà¸Ĺà¸£à¸ĩà¸ŀà¸¥":9381,"Ġ112":9382,"Ġtext":9383,"atural":9384,"à¸Ľà¸¥à¸²à¸¢à¸Ĺà¸²à¸ĩ":9385,"Ġà¸ķà¸¥à¸Ńà¸Ķà¸Ľ":9386,"à¸Ķà¹Ģà¸Ĺà¸Ńà¸¡":9387,"Ġà¸ģà¸İà¸£à¸°à¹Ģà¸ļ":9388,"à¸ģà¸ĩà¸²à¸Ļà¸ķ":9389,"à¸ĩà¹ĥà¸«":9390,"ĠMark":9391,"à¸Ķà¸¢à¸²":9392,"Ġà¸¢à¸²à¸Ħ":9393,"err":9394,"à¸§à¸ķà¸²à¸¢":9395,"à¸Ńà¸¢à¸Ħà¸Ń":9396,"ĠOil":9397,"ĠLT":9398,"à¸²à¸ľà¸²":9399,"Ġà¹Ģà¸ģà¸£à¸²à¸°":9400,"ĠSoftware":9401,"Ġ550":9402,"ĠChamp":9403,"Ġâĺ":9404,"Ġact":9405,"ĠMo":9406,"à¸Ńà¸Ļà¸ĭ":9407,"Ġ2004":9408,"ĠLin":9409,"ĠURL":9410,"à¸Īà¸ģ":9411,"Ġ2005":9412,"Ġà¸Ħà¸§à¸²à¸¡à¸«à¸§à¸²à¸Ļ":9413,"à¸Ķà¸²à¸¯":9414,"à¸¢à¸ķ":9415,"âĻ":9416,"à¸ļà¸ªà¸²à¸£":9417,"à¸Ļà¸ªà¸ļà¸²à¸¢":9418,"à¹Ģà¸¡à¸Ĭ":9419,"amic":9420,"Ġà¹Ĥà¸Ķà¸Ķ":9421,"PR":9422,"ĠHol":9423,"Ġà¸£à¸ĸà¹Ģà¸¡à¸¥":9424,"à¹ģà¸Ńà¸ķà¹Ģà¸Ĺ":9425,"Ġà¹Ģà¸¥à¸²":9426,"à¸ģà¸²à¸£à¸ģ":9427,"Ġviews":9428,"à¸¢à¸ĩà¹Ģà¸ŀà¸¥à¸ĩ":9429,"ader":9430,"ĠShe":9431,"ĠFace":9432,"ĠCanon":9433,"Ġè":9434,"ĠLi":9435,"Ġà¸§à¸²à¸ĩà¹ģà¸ľà¸Ļà¸ģà¸²à¸£":9436,"à¸Ĺà¸£à¸²à¸ļ":9437,"Ñĩ":9438,"Ġà¹Ģà¸ªà¸¡à¸Ńà¸ģ":9439,"Ġà¸£à¸°à¸¢à¸°à¸«":9440,"à¸ĩà¸Ħà¸Ļ":9441,"âĢ¢âĢ¢":9442,"Ġà¸ģà¸²à¸£à¸ļà¸§à¸¡":9443,"insk":9444,"enting":9445,"à¸¡à¸²à¸ĵà¸¡à¸²à¸ģ":9446,"à¸§à¹Ħà¸«à¸¥":9447,"Ġà¹Ħà¸®à¹Ĥà¸ĭ":9448,"à¸Ńà¸°à¹Ħà¸£":9449,"à¸Ńà¸ģà¸ķà¸²":9450,"à¸Ļà¸£à¸Ńà¸ĩ":9451,"à¸Ļà¸¢à¸²à¸§":9452,"Ġà¹ĳà¹ĸ":9453,"à¸Ķà¸§à¸ĩà¸Ĺà¸§à¸²à¸£":9454,"à¸£à¸ļà¸ģà¸§à¸Ļ":9455,"51":9456,"à¸Ħà¸§à¸ļà¸Ħ":9457,"Ġ111":9458,"à¹Ģà¸¥à¸ªà¹Ģà¸ķà¸Ńà¸£à¸Ńà¸¥":9459,"ĠCup":9460,"à¸ģà¸ļà¸²à¸¨à¸ģ":9461,"à¸ķà¸³à¸«à¸Ļ":9462,"à¸ļà¸£à¸°à¸Ķ":9463,"Ġarticle":9464,"à¸²à¸¢à¸ĵ":9465,"ĠCCTV":9466,"Ġ1200":9467,"Ġ650":9468,"attery":9469,"Ġà¹ģà¸ķà¸°à¸ķ":9470,"Ġà¸¢à¸²à¸£":9471,"Ġà¸ªà¸£à¸£à¹Ģà¸ªà¸£":9472,"à¸²à¸«à¸Ļà¸²à¸§":9473,"âłĢ":9474,"å¤©":9475,"gh":9476,"ocus":9477,"à¸¡à¸ķà¸²":9478,"Ġà¸Īà¸Ńà¹ģà¸ªà¸Ķà¸ĩà¸ľà¸¥":9479,"à¸³à¸Ľà¸£à¸°à¸ģ":9480,"à¹Ħà¸Ħà¸£":9481,"ĠAnime":9482,"à¸Ľà¸Ńà¹Ģà¸£à¸Ĭ":9483,"Ġà¸ģà¸£à¸°à¹ģà¸ªà¸Ħà¸§à¸²à¸¡":9484,"à¸§à¸ªà¸³à¸£à¸Ńà¸ĩ":9485,"Ġpage":9486,"Ġà¸Ľà¸£à¸°à¸Īà¸§à¸ļ":9487,"Ġà¸Ĥà¸Ńà¸ĩà¹Ģà¸ģ":9488,"Ġà¸ªà¸°à¹ĥà¸Ī":9489,"olf":9490,"ĠOrgan":9491,"ĠDevelopment":9492,"esn":9493,"Ġà¹Ģà¸ľà¸²à¸ľà¸¥à¸²à¸į":9494,"ĠBand":9495,"à¸¡à¸«à¸²à¸Ĭà¸Ļ":9496,"AILAND":9497,"ko":9498,"ĠCable":9499,"ava":9500,"ðŁĺ":9501,"oop":9502,"ĠStyle":9503,"ĠPHP":9504,"à¸Ħà¸£à¸£à¸²à¸Ĭ":9505,"ĠCON":9506,"ĠÐ½":9507,"à¸³à¸ł":9508,"çļĦ":9509,"ces":9510,"à¸Ļà¸²à¸Ļà¸²à¸Ĭà¸²à¸ķ":9511,"met":9512,"Ġà¸ªà¸²à¸¢à¹Ħà¸«à¸¡":9513,"Ġà¸£à¸Ńà¸¢à¸ķ":9514,"à¸²à¸¡à¸ķ":9515,"Ġà¸Ħà¸Ńà¸Ļà¹Ĥà¸Ĺà¸£":9516,"à¹Ģà¸£à¸²à¸°":9517,"ĠHappy":9518,"à¸ļà¸«":9519,"à¸Ńà¸ĩà¹Ģà¸Ħà¸£":9520,"à¸Ļà¸³à¹Ģà¸Ĥ":9521,"à¸«à¸°":9522,"à¸ļà¸Ļà¸²à¸Ļà¸²à¸Ĭà¸²à¸ķ":9523,"Ġãĥ":9524,"à¸Ľà¸£à¸°à¸ªà¸ļà¸ł":9525,"ĠMerc":9526,"à¸¡à¹Ģà¸«à¸¥":9527,"à¸§à¸¥à¸³à¸ł":9528,"à¸ĳà¸²":9529,"ĠBa":9530,"<<<<<<<<":9531,"oid":9532,"ĠStandard":9533,"Ġ\":\"":9534,"Ġà¸Ĺà¸²à¸ĩà¸ģà¸İà¸«à¸¡à¸²à¸¢":9535,"Ġfil":9536,"Ġà¸«à¸Ļà¸Ńà¸ĩà¸ļ":9537,"Ġ><":9538,"IGH":9539,"ĠNovgorod":9540,"ĠOm":9541,"à¸Ļà¸Ķà¸²à¸¡":9542,"Ġcard":9543,"Ġà¸£à¸ĸà¹ģà¸Ĥ":9544,"ĠSET":9545,"ĠPink":9546,"à¸ļà¸³à¸ļ":9547,"Ġà¸ļà¸ŀ":9548,"Ġà¸ĩà¸°":9549,"Ġà¸ģà¸²à¸£à¹Ģà¸Ĭ":9550,"ĠAnti":9551,"Ġà¸łà¸²à¸©à¸²à¸ķ":9552,"ĠSaf":9553,"Ġà¸ªà¸ķà¸Ń":9554,"ental":9555,"Ġà¸ªà¸²à¸Ķ":9556,"Ġrem":9557,"Ġà¸Ĭà¸³":9558,"à¹Ģà¸Ľà¸ķ":9559,"Ġvis":9560,"Ġà¸ķà¸²à¸¡à¸£à¸Ńà¸¢":9561,"à¸ĩà¹Ģà¸ģà¸ķà¸§":9562,"Ġxxxx":9563,"EF":9564,"Ġà¸¥à¸°à¹Ģà¸¥à¸¢":9565,"à¸²à¸Ħà¸ĵà¸°":9566,"à¸²à¸ļà¸Ńà¸Ķ":9567,"Ġà¸Ķà¸§à¸ĩà¸Ĭà¸°à¸ķà¸²":9568,"à¸Ļà¸¡à¸²à¸£":9569,"à¸Ńà¸²à¸£à¸¡à¸ĵ":9570,"Ġgame":9571,"à¸ģà¸«à¸¡à¸²à¸ģ":9572,"emon":9573,"à¸²à¸Ĥà¸Ļà¸«à¸Ļ":9574,"à¸¡à¸²à¸ģà¸£à¸£à¸¡":9575,"iko":9576,"Ġpe":9577,"à¸Ļà¸Ĺà¸Ļà¸²à¸ģà¸²à¸£":9578,"à¸Ħà¸£à¸£à¸²à¸Ĭà¸Ĺ":9579,"Ġà¸Ľà¸£à¸°à¸Ľà¸²":9580,"à¸Īà¸³à¸Ļà¸§à¸Ļ":9581,"Ġà¸ĺà¸£à¸£à¸¡à¹Ģà¸Ļ":9582,"Ġà¸ªà¸«à¸Ľà¸£à¸°à¸Ĭà¸²à¸Ĭà¸²à¸ķ":9583,"à¹Ģà¸Ńà¸Ĺ":9584,"Ġ,\"":9585,"Ġclip":9586,"Ġà¸£à¸ªà¸Ļ":9587,"ags":9588,"Ġà¸«à¸¡à¸§à¸¢":9589,"ii":9590,"Ġyoutube":9591,"à¹Ĥà¸Ńà¸Ķ":9592,"à¸Ľà¸£à¸°à¸Īà¸³à¸Ĺà¸²à¸ĩ":9593,"Ġà¸Ľà¸Ńà¸¢à¹Ģà¸Ľà¸ķ":9594,"à¸Ļà¸²à¸¢à¸ģà¸£":9595,"ĠEss":9596,"Ġà¸Ľà¸£à¸°à¸ģà¸Ńà¸ļà¸ĺ":9597,"ãĢĤ":9598,"ng":9599,"Ġà¹ģà¸ķà¸ĩà¹Ĥà¸¡":9600,"à¸¢à¸£à¸łà¸²à¸ŀ":9601,"à¸Ľà¸£à¸°à¸ģà¸²à¸£":9602,"Ġà¸īà¸²à¸ļ":9603,"Ġà¹Ĥà¸Ľà¸ªà¹Ģà¸ķà¸Ńà¸£":9604,"ĠCategories":9605,"Ġà¸«à¸Ńà¸ģà¸²à¸£à¸Ħ":9606,"Ġà¸¢à¸ģà¸Ĺ":9607,"Ġà¸ªà¸¡à¹ĥà¸Ļ":9608,"Ġà¹Ģà¸ļà¸Ń":9609,"à¸ªà¸¡à¸²à¸Ĭ":9610,"à¸Ķà¹ģà¸§à¸£":9611,"à¸Ĺà¸ģà¸ł":9612,"Ġà¸ŀà¸Ńà¹Ħà¸Ķ":9613,"ORN":9614,"à¸©à¸²":9615,"Ġà¸Ħà¸§à¸£à¸Īà¸°à¹Ģà¸Ľ":9616,"à¸įà¹Ģà¸Ĭ":9617,"ĠHow":9618,"Ġ610":9619,"ĠInstagram":9620,"ĠJob":9621,"à¸ĩà¸Ħà¸¡à¸¨à¸²à¸ªà¸ķà¸£":9622,"Ġmini":9623,"à¹ģà¸ĸà¸¡":9624,"Ġà¹Ģà¸ªà¸§à¸¢":9625,"à¸Ħà¸¡à¸Ń":9626,"Ġair":9627,"Ġà¸¡à¸¡à¸²à¸ģ":9628,"ĠBas":9629,"Ġcr":9630,"ĠWomen":9631,"à¸¡à¹Ģà¸ĩ":9632,"ĠGar":9633,"Ġà¹Ĥà¸¢à¹Ģà¸ģ":9634,"Ġà¹ģà¸«à¸§":9635,"Ġà¸Łà¸Ńà¸ª":9636,"Ġà¸Ńà¸²à¸«à¸²à¸£à¹Ģà¸Ī":9637,"Ġà¸¡à¸£à¸£à¸Ħ":9638,"à¸¥à¹Ģà¸§":9639,"Ġà¸Ńà¸²à¸«à¸£":9640,"Ġdel":9641,"ĠAwards":9642,"Ġà¸ķà¸²à¸¡à¹Ģà¸ĩ":9643,"Ġà¹Ģà¸¨à¸£à¸©à¸Ĳà¸¨à¸²à¸ªà¸ķà¸£":9644,"Ġà¸Ĺà¸²à¸ĩà¹Ģà¸Ĺà¸Ħà¸Ļ":9645,"Ġà¸ĩà¸ª":9646,"à¸ªà¸¡à¸ľà¸¥":9647,"Ġà¸¥à¸°à¸Ńà¸Ńà¸ĩ":9648,"à¸²à¸¥à¸²à¸¢":9649,"Ġà¸ļà¸£à¸£à¸ŀà¸ļ":9650,"uv":9651,"ĠIG":9652,"ĠSpace":9653,"à¸Ľà¸Ļ":9654,"ful":9655,"æĸ":9656,"Ġà¸Ħà¸§à¸ĩ":9657,"Ġà¸Ħà¸¥à¸²à¸Ļ":9658,"Ġà¹Ĥà¸Īà¸§":9659,"à¸Ĥà¸łà¸²à¸ŀà¸Ī":9660,"à¸ķà¸£à¸Ľà¸£à¸°à¸Ĭà¸²à¸Ĭà¸Ļ":9661,"à¸ļà¸Ľà¸°à¸£à¸Ķ":9662,"Ġà¹Ģà¸ľà¸Ķ":9663,"à¹Ģà¸¡à¸Ķ":9664,"ĠMc":9665,"à¸ĩà¸Īà¸³à¹Ģà¸Ľ":9666,"irus":9667,"Ġà¸ªà¸ĩà¸Ħà¸£à¸²à¸¡à¹Ĥà¸¥à¸ģ":9668,"à¸Ĳà¸Ľà¸£à¸°à¸«à¸²à¸£":9669,"Ġà¸Ļà¸²à¸¢à¸«à¸Ļ":9670,"Ġ720":9671,"Ġà¹Ģà¸Ĭà¸Ńà¸£":9672,"ified":9673,"Ġà¸¡à¸Ńà¸į":9674,"Ġà¸«à¸Ńà¸ģ":9675,"Ġdi":9676,"Ġà¸£à¸²à¸¢à¸ĩà¸²à¸Ļà¸ķ":9677,"Ġà¸Ĭà¸°à¸¥":9678,"Ġà¸Ļà¸²à¸ĩà¸£à¸Ńà¸ĩ":9679,"otal":9680,"à¹Ģà¸ģà¸©à¸ķà¸£à¸¨à¸²à¸ªà¸ķà¸£":9681,"Ġà¹Ĥà¸£à¸ĩà¸ĩà¸²à¸Ļà¸Ń":9682,"à¸¢à¹Ģà¸ģà¸©à¸ķà¸£à¸¨à¸²à¸ªà¸ķà¸£":9683,"Ġà¸ŀà¸Ńà¹Ģà¸«à¸¡à¸²à¸°":9684,"Ġà¹ĸà¹ĳ":9685,"à¸²à¸ģà¸Ńà¸Ļ":9686,"Ġà¸«à¸¡à¸Ńà¸¢":9687,"aming":9688,"à¸īà¸¥à¸²à¸Ķ":9689,"Ġà¸ļà¸£à¸£à¸ŀ":9690,"à¸Īà¸ģà¸²à¸£à¸Ħ":9691,"astic":9692,"ĠBur":9693,"idas":9694,"Ġest":9695,"Ġà¹Ĥà¸Ķà¸£":9696,"IVE":9697,"Ġà¸Ľà¸²à¸Ķ":9698,"ared":9699,"Ġà¹Ģà¸Ķà¸Ļà¸¡à¸²à¸£":9700,"Ġà¸Ĥà¸Ńà¸ĩà¹ģà¸ĸà¸¡":9701,"ugh":9702,"à¸ĩà¸Ľà¸£à¸°à¸Ķ":9703,"Ġà¸Ńà¸¡à¸ķà¸°":9704,"edding":9705,"ĠYour":9706,"à¸²à¸ĩà¸Īà¸²à¸Ļ":9707,"à¸Ķà¸«à¸¡à¸²à¸¢à¸Ľà¸¥à¸²à¸¢à¸Ĺà¸²à¸ĩ":9708,"à¸ģà¸Īà¸²à¸ģ":9709,"Ġà¸¢à¸²à¸¡à¸Ħ":9710,"ĠSMS":9711,"Ġà¸Ļà¸£à¸²":9712,"aza":9713,"Ġà¸¢à¸§à¸ģ":9714,"Ġà¹Ģà¸Ńà¸Ķà¸ª":9715,"Ġà¸ªà¸²à¸£à¸°à¸ªà¸³à¸Ħ":9716,"à¹Ģà¸Ĭà¸¢":9717,"izh":9718,"à¸§à¸į":9719,"Ġà¸Ĥà¸²à¸«à¸Ļ":9720,"Ġà¸Łà¸Ł":9721,"ĠJack":9722,"Ġà¸ķà¸£à¸§à¸Īà¸£":9723,"Ġà¸Ľà¸¥à¸²à¸Ĺ":9724,"Ġà¸ªà¸łà¸²à¸Ļ":9725,"ĠLot":9726,"à¸ĩà¸Ĭà¸Ļ":9727,"Ġà¹ģà¸Ńà¸ļà¸Ķ":9728,"aka":9729,"Ġkg":9730,"Ġfull":9731,"ĠRO":9732,"Ġà¸Ľà¸²à¸ģà¸Ļ":9733,"ĠOR":9734,"Ġà¹ģà¸Ħà¸Ĭ":9735,"à¸Ķà¸ģà¸£à¸°à¸Ĺà¸£à¸§à¸ĩ":9736,"eet":9737,"ĠSqu":9738,"Ġget":9739,"Ġà¸·à¹ī":9740,"Ġà¸Ĺà¸²à¸ĩà¸£à¸ĸà¹Ħà¸Ł":9741,"Ġà¸ģà¸²à¸Ĭà¸²à¸Ķ":9742,"Ġwatch":9743,"ĠChiang":9744,"ke":9745,"à¸¤à¸«":9746,"Ġà¸ķà¸£à¸²à¸ªà¸²à¸£":9747,"à¸ªà¸Ńà¸ļà¸ĸà¸²à¸¡":9748,"à¸ģà¸ļà¸Ńà¸¥":9749,"à¸²à¸Ļà¸ģà¸²à¸£":9750,"à¸Ńà¸ģà¸ĸ":9751,"Ġ2540":9752,"à¸Ĭà¸ŀ":9753,"à¸¢à¸łà¸²à¸©":9754,"Ġà¹Ĥà¸Ħà¸£à¹Ģà¸Ńà¹Ģà¸Ĭ":9755,"berry":9756,"Ġic":9757,"rotichesk":9758,"à¸Ļà¸ģà¸£à¸°à¹ģà¸Ĺà¸ģ":9759,"Ġà¸Ĭà¸³à¸£à¸°à¸Ħ":9760,"à¸Ķà¸£à¸°à¹Ģà¸ļ":9761,"Ġà¸Ķà¸¥":9762,"time":9763,"Ġà¸ķà¸°à¹Ħà¸Ħà¸£":9764,"Ġà¹Ģà¸ŀà¸£à¸²à¸°à¸Ńà¸°à¹Ħà¸£":9765,"Ġà¸ĸà¸²à¸¡à¸ĸ":9766,"ĠSilver":9767,"gidrotichesk":9768,"BA":9769,"iff":9770,"åĲ":9771,"à¸ĩà¹Ħà¸Ľ":9772,"ĠSR":9773,"à¸²à¸Ļà¸ģà¸²à¸£à¸Ĺà¸Ķà¸ªà¸Ńà¸ļ":9774,"à¸Ńà¸Ĭà¸²à¸ķ":9775,"ĠBut":9776,"Ġà¹Ĥà¸Ńà¹Ģà¸§à¸Ńà¸£":9777,"Ġà¸Ľà¸§à¸Ķà¸Ĺ":9778,"Ġà¸£à¸°à¸¢":9779,"Ġà¹Ģà¸Īà¸²à¸°à¸¥":9780,"Ġbig":9781,"à¹ģà¸«à¸¥à¸¡":9782,"Ġà¸§à¸ĩà¸ģà¸§":9783,"Ġà¸ŀà¸¥à¸°":9784,"ĠTP":9785,"à¸Ļà¸ķà¸ģà¹Ģà¸ī":9786,"ĠâĢ³":9787,"Ġà¹ģà¸Ľà¸¥à¸ģà¸ķà¸²":9788,"à¸²à¹ģà¸Ľà¸¥à¸ģ":9789,"Ġà¹Ĥà¸Ĥà¸Ļà¸ĩ":9790,"Ġà¹ģà¸ķà¸Ķ":9791,"job":9792,"à¸¨à¹ĥà¸ķ":9793,"âŀĸâŀĸ":9794,"ĠMaz":9795,"à¸Ńà¸ĩà¸£à¸²à¸ĩ":9796,"ĠHR":9797,"Ķà¸Ńà¸ģ":9798,"Ġà¸Ħà¸§à¸²à¸¡à¸Ħà¸²à¸Ķà¸«à¸§":9799,"à¸ģà¸ĩà¸²à¸Ļà¸ļà¸£":9800,"Ġà¹Ĥà¸ģà¸¥à¸Ķ":9801,"sb":9802,"Ġà¸ģà¸¨à¸Ļ":9803,"vest":9804,"Ġà¸Ħà¸§à¸²à¸¡à¸Ľà¸£à¸²à¸£à¸ĸà¸Ļà¸²":9805,"ĠTest":9806,"ja":9807,"ĠUP":9808,"ĠPhlebologist":9809,"Ġà¹Ĥà¸Ľà¹ģà¸¥à¸Ļà¸Ķ":9810,"ĠTool":9811,"à¸¡à¹Ģà¸ļ":9812,"ĠPU":9813,"à¸Ķà¸Īà¸³":9814,"ĠBen":9815,"ÙĦ":9816,"Ġà¸Īà¸£à¸°à¹Ģà¸Ĥ":9817,"Ġà¸Īà¸Ńà¸ĩà¸ķ":9818,"à¸¥à¸Īà¸Ńà¸¡à¹Ģà¸ģà¸¥":9819,"Ġà¸Ļà¸²à¸¢à¸Ĺà¸«à¸²à¸£":9820,"Ġ],":9821,"à¸įà¸£":9822,"ĠPerfect":9823,"ĠGD":9824,"à¸¢à¸²à¸ģ":9825,"Ġà¸ªà¸²à¸¡à¹Ģà¸«à¸¥":9826,"ĠPT":9827,"à¸ģà¹Ģà¸ļ":9828,"ĠÃ¤":9829,"ĠPa":9830,"Ġà¹Ĥà¸Ħà¸Īà¸£":9831,"ÐµÑĢ":9832,"Ġà¸ģà¸²à¸£à¹ģà¸ªà¸Ķà¸ĩà¸Ńà¸Ńà¸ģ":9833,"à¸Ńà¸ķà¹Ģà¸ķà¸Ńà¸£":9834,"à¸¥à¸¢à¹ģà¸ŀà¸Ĺà¸¢":9835,"Ġà¸ģà¸Ńà¸ĩà¸ļ":9836,"à¸įà¸įà¸²à¹Ģà¸Ńà¸ģ":9837,"Ġà¸ıà¸²à¸Ħà¸¡":9838,"Ġhigh":9839,"Ġpigment":9840,"ilt":9841,"Ġà¸Ńà¸«":9842,"à¸£à¸°à¸ļ":9843,"à¸Ħà¹Ģà¸ķà¸Ńà¸£":9844,"Ġà¸¥à¸²à¸¥":9845,"ĠExpo":9846,"Ġà¹ģà¸£à¸ĩà¸Ī":9847,"ĠHall":9848,"Ġà¹Ģà¸Ķà¸¥":9849,"Ġà¸łà¸²à¸Ħà¹Ģà¸£":9850,"Ġant":9851,"à¸Ļà¸ķà¸²à¸¡":9852,"ĠSuk":9853,"à¸Łà¸Ł":9854,"Ġà¹Ģà¸Łà¸¥":9855,"à¸Ļà¸ľà¸§à¸Ļ":9856,"Ġà¸ľà¸¥à¸ĩà¸²à¸Ļà¸§":9857,"ify":9858,"ĠRev":9859,"Ġà¸ķà¸³à¸£":9860,"ĠMake":9861,"à¸²à¸¥à¸°":9862,"à¸ģà¸Ĥà¸²à¸Ķ":9863,"ĠExpress":9864,"à¸¡à¸£à¸ª":9865,"à¸²à¸Ļà¸£":9866,"ĠPur":9867,"à¸²à¹ĥà¸ģà¸¥":9868,"ĠCre":9869,"ĠTeam":9870,"Ġà¹Ģà¸ļà¸¢":9871,"lease":9872,"Ġà¸Īà¸Ńà¸łà¸²à¸ŀ":9873,"Ġà¸ĺà¸£à¸ĵ":9874,"à¹Ĥà¸£à¸ĩà¹ģà¸£à¸¡":9875,"ĠSuz":9876,"Ġworming":9877,"ida":9878,"ĠTHAILAND":9879,"go":9880,"Ġà¸Ńà¸Ńà¸ģà¸Ķà¸Ńà¸ģ":9881,"ĠCondo":9882,"Ġ2542":9883,"à¸¢à¸§à¸Ĥà¸§à¸²":9884,"Ġà¸Ħà¸ĵà¸ļà¸Ķ":9885,"ĠScience":9886,"à¸ĩà¹Ģà¸§":9887,"åľ":9888,"mun":9889,"à¸Ĭà¸ľ":9890,"ĠLeave":9891,"Ġà¹Ĥà¸ĺ":9892,"à¸ĩà¸ĩà¸²à¸Ļà¹Ħà¸Łà¸Ł":9893,"Ġà¸¡à¸ĩ":9894,"Ġà¸«à¸¥à¸§à¸¡":9895,"áŁ":9896,"ĠNik":9897,"Ġà¹Ģà¸Ńà¹Ģà¸ĭ":9898,"OTA":9899,"ĠIv":9900,"à¸Ļà¹Ģà¸Ľà¸¥":9901,"essional":9902,"mp":9903,"ISA":9904,"ĠEle":9905,"CL":9906,"Ġà¹Ĥà¸Ńà¸ģ":9907,"Ġ123":9908,"Ġà¹ģà¸Īà¸ĩ":9909,"ĠCons":9910,"Ġà¸²à¸£":9911,"Ùħ":9912,"Ġà¸£à¸°à¸ļà¸ļà¹Ģà¸Ħà¸£":9913,"Ġå¤":9914,"Ġà¸Ĺà¸²à¸ĩà¹Ħà¸ģà¸¥":9915,"à¹Ģà¸ļà¸ļ":9916,"ĠBT":9917,"à¸ģà¸§à¸²à¸ĩ":9918,"Ð´":9919,"Ġà¸ģà¸²à¸£à¸ķà¸²à¸¢":9920,"UNG":9921,"Ġà¸ŀà¸§à¸ĩà¸«à¸£":9922,"OO":9923,"à¸ģà¹Ĥà¸Ĺà¸©":9924,"à¹Ģà¸«à¸ĩ":9925,"ĠFac":9926,"ittle":9927,"Ġà¸Ńà¸ļà¸Ī":9928,"lor":9929,"ĠExt":9930,"ĠFeb":9931,"iety":9932,"Ġà¹Ģà¸§à¸ļ":9933,"à¹Ĥà¸į":9934,"Ġsec":9935,"Ð°Ð½":9936,"ĠFair":9937,"Ġà¸ªà¸Ļà¸Ĭ":9938,"à¸ĩà¸ŀà¸²à¸ĵ":9939,"ĠMovie":9940,"à¸¢à¹Ģà¸Ĭ":9941,"Ġà¸«à¸Ļà¸²à¸¡":9942,"ĠAction":9943,"Ġhotmail":9944,"à¸Ńà¸®à¸²":9945,"Ġà¸Ĭà¸Ļà¸²":9946,"à¸²à¸ľà¸²à¸ģ":9947,"Ġà¸Ķà¸²à¸Ļ":9948,"Ġà¸ķà¸°à¹Ĥà¸ģà¸Ļ":9949,"à¸¡à¹ĥà¸ª":9950,"à¹Ĥà¸ĭà¸Ļ":9951,"à¹Į\"":9952,"à¸Ļà¸ªà¸ķà¸²":9953,"à¸Ļà¸ªà¸ķà¸²à¹ģà¸ģà¸£à¸¡":9954,"âłĢâłĢ":9955,"Ġà¸Ķà¸Ķ":9956,"Ġà¹ĳà¹Ķ":9957,"Ġà¸Ħà¸¥à¸°":9958,"ua":9959,"Ġà¹Ħà¸ŀà¸ļ":9960,"à¸ģà¸ĩà¸²à¸Ļà¸Ĥà¸²à¸¢":9961,"Ġgen":9962,"à¸Ķà¸Ŀ":9963,"Ġà¸Ħà¸§à¸²à¸¡à¹Ģà¸Ħà¸²à¸£à¸ŀ":9964,"ãĢģ":9965,"Ġà¸Ļà¸³à¹Ģà¸Ĺ":9966,"à¸ĩà¸Ħà¸¡à¸¨":9967,"Ġà¸£à¸²à¸¢à¸£":9968,"ella":9969,"Ġà¹ģà¸ªà¸Ķ":9970,"à¸²à¸§à¸Ľà¸£à¸°à¸Ĭà¸²à¸ª":9971,"Ġà¹Ģà¸Ńà¸ĭ":9972,"Ġ<<":9973,"à¸¥à¹Ģà¸Ł":9974,"Ġroom":9975,"Ġ?âĢĿ":9976,"Ġà¸ķà¸£à¸°à¸ģà¸²à¸£":9977,"Ġà¸«à¸Ļà¸²à¸§à¹Ģà¸¢":9978,"à¸Ńà¸ĩà¸ªà¸³à¸Ńà¸²à¸ĩà¸Ħ":9979,"Ġà¸Ľà¸¨":9980,"Ġà¸¥à¸²à¸¢à¹Ħà¸¡":9981,"Ġà¸£à¸²à¸Ĭà¸ŀà¸¤à¸ģà¸©":9982,"ĠMulti":9983,"à¸Ńà¸ĩà¸«à¸Ļ":9984,"à¸²à¸ģà¸ª":9985,"Ġà¹Ĥà¸Ħà¸£à¸ĩà¸Ĥ":9986,"ĠDress":9987,"ĠLear":9988,"Ġà¹Ħà¸Ĺà¸¡":9989,"aking":9990,"Ġà¸ļà¸Ĺà¸ļ":9991,"onic":9992,"Ġà¸ªà¸²à¸Ļà¸ķ":9993,"Ġà¸ĭà¸ļ":9994,"Ġà¸Łà¸²à¸ĩ":9995,"à¸ĩà¸Ĺà¸²à¸ĩ":9996,"Ġà¸ķà¸²à¸¡à¸¥":9997,"à¸Ļà¸ķà¹ģà¸ŀà¸Ĺà¸¢":9998,"Ġà¸Ĺà¸Ĺà¸Ĺ":9999,"Ġà¸Ńà¸²à¸ĵà¸²":10000,"Ġà¹Ĥà¸¢à¸ĩ":10001,"à¸²à¸ĺà¸Ńà¸Ļ":10002,"Ġà¹Ģà¸¥à¸Ńà¸°":10003,"à¸ŀà¸£à¸²à¸Ļ":10004,"Ġà¹ģà¸§à¸Ķà¸¥":10005,"ification":10006,"Ġ365":10007,"ĠNar":10008,"ĠSports":10009,"à¹Ħà¸Łà¸¥":10010,"à¸ĩà¸ļà¸²à¸ĩ":10011,"Īà¸°":10012,"Ġà¸Ĭà¸²à¸¥":10013,"Ġà¹ģà¸Ĥà¸Ļà¸ĩ":10014,"rail":10015,"à¸Ļà¸Ľà¸£à¸°à¸ªà¸²à¸Ĺ":10016,"à¸Ļà¸Ļà¸²à¸ĩ":10017,"à¸Ķà¹Ģà¸¡":10018,"ĠHair":10019,"à¸Ĺà¸Ńà¸Ķ":10020,"ĠMi":10021,"à¸Ńà¸Ļà¹ĥà¸Ļ":10022,"Ġà¸ģà¸§à¸Ļà¸Ń":10023,"ewelry":10024,"Ġà¹Ģà¸Ńà¸²à¸ķ":10025,"à¸ģà¸£à¸ģà¸¥":10026,"Ġà¸Ĭà¸²à¸Ķ":10027,"Ġ230":10028,"à¸Łà¸ķ":10029,"ius":10030,"à¸ªà¹Ģà¸ĭà¸Ńà¸£":10031,"osted":10032,"ĠJY":10033,"Ġservice":10034,"à¸³à¹ģà¸£":10035,"izz":10036,"Ġpass":10037,"Ġà¸ªà¸¡à¹Ģà¸«à¸ķ":10038,"Ġà¸Ĺà¸£à¸ĩà¸ģà¸¥à¸¡":10039,"Ġà¸¡à¸ĩà¸ģ":10040,"à¸ķà¸§à¹ģà¸ŀà¸Ĺà¸¢":10041,"Ġà¹ģà¸ªà¸ķ":10042,"à¸§à¸Ļà¹ģà¸¥":10043,"âĿ":10044,"Ġà¸Ħà¸§à¸²à¸¡à¸ªà¸¡à¸ļ":10045,"Ġà¸ŀà¸¥à¸²à¸ĩ":10046,"Ġà¸¹":10047,"ĠGL":10048,"ope":10049,"Ġà¸¢à¸²à¸¡à¸²":10050,"SP":10051,"Ġfunction":10052,"à¸Ļà¹Ģà¸Ķà¸ªà¸¥":10053,"Ġà¸ŀà¸£à¸°à¸Ħ":10054,"acy":10055,"ĠSem":10056,"ĠHel":10057,"mark":10058,"Ġà¹Ħà¸Ķà¸£à¸Ł":10059,"à¸³à¸¥":10060,"ĠSwitch":10061,"à¸¡à¸²à¸ĭ":10062,"umin":10063,"vel":10064,"Ø¯":10065,"Ġà¸Ļà¸³à¸¡à¸²à¸ĭ":10066,"à¸²à¸§à¸ª":10067,"à¸ªà¸ªà¸Ļà¸²":10068,"Ġà¸ªà¸ķà¸²à¸ĩà¸Ħ":10069,"ĠMbps":10070,"Ġà¸ªà¸ŀà¸Ĳ":10071,"Ġà¸ģà¸²à¸ķ":10072,"Ġà¸ģà¸²à¸£à¸Ħà¸§à¸ļ":10073,"ĠFestival":10074,"à¸³à¸ªà¸°à¸Ńà¸²à¸Ķ":10075,"à¸ģà¸²à¸£à¹Ģà¸ĩ":10076,"Ġà¸Ļà¸Ńà¸Ļà¹Ħà¸¡":10077,"Ġà¹Ģà¸«à¸¥à¸§":10078,"ATION":10079,"à¸£à¸²à¸ģà¸":10080,"à¹Ĥà¸Ĺà¸£à¸¡":10081,"Ġà¸Ĺà¸°à¹Ģà¸¥à¸Ĺà¸£à¸²à¸¢":10082,"à¹Ħà¸Ńà¹Ģà¸Ńà¸ª":10083,"The":10084,"Ġà¸Łà¸Ńà¸ģà¸ª":10085,"à¸ĩà¸³":10086,"Ġà¸Ĺà¸³à¸Ļà¸²":10087,"à¸ĩà¸Ĩà¸£à¸²à¸Ĭ":10088,"à¸Ļà¹Ħà¸ª":10089,"à¸Ļà¹Ħà¸Ł":10090,"ä½":10091,"***":10092,"Ġà¸£à¸°à¸ļà¸ļà¸Ļ":10093,"for":10094,"à¸Ńà¸ªà¸¡":10095,"à¸Ńà¸ĩà¹ģà¸ļà¸ļ":10096,"Ġà¸Ńà¸Ńà¸ģà¸Īà¸°":10097,"Ġsmart":10098,"Ġà¹Ĥà¸«à¸Ļà¸ģ":10099,"à¸ļà¸ªà¸²à¸£à¸łà¸²à¸ŀ":10100,"Ġà¸ŀà¸¥à¸¨":10101,"Ġ109":10102,"à¸Ńà¸ĩà¸ģà¸£":10103,"ican":10104,"çĶ":10105,"Ġà¸ģà¸Ł":10106,"à¸Ńà¸Ĺà¸³":10107,"Ġà¹Ģà¸£à¸ĭ":10108,"Ġà¹Ĥà¸£à¸¥":10109,"Ġà¸£à¸Ńà¸ĩà¸Ļà¸²à¸¢à¸ģà¸£":10110,"à¸Ļà¸ªà¸°à¹Ģà¸Ĺ":10111,"asonic":10112,"à¸ģà¸¥à¸²à¸¡":10113,"SE":10114,"ivate":10115,"à¸¡à¸ŀà¸£à¸°à¸Ĭà¸Ļà¸¡à¸ŀà¸£à¸£à¸©à¸²":10116,"ĠOPP":10117,"Ġà¸ģà¸£à¸¡à¸ªà¸£à¸£à¸ŀ":10118,"à¸²à¸ģà¸Ħ":10119,"izer":10120,"à¸Ļà¸ĸ":10121,"à¸ķà¸ģà¸ģ":10122,"ĠPump":10123,"Ġà¸¥à¸§":10124,"inger":10125,"Ġreview":10126,"Ġà¸¥à¸Ńà¸ļ":10127,"Ġà¸Ľà¸ĵ":10128,"à¹Ģà¸ļà¸ķ":10129,"Ġà¸Ħà¸²à¸Ķà¹Ģà¸Ķà¸²":10130,"ta":10131,"Ġà¹Ģà¸¥à¸ķ":10132,"Ġcontent":10133,"Ġpower":10134,"Ġmet":10135,"à¸Ĺà¸¢à¸²à¸Ħà¸²à¸£":10136,"Ġà¸¡à¸²à¸ªà¸Ħ":10137,"ground":10138,"Ġà¹Ħà¸«à¸¥à¸ľ":10139,"Ġà¹Ģà¸īà¸Ķà¸ª":10140,"Ġmax":10141,"à¸²à¸§à¸Ħà¸£à¸²à¸§":10142,"Ġ)(":10143,"ĠPoint":10144,"à¸Ńà¸Ļà¸ģà¸§à¸²à¸ĩ":10145,"Ġà¸ķà¸²à¸¡à¸£à¸°à¹Ģà¸ļ":10146,"ĠExcel":10147,"ĠTom":10148,"à¸ķà¹Ģà¸§":10149,"ĠSign":10150,"Ġà¸ĩà¸²à¸Ļà¸īà¸¥à¸Ńà¸ĩ":10151,"Ġà¸¨à¸ģ":10152,"Ġà¸£à¸°à¸Ħà¸²à¸¢à¹Ģà¸Ħ":10153,"Ġà¸Ĭà¸²à¸§à¹Ģà¸¡":10154,"opl":10155,"à¸§à¸Ļà¸¥":10156,"ĠCustom":10157,"ĠER":10158,"Ġà¸ķà¸¡":10159,"à¸³à¸ªà¸¡":10160,"Ġà¹Ĥà¸®à¹Ģà¸ķ":10161,"Ġà¸¥à¸ª":10162,"itsub":10163,"PER":10164,"Ġà¹Ģà¸ŀà¸²à¸°à¸Ľà¸¥":10165,"à¸Ļà¸²à¸¨":10166,"à¸Ĺà¸£à¸¡à¸²à¸Ļ":10167,"à¸ŀà¸£à¸°à¸£à¸²à¸Ĭ":10168,"Ġà¸·à¹Ī":10169,"Ġthor":10170,"à¹Ħà¸£à¸ģ":10171,"Ġà¸Ħà¸§à¸²à¸¡à¹Ģà¸¡":10172,"Ġà¸Ļà¹Ģà¸£à¸¨à¸§à¸£":10173,"ĠMain":10174,"Ġà¸Ńà¸°à¹Ħà¸£à¸ģ":10175,"à¸Ńà¸²à¸ģà¸²à¸£":10176,"iginal":10177,"Ġdisgidrotichesk":10178,"à¸Ļà¸«à¸Ļà¸²à¸§":10179,"à¸Ħà¸£à¸Ńà¸ļà¸Ħà¸£à¸Ńà¸ĩ":10180,"à¸Ńà¸Ļà¸«":10181,"à¸Ńà¸Ļà¸Ŀ":10182,"ĠComment":10183,"Ġsport":10184,"ĠCreat":10185,"Ġ2545":10186,"à¹Ģà¸£à¸ģ":10187,"ĠÂĵ":10188,"à¸ģà¸¨à¸£":10189,"ĠClean":10190,"Ġà¸Ħà¸²à¸¡":10191,"Ġà¸Ľà¸£à¸°à¸¡à¸§à¸¥à¸ģà¸İà¸«à¸¡à¸²à¸¢":10192,"ĠWalk":10193,"Ġà¹Ģà¸ªà¸Ļà¸Ńà¸Ĥà¸²à¸¢":10194,"à¸łà¸²à¸Ħà¸ł":10195,"rey":10196,"à¸²à¸ĩà¸²à¸¡":10197,"à¸§à¸ĩà¸Ĺ":10198,"Ġtv":10199,"Ġgener":10200,"Ġà¸Ńà¸Ńà¸¡à¸Ĺà¸£":10201,"iation":10202,"à¸Ļà¸²à¸£":10203,"à¸²à¸§à¸Ĥ":10204,"ĠMask":10205,"iece":10206,"ĠÐ¾":10207,"ĠDouble":10208,"Ġà¹Ģà¸Ńà¸°":10209,"Ġà¸¢à¸§":10210,"ĠPrincess":10211,"Ġà¸Ħà¸§à¸²à¸¡à¸łà¸²à¸Ħà¸ł":10212,"ĠFort":10213,"Ġà¸Ķà¸³à¸£":10214,"Ġà¹Ģà¸Ńà¸ªà¹Ģà¸Ń":10215,"à¸¥à¸²à¸ģà¸²à¸£":10216,"Ġà¸Ĺà¸³à¸ª":10217,"ban":10218,"à¸Ļà¸ģà¸³à¸¥":10219,"Ġà¸Ľà¸ģà¸£à¸ĵ":10220,"Ġà¹ģà¸ķà¸Ļ":10221,"ĠClick":10222,"Ġà¸²à¸§":10223,"à¸²à¸«à¸¥à¸§à¸ĩ":10224,"Ġà¸§à¸ģ":10225,"ðŁı»":10226,"ECT":10227,"Ð¼":10228,"Ġà¸ģà¸£à¸£à¸¡à¸Ĳà¸²à¸Ļ":10229,"à¹Ģà¸Ĺà¸¨à¸ļà¸²à¸¥":10230,"à¸Ļà¹Ģà¸Ł":10231,"iaomi":10232,"Ġà¹Ģà¹Ģà¸ļà¸ļ":10233,"Ġà¸ģà¸²à¸ĩà¹Ģà¸ģà¸ĩà¸Ĥà¸²à¸ª":10234,"à¸ĵà¸«à¸į":10235,"à¸ĩà¸ĩà¸²à¸Ļà¹ģà¸ªà¸ĩà¸Ńà¸²à¸Ĺ":10236,"ĠAdap":10237,"plex":10238,"ĠPowered":10239,"ering":10240,"ĠEver":10241,"ĠPoly":10242,"UC":10243,"Ġà¸Ħà¸Ļà¹ģà¸ģ":10244,"à¸Ķà¹ģà¸Ĥ":10245,"ĠWH":10246,"Ġà¹Ĥà¸Ńà¸£à¸ª":10247,"à¸Ńà¹Ģà¸Ńà¸²":10248,"à¸ĩà¹Ħà¸Ľà¸ģà¸§":10249,"Ġà¸£à¸²à¸ģà¸Ĳà¸²à¸Ļ":10250,"Ġà¸§à¸²à¸Ĺ":10251,"verter":10252,"Ġà¸Ħà¸Ļà¸Īà¸Ļ":10253,"Ġà¸Ĺà¸³à¸Ĺ":10254,"à¸Ĭà¸Ļà¸¡":10255,"à¸¥à¸¥à¸Ńà¸®":10256,"peria":10257,"ĠSa":10258,"Ġproduct":10259,"Ġxv":10260,"Ġà¸Ĺà¸Ļà¹Ħà¸¡":10261,"Ġà¹ģà¸ªà¸ĩà¹Ħà¸Ł":10262,"Ġà¸ģà¸£à¸¡à¸¨":10263,"çī":10264,"Ġà¹Ģà¸¡à¸ģà¸°":10265,"Ġà¸Ħà¸§à¸²à¸¡à¸«à¸£":10266,"Ġà¸¬":10267,"à¸ģà¹Ĥà¸Ľ":10268,"Ùĩ":10269,"Ġel":10270,"itsubishi":10271,"à¹Ģà¸Ĺà¸£à¸¥à¹Ģà¸¥à¸Ńà¸£":10272,"ĠAudio":10273,"à¹Ģà¸ŀà¸£à¸ª":10274,"osp":10275,"ential":10276,"ĠBear":10277,"Ġà¸ĸà¸Ńà¸Ļà¸ķ":10278,"à¹Ģà¸¥à¸Ńà¸£":10279,"Ġà¸Įà¸²à¸Ļ":10280,"Ġà¹Ģà¸Ńà¹Ħà¸Ńà¹Ģà¸Ńà¸ª":10281,"Ġà¸Ľà¸£à¸°à¹Ģà¸§à¸¨":10282,"à¸Ļà¸Ķà¸²à¸£":10283,"à¸Ńà¸¡à¹Ĩ":10284,"Ġà¸Ľà¸£à¸°à¸Īà¸³à¸Ī":10285,"Ġà¸£à¸ĸà¹Ģà¸Ĺà¸£à¸¥à¹Ģà¸¥à¸Ńà¸£":10286,"à¸ļà¸²à¸ķ":10287,"à¸²à¸Ŀà¸Ļ":10288,"à¸Ķà¸ģà¸§":10289,"ĠTM":10290,"à¸Ńà¸Ļà¹Ģà¸¢à¸²à¸§":10291,"Ġà¹ĥà¸Īà¹Ģà¸¢":10292,"à¸Ńà¸ĩà¸Ĺà¸°à¹Ģà¸¥":10293,"________________":10294,"à¸Ńà¸ĩà¹ģà¸Ħ":10295,"Ġ5000":10296,"Ġà¸ŀà¸¤à¸ģà¸©":10297,"Ġà¸£à¸°à¸Ķà¸¡à¸Ĺ":10298,"Ġà¹ĳà¹Ļ":10299,"à¸©à¸Ī":10300,"Ġhave":10301,"à¸Ĭà¸ģà¸£":10302,"Ġà¸Ħà¸Ļà¸Ī":10303,"ITY":10304,"ado":10305,"Ġà¹ģà¸¡à¸£":10306,"iw":10307,"Ġà¸Ħà¸Ńà¸ª":10308,"Ġà¸Ĺà¸«à¸²à¸£à¸ļà¸ģ":10309,"à¸ģà¸²à¸£à¸Ľà¸£à¸°à¸Ĭ":10310,"ĠTrack":10311,"à¸²à¸§à¸¡":10312,"à¸¥à¹ģà¸§à¸£":10313,"ĠAug":10314,"Ġà¸ĸà¸Ļà¸Ļà¹ĥà¸«à¸į":10315,"Ġà¸Ľà¸¥à¸Ńà¸ļ":10316,"ĠTablet":10317,"ĠAcadem":10318,"à¹ģà¸Ŀà¸Ķ":10319,"à¸§à¸Ļà¸³":10320,"à¸§à¸Ļà¸£à¸§à¸¡":10321,"Ġà¸Ńà¸³à¸¥à¸²":10322,"Ġà¸Īà¸Ńà¸ģ":10323,"Ġà¸¥à¸³à¹Ģà¸¥":10324,"Ġà¸ªà¸²à¸¢à¸Ł":10325,"Ġvesn":10326,"ĠSouth":10327,"à¸¢à¹Ģà¸ª":10328,"ĠMalyshev":10329,"Ġà¹Ħà¸ŀà¸¨à¸²à¸¥":10330,"va":10331,"Ġà¸ªà¸¡à¸Ĺà¸ļ":10332,"ĠMix":10333,"Ġà¹Ĥà¸£à¸ĩà¸¥à¸°à¸Ħà¸£":10334,"Ġib":10335,"à¹Ģà¸Ľà¹Ģà¸Ľà¸Ńà¸£":10336,"Ġà¸Ħà¸ĵà¸°à¸ªà¸ĩà¸Ĩ":10337,"ĠFI":10338,"aily":10339,"Ġà¸Ĥà¸Ńà¸Ħà¸§à¸²à¸¡à¸Ĭ":10340,"ĠCount":10341,"Ġà¸ĵà¸ĳ":10342,"Ġà¸¨à¸²à¸ªà¸Ķà¸²":10343,"à¸Ńà¸ĩà¹ģà¸ªà¸ĩ":10344,"Ġà¸ģà¸²à¸£à¸¥à¸Ķà¸Ļ":10345,"à¸ģà¸ĩ":10346,"Ġà¸Ħà¸Ļà¸ªà¸§à¸¢":10347,"ays":10348,"Ġ55555":10349,"Ġà¸Ľà¸¥à¸²à¸¢à¸Ļ":10350,"Ġà¸¥à¸ĩà¸Ĭ":10351,"ĠFast":10352,"à¸²à¸¢à¸ģ":10353,"Ġà¸Ĭà¸³à¸£à¸°à¸«à¸Ļ":10354,"à¹ģà¸Ĺà¸Ļà¸£à¸²à¸©à¸İà¸£":10355,"Ġà¸¨à¸²à¸¥à¸²à¸ģà¸¥":10356,"Ġà¸Łà¸Ĺ":10357,"ĠBE":10358,"à¸Ĺà¸£à¸ĩà¸Ħ":10359,"ïľİ":10360,"Ġà¸ļà¸²à¸«à¸¥":10361,"à¸¤à¸Ķ":10362,"à¸ģà¸¥à¸Ńà¸ļ":10363,"ĠFirst":10364,"Ġpdf":10365,"owder":10366,"Ġà¸ģà¸²à¸£à¹Ģà¸ª":10367,"ĠPublic":10368,"Ġà¹ģà¸ŀà¸¥à¸Ļ":10369,"OCK":10370,"ĠContent":10371,"ĠWall":10372,"Ġà¸ľà¸¥à¸ģà¸²à¸£à¸¨":10373,"à¸Ļà¸Ĺà¸³à¸ģà¸²à¸£":10374,"ĠFM":10375,"Ġà¸Īà¸³à¹ģà¸Ļà¸ģ":10376,"ĠAud":10377,"Ġà¸Ĺà¸Ķà¸¥à¸Ńà¸ĩà¹ĥà¸Ĭ":10378,"à¸ģà¸£à¸£à¸¡à¸²à¸ĺ":10379,"Ġ2003":10380,"Ġresp":10381,"à¸¡à¸¥à¸Ńà¸ĩ":10382,"ĠSle":10383,"à¸ĵà¸Ľ":10384,"ĠïľĬ":10385,"Ġà¸ĭà¸Ńà¸¡à¸ļ":10386,"Ġà¸ģà¸£à¸°à¸Ĺà¸£à¸§à¸ĩà¹Ģà¸ģà¸©à¸ķà¸£à¹ģà¸¥à¸°à¸ªà¸«à¸ģà¸£à¸ĵ":10387,"Ġà¹Ĵà¹ķà¹ķà¹Ļ":10388,"à¸²à¸ĩà¹ĥà¸Ķà¸Ńà¸¢":10389,"à¸¡à¸Īà¸³à¸Ļà¸§à¸Ļ":10390,"Ġà¸£à¸Ńà¸ļà¸Ķ":10391,"Ġà¸ļà¸°à¸«à¸¡":10392,"ĠDev":10393,"à¸Ħà¸Ńà¸¥":10394,"ĠEducation":10395,"kin":10396,"mon":10397,"Ġà¸ľà¸¥à¹Ħà¸Ķ":10398,"à¸ªà¸ĩà¹Ģà¸Ħà¸£à¸²à¸°à¸«":10399,"Ġà¸Ĺà¸²à¸ĩà¸Ļ":10400,"Ġsystem":10401,"à¸¢à¸ģà¸Ĭ":10402,"Ø§ÙĦ":10403,"à¸Ļà¸¥à¸°":10404,"à¸Ńà¸ĩà¸Ļà¸Ńà¸ģ":10405,"à¸Ķà¸¡à¸²à¸ģ":10406,"Ġà¸Ńà¸Ńà¸ĩ":10407,"ĠCy":10408,"Ġsal":10409,"Ġà¸ģà¸£à¸°à¸ĸà¸²à¸ĩ":10410,"SI":10411,"Ġà¸ķà¸²à¸¡à¸Ń":10412,"à¸Ļà¸Ļà¸²à¸Ļ":10413,"Ġ1500":10414,"Ġà¸łà¸²à¸§à¸°à¹ģà¸Ĺà¸£à¸ģà¸ĭ":10415,"à¸ķà¸£à¸ģà¸£à¸£à¸¡":10416,"edes":10417,"Ġà¹Ĥà¸Ķà¸¢à¸ĩ":10418,"Ġà¹Ģà¸ĸà¸£":10419,"à¸ļà¸ŀà¸¥":10420,"Ġà¸ķà¸ĸ":10421,"à¸Ńà¸ĩà¸Ĺà¸³à¸Ļ":10422,"ĠAutom":10423,"ĠEcon":10424,"Ġà¹Ģà¸§à¸£":10425,"ĠYoutube":10426,"brand":10427,"à¹Ħà¸®à¹Ģà¸Ķ":10428,"Ġà¹Ħà¸ĭà¹Ģà¸ļà¸Ńà¸£":10429,"Ġà¸¡à¸²à¸¥à¸²":10430,"à¹Ĥà¸ļà¹Ħà¸®à¹Ģà¸Ķ":10431,"Ġà¸ªà¸°à¸ļ":10432,"Ġà¸¥à¹Ģà¸¥":10433,"Ġlove":10434,"Ġ085":10435,"à¸ģà¸£à¸°à¸Ĺà¸ĩ":10436,"ĠPlan":10437,"à¸ģà¸£à¸°à¸Īà¸ģ":10438,"à¸ĩà¸Ĺà¸°à¹Ģà¸¥":10439,"ĠSW":10440,"li":10441,"à¸Ķà¹Ģà¸Ħ":10442,"Ġà¹ģà¸ļà¸ļà¸ªà¸Ńà¸ļà¸ĸà¸²à¸¡":10443,"ĠONE":10444,"Ġà¸¥à¸²à¸ĩ":10445,"aly":10446,"ĠBall":10447,"Ġpos":10448,"ĠSnap":10449,"Ġà¸Ļà¸ĺ":10450,"ĠKim":10451,"ĠExper":10452,"ĠBed":10453,"ĠZone":10454,"Ġ087":10455,"lin":10456,"Ġ2535":10457,"Ġà¹ģà¸Ļà¸§à¸Ħà¸§à¸²à¸¡à¸Ħ":10458,"Ġà¸ªà¸£à¸ĩ":10459,"à¸Ńà¸Ļà¹Ĥà¸ķ":10460,"ache":10461,"ĠBN":10462,"Ġsam":10463,"Ð¾ÑĢ":10464,"à¸¡à¹ģà¸ŀ":10465,"Ñħ":10466,"Ġcum":10467,"ĠAu":10468,"Ġ104":10469,"à¸Ķà¸¥à¸Ńà¸ģ":10470,"ĠJour":10471,"à¸Ńà¸ĩà¸«à¸¡à¸²à¸¢à¸ģà¸²à¸£à¸Ħ":10472,"Ġkm":10473,"Ġà¹Ĥà¸Ĭà¸Ħà¸£":10474,"Ġà¸ĩà¸Ĥ":10475,"ĠIR":10476,"Ġabout":10477,"ĠVarices":10478,"Ġà¹Ħà¸Łà¸īà¸²à¸¢":10479,"Ġà¸¨à¸ĺ":10480,"à¸£à¸°à¸«à¸Ļ":10481,"ĠCool":10482,"ELL":10483,"à¸Ļà¸Ńà¸Ńà¸ģà¸ģà¸¥":10484,"Ġà¸Ĺà¸£à¸ĩà¸Ħ":10485,"à¸Ļà¸Ńà¸Ńà¸ģà¸ģà¸¥à¸²à¸ĩ":10486,"aga":10487,"ague":10488,"ĠÃ¶":10489,"à¸łà¸²à¸ŀà¸ļ":10490,"à¸Ħà¸ª":10491,"Ġà¸¢à¸Ķ":10492,"à¸²à¸ĭà¸²":10493,"à¸ļà¸£à¸¡à¸£à¸²à¸Ĭà¸ģ":10494,"Ġà¸ªà¸¢à¸²à¸¡à¸ļà¸£à¸¡à¸£à¸²à¸Ĭà¸ģ":10495,"ĠOPPO":10496,"ĠNovember":10497,"Ġ080":10498,"ĠIsland":10499,"Ġhammer":10500,"fin":10501,"å¥":10502,"à¸ªà¹Ģà¸ļ":10503,"Ġà¸ģà¸§à¸Ķà¸§":10504,"ĠOK":10505,"ivity":10506,"Ġà¸£à¸²à¸Ĭà¸ģ":10507,"ĠTs":10508,"Ġà¹Ģà¸Ĵ":10509,"Ġà¹Ħà¸Ļà¸¥":10510,"ĠPat":10511,"à¸²à¸¢à¸ļà¸£":10512,"Ġer":10513,"ĠPE":10514,"Ġintern":10515,"à¸Ńà¸Ļà¸Īà¸³":10516,"Ġà¹ģà¸Ļà¸§à¸ķ":10517,"à¸Ķà¸ģà¸¥":10518,"Ġà¹ĳà¹ĺ":10519,"Â¹":10520,"Ġà¸ªà¸¡à¸«à¸§":10521,"uta":10522,"ĠâĹı":10523,"à¸ŀà¸ļà¸ģ":10524,"Ġà¸Ńà¸²à¸«à¸²à¸£à¸ģà¸²à¸£à¸ģ":10525,"Ġà¸£à¸Ńà¸¢à¸Ĥ":10526,"Ġass":10527,"Ġà¹Ģà¹Ģà¸Ļ":10528,"à¸²à¸ĩà¹ĥà¸«à¸į":10529,"Ġà¸£à¸³à¸Ħà¸²à¸į":10530,"à¸ķà¸ĭà¸Ńà¸¥":10531,"val":10532,"Ġà¸ķà¸ķ":10533,"brid":10534,"à¸ľà¸²":10535,"ĠSO":10536,"gin":10537,"à¸Ķà¸¨":10538,"Ġà¹ģà¸¡à¸Ļà¸¯à¸¢":10539,"ĠLet":10540,"Ġ107":10541,"à¸ļà¸£à¸£à¸¢à¸²à¸¢":10542,"ĠLo":10543,"ĠMid":10544,"Ġà¹ģà¸Ńà¸Ļà¸Ķà¸£à¸Ńà¸¢à¸Ķ":10545,"Ġà¸ĺà¸²à¸£à¸²":10546,"Ġà¸Ħà¸³à¸ģà¸¥":10547,"à¸§à¸Ļà¸Ńà¸Ļ":10548,"Ġà¸¥à¸Ńà¸¢à¸ģà¸£à¸°à¸Ĺà¸ĩ":10549,"à¸ĩà¹Ĥà¸¥à¸ģ":10550,"ika":10551,"Ġà¹Ħà¸ŀà¹Ģà¸£à¸²à¸°":10552,"à¸£à¸²à¸¨à¸²à¸ªà¸ķà¸£":10553,"anner":10554,"à¸Ńà¸ģà¹Ħà¸¡":10555,"999":10556,"Ġà¸Ķà¸§à¸ĩà¸Ķà¸²à¸§":10557,"ĠAnim":10558,"à¸³à¸£à¸ĩ":10559,"èµ":10560,"à¸²à¹Ģà¸ģ":10561,"PC":10562,"à¸²à¸¢à¸ģà¸£":10563,"Ġà¸²à¸Ĺ":10564,"à¹Ħà¸ķà¸£à¸Ľ":10565,"ĠðŁĶ":10566,"Ġà¸¢à¸¥":10567,"à¸ĩà¸Īà¸Ńà¸ģ":10568,"Ġà¹Ĥà¸¨":10569,"à¸§à¸¢à¸Ĭ":10570,"à¸Ļà¸ģà¸£à¸Ķ":10571,"Ġpyat":10572,"Ġà¸ªà¸§à¸²à¸Ĺ":10573,"à¸ģà¹Ħà¸Ĺà¸¢":10574,"à¸ªà¸Ĺ":10575,"Ġà¸ķà¸Ńà¸Ļà¹Ģà¸«à¸Ļ":10576,"Ġà¹Ģà¸Ĺà¸Ńà¸¡":10577,"Ġà¸Ĺà¸£à¸£":10578,"Ġà¹Ģà¸¡à¸£":10579,"ĠÎ":10580,"à¸³à¸ķà¸²à¸¥à¸Ĺà¸£à¸²à¸¢":10581,"à¸Ľà¸«à¸¥":10582,"ĠSolution":10583,"ico":10584,"ĠEuro":10585,"Ġes":10586,"Ġgoo":10587,"ashi":10588,"Ġà¸µà¹Ī":10589,"ĠHDMI":10590,"Ġà¹Ĥà¸ªà¸ł":10591,"à¸Ńà¸ķà¸²":10592,"Ġà¸Ľà¸¥à¸²à¸Ķ":10593,"à¹ģà¸ĸà¸¥à¸ĩ":10594,"Ġà¸ģà¸²à¸£à¸Ńà¸Ńà¸ģ":10595,"Ġà¸®à¸Ńà¸ģ":10596,"Ġà¸ģà¸²à¸£à¸Ķà¸³à¸£à¸ĩà¸Ĭ":10597,"ĠFour":10598,"ĠGarden":10599,"à¹Ĥà¸ķà¸£à¹Ģà¸Īà¸Ļ":10600,"Ġà¸Ħà¸§à¸²à¸¡à¹Ģà¸Ĺ":10601,"Ġà¹Ģà¸Ńà¸ģà¸¡":10602,"à¸ĸà¸ĩ":10603,"TO":10604,"à¸£à¸²à¸Ĭà¸į":10605,"Øª":10606,"ĠWat":10607,"Ġà¸£à¸ĸà¹Ħà¸Łà¹ĥà¸ķ":10608,"Ġà¸ªà¸Ļà¸²à¸¡à¸ģà¸Ńà¸¥":10609,"à¸ļà¹ģà¸Ħ":10610,"Ġà¹Ĥà¸¢à¸ĺà¸²":10611,"à¸Ħà¸Ħà¸¥à¸łà¸²à¸¢à¸Ļà¸Ńà¸ģ":10612,"ren":10613,"Ġ)\"":10614,"ĠSuzuki":10615,"ATE":10616,"ĠXperia":10617,"à¸Ļà¸Ńà¸²à¸«à¸²à¸£":10618,"ract":10619,"à¸¢à¸Ķà¸ª":10620,"Ġà¹Ģà¸Ľà¸²à¹Ĥà¸¥":10621,"Ġà¸Ħà¸ĩà¹Ģà¸«à¸¥":10622,"ĠStick":10623,"à¹Ģà¸ģà¸ķà¸ļà¸Ńà¸¥":10624,"hum":10625,"Ġ850":10626,"Ġà¸¢à¸Ļà¸£":10627,"à¹Ĥà¸ļà¹Ħà¸®à¹Ģà¸Ķà¸£à¸ķ":10628,"ĠBrown":10629,"ms":10630,"estaur":10631,"Ġà¸¢à¸ģà¸Ĥ":10632,"02":10633,"Ġà¹Ģà¸®à¸¥":10634,"à¸ģà¸Ļà¸²à¸¢à¸ģà¸£":10635,"à¸ķà¸£à¸Ĭà¸²à¸¢":10636,"Ġà¸ļà¸²à¸ªà¹Ģà¸ģà¸ķà¸ļà¸Ńà¸¥":10637,"Ġà¸ķà¸²à¸¡à¸Ħà¸³à¸ª":10638,"irc":10639,"ĠProtect":10640,"Ġjpg":10641,"à¸²à¸¢à¹Ĥà¸Ńà¸Ļ":10642,"Ġà¸Ħà¸Ļà¹Ģà¸¡":10643,"Ġà¸Ĺà¸²à¸ĩà¸ľ":10644,"Ġrec":10645,"Ġà¸ķà¸²à¸Ĭ":10646,"à¸Ļà¸Ĥà¸Ńà¸ĩ":10647,"Thai":10648,"Ġà¸ķà¸£à¸ĩà¹Ģà¸§à¸¥à¸²":10649,"ĠNizh":10650,"à¸¡à¹Ħà¸Ľà¸«à¸¡à¸Ķ":10651,"à¸ªà¸Ļà¸²à¸¡":10652,"Ġà¸ļà¸£à¸£à¹Ģà¸¥à¸ĩ":10653,"ĠME":10654,"Ġà¹Ĥà¸«à¸£à¸²à¸¨à¸²à¸ªà¸ķà¸£":10655,"à¸Ńà¸ĩà¹ĥà¸Ī":10656,"à¸ĩà¸¢à¸²à¸ĩà¸Ńà¸Ļà¸²à¸¡":10657,"Ġà¸ĩà¸²à¸Ļà¸Ŀ":10658,"ĠChina":10659,"Ġfood":10660,"Ġà¸Ĭà¸ĩà¸ģà¸²à¹ģà¸Ł":10661,"ĠÐº":10662,"à¸£à¸²à¸¢à¸¥à¸°à¹Ģà¸Ń":10663,"à¸ģà¹ģà¸ķ":10664,"à¸§à¸Ļà¹ģà¸ķ":10665,"ĠJe":10666,"Ġà¸ģà¸°à¸«à¸¥":10667,"à¸¢à¸¡à¹Ģà¸¢":10668,"ayer":10669,"Ġà¹Ĥà¸īà¸Ļà¸Ķ":10670,"Ġà¸ªà¹ģà¸Ľ":10671,"ĠForum":10672,"Ġsur":10673,"Ġà¸ŀà¸¤à¸ģà¸©à¸²":10674,"ĠLen":10675,"Ġà¸¥à¸ķ":10676,"ĠÂĶ":10677,"IZ":10678,"Ġà¹Ĥà¸Ńà¹Ģà¸ŀ":10679,"Ġà¹Ģà¸ģà¸²à¸°à¸ķ":10680,"Ġoffice":10681,"Ġprotect":10682,"ĠStory":10683,"à¸ģà¸Ĺà¸²à¸ĩ":10684,"Ġà¸Ľà¸Ĭ":10685,"à¸²à¹ģà¸Ľà¸¥à¸ģà¹ĥà¸Ī":10686,"ĠAtt":10687,"Ġà¸¡à¸°à¸¥à¸°":10688,"Ġà¸ķà¸²à¸¡à¹ģà¸ķ":10689,"ĠCoun":10690,"ĠMount":10691,"ĠDark":10692,"Ġà¸Ħà¸Ńà¹Ģà¸¥à¸ªà¹Ģà¸ķà¸Ńà¸£à¸Ńà¸¥":10693,"ĠChrome":10694,"Ġà¸Ħà¸§à¸²à¸¡à¸Ħà¸¥":10695,"umn":10696,"à¹Ĥà¸Ļà¹Ģà¸ªà¸²à¸£":10697,"Ġà¸ĭà¸²à¸¡":10698,"à¸¡à¸¢à¸³":10699,"ĠAf":10700,"Ġà¸Ĭà¸²à¸§à¸ŀ":10701,"Ġà¸Ľà¸¥à¸Ķà¸Ľà¸¥":10702,"ĠTokyo":10703,"Ġstore":10704,"set":10705,"Ġà¸ŀà¸²à¸«à¸°":10706,"ĠCover":10707,"eck":10708,"Ġà¹Ĥà¸£à¹Ģà¸ļ":10709,"Ġà¸ĺà¸²":10710,"change":10711,"Ġ260":10712,"Ġà¹Ħà¸Ķà¹Ĥà¸Ļà¹Ģà¸ªà¸²à¸£":10713,"ĠDream":10714,"ĠFut":10715,"à¸Ķà¹Ħà¸Ķ":10716,"Ġà¸ģà¸£à¸°à¸ĭ":10717,"Ġà¸Ħà¸ĩà¸Ĺà¸Ļ":10718,"ĠSecurity":10719,"Ġà¸ģà¸£à¸°à¸ªà¸Ńà¸ļ":10720,"onn":10721,"à¸²à¸¢à¸ª":10722,"à¸Ńà¸ĸà¸Ńà¸Ļ":10723,"ĠDragon":10724,"ĠCoffee":10725,"ĠEntertain":10726,"peed":10727,"à¸¢à¸«à¸¥":10728,"otton":10729,"Ġà¹Ģà¸ªà¸Ļà¸²":10730,"Ġif":10731,"Ġà¸£à¸ĸà¹ģà¸Ĺ":10732,"à¸ģà¸¡à¸§à¸¢":10733,"Ġà¸ķà¸ģà¸£à¸Ńà¸ļ":10734,"ci":10735,"ĠEnd":10736,"à¸©à¸°":10737,"Ġà¸£à¸§à¸¡à¸ģà¸¥":10738,"à¸¡à¸ªà¸§à¸¢":10739,"amaha":10740,"ĠEst":10741,"à¸Ķà¸Ĺà¸²à¸ĩ":10742,"Ġà¹Ģà¸£à¸ķà¸ķ":10743,"à¹Ģà¸Ńà¸²à¹ĥà¸Ī":10744,"à¹Ħà¸Ļ":10745,"Ġà¹Ģà¸ģà¸ªà¸£":10746,"à¹Īà¸¸":10747,"Ġà¸£à¸°à¸¢à¸°à¹ģà¸£à¸ģ":10748,"à¸³à¹Ģà¸Ľà¸¥":10749,"Ġà¸Ļà¸¡à¸ªà¸Ķ":10750,"Ġà¹Ĥà¸ģà¸¨":10751,"à¸ĵà¸«à¸²":10752,"à¸ŀà¸¢à¸²à¸ĺ":10753,"ĠModern":10754,"ĠMel":10755,"Ġà¸ªà¸ĸà¸²à¸Ļà¸łà¸²à¸ŀ":10756,"Ġ-----":10757,"Ġà¹ģà¸Łà¸Ļà¸ķ":10758,"Ġà¸ŀà¸§à¸ĩà¸ģ":10759,"à¸¡à¸Ľà¸Ĺà¸²à¸Ļ":10760,"Ġà¸Ħà¸Ńà¸Ļà¹Ĥà¸Ĺà¸£à¸¥":10761,"Ġà¸Ńà¸²à¸«à¸²à¸£à¹Ģà¸¢":10762,"à¸ĩà¸ľà¸¥à¹ĥà¸«":10763,"aid":10764,"Ġà¹Ģà¸ªà¸²à¸°":10765,"à¸§à¸¢à¸ĩà¸²à¸Ļà¸£à¸²à¸Ĭà¸ģà¸²à¸£":10766,"Ġà¸ĸà¸§à¸²à¸¢à¸ŀà¸£à¸°à¸ŀà¸£":10767,"ĠTB":10768,"ĠShopping":10769,"Ġaut":10770,"back":10771,"ĠLow":10772,"ĠTS":10773,"Ġà¹Ĵà¹ĵ":10774,"yth":10775,"ÙĬ":10776,"à¹Ģà¸£à¸ķà¸ª":10777,"Ġà¸ģà¸£à¸²à¸¢":10778,"Ġà¹Ĥà¸Ľà¸£à¹Ħà¸Łà¸¥":10779,"IX":10780,"à¸Ħà¸§à¸²à¸¡à¸Ķ":10781,"Ġà¸Ħà¸§à¸²à¸¡à¸ªà¸²à¸¡":10782,"Ġà¸ģà¸Ļà¸ģ":10783,"ĠNon":10784,"Ġà¹Ģà¸Ļà¸Ľ":10785,"à¹Ĥà¸Ļà¹Ĥà¸¥à¸¢":10786,"ĠCategory":10787,"à¸©à¸¢à¸¨à¸²à¸ªà¸ķà¸£":10788,"wood":10789,"à¸¢à¸§à¹ģà¸«":10790,"Ġà¸¡à¸²à¸¨":10791,"ĠCEO":10792,"Ġ</":10793,"Ġacc":10794,"ĠGlass":10795,"Ġà¸§à¸§à¸§":10796,"Ġ2544":10797,"anger":10798,"Ġà¹Ģà¸Īà¸ķ":10799,"ĠTOYOTA":10800,"ĠConc":10801,"ĠFamily":10802,"Ġdata":10803,"à¸ģà¸²à¸£à¸¡à¸«à¸²à¸Ĭà¸Ļ":10804,"Ġà¸ķà¸Ńà¸ļà¹Ĥà¸ķ":10805,"à¸ģà¸Ķà¸Ļà¸ķà¸£":10806,"ĠNav":10807,"à¸Ļà¸§à¸²à¸ĩ":10808,"Ġà¸Ĥà¸Ńà¸ĩà¸Ľà¸¥à¸Ńà¸¡":10809,"ajor":10810,"Ġà¸ģà¸²à¸£à¸£à¸°à¸Ħà¸²à¸¢à¹Ģà¸Ħ":10811,"à¸Ļà¹Ģà¸ľà¸²":10812,"à¸¡à¸ķà¸³":10813,"à¸Ĺà¸ĺà¸Ńà¸ĩà¸Ħ":10814,"Ġà¹Ģà¸ģà¸Ļ":10815,"à¸Ļà¸¥à¸ĩ":10816,"ĠKom":10817,"Ġà¹ģà¸§à¸Ļ":10818,"Ġ106":10819,"oundation":10820,"Ġà¸Ľà¸§à¸Ķà¸«à¸¥":10821,"à¹Ħà¸ĸ":10822,"ĠASD":10823,"à¸ĩà¹Ħà¸Ĥ":10824,"ĠMazda":10825,"ĠPermalink":10826,"Ġyears":10827,"Ġà¸¡à¸Ļà¸ķà¸£":10828,"Ġà¸ķà¸£à¸§à¸Īà¸Ķ":10829,"Ġà¸¤à¸©":10830,"Ġà¹ĥà¸ļà¸ŀ":10831,"à¸ļà¸²à¸ª":10832,"ĠSea":10833,"à¸²à¸Ľà¸£":10834,"worms":10835,"à¸²à¸Ħà¸£à¸Ńà¸ļ":10836,"Ġà¹Ħà¸®à¸ļà¸£":10837,"Ġsch":10838,"ĠNine":10839,"Ġà¹Ģà¸§à¸Ĺà¸Ļà¸²":10840,"Ġà¹ģà¸Łà¸Ļà¸ĭ":10841,"Ġà¸«à¸§à¸²à¸¢":10842,"Ġà¹ĵà¹Ĳ":10843,"ĠMagic":10844,"Ġà¸Ĭà¸¢":10845,"åĪ":10846,"Ġà¸Ĭà¸°à¸ķà¸²":10847,"ĠMatt":10848,"ĠDi":10849,"à¸Ńà¸¢à¹Ħà¸Ľ":10850,"à¸¢à¸ģà¸¢":10851,"),":10852,"Ġ2500":10853,"Ġà¸£à¸²à¸ķà¸£":10854,"Ġà¸ģà¸İà¸ģà¸£à¸°à¸Ĺà¸£à¸§à¸ĩ":10855,"à¸²à¸Ńà¸ļ":10856,"ĠUr":10857,"à¸ľà¸¥à¸ļ":10858,"ĠâĢ¦âĢĿ":10859,"Ġà¸¥à¸²à¸¢à¹Ģà¸ª":10860,"ellow":10861,"à¸Ńà¸¡à¸ªà¸łà¸²à¸ŀ":10862,"dy":10863,"Ġà¸ªà¸²à¸Ľ":10864,"Ġts":10865,"ptember":10866,"Ġà¸Ķà¸²à¸Ķà¸Ł":10867,"Ġmed":10868,"Ġfont":10869,"ipp":10870,"rypt":10871,"à¸Ļà¸ŀà¸¥":10872,"à¸³à¹ģà¸«à¸Ļ":10873,"à¸¢à¸¡à¸ģ":10874,"ĠSteel":10875,"oro":10876,"Ġà¸ļà¸Ļà¸ª":10877,"Ġà¸Ħà¸ĵà¸°à¸ģà¸£à¸£à¸¡à¸²à¸ĺ":10878,"Ġà¸©à¸Ĳ":10879,"à¸ªà¸ķà¸Ī":10880,"ĠMah":10881,"Ġà¸¥à¸Ļ":10882,"Ġred":10883,"ĠLAN":10884,"Ġ2543":10885,"à¸ĩà¸£à¸ĸ":10886,"ety":10887,"à¸Ļà¹Ĥ":10888,"à¹Į.":10889,"à¹Ħà¸Ħà¸¥":10890,"Ġà¸ģà¸ŀ":10891,"à¸ļà¸Ħà¸§à¸²à¸¡":10892,"ĠGel":10893,"iamond":10894,"à¸£à¸Ĭ":10895,"à¸²à¸¢à¹Ģà¸Ĺ":10896,"Ġà¸¨à¸¨":10897,"========":10898,"ĠRom":10899,"à¸ļà¸Īà¸Ńà¸ĩ":10900,"ĠChrist":10901,"à¸Ľà¸Ń":10902,"à¸Ńà¸¡à¹ĥà¸ª":10903,"ECH":10904,"Ġà¸ķà¹Ģà¸¥":10905,"usic":10906,"Ġover":10907,"ĠCur":10908,"iron":10909,"Ġà¸ŀà¸£à¸°à¸ľ":10910,"Ġà¸Ńà¸Ńà¸Ķ":10911,"à¸²à¸Ļà¸«":10912,"ASS":10913,"à¸ĭà¸Ńà¸Łà¸Ĺ":10914,"Ġà¹Ģà¸ķà¸²à¸Ńà¸ļ":10915,"Ġ...........":10916,"Ġà¸ĩà¸ļà¸ģà¸²à¸£à¹Ģà¸ĩ":10917,"à¸Ļà¸Īà¸²":10918,"à¸ļà¸łà¸²à¸ŀ":10919,"à¸Ńà¸Ħà¸¥":10920,"Ġà¹Ģà¸Ĥà¸²à¸Ĺ":10921,"Ġà¸¢à¸Ńà¸¡à¹ģà¸ŀ":10922,"Ġà¹Ģà¸®à¸²à¸ª":10923,"à¸Ĺà¸£à¸£à¸¨à¸Ļ":10924,"Ġà¸Ħà¸§à¸²à¸¡à¹ĥà¸ª":10925,"vd":10926,"Ġà¹Ĥà¸ļà¸£à¸²à¸ĵà¸ªà¸ĸà¸²à¸Ļ":10927,"angu":10928,"ICE":10929,"Ġà¹Ħà¸ĭà¸Ļ":10930,"Ġà¹ģà¸Ļà¸°à¹ģà¸Ļà¸§":10931,"Ġà¸ĩà¸Ĺ":10932,"ĠMess":10933,"Ġà¸ģà¸Ĭ":10934,"à¸ŀà¹Ĥà¸«à¸¥à¸Ķ":10935,"nal":10936,"Ġà¸ªà¸§à¸¢à¸«à¸£":10937,"Ġcond":10938,"Ġà¸Ńà¸²à¸Ħà¸²à¸£à¸ªà¸³à¸Ļ":10939,"Ġà¹Ģà¸ĭà¸Ļà¹Ģà¸ĭà¸Ńà¸£":10940,"Ġoption":10941,"Ġà¸ģà¸²à¸įà¸Īà¸Ļà¸²à¸ł":10942,"Ġà¸Ńà¸Ńà¸ģà¸«":10943,"Ġà¹ģà¸£à¸ģà¹Ģà¸ģ":10944,"Ġà¸¥à¸°à¹Ģà¸¥à¸ĩ":10945,"à¸Ńà¸Ħà¸§à¸£":10946,"ĠKore":10947,"à¸ĩà¸ŀà¸¥à¸²à¸ªà¸ķ":10948,"ĠHeart":10949,"Ġ135":10950,"à¸Īà¸Īà¸°":10951,"Ġà¹Ģà¸ĭà¸¥à¸Ł":10952,"ĠNatural":10953,"Ġà¹Ģà¸¥à¸Ħ":10954,"Ġà¸§à¸Ńà¹Ģà¸ķà¸Ńà¸£":10955,"Ġmobile":10956,"à¸ĩà¸Ħà¸£à¸²à¸§":10957,"à¹Ģà¸§à¸¨à¸Ļ":10958,"Ġà¸Ĥà¸Ńà¹ģà¸ª":10959,"ĠSep":10960,"ĠTalk":10961,"à¸¡à¸²à¸Ĺ":10962,"Ġà¹Ģà¸ŀà¸£à¸ª":10963,"ĠGenting":10964,"ĠHerb":10965,"Ġà¸ĩà¸²à¸Ļà¹ģà¸ªà¸Ķà¸ĩ":10966,"ĠYear":10967,"à¸²à¸¢à¹ģà¸ļà¸ļ":10968,"Ġà¸Ĺà¸²à¸ĩà¸Ńà¸²à¸ģà¸²à¸¨":10969,"à¹Ĥà¸īà¸¡":10970,"ĠSand":10971,"Ġà¸ģà¸£à¸¡à¸ĺà¸£à¸£à¸¡":10972,"Ð¿":10973,"Ġà¸Ńà¸²à¸Ħà¸²à¸£à¹Ģà¸£":10974,"Ġ280":10975,"ople":10976,"Ġà¹ģà¸«à¸¢":10977,"à¸ģà¹Ģà¸ªà¸ģ":10978,"äºº":10979,"Ġà¸«à¸¡à¸²à¸Ľ":10980,"iri":10981,"Ġà¸«à¸¢à¸²à¸ĩ":10982,"à¸ģà¹ģà¸£":10983,"Ġà¸ªà¸²à¸ļ":10984,"Ġfe":10985,"Ġhere":10986,"à¸²à¸ľà¸¡":10987,"ĠOTOP":10988,"Ġà¸Ķà¸²à¸§à¹Ģà¸Ħà¸£à¸²à¸°à¸«":10989,"Ġà¸ļà¸²à¸ĩà¸Ľà¸°":10990,"Ġà¸¥à¹Ģà¸ĩ":10991,"Ġà¸ªà¸³à¹Ĥà¸£à¸ĩ":10992,"Ġà¸ģà¸¥à¸²à¸ĩà¹Ģà¸Ķ":10993,"ĠOper":10994,"à¸Ļà¸Ħà¸§à¸²à¸¡à¸ĸ":10995,"à¸²à¸ŀà¸ļ":10996,"ĠMemory":10997,"ocket":10998,"ĠpH":10999,"Ġkn":11000,"Ġà¸ĩà¸²à¸Ļà¸ļà¸£":11001,"Ġend":11002,"Ġà¸ģà¸²à¸£à¸ģà¸¥":11003,"ĠRub":11004,"Ġà¸Ħà¸²à¸§":11005,"Ġà¸Ĺà¸§à¸Ļ":11006,"Ġà¸Ĺà¸²à¸Ļà¸Ĥ":11007,"ERS":11008,"AF":11009,"ushki":11010,"à¸§à¹Ģà¸Ļ":11011,"ĠPhil":11012,"ĠBattery":11013,"à¹Ģà¸ĭà¸Ł":11014,"à¸Įà¸²à¸Ľà¸Ļà¸ģ":11015,"Ġà¸ľà¸¥à¸ģà¸²à¸£à¸§":11016,"à¸£à¸°à¸ļà¸²à¸¢à¸Ļ":11017,"chain":11018,"PE":11019,"à¸Ĭà¸³à¸Ļà¸²à¸į":11020,"ters":11021,"ĠðŁĮ":11022,"Ġà¸Ńà¸Ħ":11023,"à¸Ļà¸£à¸³":11024,"à¸ģà¸§à¸²à¸Ķ":11025,"Ġà¸«à¸¥à¸²à¸Ļà¸ªà¸²à¸§":11026,"intage":11027,"à¸²à¸ĩà¹Ģà¸Ķ":11028,"Ġà¹ĳà¹Ĺ":11029,"Ġà¹Ĥà¸«à¸¥":11030,"à¸Ļà¸ķà¸£à¸²":11031,"urrency":11032,"uang":11033,"ĠSex":11034,"Ġà¸Ľà¸£à¸°à¸«à¸²à¸£":11035,"à¸Īà¸Īà¸²à¸Ļ":11036,"à¸Ńà¸Ľà¹Ģà¸ķà¸Ńà¸£":11037,"ĠCAR":11038,"ostov":11039,"à¸ªà¸²à¸Ĥà¸²":11040,"Ġwr":11041,"ĠNizhny":11042,"Ġà¹Ĥà¸ŀà¸Ļ":11043,"HC":11044,"à¸²à¸§à¹Ħà¸Ĺà¸¢":11045,"Ġà¹Ĥà¸Łà¸¥à¹Ģà¸Ķà¸Ńà¸£":11046,"Ġà¹Ĥà¸Ľà¸£à¹Ģà¸Īà¸Ħà¹Ģà¸ķà¸Ńà¸£":11047,"Ġà¸Ľà¸Ńà¸ģ":11048,"Ġà¹Ģà¸¡à¸ĺ":11049,"Ġà¸¢à¸²à¸¡à¹Ģà¸Ĭ":11050,"Ġà¹Ĥà¸®à¸ªà¸ķ":11051,"ĠÐ´":11052,"à¸³à¸Ľà¸¥à¸²":11053,"iger":11054,"à¸¢à¸ĩà¸Ĭ":11055,"à¸²à¸«à¸¥à¸ĩ":11056,"Ġà¸ģà¸²à¸¢à¸łà¸²à¸ŀà¸ļà¸³à¸ļ":11057,"ĠSingle":11058,"à¸ĩà¸ķà¸²":11059,"ÐµÑĤ":11060,"ĠASEAN":11061,"Ġà¸ģà¸«":11062,"ours":11063,"Ġbest":11064,"Ġà¸Ħà¸¤à¸«":11065,"Ġà¸ģà¸²à¸£à¸Ńà¸¢":11066,"Ġà¸£à¸²à¸¢à¸¢":11067,"allery":11068,"à¸Ķà¹Ģà¸«à¸Ļ":11069,"Ġà¸Ļà¹Ĥà¸į":11070,"Ġà¸«à¸Ļà¸Ńà¸Ļà¸ŀà¸¢à¸²à¸ĺ":11071,"ycle":11072,"ĠWebsite":11073,"ĠOb":11074,"Ġà¸ŀà¸£à¸°à¸ļà¸£à¸¡à¸¨à¸ŀ":11075,"ollow":11076,"à¸¢à¸Ļà¸Ĭ":11077,"ĠLux":11078,"à¸¥à¸°à¸ļ":11079,"ĠWest":11080,"Ġstyle":11081,"ĠXiaomi":11082,"à¸¡à¸Ńà¸ĩ":11083,"Ġà¸¢à¸Ńà¸Ķà¹Ģà¸ĩ":11084,"Ġcode":11085,"ruct":11086,"Ġà¸Ńà¸Ńà¸ģà¸ķ":11087,"à¸ŀà¸Īà¸Ļ":11088,"Ġà¸Īà¸£à¸§à¸Ķ":11089,"Ġà¸Ĥà¸Ļà¸¡à¸Ī":11090,"à¹Ħà¸ģà¹Ĥà¸Ķ":11091,"ĠSpring":11092,"Ġled":11093,"à¸Ļà¸Ĺà¸²à¸ĩà¸Ľ":11094,"Ġà¸ŀà¸ª":11095,"Ġà¸¡à¸ª":11096,"Ġbut":11097,"Ġreg":11098,"à¸²à¸ĩà¸¡":11099,"UK":11100,"ĠDead":11101,"à¸ģà¸ĺà¸£à¸£à¸¡":11102,"à¸§à¸ŀ":11103,"à¸¢à¸Ľà¸£à¸°à¸ģ":11104,"à¹Ħà¸Ľà¸ķà¸£à¸ĩ":11105,"à¹Ħà¸Ľà¸ķà¸£à¸ĩà¸¡à¸²":11106,"Ġà¸Ļà¸²à¸ıà¸¨":11107,"à¸įà¸Ĭà¸Ļ":11108,"ĠâľĶ":11109,"ĠEntertainment":11110,"ĠCollege":11111,"Posted":11112,"Ġà¸Ĥà¸§à¸²à¸¡":11113,"Ġà¸®à¸Ńà¸ģà¹Ħà¸ģà¹Ĥà¸Ķ":11114,"Ġà¸Ķà¸³à¸£à¸ĩà¸Ńà¸¢":11115,"à¸Ľà¸ª":11116,"Ġà¸ģà¸²à¸£à¸Ħà¸²à¸Ķ":11117,"ĠCafe":11118,"uj":11119,"ista":11120,"à¸Ļà¸Ĭà¸Ļ":11121,"Ġà¸¡à¸°à¸¥":11122,"DS":11123,"à¸²à¸ĩà¹Ģà¸Ľà¸¥":11124,"Ġà¹Ģà¸¡à¸Ħà¸Ń":11125,"BL":11126,"ç½":11127,"Ġà¹Ĥà¸ľ":11128,"ĠRC":11129,"à¸ģà¸Ĥà¸²":11130,"ĠScreen":11131,"01":11132,"Ġà¹ģà¸ļà¸ļà¸īà¸ļ":11133,"ĠInnov":11134,"Ĥ¬":11135,"Ġà¹ģà¸Ħà¸£à¸Ńà¸Ĺ":11136,"à¹Ģà¸Ńà¸Ńà¸£":11137,"Ġà¸ªà¸²à¸¡à¸ª":11138,"ĠMart":11139,"à¸Ķà¸Īà¸³à¸ģ":11140,"Ġwifi":11141,"à¸Ķà¸ĩà¸Ħ":11142,"ky":11143,"master":11144,"Ġà¸Ħà¸¥à¸²à¸§à¸Ķ":11145,"ĠDIY":11146,"Ġà¸Ĥà¸Ļà¸²à¸Ķà¸¢":11147,"Ġà¹ģà¸Łà¸Ļà¸ķà¸²à¸ĭ":11148,"à¸¢à¸ĩà¸£à¸ļà¸ģà¸§à¸Ļ":11149,"Ġwebsite":11150,"Ġ2002":11151,"à¹Ĩà¹Ĩà¹Ĩà¹Ĩ":11152,"Ġ----":11153,"fort":11154,"................................":11155,"pha":11156,"PN":11157,"ĠRam":11158,"ĠInformation":11159,"à¸Ĥà¸¥":11160,"Ġ);":11161,"ased":11162,"AX":11163,"ĠVer":11164,"duction":11165,"à¸Ħà¸Ńà¸¡à¸ŀ":11166,"à¸ĩà¹ģà¸¢à¸ģ":11167,"Ġà¸Ħà¸§à¸²à¸¡à¸ŀà¸Ńà¹ĥà¸Ī":11168,"à¸ģà¸«à¸Ļà¸²":11169,"Ġtoy":11170,"ĠBoy":11171,"ĠEM":11172,"à¸²à¸ĩà¸Ħà¸²à¸§":11173,"à¸Ńà¹ģà¸£":11174,"à¸Ńà¸²à¸ģà¸£":11175,"Ġà¸Ħà¸§à¸²à¸¡à¸ªà¸Ķà¸Ĭ":11176,"à¸ļà¸ģà¸²à¸£à¸¢à¸ģà¸¢":11177,"à¸Īà¸¨à¸ŀ":11178,"Ġà¸ĩà¸²à¸Ļà¸Įà¸²à¸Ľà¸Ļà¸ģ":11179,"Ġà¹Ĥà¸¢à¸¡":11180,"Ġ2020":11181,"ĠiPod":11182,"iki":11183,"à¹Ĥà¸ĭà¸¥":11184,"à¹Ĥà¸ķà¸£à¹Ģà¸¥":11185,"pan":11186,"Ġà¸ªà¹Ģà¸ķà¸Ļà¹Ģà¸¥à¸ª":11187,"Thailand":11188,"Ġà¸ªà¹ģà¸ģ":11189,"à¸Ńà¸Ļà¹Ģà¸§à¸¥à¸²":11190,"à¸§à¸Ńà¸²à¸Ħà¸²à¸£":11191,"à¸Ļà¹ģà¸£à¸ģ":11192,"à¸Ħà¸ĩ":11193,"ission":11194,"ISS":11195,"Ġot":11196,"ĠAre":11197,"ĠJYK":11198,"Ġà¸¢à¸¢":11199,"ONG":11200,"à¸ĩà¸ģà¸£à¸°à¸Ļ":11201,"SD":11202,"ĠWifi":11203,"à¸¡à¸«à¸Ļ":11204,"Ġà¸¥à¸²à¸¢à¹Ģà¸ĭ":11205,"Ġà¸ģà¸²à¸£à¸Ľà¸¥":11206,"à¹Ģà¸Ĺà¸Ħà¹Ĥà¸Ļà¹Ĥà¸¥à¸¢":11207,"Ġext":11208,"à¸¢à¹ģà¸ķ":11209,"Ġà¸ªà¸³à¸¥":11210,"onder":11211,"Ġmil":11212,"ploy":11213,"ronic":11214,"ĠRostov":11215,"à¸Ľà¸£à¸°à¸Ľà¸²":11216,"à¸Ĭà¸Ļà¸²":11217,"Ġà¹Ħà¸¡à¹Ĥà¸Ħà¸£à¸ĭà¸Ńà¸Łà¸Ĺ":11218,"ument":11219,"ĠTrade":11220,"ĠClassic":11221,"ĠVDO":11222,"VER":11223,"Ġà¸²à¸ª":11224,"den":11225,"ĠReserv":11226,"ĠOfficial":11227,"ĠBay":11228,"ĠMachine":11229,"Ġstr":11230,"Ġà¹Ĥà¸Ķà¸£à¸Ļ":11231,"à¸Ļà¸ķà¸°":11232,"Ġtitle":11233,"ĠFact":11234,"à¸ļà¸¢à¸ģ":11235,"à¸²à¸Ļà¸¨":11236,"Ġà¹Ħà¸Ĥà¸§":11237,"ension":11238,"Ġà¸ľà¸¥à¸Ľà¸£à¸°à¸ģà¸Ńà¸ļà¸ģà¸²à¸£":11239,"Ġà¸Ńà¸³à¸Ļà¸²à¸Īà¸«à¸Ļ":11240,"à¸«à¸¥à¸²à¸ģ":11241,"ĠEy":11242,"Ġpal":11243,"Ġmarket":11244,"Ġà¹ģà¸Ľà¸¥à¸Ļ":11245,"Ġà¹Ĥà¸ªà¸ķ":11246,"Ġfile":11247,"Ġà¸ķà¸£à¸ĩà¹Ħà¸Ľà¸ķà¸£à¸ĩà¸¡à¸²":11248,"Ġxnxx":11249,"ivo":11250,"perty":11251,"à¸łà¸²à¸§à¸Ķ":11252,"Ġ158":11253,"Ġ>>>":11254,"Ġà¸£à¸Ľà¸ł":11255,"à¸Ļà¸Ļà¸²":11256,"Ġà¹Ĥà¸Ħà¸§à¸ķà¸²":11257,"à¸ĩà¸ģà¸§à¸²":11258,"ĠPRO":11259,"Ġ001":11260,"à¸Ńà¸¢à¸Ĥ":11261,"ĠGod":11262,"Ġà¹Ĥà¸¡à¸Ļà¸²":11263,"Ġà¸Ĺà¸²à¸ĩà¸ģà¸²à¸¢à¸łà¸²à¸ŀ":11264,"à¸Ńà¸Ļà¹Ģà¸ŀà¸¥":11265,"à¸Ńà¸Ńà¸ģà¹Ħà¸ĭà¸Ķ":11266,"gy":11267,"Ġà¸®à¸²à¸Ļ":11268,"zi":11269,"Ġà¸Ľà¸Ńà¸ĩ":11270,"Ġà¸¨à¸Ńà¸ģ":11271,"asc":11272,"Ġà¸Ĥà¸¢à¸²à¸¢à¸ľà¸¥":11273,"Ġà¸Ķà¸²à¸£à¸²à¸¨à¸²à¸ªà¸ķà¸£":11274,"à¸ĩà¹ģà¸ªà¸ĩ":11275,"à¸¢à¸ĩà¹Ģà¸Ķ":11276,"Ġà¹ģà¸ķà¸ĩà¸ģà¸§à¸²":11277,"à¸£à¸°à¸ļà¸²à¸Ķ":11278,"Ġà¸Ħà¸Ļà¸į":11279,"à¸Ńà¸«à¸¥":11280,"à¸®à¸²":11281,"ĠPress":11282,"ĠId":11283,"à¸Ńà¸ĩà¹ģà¸ģ":11284,"Ġtrack":11285,"åį":11286,"Ġ1800":11287,"ĠMak":11288,"ĠEth":11289,"urs":11290,"à¸°à¸¥":11291,"Ġà¸«à¸°":11292,"roph":11293,"à¸ĩà¸ªà¸¡à¸²à¸ĺ":11294,"Ġà¸ķà¸ĩ":11295,"à¹ģà¸ľà¸Ļà¹Ĥà¸ļà¸£à¸²à¸ĵ":11296,"à¸ĩà¸ļà¸Ńà¸ģà¸ĸ":11297,"Ġà¹ģà¸¡à¸ģ":11298,"stal":11299,"Ġlike":11300,"Ġà¹Ĥà¸£à¸ĩà¸«à¸Ļ":11301,"Ġà¸Ľà¸£à¸°à¸Īà¸³à¸ķ":11302,"à¹Ĥà¸®à¸§à¸²à¸«":11303,"ĠSat":11304,"Ġà¹ĥà¸Īà¸Ħà¸§à¸²à¸¡":11305,"Ġinfo":11306,"à¹Ħà¸ĭà¹Ģà¸Ħ":11307,"ĠParty":11308,"à¸Ļà¸Ŀà¸Ļ":11309,"ĠFund":11310,"anced":11311,"Ġà¸ļà¸Ĺà¸ª":11312,"à¼":11313,"ĠDem":11314,"Ġlo":11315,"à¸ķà¸Ī":11316,"ĠAccount":11317,"Ġà¸īà¸ģ":11318,"Ġà¹Ĥà¸¢à¸ģà¸¢":11319,"à¸Ļà¸£à¸¡à¸¢":11320,"Ġà¸Ļà¸§à¸Ļ":11321,"à¹ģà¸ªà¸Ķ":11322,"ĠPlayer":11323,"ĠMarch":11324,"à¸Ńà¸Ńà¸ª":11325,"à¸Ļà¸Ńà¸¡":11326,"Ġà¹Ģà¸¢à¹Ĥà¸®à¸§à¸²à¸«":11327,"à¹Ĥà¸«à¸¥":11328,"Ġà¸Ńà¸Ńà¸ģà¸¥":11329,"ĠZen":11330,"Ġà¸Ħà¸¥à¸²à¸Ķ":11331,"eve":11332,"ĠFL":11333,"Ġà¸ļà¸Ī":11334,"à¸¢à¸ģà¸Ħ":11335,"à¸Ńà¸¡à¹ĥà¸Ī":11336,"azine":11337,"ĠFB":11338,"Ġà¸Ľà¸£à¸°à¸Īà¸³à¸ģà¸²à¸£":11339,"AZ":11340,"Ġà¹Ģà¸Ńà¸²à¹Ģà¸£":11341,"ĠÑĸ":11342,"à¸²à¸Ļà¸²à¸Ħ":11343,"à¸²à¸¢à¸ķà¸£à¸ĩà¸Ĥ":11344,"ÑģÐº":11345,"Ġà¸Ĺà¸£à¸§à¸ĩà¸Ńà¸ģ":11346,"Ġà¸Ħà¸§à¸²à¸¡à¹Ĥ":11347,"Ġdirect":11348,"Ġà¸ªà¸łà¸²à¸ģ":11349,"Ġà¹ģà¸¢à¸ģà¸ģ":11350,"Ġà¸¥à¸§à¸ģ":11351,"Ġà¸ªà¸łà¸²à¸ŀà¸£":11352,"Ġà¸ªà¸¡à¸Ń":11353,"ĠMass":11354,"ĠKnow":11355,"à¹Ħà¸¢":11356,"ĠStartup":11357,"ĠCommunity":11358,"Ġà¸Ĺà¸£à¸£à¸¨à¸Ļà¸°":11359,"Ġà¸¨à¸²à¸¥à¸Ľà¸ģà¸Ħà¸£à¸Ńà¸ĩ":11360,"à¸¡à¸Ľà¸£":11361,"à¸ķà¸Īà¸£":11362,"Ġà¸ªà¸ĩà¸ļà¸ª":11363,"ĠInstit":11364,"ĠProfessional":11365,"Ġà¸ŀà¸įà¸²à¸Ļà¸²à¸Ħ":11366,"Ġà¸ŀà¸²à¸¥":11367,"Ġ777":11368,"Ġà¸ĩà¸²à¸Ļà¸«à¸Ļ":11369,"bar":11370,"à¸¡à¸¥à¸¡":11371,"à¸Ļà¸ªà¸²à¸Ķ":11372,"à¸ķà¸«":11373,"Ġà¸Ľà¸¥à¸ĩ":11374,"IKE":11375,"ĠMIN":11376,"à¸Ķà¸ŀà¸£":11377,"à¸Ļà¸Ħà¸§à¸²à¸¡à¸¥":11378,"Ġà¹Ģà¸Ĭà¸¥à¸¥":11379,"Ġà¹Ģà¸ľà¸²à¹Ħà¸«à¸¡":11380,"à¹Ģà¸ļà¸¨à¸£":11381,"ĠSupport":11382,"à¸ģà¹ĥà¸«à¸į":11383,"ĠJR":11384,"anda":11385,"à¸Ńà¸ĩà¹Ģà¸Ĺà¸¨":11386,"inic":11387,"à¸Ķà¸¡à¸ģà¸²à¸£à¸ĵ":11388,"Ġà¸ģà¸³à¹Ħà¸¥":11389,"iva":11390,"Ġà¹ģà¸ļà¸ļà¸Īà¸³à¸¥à¸Ńà¸ĩ":11391,"ĠâĨĳ":11392,"à¸Ńà¸ļà¸ģà¸ŀà¸£":11393,"ĠSeptember":11394,"Ġà¸Ħà¸£à¸Ńà¸ļà¸ĩà¸³":11395,"ĠConnect":11396,"ĠTwo":11397,"ĠEvent":11398,"estaurant":11399,"Ġà¸Ħà¸³à¹Ģà¸ķ":11400,"ergy":11401,"Ġà¸Ĥà¸Ńà¸ĩà¸ģà¸¥à¸²à¸ĩ":11402,"ources":11403,"Ġ003":11404,"ĠHTC":11405,"Ġà¸¨à¸²à¸¥à¸İ":11406,"à¹Ģà¸ĺà¸Ń":11407,"ĠNET":11408,
[...]
