#version: 0.2
Ġà ¸
à ¹
¸ ²
à ¸²
Ġà ¹
¸ Ļ
à ¸Ļ
à¸² à
à¸²à ¸
à¹ Ī
Ģ à
Ģà ¸
à¹ ī
¸ Ń
à ¸Ń
¸ ±
à ¸±
¸ £
à ¸£
¸ ĩ
à ¸ĩ
¸ µ
à ¸µ
Ġà¹ Ģà¸
ģ à
ģà ¸
¸ ´
à ¸´
¸ ¡
à ¸¡
¸ ¢
à ¸¢
¸ Ķ
à ¸Ķ
¸ §
à ¸§
¸ °
à ¸°
¸ ģ
à ¸ģ
¸ ļ
à ¸ļ
Ġà¸ Ĺ
¸ ¥
à ¸¥
à¹ Ģà¸
Ġà¸ ģ
Ġà¸ ª
Ġà¹ ģà¸
¸ ·
à ¸·
à¸²à¸ £
¸ ¸
à ¸¸
à¸µ à¹Ī
Ġà¸ Ħ
Ġà¹ Ħ
à¸Ń à¸ĩ
à¹ ĩ
Ġà¸ Ń
à ¸
à¸ ¹
à¸ «
Ġà¸ ¡
à¹ Į
Ġà¹ ĥ
à¸ ķ
Ġà¸ £
à¸ ³
Ġà¸ ķ
Ġà¸ Ī
Ġà¸ Ĥ
à¸ ª
Ġà¸ Ļ
Ġà¸ «
à¸ Ĺ
à¸ Ħ
à¸² à¸Ļ
à¸ Ľ
à¸²à¸ ĩ
à¸²à¸ ¢
Ġà¸ Ľ
à¸ Ī
Ġà¹ Ĥ
à¸²à¸ ¡
à¸ ģà¸
Ġà¸ ŀ
Ġà¹ģà¸ ¥
à¸£ à¸°
Ġà¸ §
Ġà¸ģ à¸²à¸£
Ġà¸ Ķ
à¸ ¶
Ġà¸ ļ
à¸· à¹Ī
à¸²à¸ ģ
à¸ Ĭ
Ġà¹Ģà¸ Ľ
Ġà¹ĥ à¸Ļ
Ġà¹ģà¸¥ à¸°
Ġ Ċ
Ġà¸ Ĭ
Ġà¸ ¥
à¸Ń à¸Ļ
à¸± à¹ī
Ġà¸ ľ
Ġà¸Ĥ à¸Ńà¸ĩ
à¹ Ħ
Ġà¹Ħ à¸Ķ
à¸ ĵ
Ġà¸ ¢
à¸ ŀ
à¹ ĥ
à¹ ģà¸
Ġà¹ĥ à¸«
Ġ ,
Ġà¹Ģà¸ ŀ
Ġà¸ ģà¸
Ġà¹Ħ à¸¡
à¸ ĸ
Ġà¹Ģà¸ £
à¸ģ à¸²à¸£
à¸§ à¸²à¸¡
à¸§ à¸¢
à¸µ à¹ī
Ġ 2
Ġ 1
à¸¹ à¹ī
à¹ Ĥ
à¸ į
Ġà¸Ī à¸°
Ġà¸Ń à¸¢
Ġà¸ ĸ
à¸²à¸ §
Ġà¸ ĭ
Ġà¹Ģà¸ ¥
à¸ Ĥ
Ġà¸Ľ à¸£à¸°
Ġà¸Ħ à¸§à¸²à¸¡
à¸ ¨
à¸ ĺ
à¸Ń à¸ģ
Ġà¸« à¸Ļ
Ġà¸Ĺ à¸³
à¸Ń à¸¢
à¸´ à¹Ī
à¸¹ à¹Ī
â Ģ
Ġà¹Ģà¸ Ĥ
Ġà¹Ħ à¸Ľ
à¸Ń à¸ļ
à¸Ń à¸¡
à¸£ à¸£
Ġ .
à¸¢ à¸Ļ
à¸ ł
à¸£ à¸ĩ
Ġ (
Ġ âĢ
à¸± à¹Ī
à¸§ à¸Ļ
Ġà¹Ģà¸ Ķ
Ġà¸« à¸¥
Ġ )
Ġ -
à¸Ń à¸Ķ
Ġà¸Ħ à¸£
à¸· à¹ī
Ġà¹ģà¸ ķ
Ġà¹Ģà¸ «
Ġà¹Ģà¸ ģ
à¸²à¸ Ħ
Ġà¸ģà¸ ¥
Ġà¹Ģà¸ ¡
Ġà¹Ģà¸ ª
à¸Ļ à¸Ĺ
Ġà¸¡ à¸²
Ġà¸Ī à¸²à¸ģ
Ġà¹Ĥ à¸Ķ
à¸Ń à¸£
à¸¶ à¹Ī
Ġà¸ ł
à¸« à¸Ļ
à¸ĩ à¸²à¸Ļ
à¸£ à¸²à¸
à¹Ģà¸ Ĺ
Ġà¸« à¸£
Ġà¹ ģ
à¹ĥ à¸«
Ġà¹ Ĩ
à¸¢ à¸§
Ġà¹ĥ à¸Ĭ
à¸ ©
à¸¸ à¹Ī
à¸ģà¸ ©
à¸Ĺ à¸¢
Ġà¹Ĥà¸Ķ à¸¢
à¸ķ à¸£
à¸²à¸ Ķ
Ġà¹Ģà¸ Ħ
Ġà¸ ĩ
Ġà¸£ à¸°
Ģ à¸Ļ
Ġà¸ª à¸³
à¸²à¸ ª
à¹Ģà¸ ¥
Ġà¹Ģà¸£ à¸²
Ġà¹Ģà¸ Ń
à¹Ģà¸ £
à¸²à¸ ŀ
à¸ Ł
Ġ %
Ġà¸Ħ à¸Ļ
e r
Ġ 3
i n
à¹ĥ à¸Ī
à¸¢ à¸ĩ
Ġà¹Ģà¸ Ĭ
0 0
à¸ ľ
Ġ S
Ġà¹Ģà¸ Ĺ
à¸Ħ à¸£
à¸¶ à¹ī
à¸§ à¸¡
à¸Ľ à¸£à¸°
à¸²à¸ Ĺ
à¸« à¸£
Ġà¹Ģà¸ §
à¸£à¸£ à¸¡
à¸²à¸ «
ļ à¸ļ
Ġà¸ Ł
Ġ B
Ġ :
Ġà¸ª à¸²à¸¡
Ġà¸ ¨
à¸ ĭ
à¸§ à¸ĩ
à¹ Ĩ
à¸²à¸ ķ
à¸²à¸£ à¸ĸ
Ġà¸ģ à¸£à¸°
a n
o n
à¹Ģà¸ ģ
Ġ 0
Ġà¸ļ à¸£
Ġà¸ª à¸¡
à¸ģà¸© à¸²
à¸Ī à¸°
à¹Ģà¸ Ľ
Ġà¸Ĺ à¸²à¸ĩ
Ġ C
Ġà¹Ģà¸ Ī
Ġà¸ªà¸²à¸¡ à¸²à¸£à¸ĸ
à¸²à¸ Ī
Ġ A
à¸²à¸ ¥
à¹Ģà¸ Ķ
a r
Ġà¸ªà¸³ à¸«à¸£
à¸¥ à¸²
à¸ģ à¸£
à¸²à¸ Ĭ
à¹Ħ à¸Ľ
Ġà¸ŀ à¸£à¸°
à¸ĩ à¸Ħ
à¸ģà¸ ¥
à¸ł à¸²à¸ŀ
Ġ /
Ġ 4
Ġ T
o r
Ġ 8
à¹Ģà¸ ķ
à¸²à¸ ģà¸
Ġ P
Ġà¸« à¸¡
Ġà¹Ĥ à¸£
Ġ 5
Ġà¸ ĺ
Ġà¸ŀ à¸£
à¸Ķ à¹Ģà¸
à¹ Ĭ
à¸£à¸²à¸ °
Ġà¹Ģà¸ ķ
Ġà¸ľ à¸¥
Ġà¹Ģà¸Ħ à¸£
à¹ ģ
Ġà¹ Ģà¸Ļ
Ġ M
à¹Ģà¸ Ń
Ġ E
Ġà¹ģà¸ ļà¸ļ
Ġà¸¡ à¸²à¸ģ
Ġà¹Ģà¸¥ à¸¢
à¸ Ĳ
Ġà¸Ľ à¸£
à¸« à¸§
. .
Ġà¸Ī à¸³
Ġà¸ģ à¸£
à¹Ģà¸ ª
Ġ2 5
à¸´ à¹ī
e n
à¸¢ à¸¡
a l
à¸Ń à¸ģà¸
Ġà¹ģà¸ ¡
à¹Ģà¸Ĺ à¸¨
à¸²à¸Ħ à¸²
à¸§ à¸ģ
à¸²à¸ °
à¹Ģà¸ §
Ġà¹Ħ à¸Ĺà¸¢
à¸Ľ à¸£
à¸Ń à¸¥
a t
Ġà¹Ģà¸ ģà¸
à¸ļ à¸£
à¸Ļ à¸Ļ
Ġà¹Ĥà¸£ à¸Ħ
Ġà¹ģà¸ «
Ġà¸ĩ à¸²à¸Ļ
à¸£ à¸ģ
Ġà¸ Ŀ
Ġà¹Ģà¸ŀ à¸£à¸²à¸°
Ġ "
à¸¡ à¸²
e s
Ġà¸ķ à¸²à¸¡
à¸« à¸¥
à¹Ħ à¸Ķ
Ġà¹ģ à¸Ļ
à¸« à¸¡
à¹Ģà¸ ¡
Ġà¸Ĺà¸³ à¹ĥà¸«
à¹Ģà¸ «
à¹ Ģà¸Ļ
à¸²à¸ ¨
ĠâĢ ľ
Ġà¹Ģà¸ ¢
Ġà¸ģà¸ §
Ġà¸ģà¸ ³
à¸« à¸²
Ġà¸£ à¸²à¸¢
Ġà¸£ à¸ĸ
Ġà¸ľ à¸¡
à¸ª à¸°
Ġ2 0
Ġà¸£ à¸²à¸Ħà¸²
Ġà¹Ĥ à¸£à¸ĩ
à¸Ļ à¸ķ
ĠâĢ Ŀ
à¸Ħ à¸§à¸²à¸¡
Ġà¸Ħ à¸¥
i t
Ġ 6
à¸ĵ à¸°
à¹Ģà¸ Ĥ
Ġà¸ ī
à¸ĩ à¸ª
Ġ G
à¸Ĺ à¸ĺ
à¸Ļ à¸²
à¸ª à¸¡
Ġà¹Ģà¸Ĥ à¸²
à¸¥ à¸ĩ
Ġà¸¥ à¸ĩ
Ġ c
Ġà¸Ļ à¸³
à¹Ħ à¸£
Ġà¹ģà¸ ģ
à¸ģà¸ Ħ
Ġà¸Ń à¸Ńà¸ģ
Ġà¸Ĥ à¸Ļ
à¸ģ à¸£à¸£à¸¡
l e
à¸²à¸« à¸²à¸£
o m
Ġ L
Ġà¹Ĥ à¸Ħ
à¸Ļ à¸Ķ
Ġà¹Ģà¸ ļ
Ġà¸ª à¸£
Ġ D
Ġà¹Ģà¸ ĩ
Ġ 9
i c
à¸§ à¸£
Ġà¹Ģà¸« à¸¡
à¹ģà¸ ķ
Ġ t
à¸Ļ à¸Ħ
à¹Ģà¸ Ĭ
Ġà¸ª à¸ĸ
à¸£ à¸¡
Ġ F
à¸¥ à¸°
Ġà¸ª à¸Ļ
à¹Ģà¸ Ħ
Ġà¸£à¸° à¸ļ
Ġà¸Ń à¸²à¸Ī
à¸¥ à¸Ļ
à¸ Ĵ
à¸²à¸ ĵ
à¸Ķà¹Ģà¸ ĩ
Ġà¸¡ à¸²à¸ģà¸
à¸Ķ à¸ķ
Ġà¹Ħ à¸§
Ġà¹Ģà¸ ĭ
Ġ s
Ġà¹ĥà¸« à¸¡
à¸Ńà¸Ļ à¹Ħ
Ġ H
Ġà¹Ģà¸ģà¸ ¡
à¸¡ à¸ŀ
à¸ªà¸° à¹Ģà¸ģ
à¹Ħ à¸¡
i s
Ġà¹Ĥà¸£à¸Ħ à¸ªà¸°à¹Ģà¸ģ
Ġà¸Ľ à¸¥
Ġà¹ģà¸ Ĺ
Ġ R
à¸Ĭ à¸Ļ
à¸²à¸ ļ
Ġà¸£ à¸§à¸¡
Ġà¸ļ à¸Ļ
à¹ĥ à¸Ļ
à¸¸ à¹ī
Ġ 7
à¸¥ à¸ģ
à¹Ģà¸ Ī
à¸Ļ à¸ĺ
Ġà¸ļ à¸²à¸ĩ
Ġà¸Ĥ à¸²à¸¢
à¹ģà¸ ¥
Ġ p
à¸ľ à¸¥
Ġ20 1
Ġà¸«à¸¥ à¸²à¸¢
à¸ģà¸ §
à¸¢ à¸ļ
à¸²à¸ģ à¸²à¸£
Ġà¹Ĥ à¸Ľà¸£
Ġà¹ Į
Ġà¸Ħ à¸³
Ġà¸Ń à¸°
Ġà¹ģà¸ ª
à¸ģà¸ ķ
r o
Ġà¸ŀ à¸¥
Ġà¸Ī à¸Ļ
à¹ĥ à¸Ĭ
à¸Ńà¸Ļà¹Ħ à¸¥à¸Ļ
Ġà¸Ń à¸Ńà¸Ļà¹Ħà¸¥à¸Ļ
Ġà¸ķ à¸Ńà¸Ļ
r e
Ġà¸Ľà¸£à¸° à¹Ģà¸Ĺà¸¨
Ġà¸Ľà¸£à¸° à¸ģ
à¸Ĺ à¸£
à¸§ à¸Ī
à¸ĩ à¸Ļ
Ġà¹Ģà¸« à¸¥
a s
à¸§ à¸Ķ
à¹ģà¸ ģ
Ġ I
à¹Ģà¸Ń à¸ĩ
Ġà¸ķ à¸¥
à¸Ń à¸ª
à¹ ĭ
à¹Ĥ à¸Ļ
à¸ģà¸ ª
à¸²à¸Ħ à¸¡
Ġà¸Ĥà¸Ļ à¸²à¸Ķ
a m
a c
à¸ ĳ
à¹Ģà¸ ļ
Ġà¸£à¸°à¸ļ à¸ļ
in g
Ġ1 0
à¹Ģà¸ķ à¸Ńà¸£
Ġà¸ª à¸°
Ġà¸Ĥ à¸Ń
Ġà¸ķ à¸£
Ġà¸ł à¸²à¸ŀ
Ġà¸ ®
i l
Ġà¸Ķ à¸³
Ġ N
Ġà¸ł à¸²à¸¢
à¸Ī à¸³
Ġà¸Ń à¸²à¸«à¸²à¸£
e l
e t
à¹ģà¸ ļà¸ļ
Ġà¸Ń à¸Ńà¸ģà¸
à¸¢à¸§ à¸ģ
Ġà¸Ļ à¸°
Ġà¸ªà¸ĸ à¸²à¸Ļ
Ġà¹ģà¸ Ħ
Ġ #
Ġ W
à¸Ī à¸²à¸ģ
à¸ĩ à¸Ĥ
Ġà¹Ģà¸Ń à¸²
o l
à¸Ķ à¸ª
Ġà¸ŀ à¸§à¸ģ
Ġà¹ģà¸ ļ
Ġà¸ļ à¸²à¸Ĺ
à¹ĥà¸« à¸į
à¸Ļ à¸¢
à¸ ı
Ġà¸Ńà¸° à¹Ħà¸£
à¸ģ à¸²à¸¢
à¹Ĥ à¸¡
à¸Ħ à¸¥
à¸Ńà¸ĩ à¸ģà¸²à¸£
à¸²à¸ ©
Ġà¹Ģà¸§ à¸¥à¸²
Ġ |
à¸ĩ à¸«à¸§
Ġà¸Ī à¸£
u s
à¸Ļà¸Ĺ à¸²à¸ĩ
à¸« à¸²à¸£
Ġà¹ģà¸ ŀ
à¹Ģà¸§ à¸¥à¸²
à¸Ĭ à¸²à¸ķ
Ġà¸Ļ à¸²à¸¢
Ġà¸¥ à¸°
à¸į à¸į
Ġ. ..
i on
à¸ĵ à¸ĳ
Ġ m
Ġ !
à¸Ļ à¸ª
à¸Ķ à¸ĩ
à¸¢ à¸Ķ
à¸²à¸ĩ à¹Ĩ
à¸Ĺ à¸³
à¸¡ à¸²à¸ĵ
Ġà¸Ńà¸¢ à¸²à¸ģ
à¸Ļ à¹ĥà¸Ī
Ġà¸ª à¸§à¸¢
à¸Ĵ à¸Ļà¸²
Ġà¹ģà¸ ľ
à¹Ģà¸ ŀ
à¹Ģà¸ ¨
à¹Ģà¸ ĭ
à¸Ļ à¸Ń
à¸Ļ à¸³
à¸²à¸ ĺ
Ġà¸¥ à¸Ķ
Ġà¹Ĥà¸Ħ à¸£à¸ĩ
a d
à¹Ģà¸ ĩ
Ġà¸£à¸° à¸Ķ
Ġ b
Ġà¸« à¸²à¸ģ
Ġà¹Ģà¸Ľ à¸¥
à¸Ļ à¸§à¸Ļ
Ġà¹ģà¸ Ł
Ġà¸Ń à¸£
à¸Ī à¸£
Ġà¸Ľà¸£ à¸ª
o t
Ġà¸ŀ à¸ļ
Ġ ĉ
e d
Ġà¸Ĭ à¸Ļ
Ġà¹ģà¸ Ĥ
Ġà¸ª à¸²à¸¢
Ġà¸ļ à¸Ńà¸¥
Ġà¸ķ à¸³
Ġ O
Ġ U
Ġà¸Ħà¸§à¸²à¸¡ à¸ª
Ġà¹ĥà¸« à¸į
Ġà¸ģà¸³ à¸¥
Ġà¹ĥ à¸ª
Ī à¸²à¸ģ
à¹Ģà¸ ł
- -
Ġà¸¢ à¸²
h e
à¹ģà¸ Ĥ
a g
Ġà¸« à¸²
Ġ25 6
à¸Ļ à¸ģà¸²à¸£
Ġà¹Ħ à¸¥
Ġà¹Ħ à¸Ł
Ġà¹ĥ à¸Ħà¸£
à¹Ĥ à¸¥
Ġà¸Īà¸³ à¸Ļà¸§à¸Ļ
à¸ģ à¸ĩà¸²à¸Ļ
à¸²à¸ Ń
à¸¢ à¸£
Ġà¸Ħ à¸§à¸£
Ġà¸Ħà¸§à¸²à¸¡ à¸£
an d
Ġ w
o u
à¸į à¸«à¸²
à¸ŀ à¸¢
Ġà¸£ à¸Ńà¸ĩ
Ġà¸ ĵ
à¸²à¸ Ĥ
à¸¢ à¸°
Ġà¹Ģà¸ ĺ
à¸£à¸²à¸ Ĭ
Ġà¹ģà¸ Ľ
à¸¢à¸Ļ à¸ķ
Ġà¸ į
Ġà¸Ľà¸£à¸° à¸ª
Ġ25 5
à¸Ľà¸£à¸° à¹Ģà¸Ĺà¸¨
à¸²à¸ª à¸ķà¸£
à¹Ģà¸Ĥ à¸²
Ġ K
Ġà¹Ģà¸ĺ à¸Ń
Ġà¸ŀ à¸Ń
i d
Ġà¸Ĭ à¸²à¸§
à¸´ à¹Į
Ġ h
Ġà¸¡ à¸«
Ġ f
à¸ģà¸²à¸£ à¸ĵ
à¸Ļ à¹Ģà¸¥
00 0
à¸ģà¸ Ķ
Ġà¹ĥ à¸ļ
à¸Ļ à¹Ħà¸Ľ
à¹ģà¸ «
Ġà¸Ł à¸£
en t
Ġà¸ª à¸²à¸§
à¸ ¤
Ġà¸ļ à¸£à¸£
Ġà¹Ģà¸Ħ à¸¢
à¸Ĺ à¸²à¸ĩ
à¸ª à¸³
à¸Ī à¸Ī
à¸¢ à¸ģ
Ġ V
Ġ1 2
Ġà¸ģà¸²à¸£ à¸£
à¸Ħ à¸Ļ
Ġà¸Ľà¸£à¸° à¸Ĭ
à¹ģà¸ Ĺ
à¹Ģà¸ ģà¸
à¹Ħ à¸ĭ
à¸ ī
Ġ d
Ġà¸ŀ à¸Ļ
à¸ģà¸ Ĺ
Ġà¸£à¸° à¸«à¸§
Ġà¸ķà¸£ à¸§à¸Ī
Ġà¸ķ à¸£à¸ĩ
à¸ģ à¸£à¸°
Ġà¸łà¸²à¸¢ à¹ĥà¸Ļ
Ġà¹Ģà¸Ń à¸ĩ
à¸²à¸ģ à¸²à¸¨
o o
à¹Ģà¸¨ à¸©
ĠâĢ ĵ
à¸¢ à¸²à¸¢
Ġà¸ĺ à¸£à¸£à¸¡
à¸ģà¸£ à¸ĵ
Ġà¹Ĥ à¸ķ
Ġà¸ª à¸²à¸£
à¸³ à¸Ļ
à¸¥ à¸²à¸¢
à¸ŀ à¸²à¸°
ī à¸ŀà¸²à¸°
Ġà¹Ģà¸ª à¸£
Ġà¹Ĥ à¸¥à¸ģ
à¸«à¸¡ à¸Ķ
à¸Ļ à¸Ńà¸Ļ
à¹Ģà¸ ¢
c h
Ġà¹ģ à¸£à¸ģ
à¸ķ à¸²à¸¡
à¸ ®
à¹ģ à¸£à¸¡
Ġà¸ł à¸²à¸©
o s
Ġà¸ł à¸²à¸Ħ
Ġà¹ģà¸Ļ à¸§
à¸ŀ à¸£
à¸ĩ à¸¡
à¸ĩ à¹ģà¸ķ
Ġà¹Ĥà¸£à¸ĩ à¹Ģà¸£
à¸Ļà¸Ĺ à¸£
Ġà¸ķà¸¥ à¸Ńà¸Ķ
à¹ģà¸ ª
Ġà¸ģ à¸²
Ġà¸Ń à¸Ļ
Ġà¹Ĥà¸£à¸ĩ à¹ģà¸£à¸¡
à¸²à¸ķ à¸£
à¸«à¸¡ à¸²à¸¢
i g
u n
a y
à¸¡ à¸²à¸ģ
Ġà¸Ľ à¸ı
Ġà¸ ¯
Ġà¸¢ à¸Ńà¸Ķ
Ġà¸£ à¸²à¸Ĭ
à¹Ħ à¸Ł
à¸§ à¹Ģà¸Ńà¸ĩ
Ġà¸ ²
à¸Ń à¸°
Ġ1 5
i a
à¸²à¸Ħ à¸²à¸£
à¸ļ à¸²à¸¢
à¹Ĥ à¸¢
Ġà¸Ħ à¸ĵà¸°
à¹ĥà¸« à¸¡
Ġà¸Ļ à¸Ńà¸ģà¸
Ġ x
à¸ģ à¸²
Ġà¸Ń à¸ĩà¸Ħ
Ġà¸Ĺ à¸£
à¸²à¸¡ à¸²
Ġ n
o p
¡ à¸²
Ġà¸Ńà¸Ńà¸ģà¸ ¡à¸²
h a
à¸Ĳ à¸²à¸Ļ
Ġà¸¡ à¸Ńà¸ĩ
i v
Ġà¹Ĥ à¸Ń
à¸²à¸¢ à¸Ļ
à¸ĩ à¸«à¸¡à¸Ķ
Ġà¸£ à¸Ńà¸ļ
Ġà¹Ĥà¸Ħà¸£à¸ĩ à¸ģà¸²à¸£
Ġà¸Ħ à¸ĩ
Ġà¹Ģà¸«à¸¡ à¸²à¸°
Ġà¸«à¸Ļ à¸Ńà¸Ļ
Ġà¹ĥ à¸ģà¸¥
Ġ1 1
à¸° à¸Ļà¸³
à¸ĵ à¸łà¸²à¸ŀ
Ġà¸Ļà¸Ńà¸ģà¸ Īà¸²à¸ģ
Ġà¸£à¸° à¸¢à¸°
Ġà¸Ļ à¸²à¸Ļ
à¸ª à¸Ļ
à¸ķ à¸ł
Ġc om
Ġà¸Ħ à¸§
Ġà¹Ħà¸¥ à¸Ħ
Ġà¸Ĥ à¸Ńà¸Ķ
Ġ v
Ġà¹ģà¸ Ī
t er
Ġà¹ģ à¸£à¸ĩ
à¹Ģà¸« à¸¥
à¸Ī à¸ģà¸£à¸£à¸¡
Ġ l
à¹ģ à¸£à¸ĩ
Ġà¸Ń à¸²à¸ģà¸²à¸£
Ġà¸ŀà¸§à¸ģ à¹Ģà¸Ĥà¸²
Ġà¸§ à¸ĩ
à¸Ńà¸ģ à¸²à¸ª
à¸° à¹Ģà¸¥
à¸Ļ à¸ķà¸£
o w
Ġà¸Ľà¸£à¸° à¸¡à¸²à¸ĵ
à¸Ńà¸ĩ à¹Ģà¸Ĺ
à¸Ķ à¸¥
Ġà¹ģà¸ª à¸Ķà¸ĩ
Ġà¹Ħ à¸Ń
Ġà¸Ńà¸²à¸Ī à¸Īà¸°
Ġ [
Ġà¸ªà¸³ à¸Ħ
à¹ģà¸ Ķ
à¸²à¸Ĭ à¸Ļ
Ġ ]
à¸ª à¸£
à¸Ń à¸§
Ġ1 6
à¸Ļ à¸ģ
à¹ģà¸ ŀ
Ġà¸Ķà¸³ à¹Ģà¸Ļ
Ġà¸Ĺ à¸Ńà¸ĩ
Ġà¹Ģà¸ ľ
à¸Ń à¸ķ
à¹Ĥ à¸Ķ
Ġà¸Ĭ à¸Ńà¸ļ
à¸Ļ à¹Ģà¸Ńà¸ĩ
Ġà¸Ķ à¸²à¸§
à¸«à¸Ļ à¸Ķ
à¸Ń à¹ĥà¸«
Ġà¸Ĭ à¸¡
Ġà¸ģà¸¥ à¸²à¸ģ
Ġà¸ģ à¸Ńà¸ĩ
Ġà¹Ħ à¸«à¸Ļ
à¸Ľà¸£à¸° à¸ģ
u r
Ġà¸ģà¸²à¸£ à¸ŀ
à¸£à¸²à¸ ļ
à¸ģà¸Ħ à¸£
à¸ª à¸Ķ
Ġà¸ªà¸³ à¸Ļ
à¸Ķ à¸Ĥ
Ġà¹ģà¸Ł à¸Ļ
à¸ĵ à¸²
Ġ J
a p
Ġà¸ģà¸¥ à¸²à¸ĩ
à¹Ĥ à¸£
Ġà¸Ħ à¸²
Ġà¸§ à¸²à¸ĩ
Ġà¸¥ à¸³
à¸²à¸ĩ à¸ģà¸²à¸¢
Ġà¸ª à¸Ńà¸ĩ
à¸£à¸£ à¸Ħ
Ġà¸ª à¸ķ
à¸Ļ à¹Ĩ
¡ à¸²à¸¢
Ġà¸¡à¸²à¸ģà¸ ¡à¸²à¸¢
à¸Ĺà¸¢ à¸²à¸¥
à¸ ¯
Ġà¸ļ à¸Ńà¸ģ
à¹Ħ à¸Ĺà¸¢
Ġà¸Ľà¸£à¸°à¸ģ à¸Ńà¸ļ
Ġ g
Ġ1 8
in e
Ġà¹ģà¸ ĸ
o f
à¸¡ à¸ķ
Ġ256 1
à¸Ķ à¸ģà¸²à¸£
à¹Ĥ à¸Ń
Ġà¸ķ à¸ģ
à¸Ń à¹Ħà¸Ľ
ar d
à¸Ńà¸ĩ à¸ģ
à¸Ĭ à¸²
u m
à¸¢ à¸²
à¸ķ à¸¥
Ġà¸Ħ à¸Ńà¸Ļ
u t
Ġà¸ķ à¸Ńà¸ļ
Ġà¸Ĺ à¸£à¸ĩ
à¸ Ŀ
à¸ĺ à¸²à¸Ļ
à¹ģà¸ ¡
Ġà¸ŀ à¸¤
à¸ĺ à¸£à¸£à¸¡
à¸Ń à¸²à¸«à¸²à¸£
Ġ201 8
à¸Ľ à¸ģà¸£à¸ĵ
à¸ķ à¸§
Ġà¹Ģà¸« à¸ķ
à¸ļ à¸Ħ
Ġà¸«à¸¡ à¸²à¸¢
ģà¸ §
i r
Ġà¸¥ à¸Ńà¸ĩ
Ġ1 9
Ġà¸« à¸¢
à¸¨ à¸²à¸ªà¸ķà¸£
Ġà¸Ļ à¸²
Ġà¹Ĥ à¸Ĺà¸£
Ġà¸ķà¸¥ à¸²à¸Ķ
à¹Ģà¸Ľ à¸¥
i m
Ġà¸Ľà¸£à¸°à¸ģ à¸²à¸¨
à¸² à¹Ħà¸Ľ
Ġà¹ģ à¸Ń
à¸²à¸ĩ à¸§
Ĳ à¸²à¸Ļ
Ġà¸Ľà¸£à¸° à¸Īà¸³
à¸Ĺà¸³ à¸ĩà¸²à¸Ļ
Ġà¹ĥ à¸Ķ
Ġà¸Ĺà¸³ à¸ĩà¸²à¸Ļ
Ġà¹Ģà¸ Ł
à¸Ķ à¸²
à¸© à¸¢
Ġà¸¡à¸²à¸ģà¸ ģà¸§
à¸Ľà¸£à¸° à¸ª
Ġà¹ģà¸ Ķ
Ġà¸ģà¸²à¸£ à¸¨
Ġà¸ªà¸ĸà¸²à¸Ļ à¸Ĺ
Ġà¸ª à¸Ńà¸ļ
à¸ª à¸ķ
Ġà¸ļ à¸Ĺ
c t
à¹Ħà¸ĭ à¸ķ
Ġà¹Ģà¸Ĺ à¸Ħ
Ġà¹ģà¸Ļ à¸°à¸Ļà¸³
Ġà¸Ħà¸£ à¸Ńà¸ļ
Ġà¸¢ à¸²à¸§
Ġà¸ķ à¸°
Ġà¹Ĥ à¸¥
à¸įà¸į à¸²
à¸ĩ à¸Īà¸²à¸ģ
à¸ļ à¹Ħà¸ĭà¸ķ
à¸ĩ à¸ģà¸
Ġà¸£ à¸²
Ġà¸¡ à¸²à¸ķà¸£
à¸Ķ à¸Ĺ
Ġ2 4
Ġà¹Ĥ à¸Ĭ
Ġà¹ģà¸ Ĭ
i p
à¹Ĥà¸¢ à¸Ĭà¸Ļ
Ġ +
à¹Ģà¸ł à¸Ĺ
à¸Ļ à¸§
e m
Ġ3 0
à¹Ģà¸ª à¸£
à¸ĩ à¸²à¸¡
à¹Ģà¸« à¸ķ
Ġà¹Ģà¸Ĥ à¸ķ
Ġà¹ĥ à¸Ī
Ġà¸Ń à¸²
Ġà¸Ń à¸²à¸¢
Ġà¸Ľà¸£à¸°à¸ª à¸ļ
à¸Ńà¸ĩ à¸Īà¸²à¸ģ
à¹ģà¸ģ à¸£à¸¡
à¸ķ à¸²
Ġà¹Ģà¸ŀ à¸¥à¸ĩ
à¸ĩ à¹Ģà¸Ĺ
Ġà¸Ľà¸£à¸° à¹Ģà¸łà¸Ĺ
Ġà¸Ń à¸²à¸£
Ġà¸Ĥ à¸ĵà¸°
¤ à¸©
Ġà¸ģà¸³ à¸«à¸Ļà¸Ķ
à¹Ģà¸§ à¸ĵ
Ġà¹Ĥ à¸Ľ
à¸ķ à¸¢
à¸ŀ à¸¥
Ġà¹Ĥ à¸ĭ
à¸²à¸Ī à¸²à¸ģ
Ġà¸Ĥ à¸²
à¸²à¸ģ à¸£
à¸§ à¸«à¸Ļ
Ġ1 3
Ġà¸Īà¸³ à¸ģ
Ġà¹Ħ à¸Ĥ
o v
Ġà¸ķ à¸²
à¸¡ à¸Ĥ
Ġà¸¡ à¸Ļ
Ġà¹Ĥà¸Ľà¸£ à¹ģà¸ģà¸£à¸¡
à¸¡ à¹Ģà¸ķ
Ġà¸Ļ à¸²à¸ĩ
Ġà¸ķà¸Ńà¸Ļ à¸Ļ
Ġà¹Ĥ à¸ļ
Ġà¹Ģà¸Ĺà¸Ħ à¹Ĥà¸Ļ
Ġà¹Ħ à¸£
u b
Ġ ?
à¸§ à¹Ħà¸Ľ
à¸£ à¸©
Ġà¸Ĭ à¸²à¸¢
à¸Ĺ à¸²à¸Ļ
à¸¥à¸° à¹Ģà¸Ń
à¸²à¸ į
à¸Ľ à¹ģà¸ļà¸ļ
à¹Ĥà¸¥ à¸¢
à¸ļ à¸²à¸¥
Ġà¸Ħ à¸²à¸ª
à¸²à¸ Ľ
à¸³ à¸£
Ġ. .
Ġà¸ª à¸§
à¸ ¬
à¸²à¸ ĸ
Ġà¹ģà¸Ĺ à¸ĩ
Ġà¹Ģà¸ģà¸¡ à¸ª
ĠS t
à¹Ĥ à¸ķ
Ġà¸ĸ à¸Ļà¸Ļ
Ġà¹Ĥ à¸¡
Ġà¹Ģà¸Ĺà¸Ħà¹Ĥà¸Ļ à¹Ĥà¸¥à¸¢
Ġ in
ĠâĢ ¦
Ġ1 4
a k
à¸ģà¸¥ à¸²à¸ĩ
ï ¿
ï¿ ½
à¹Ĥ à¸¥à¸ģ
Ġà¸Ĥ à¸²à¸§
à¸² à¹ĥà¸Ī
Ġà¸¡ à¸²à¸Īà¸²à¸ģ
Ġà¸ ¤
à¸ĩ à¹Ĩ
at ion
Ġà¸¡ à¸°
Ġà¸£à¸²à¸¢ à¸¥à¸°à¹Ģà¸Ń
Ġà¸Ńà¸Ńà¸ģ à¹ģà¸ļà¸ļ
à¸ĩ à¸ģ
à¸ Ĩ
à¸ĩà¸Ħ à¸¡
à¸¥ à¸Ķ
o g
Ġ1 00
Ġà¸« à¸§
à¸ķ à¸ļ
Ġà¸ªà¸° à¸Ķ
Ġà¸ģà¸²à¸£ à¹ģà¸Ĥ
à¸Ń à¸ĸ
Ġà¸¡à¸²à¸ģà¸ Ĥ
Ġà¸¡à¸« à¸²à¸§
à¸¥ à¸Ľ
à¸ĩà¸ģà¸ ¤à¸©
e b
à¸ĩà¹Ģà¸Ĺ à¸ŀ
à¸ģà¸ ĭ
à¸« à¸¢
à¸ģ à¹Ģà¸£
ĠI n
Ġà¸Ľ à¸£à¸²à¸
à¸£ à¸ĵ
Ġà¸«à¸¡ à¸Ķ
Ġà¸Ĭ à¸²à¸ķ
à¸ĩ à¸ģà¸¥
à¸Ĥ à¸łà¸²à¸ŀ
à¸²à¸« à¸Ļ
Ġà¸£ à¸Ń
u l
à¸Ħ à¸Ħà¸¥
Ġt h
à¹ĥ à¸ķ
Ġà¸Ħà¸§à¸²à¸¡ à¸Ħ
à¸§à¸¡ à¸ģ
Ġà¸ªà¸¡ à¸²à¸Ĭ
es s
Ġà¸£à¸²à¸¢ à¸ģà¸²à¸£
à¸Ńà¸Ķ à¸ł
à¹ģà¸ Ľ
à¹ģà¸Ĺ à¸Ļ
à¸§ à¸¥
Ġà¹Ģà¸ķ à¸£
Ġà¹Ĥ à¸ģ
à¸ģ à¸²à¸¥
Ġà¸Ħà¸£ à¸ļ
Ġà¸Ń à¸³
à¸Ļ à¸Ĭ
Ġà¸ļ à¸²
Ġ a
à¹Ģà¸Ħ à¸£
à¸¡ à¸Ń
Ġà¹ģà¸ ¢
à¸²à¸Ļ à¸¡à¸²
à¹ģà¸« à¸Ļ
à¹Ħ à¸Ĥ
-- --
Ġà¸ŀ à¸²
à¸ģà¸© à¸ĵà¸°
Ġà¸ŀ à¸¢
à¸£à¸²à¸° à¸«
Ġ i
à¸ĩ à¸ķ
à¸Ĭ à¸²à¸¢
à¸ĩ à¸Ĺ
Ġà¸Ħ à¸Ńà¸¡
Ġà¸Ļ à¸²à¸Ĺ
Ġ1 7
à¸ª à¸²à¸£
Ġà¸Ľà¸£à¸° à¸ķ
à¸ģà¸Ħ à¸Ļ
à¸¡ à¸Ľ
à¸ģà¸ Ľ
à¸Ļ à¹Ģà¸Ķ
à¸Ń à¹Ħà¸¡
Ġà¸¨ à¸£
à¸ª à¸Ńà¸ļ
Ġà¹ģà¸« à¸¥
o d
à¸³ à¸¡
Ġà¸¢ à¸ģ
à¸Ľ à¸¥
à¹Ģà¸ł à¸Ń
Ġà¸ªà¸Ļ à¹ĥà¸Ī
à¸ļ à¸¥
Ġà¸ģà¸£à¸° à¸Ķ
Ġ >
Ġà¹Ĥ à¸ŀ
Ġà¸ª à¸Ķ
Ġà¹Ģà¸ŀ à¸Ī
à¸« à¸į
Ġ Â
Ġà¸ª à¸§à¸Ļ
Ġà¸Ļà¸Ńà¸ģà¸Īà¸²à¸ģ à¸Ļ
Ġà¸ Ĳà¸²à¸Ļ
à¸ģà¸ «
Ġà¸ªà¸Ļ à¸²à¸¡
Ġà¸Ń à¸²à¸Ħà¸²à¸£
à¸ĸ à¸²à¸¡
à¸ģà¸ Ĭ
à¸¢à¸Ļ à¸£
à¸ļ à¸Ľà¸£à¸°
Ġà¸¢ à¸Ńà¸¡
à¸¥ à¸¥
à¸¬ à¸²
à¸ķà¸ļ à¸Ńà¸¥
à¸Ńà¸¡ à¸ģ
à¹Ģà¸Ħ à¸£à¸²à¸°à¸«
o c
à¸ģà¸ ģ
Ġà¸ģà¸²à¸£ à¸ª
à¸Ń à¸²à¸Ķ
a b
à¸Ĥ à¸²à¸¢
Ġà¸ļ à¸Ń
à¸Ľà¸£à¸° à¸Ĭ
Ġà¹ Ĵ
Ġà¸ģà¸²à¸£ à¸Ĺà¸³à¸ĩà¸²à¸Ļ
à¹ģ à¸£à¸ģ
à¸¸ à¹Ĭ
Ġà¹Ĥà¸Ķà¸¢ à¹Ģà¸
Ġà¸Ħ à¸°
Ġ of
à¸ĩ à¸ĩà¸²à¸Ļ
Ġà¸Ħà¸£à¸Ńà¸ļ à¸Ħà¸£
on e
Ġà¹Ģà¸¥ à¸Ĥ
Ġà¸ª à¸łà¸²à¸ŀ
o b
à¸į à¸Ĭ
à¸Ī à¸Ļ
à¸ļ à¸ļ
à¸ļ à¸¡à¸²
Ġà¹Ģà¸ īà¸ŀà¸²à¸°
à¸²à¸ĩ à¹Ħà¸£
à¸Ķà¹Ģà¸ «
Ġà¸Ĥ à¸Ńà¸ļ
Ġà¸¢ à¸²à¸ģ
Ġà¸Ń à¸Ń
* *
Ġà¹Ģà¸Ī à¸Ń
Ġà¸¥ à¸²
à¸Ń à¸Ľ
e w
Ġà¸Ńà¸³ à¹Ģà¸łà¸Ń
Ġà¸£à¸ĸ à¸¢à¸Ļà¸ķ
Ġà¹Ĥ à¸Ļ
Ġà¸« à¸į
Ġ Y
Ġà¸Ķ à¸Ńà¸ģ
à¸£ à¸Ļà¸Ķ
Ġà¸¢ à¸²à¸ĩ
Ġà¸Ń à¸Ķ
Ġà¹Ģà¸ ¨
Ġà¸«à¸¥ à¸Ńà¸Ķ
er s
Ġà¹Ģà¸Ħ à¸¥
x x
ar t
Ġà¹Ĥà¸Ķà¸¢à¹Ģà¸ īà¸ŀà¸²à¸°
i k
Ġà¹Ĥà¸Ķ à¸Ļ
Ġà¹ģà¸ķ à¸ģ
Ġà¸Ľ à¸¥à¸²
Ġà¹Ģà¸« à¸£
Ġ! !
Ġà¸ª à¸ģ
Ġà¸¤ à¸Ķ
Ġà¹Ģà¸ ī
Ġà¹Ģà¸¢ à¸Ńà¸°
à¸ģà¸ ³
Ġà¸ģà¸¥ à¸²à¸¢
© à¸ķà¸£
oo k
à¸Ńà¸Ļ à¸ģ
à¹ģà¸ §
Ġ2 1
u p
Ġà¸£à¸§à¸¡ à¸ĸ
Ġ X
Ġà¸«à¸¥ à¸§à¸ĩ
Ġà¸Ľà¸£à¸°à¸Ĭ à¸²à¸Ĭà¸Ļ
à¸Ń à¸³à¸Ļ
e x
Ġà¸łà¸²à¸© à¸²
à¸ģà¸ ŀ
Ġà¸ķà¸³ à¹ģà¸«à¸Ļ
à¹ģà¸ª à¸Ķà¸ĩ
à¸²à¸« à¸¥
à¸²à¸£ à¸²
Ġ '
Ġà¸¡ à¸²à¸£
à¸£ à¸²à¸Ħà¸²
Ġà¸ľà¸¥ à¸ĩà¸²à¸Ļ
Ġ2 2
à¸ŀ à¸Ĺ
à¸²à¸ļ à¸²à¸¥
à¸ļ à¸ªà¸Ļ
à¹Ģà¸¡ à¸£
à¸«à¸¥ à¸Ķ
à¸Ļ à¸²à¸Ļ
E T
Ġà¸ģà¸ Ķ
Ġà¸ª à¸ĩ
à¸ķ à¸ª
c e
Ġà¸« à¸²à¸¢
Ġà¸ĺ à¸Ļ
à¸ İ
à¸£à¸£ à¸ĵ
à¸ģà¸ Ĥ
Ġà¸ķà¸£à¸§à¸Ī à¸ªà¸Ńà¸ļ
à¸Ī à¸²à¸£
à¸Ľà¸£à¸° à¹Ĥà¸¢à¸Ĭà¸Ļ
Ġà¸ģà¸²à¸£ à¹Ģà¸£
Ġà¸ģà¸£à¸° à¸Ī
à¸Ļ à¸«à¸Ļ
à¹Ĥ à¸Ľ
Ġà¹ģà¸ §
à¸Ļ à¹Ħ
an g
i f
ĠâĢ ĭ
Ġà¸ģà¸²à¸£ à¸Ħ
à¹Ģà¸ª à¸Ļà¸Ń
à¸²à¸ģà¸ «
à¸³ à¸«à¸Ļ
Ġà¹ĥà¸Ļ à¸Ľà¸£à¸°à¹Ģà¸Ĺà¸¨
Ġà¸ģà¸£à¸° à¸ļ
à¸£à¸© à¸Ĳ
Ġà¹Ģà¸« à¸Ļ
à¸ģà¸ Ī
à¸Ń à¸Ħ
à¸Ńà¸ĩ à¸Ħ
à¹Ĥ à¸Ńà¸ģà¸²à¸ª
is t
s t
à¸° à¹Ģà¸ļ
à¸²à¸ĩ à¸Ľà¸£à¸°à¹Ģà¸Ĺà¸¨
à¹ģà¸Ľ à¸¥à¸ĩ
Ġ5 0
à¸¸ à¹Į
Ġà¸ģà¸£à¸° à¹Ģà¸Ľ
ĠC h
Ġà¹ Ģ
Ġà¸Ī à¸ļ
à¸£ à¸§à¸Ī
Ġà¸Īà¸³ à¹Ģà¸Ľ
Ġà¸ª à¸²à¸Ĥ
Ġà¹Ģà¸ģ à¸²à¸°
t t
à¸ļ à¸Ĺ
Ġà¹Ĥ à¸Ĺ
Ġà¸Īà¸³ à¸«à¸Ļ
Ġà¸ģà¸£ à¸ĵ
ĠT he
à¹Ĥà¸¡ à¸ĩ
Ġà¸£ à¸ª
Ġà¸ĺà¸£à¸£à¸¡ à¸Ĭà¸²à¸ķ
à¹ģà¸Ķ à¸ĩ
à¸§à¸¢ à¸ģ
Ġà¹Ĥ à¸Ī
à¸Ħ à¸°
à¸§ à¹Ĥà¸¡à¸ĩ
à¸Ļ à¹Ģà¸£
İ à¸«à¸¡à¸²à¸¢
Ġà¸Ļ à¸Ńà¸Ļ
à¸Ĭ à¸£
Ġ _
Ġà¸Ħà¸§à¸²à¸¡ à¸ķ
à¸²à¸ģà¸« à¸¥à¸²à¸¢
Ġ2 00
Ġ k
at e
à¸ĩ à¹ĥà¸Ī
à¸ģà¸ ¨
es t
Ġà¸ª à¸ļà¸²à¸¢
à¸ķ à¸ĸ
à¸ª à¸²à¸§
Ġà¹Ħ à¸ĭ
Ġà¹Ĥà¸Ľà¸£ à¹Ĥà¸¡
or t
Ġà¸Ĺ à¸£à¸²à¸ļ
à¸¢ à¸į
à¸ĩ à¸Ńà¸¢
à¸Ľà¸£à¸°à¸ģ à¸Ńà¸ļ
.. ..
an t
ac k
à¹ ķ
à¹ģ à¸Ļ
Ġà¸ª à¸²
à¹ģà¸ Ħ
à¸Ńà¸ĩ à¸£
Ġ0 8
ĠU S
w w
al l
Ġà¹Ģà¸¡ à¸Ļ
Ġà¸Ľà¸£à¸°à¸ªà¸ļ à¸ģà¸²à¸£à¸ĵ
/ /
à¹ģà¸ ľ
à¸Ļ à¹Ģà¸Ĺ
Ġ Ã
r a
à¸§à¸Ļ à¹ĥà¸«à¸į
Ġà¹ģà¸ª à¸ĩ
à¸ģà¸£à¸£à¸¡ à¸ģà¸²à¸£
Ġà¹ ĳ
Ġà¸Ń à¸ĩ
à¸²à¸£ à¸¢
Ġà¸Ĥ à¸¢à¸²à¸¢
à¸¨ à¸Ļ
à¸¡ à¸«
à¸¡ à¸Ļ
Ġà¸ģ à¸£à¸£à¸¡
Ġà¸ŀà¸£à¸° à¸£à¸²à¸Ĭ
à¸²à¸Ń à¸ģ
à¸ŀ à¸£à¸°
Ġà¹Ģà¸ģ à¸²à¸«à¸¥
Ġ2 3
Ġ â
à¸ªà¸¡ à¸ļ
à¹ĥ à¸Ķ
Ġà¸Ľà¸£à¸° à¸ĺà¸²à¸Ļ
Ġà¸Ļ à¸¡
à¸Ķà¸ķ à¸²à¸¡
Ġà¸£à¸§à¸¡ à¸Ĺ
Ġà¸£à¸²à¸¢ à¸ĩà¸²à¸Ļ
Ġ256 0
à¸Ļà¸ĺ à¸£à¸£à¸¡
à¹ Ĳ
à¸¡ à¸Ĭà¸Ļ
Ġw ww
à¸§ à¹Ģà¸ķà¸Ńà¸£
à¸ķ à¸Ļ
Ġà¸Ħ à¸²à¸Ķ
Ġà¸£ à¸§à¸Ķ
à¸Ńà¸Ļ à¸Ĺ
Ġà¸Ļ à¸Ħà¸£
Ġà¸Ĺ à¸°à¹Ģà¸¥
à¸Ĺà¸¢ à¸²
à¸²à¸Ĥ à¸Ńà¸ĩ
ĠA n
Ġà¸Ĺà¸³ à¸ģà¸²à¸£
à¸ģà¸© à¸ĵ
Ġà¸Ķ à¸§à¸ĩ
Ġà¹Ĥ à¸Ńà¸ģà¸²à¸ª
à¸Ń à¸Ńà¸ģ
Ġ &
à¸²à¸Ī à¸°
Ġà¸ķ à¸Ļà¹Ģà¸Ńà¸ĩ
ĠR e
Ġ r
Ġà¹ĥ à¸ķ
à¸ķà¸ª à¸²à¸«
Ġà¸ģà¸²à¸£ à¸Ľ
Ġà¸¥ à¸²à¸¢
Ġà¸Ĺà¸²à¸ĩ à¸ģà¸²à¸£
à¸Ńà¸¢ à¹Ĩ
Ġà¸ģà¸ °
à¹Ħ à¸ķà¸¥
à¸¢à¸§ à¸Ĥ
à¸Ħà¸§à¸²à¸¡ à¸ªà¸°
à¸ĩ à¸«
le b
à¸ģà¸£à¸° à¸Ĺ
Ġà¸Ĥ à¸§
Ġà¸¡à¸²à¸ķà¸£ à¸Ĳà¸²à¸Ļ
à¸Ļ à¸Ńà¸¢
Ġà¸¡ à¸Ńà¸ļ
it y
Ġà¸« à¸§à¸¢
Ġà¸Īà¸²à¸ģ à¸Ļ
Ġà¹Ģà¸ļ à¸Ńà¸£
Ġà¸£ à¸Ńà¸¢
à¸ĩ à¹Ģà¸ªà¸£
à¸Ļ à¸²à¸¡
Ġ e
Ġà¹Ģà¸ľ à¸¢
Ġà¸ª à¸¥
Ġà¸Ĭ à¸²
Ġà¸ªà¸§à¸¢ à¸ĩà¸²à¸¡
Ġà¸ªà¸ĸ à¸²à¸ļ
ĠG i
à¸Ĺà¸£ à¸§à¸ĩ
à¸£ à¸Ķ
Ġà¸ĸ à¸²à¸¡
Ġà¸ĭ à¸²
à¸§à¸Ļ à¸ķ
Ġà¸ªà¸¡ à¸ļ
ð Ł
Ġà¸ģà¸£à¸° à¸Ĺ
tt p
Ġà¸Ĥ à¸²à¸Ķ
Ġà¸Ħ à¸Ń
à¹ģà¸ Ī
à¸¡ à¸¡
à¹Ģà¸« à¸Ļ
à¸¢à¸Ļ à¹ģà¸Ľà¸¥à¸ĩ
à¸§ à¸Ńà¸¢
ig h
à¹Ģà¸£ à¸²
Ġ =
Ġà¸Ńà¸Ńà¸ģà¸ Īà¸²à¸ģ
à¸Ń à¸²à¸ģà¸²à¸¨
Ġà¸Ħà¸§ à¸ļà¸Ħ
à¸³ à¸ķ
Ġà¸Ļà¸³ à¸¡à¸²
Ġà¹ģà¸ļ à¸£à¸Ļà¸Ķ
à¸´ à¹Ĭ
à¸Ń à¸ľ
Ġh ttp
Ġ: //
Ġà¸£à¸§à¸Ķ à¹Ģà¸£
Ġà¸ª à¸Ńà¸Ļ
Ġà¹ģà¸ļà¸ļ à¸Ļ
à¸¨ à¸Ī
à¸ģ à¸Ļ
ard ia
Ġà¸ģà¸²à¸£ à¹ĥà¸Ĭ
Ġà¸Ľ à¸²à¸ģ
à¸Ńà¸ĩ à¸ŀ
à¸ķà¸ªà¸²à¸« à¸ģà¸£à¸£à¸¡
âĢ Ŀ
Ġà¹Ħ à¸«à¸¡
Ġt he
à¸Ĳ à¸¡
Ġà¸ģà¸¥à¸²à¸¢ à¹Ģà¸Ľ
Ġà¸ģà¸£ à¸¡
ĠGi ardia
Ġà¹ģà¸ĸ à¸¡
ĠâĢ Ļ
Ġ0 9
Ġà¸Ľà¸£à¸²à¸ ģà¸
à¸Ĵ à¸Ļ
o k
à¸ĩà¸Ħ à¸ĩ
Ġà¸ķ à¸Ļ
Ġà¸«à¸¥ à¸²à¸ģà¸«à¸¥à¸²à¸¢
d er
à¸ķà¸£ à¸²
Ġà¸ªà¸²à¸Ĥ à¸²
h leb
Ġà¹ģà¸ľ à¸Ļ
à¸įà¸į à¸²à¸ĵ
à¹ĥ à¸ª
Ġà¸¨ à¸²à¸¥
à¹Ĥ à¸Ĺ
à¸²à¸¢ à¹Ĩ
Ġà¸Ļ à¸Ńà¸ģ
à¸¢à¸ĩ à¹ĥà¸«à¸¡
à¸« à¸²à¸¢
à¸Ńà¸Ļ à¸Ķ
Ġà¹ģà¸Ķ à¸ĩ
Ġà¹Ģà¸ ®
Ġ j
Ġà¸Ŀ à¸£
Ġà¸ª à¸Ľ
à¸¡ à¸ĵ
à¸Ļ à¸ŀ
Ġà¸Ħ à¸§à¸¢
Ġà¸Ľ à¸ģà¸ķ
à¸¡ à¸ľ
Ġà¹Ĥà¸Ľà¸£à¹Ĥà¸¡ à¸Ĭ
à¸²à¸ĺ à¸²à¸£
Ġà¸ŀ à¸¢à¸²à¸¢
Ġà¸ŀà¸¢à¸²à¸¢ à¸²à¸¡
à¸Īà¸²à¸£ à¸ĵà¸²
à¸Ń à¹Ģà¸Ļ
Ġ @
à¸²à¸ª à¸ķ
à¸Ńà¸³à¸Ļ à¸§à¸¢
à¸§à¸¢ à¹Ģà¸«à¸¥
à¹ į
Ġà¸ªà¸°à¸Ķ à¸§à¸ģ
à¸Ļ à¹Ģà¸ķ
à¸§ à¸²à¸ĩ
Ġà¸Ļà¸° à¸Ħà¸°
Ġà¸Ĺ à¸²à¸Ļ
Ġà¹Ģà¸ª à¸¡à¸Ń
à¸ľ à¸¡
à¸Ńà¸ĩ à¸¡
à¹Ħ à¸§
e e
à¸ªà¸³ à¸Ħ
à¸²à¸¡ à¸²à¸£à¸ĸ
à¸²à¸ª à¸Ļà¹ĥà¸Ī
à¸£à¸©à¸Ĳ à¸ģ
Ġà¹Ħà¸Ł à¸Ł
Ġà¹Ħ à¸®
à¸¥ à¸¢
à¸ĩ à¸Ī
à¹ģ à¸Ļà¸Ļ
Ġà¸ª à¹Ģà¸Ľ
Ġà¸ķà¸Ńà¸Ļ à¸Ĺ
Ġà¸Īà¸Ļ à¸ĸ
Ġà¹ģà¸Ĺ à¸Ļ
Ġà¹ģà¸ŀ à¸Ĺà¸¢
Ġà¹Ĥ à¸Ł
Ġà¸ģà¸£à¸° à¸Ĺà¸£à¸§à¸ĩ
5 0
à¸ĩ à¸Ĭà¸²à¸ķ
Ġà¸ķà¸ģ à¹ģà¸ķ
E R
à¸Ħ à¸³
Ġ and
ĠT ha
ĠS h
à¸ŀà¸¢ à¸²à¸ļà¸²à¸¥
à¹Ħà¸Ł à¸Ł
à¸Ńà¸ĩ à¸Ļ
Ġà¹Ģà¸«à¸¡à¸²à¸° à¸ªà¸¡
à¸ķ à¸ķ
à¸Ķ à¸³
Ġà¸ľ à¸ªà¸¡
à¹Ĥ à¸ģ
à¸²à¸« à¸¡
3 0
Ġà¹ģà¸ª à¸Ļ
Ġx xx
à¸Ĳ à¸ļà¸²à¸¥
Ġà¸ļ à¸²à¸£
à¸Ń à¸Ĥ
à¸²à¸£ à¸°
à¸ł à¸Ħ
Ġà¸ª à¹Ħà¸ķà¸¥
ĠP ro
il and
a z
Ġà¸Ľà¸¥ à¸²à¸¢
à¸²à¸ĩ à¹Ħ
Ġà¸Ħà¸§à¸²à¸¡ à¸Ļ
à¸¢ à¸²à¸ģà¸²à¸¨
à¸Ľ à¸Ķ
à¸²à¸ĩ à¸ģ
Ġà¹Ģà¸Ĺ à¸¨
ag e
Ġà¸ª à¸«à¸£
A N
Ġĉ ĠĊ
à¸Ķà¸ª à¸Ńà¸ļ
Ġà¸Ľà¸£à¸° à¸§
I N
à¸ģà¸ª à¸²à¸£
Ġà¸ªà¸¡ à¹Ģà¸Ķ
Ġà¹Ģà¸ģà¸ ¥
Ġà¸Ħà¸ĵà¸° à¸ģà¸£à¸£à¸¡à¸ģà¸²à¸£
Ġà¸Ń à¸²à¸Ĭ
à¸Ľà¸Ķ à¸²à¸«
Ī à¸Ļ
Ġà¸ŀà¸¢ à¸²à¸ĺ
Ġ6 0
a v
iv e
or e
à¸Ļ à¸¡
Ġà¹Ĥà¸Ĺà¸£ à¸¨
Ġà¸Ĺà¸³ à¹Ħà¸Ķ
Ġà¸Ĺ à¸²
à¹Ģà¸¡ à¸ķà¸£
Ġà¸Ħà¸Ńà¸¡ à¸ŀ
Ġà¸ļà¸£à¸£ à¸¢à¸²à¸ģà¸²à¸¨
à¸Ļ à¹Ģà¸ķà¸Ńà¸£
à¸Ļ à¸Ľ
Ġà¸Ħà¸§à¸²à¸¡ à¹Ģà¸ª
Ġà¸Ĥà¸Ļà¸²à¸Ķ à¹ĥà¸«à¸į
Ġà¸£à¸Ńà¸ĩ à¹Ģà¸Ĺ
Ġà¸Ħà¸Ńà¸Ļ à¹Ĥà¸Ķ
.. .
Ġà¸«à¸¥à¸Ńà¸Ķ à¹Ģà¸¥
Ġ2 6
à¸Ń à¸Ĺ
à¸ĵ à¸ªà¸¡à¸ļ
Ġà¹Ģà¸Ī à¸£
à¹Ģà¸§ à¸Ńà¸£
à¸§ à¹Ģà¸¥
à¸§ à¹ĥà¸Ī
Ġà¹Ģà¸ŀ à¸Ĭà¸£
à¸Ńà¸Ļ à¸£
t h
à¸ļ à¸Ķ
à¸²à¸§ à¸°
Ġ) ,
Ġ201 7
Ġ2 8
à¸ĩ à¹ģà¸£à¸ĩ
à¸ļ à¸Ļ
Ġà¸£à¸²à¸¢ à¹Ħà¸Ķ
à¸Ļ à¸Ħà¸£
à¹Ģà¸Ħ à¸¥
à¸Ķ à¹Ģà¸Ķ
à¸ģà¸ ľ
à¸Ńà¸Ļ à¸Ĥ
ï¿½ ï¿½
à¸Ħà¸§à¸²à¸¡ à¸ª
à¹Ģà¸ Ł
i z
à¸ļ à¸ķ
Ġà¸Ĺ à¸§
Ġ4 0
à¸²à¸¨ à¸²à¸ªà¸ķà¸£
à¸Ķ à¸ģ
Ġà¸Ń à¹Ģà¸¡à¸£
Ġà¸Ń à¸²à¸Ĺ
à¸Ļ à¸«à¸²
à¸ģ à¹Ģà¸ķ
à¹Ĥ à¸łà¸Ħ
Ġà¸¥à¸ĩ à¸Ĺ
Ġà¹Ģà¸¡ à¸ķà¸£
Ġà¹Ģà¸Ľ à¸£
Ġà¸Ľà¸£à¸²à¸ģà¸ ı
à¸§ à¸Ĥ
Ġà¹ģà¸ ĭ
à¸² à¹ĥà¸Ĭ
à¸Ńà¸ĩ à¸ĸ
Ġà¸ģà¸²à¸£ à¸Ĺ
Ġà¸Ħà¸§à¸²à¸¡à¸ª à¸²à¸¡à¸²à¸£à¸ĸ
à¸Ľà¸¥ à¸Ńà¸Ķà¸ł
Ġà¸Īà¸³à¸Ļà¸§à¸Ļ à¸¡à¸²à¸ģ
Ġà¸Ĺà¸³ à¹Ħà¸¡
Ġà¸ķ à¸²à¸¢
Ġà¸ĺà¸Ļ à¸²à¸Ħà¸²à¸£
à¸²à¸ģà¸ ¥
à¸ĩ à¹Ħ
5 5
Ġà¹Ĥà¸£à¸ĩ à¸ŀà¸¢à¸²à¸ļà¸²à¸¥
Ġà¸Ľà¸£à¸°à¸ģà¸Ńà¸ļ à¸Ķ
ĠB l
Ġà¹Ģà¸ģà¸ ©à¸ķà¸£
à¸Ķ à¸¡
à¸²à¸ĩ à¸Ļ
à¸£ à¸§à¸¡
à¸Ļ à¸ĩà¸²à¸Ļ
à¹Ģà¸ŀ à¸¥à¸ĩ
à¸§ à¹ģà¸Ĺà¸Ļ
à¸ļà¸£ à¸Ńà¸ĩ
or n
à¸¢ à¸²à¸Ļ
o y
à¹ģà¸ Ł
à¸Ľ à¸łà¸²à¸ŀ
os t
Ġà¹Ĥà¸Ĭ à¸§
Ġà¹Ģà¸Ń à¸ģà¸ªà¸²à¸£
ĠC on
Ġà¸ģà¸²à¸£ à¸ľà¸¥
Ġà¸ª à¸ł
il l
Ġà¸Ħà¸§à¸²à¸¡ à¸Ľà¸¥à¸Ńà¸Ķà¸ł
à¸Ļ à¹Ħà¸Ķ
Ġà¸¡ à¸«à¸²
r om
Ġà¸¡ à¸Ń
Ġà¸ģà¸²à¸£ à¸ķ
à¸Ļ à¹Ģà¸Ĭ
Ġà¸ŀà¸£à¸° à¸Ńà¸ĩà¸Ħ
à¸Ĩ à¸©
à¸ĩà¸ª à¸Ńà¸ĩ
à¸ĩ à¸«à¸Ļ
à¸ģà¸ ¢
à¸ĩ à¹Ĥà¸Ľ
à¸Ķ à¸Ĭ
Ġà¸Ī à¸Ń
à¸Ħà¸§à¸²à¸¡ à¸£
Ġà¸ģà¸²à¸£ à¸Ľà¸£à¸°
Ġà¹Ĥà¸Ľà¸£ à¸Ķ
el l
à¸£ à¸ĸ
Ġà¸Ī à¸Ńà¸ĩ
Ġà¸£à¸Ńà¸ĩ à¸£
à¸²à¸Ħ à¸ķ
Ġà¸Ļà¸³ à¹Ģà¸ªà¸Ļà¸Ń
à¸ļ à¸Ľà¸£
à¸ĩ à¹ģà¸£à¸ģ
à¸ģà¸Ī à¸°
Ġà¸£ à¸²à¸ĩà¸§
à¸Ī à¸ģà¸²à¸£
Ġà¹ģà¸¢ à¸ģ
Ġà¸Ĺ à¸Ķà¸ªà¸Ńà¸ļ
à¸Ń à¸²à¸¢
Ġà¸ª à¸£à¸°
à¸ķà¸¥ à¸²à¸Ķ
à¸Ńà¸ª à¸£
Ġà¸ģà¸³ à¸Ī
Ġà¹Ħ à¸«à¸¥
Ġà¸Ħà¸Ļ à¹Ħà¸Ĺà¸¢
à¹Ĥà¸¡ à¸ªà¸£
Ġà¹Ģà¸ª à¸Ļà¸Ń
Ġà¸Ń à¸§
Ġà¸ª à¹Ĥà¸¡à¸ªà¸£
à¸Ńà¸ĩ à¸Ķ
it is
Ġà¹ģà¸Ľ à¸¥
à¸²à¸«à¸¡ à¸²à¸¢
Ġà¹Ĥà¸£à¸ĩ à¸ĩà¸²à¸Ļ
ĠS p
ou r
Ġà¹ Ī
u e
Ġ2 7
à¸Ļ à¸Ĥ
à¸²à¸ ł
Ġà¸ģà¸Ńà¸ĩ à¸Ĺ
à¸± à¹Ĭ
à¸Ķà¹Ģà¸ Īà¸Ļ
e c
Ġà¸Ķà¸²à¸§ à¸Ļ
Ġà¸Ķ à¸£
Ġà¹Ģà¸ŀ à¸¥
ĠT r
à¸ĩ à¸ģà¸²à¸¢
Ġà¸ķà¸³ à¸ļà¸¥
Ġà¸ŀà¸£à¸° à¹Ģà¸Ī
à¸²à¸Ļ à¸Ħ
Ġà¸ī à¸ļ
Ġà¸Ńà¸²à¸Ī à¸²à¸£à¸¢
Ġ on
Ġà¸§ à¸²
à¸Ńà¸ĩà¸£ à¸²à¸§
Ġà¹Ĥ à¸®
Ġà¸Ń à¸³à¸Ļ
à¸Ĺà¸¢ à¸²à¸¨à¸²à¸ªà¸ķà¸£
à¸Ľà¸£à¸° à¸Īà¸³
Ġà¸łà¸²à¸¢ à¹ĥà¸ķ
à¸²à¸Ļ à¸Ńà¸²à¸«à¸²à¸£
à¸Ķ à¸ĸ
Ġà¹ģ à¸Ńà¸ļ
Ġ Z
Ġ2 9
Ġà¸Ķ à¸²
m ent
Ġà¸ģà¸£ à¸Ńà¸ļ
à¸ļ à¹Ĥà¸ķ
Ġà¸Ħà¸§à¸²à¸¡ à¹Ģà¸Ľ
Ġà¸ģà¸£à¸°à¸ļ à¸§à¸Ļ
à¸¡ à¸ł
2 0
igh t
à¸²à¸ ¬
Ġ8 0
Ġà¹Ģà¸ŀ à¸¨
Ġ3 1
à¸³ à¸£à¸°
Ġ re
à¸ģ à¸Ńà¸¢
Ġà¸ŀà¸¤ à¸¨à¸Ī
Ġà¸Ľà¸¥ à¸Ńà¸Ķà¸ł
ar e
à¸²à¸ĩà¹Ħ à¸£à¸ģ
Ġà¸Ń à¸ĺ
ol og
l ub
à¸«à¸¥ à¸²à¸¢
Ġ Ð
à¸£ à¸²à¸¢
Ġà¸Ħà¸§à¸²à¸¡ à¸Ĭ
à¸ģà¸²à¸¢ à¸Ļ
i e
à¸¢à¸£ à¸ķ
à¹Ģà¸ĭ à¸Ńà¸£
à¸¢ à¸ļà¸£
Ġ 00
Ġà¸Ħ à¸Ńà¸¢
n e
ĠP l
à¸¥ à¸Ńà¸ĩ
à¸Ļ à¸ªà¸¡
Ġà¸ŀà¸£à¸° à¸ŀ
Ġà¸ļ à¸³à¸£
à¸Ļ à¸ļ
Ġà¸ķà¸° à¸§
à¸ģà¹Ģà¸ķ à¸°
Ġ y
Ġ6 1
à¸Ĵ à¸Ļà¸ĺà¸£à¸£à¸¡
à¸¥à¸ĩ à¸Ĺ
à¸¡ à¸Ĺ
à¹Ģà¸Ī à¸Ńà¸£
à¸ª à¸£à¸£à¸Ħ
i o
Ġà¸Ļ à¹Ĥ
Ġà¸Ń à¸²à¸¨
Ġà¹ģ à¸Ńà¸£
a il
Ġà¹ģà¸¡ à¸§
ic e
à¸§à¸¢ à¸ĩà¸²à¸Ļ
h one
à¸ļà¸Ľà¸£à¸° à¸Ĺà¸²à¸Ļ
as s
à¸Ļ à¸ĭ
r y
à¸£ à¸²
B ET
Ġà¸ģà¸£à¸° à¹ģà¸ª
Ġà¹Ģà¸Ń à¸ª
Ġà¸ģà¸£à¸° à¸ķ
Ġà¸Ĭà¸Ļ à¸°
Ġà¸£à¸°à¸¢à¸° à¹Ģà¸§à¸¥à¸²
à¸ĩà¹Ħ à¸ĩ
Ġf or
à¸ķ à¸£à¸ĩ
Ġà¹ĥà¸ļ à¸«à¸Ļ
à¸ģà¸Ĭ à¸Ļ
à¹Ĥ à¸«à¸¥à¸Ķ
à¸ĩ à¸ĭ
à¸ģà¸§ à¸Ķ
O N
Ġà¸ Ĩ
à¹ģà¸§ à¸Ķà¸¥
Ġà¹Ĥ à¸Ĩà¸©
à¸Ĥ à¸ĵà¸°
à¸² à¹Ħ
à¸Ń à¸Ħà¸§à¸²à¸¡
Ġà¸Ħà¸§à¸²à¸¡ à¸¡
à¸Ļ à¸Ĳà¸²à¸Ļ
eb ook
à¸¥ à¸Ħ
à¸§ à¹Ĥà¸¥à¸ģ
Ġ *
à¹ģà¸ŀ à¸Ĺà¸¢
Ġ255 9
Ġà¸Ń à¸²à¸ģà¸²à¸¨
à¸¢à¸ļ à¸²à¸¢
Ġà¸¢à¸Ńà¸Ķ à¹Ģà¸¢
ģà¸ ³
Ġà¸¥à¸° à¸Ħà¸£
Ġà¸ķ à¸²à¸£
Ġà¹ĥà¸Ļ à¸Ĥà¸ĵà¸°
à¸Ķ à¸£
ĠA p
Ġà¸ªà¸³ à¹Ģà¸£
à¸ļ à¸ª
à¸Ĥ à¸Ńà¸ĩ
à¸¥ à¸ļ
à¸²à¸§ à¸§
à¸³à¸ķ à¸²à¸¥
à¸Ľ à¸ģà¸ķ
Ġà¸£à¸° à¹Ģà¸ļ
Ġà¸ŀà¸¥ à¸²à¸Ķ
Ġà¸Ħà¸Ļ à¸Ń
à¸ŀ à¸Ń
Ġà¸Ĥà¸Ļà¸²à¸Ķ à¹Ģà¸¥
à¸«à¸¥ à¸§à¸ĩ
Ġà¸Ĺ à¸«à¸²à¸£
Ġà¸Ĥà¸Ńà¸ļ à¸Ħ
à¸ªà¸³ à¸«à¸£
Ġà¸¡ à¸²à¸ĸ
Ġs t
Ġ ;
Ġà¸ķà¸²à¸¡ à¸Ĺ
Ġà¹Ģà¸Ń à¹Ģà¸Ĭ
Ġà¸Ļà¹Ĥ à¸¢à¸ļà¸²à¸¢
Ġà¹Ģà¸Ĺ à¸ŀ
Ġà¸Ł à¸Ńà¸£
---- ----
o x
ar k
Ġà¸Ļ à¸§
ģà¸³ à¸¥
Ġà¹Ħ à¸ģ
à¹Ĥà¸Ĺ à¸©
ĠC om
à¹Ģà¸ ī
à¸Ļ à¸Ńà¸ģ
l ine
B O
à¹Ħ à¸«à¸Ļ
_ _
Ġà¸Ħà¸° à¹ģà¸Ļà¸Ļ
Ġà¸ļ à¸¥
à¸Ĭ à¸²à¸ģà¸²à¸£
Ġà¸Ĥà¸ĵà¸° à¸Ĺ
9 9
Ġà¹Ģà¸Ĺ à¸Ħà¸Ļ
Ġà¸Ĭ à¸³à¸£à¸°
à¹ģà¸ ¢
Ġà¹Ģà¸¨ à¸£à¸©à¸Ĳà¸ģ
à¸ĩà¸Ħ à¸¥
Ġà¹Ĥà¸Ķà¸¢ à¸Ĺ
à¹Ģà¸« à¸¡
à¸¢à¸Ļ à¸ķà¸£
à¸Ńà¸¡ à¸²
à¸ĩ à¸ľà¸¥
Ġà¸ªà¸° à¸Ńà¸²à¸Ķ
à¸Ļà¹Ħ à¸ŀà¸£
à¸į à¸²à¸ķ
à¹ģà¸ľ à¸Ļ
à¸ģ à¹Ģà¸ª
Ġà¸® à¸²
à¸²à¸Ļ à¸¥
âĢ ¦
u d
Ġt o
Ġà¸ķà¸³ à¸£à¸§à¸Ī
Ġà¸Ŀ à¸²à¸ģ
Ġà¸Ńà¸²à¸£ à¸¡à¸ĵ
Ġà¹Ģà¸Ń à¸Ł
à¸Ķ à¸§à¸ģ
à¸ķ à¸Ńà¸ļ
Ġà¸ª à¸²à¸ĺà¸²à¸£
e ar
Ġi P
à¸Ĳà¸¡ à¸Ļà¸ķà¸£
à¸Ń à¸«à¸²
à¸Ļà¸ķ à¸Ńà¸Ļ
Ġà¸¢à¸Ńà¸¡ à¸£
à¸Ķ à¹Ģà¸¥
à¸Ļà¸ķà¸£ à¸²à¸¢
à¸ļà¸£ à¸¡
Ġà¸ģ à¸²à¸ĩ
à¸ģà¸Ħà¸£ à¸Ńà¸ĩ
Ġà¸£ à¸§
Ġà¸¥ à¸ļ
à¸Ĭ à¸¡
à¸²à¸ª à¸Ļà¸²
Ġà¸Ļ à¸ģ
ľ à¸¢
ĠU n
Ġà¸Ĭà¸²à¸§ à¸ļ
p l
Ġà¹Ĥ à¸¢
ĠâĢ ĺ
à¹ģà¸¥ à¸Ļà¸Ķ
i es
i b
A R
à¸¨ à¸£
Ġà¹Ģà¸§ à¸Ńà¸£
à¸£à¸²à¸ ĵ
Ġà¹ģà¸Ł à¸Ĭ
on g
à¸Ķ à¸Ħ
ĠT ag
à¹Ĥà¸£ à¸Ħ
à¸¥à¸Ľ à¸°
ik e
Ġà¸ģà¸£à¸£à¸¡ à¸ģà¸²à¸£
Ġà¹Ĵ à¹ķ
Ġà¸Ħà¸§à¸²à¸¡ à¹Ģà¸£
Ġà¸Ħ à¸Ķ
à¸²à¸Ļ à¸Ħà¸£
Ġà¹Ħà¸Ł à¸¥
à¸£à¸£ à¸ŀ
à¸ĩ à¸£
à¸¥ à¸²à¸Ħà¸¡
à¸Ńà¸ª à¸²à¸£
Ġà¹Ģà¸Ķ à¸Ńà¸°
it e
Ġà¸Ľà¸£à¸° à¸«à¸¢
à¸ĩ à¸Ķ
Ġà¹Ģà¸Ńà¸² à¹Ħà¸§
Ġ8 8
Ġà¸Ħ à¸²à¸£
i al
Ġà¸ļà¸Ĺ à¸Ħà¸§à¸²à¸¡
à¸²à¸ĩ à¸«à¸Ļ
Ġà¸¥à¸Ķ à¸¥à¸ĩ
à¸ļà¸Ľà¸£à¸° à¸¡à¸²à¸ĵ
à¸Ķà¹Ģà¸ ľà¸¢
à¸ļ à¸²à¸Ĺ
Ġà¹Ģà¸ŀà¸£à¸²à¸° à¸§
as t
Ġà¹ģà¸ ®
à¸Ńà¸ĩ à¸ļ
Ġà¹Ģà¸«à¸¡à¸²à¸° à¸ªà¸³à¸«à¸£
à¸Ń à¸Ń
à¸²à¸ĩ à¸¢
à¸Ī à¸ī
Ġà¸ļà¸£à¸£ à¸Ī
à¸³ à¸Ħ
Ġà¹Ģà¸§ à¸Ĺ
à¸¢ à¸«à¸²à¸¢
Ġà¸¥à¸° à¹Ģà¸Ń
Ġà¸Ń à¸¡
à¸ª à¸²à¸Ļ
Ġà¸«à¸¡à¸²à¸¢ à¸ĸ
ĠA l
à¹Ģà¸Ń à¸ģ
à¸Ńà¸¡ à¸Ĺ
Ġà¸Ĥà¸Ń à¹ĥà¸«
à¸¡ à¹Ģà¸Ľ
à¸ł à¸²à¸Ħ
ac ebook
à¸µ à¹ĭ
Ġà¸Ħ à¸Ńà¸£
Ġà¸ª à¸«
Ġà¸Ħà¸¥ à¸Ńà¸ĩ
i le
à¸£à¸£ à¸©
à¸Ńà¸¡ à¸Ķ
à¸§ à¸²à¸¢
ĠA r
id e
Ġà¹Ħ à¸ģà¸¥
Ġà¹Ĥà¸Ĩà¸© à¸ĵà¸²
u re
à¹Ħ à¸Ļà¹Ģà¸ķ
à¸¢ à¸²à¸¡
Ġ ðŁ
à¸ĩ à¸Ľ
à¸ļ à¸ľ
à¸ģà¸ ļ
Ġà¸ŀà¸§à¸ģ à¹Ģà¸£à¸²
Ġà¹Ģà¸¡ à¸¥
om e
ĠE x
à¹Ĥà¸£ à¸Ľ
à¸²à¸ģà¸ Ĺ
Ġà¸ªà¸² à¹Ģà¸«à¸ķ
à¸ļ à¸Ľà¸£à¸°à¸ģ
v er
à¸¢à¸ĩ à¹ģà¸Ħ
à¸Ń à¹Ģà¸ª
Ġ3 2
Ġ0 2
Ġà¸łà¸²à¸© à¸²à¸Ń
Ġà¸Ļ à¸Ĺ
Ġà¸ŀà¸¥ à¸²à¸ªà¸ķ
ĠT h
Ġ3 6
Ġà¸ķ à¸£à¸°
à¸ģà¸¥ à¸ĩ
in d
Ġà¸Ħà¸Ļ à¸£
ou n
Ġà¸ģà¸²à¸£ à¸¥à¸ĩà¸Ĺ
Ġà¸ļà¸²à¸ĩ à¸Ħà¸Ļ
à¸ĩ à¸¢
à¸ª à¹Ģà¸ķà¸Ńà¸£
Ġà¸¡ à¸²à¸ª
Ġ9 9
à¸§à¸Ļ à¸¥à¸Ķ
à¸ŀ à¸²à¸Ļ
à¸° à¸Ļ
1 0
Ġà¸ģà¸£à¸°à¸ļà¸§à¸Ļ à¸ģà¸²à¸£
Ġà¸ģà¸ İà¸«à¸¡à¸²à¸¢
à¸²à¸£ à¸ģ
e ct
a x
à¸ª à¸ĩ
o in
à¸± à¹ĭ
à¸Ħ à¸§à¸£
Ġà¸ĭ à¸Ńà¸¢
Ġà¸Ń à¸ļ
Ġà¹ģà¸¥ à¸ģ
à¸ģà¸Ĺ à¸£
Ġà¸ł à¸²à¸§à¸°
a in
à¹Ĥ à¸ŀ
Ġà¹Ħ à¸ķ
Ġà¹Ħ à¸ŀ
à¸¡ à¸ĩà¸²à¸Ļ
Ġà¸Ĳà¸²à¸Ļ à¸°
à¸ģà¸£ à¸¢à¸²à¸Ļ
f f
Ġà¸Ľà¸£à¸° à¸Ķ
à¸Ńà¸ĩ à¸ķ
à¸Ħà¸§à¸²à¸¡à¸ªà¸° à¸Ńà¸²à¸Ķ
à¸²à¸ ĭ
Ġà¸łà¸²à¸ŀ à¸¢à¸Ļà¸ķà¸£
à¸Ķ à¸¢
à¸§à¸¡ à¸¡
Ġà¸Ĺà¸³ à¸Ħà¸§à¸²à¸¡à¸ªà¸°à¸Ńà¸²à¸Ķ
à¸ĩ à¸«à¸¥à¸²à¸¢
Ġà¸Ĺ à¸Ļ
Ġ9 0
Ġà¸¥ à¸¡
Ġà¸ķà¸²à¸£ à¸²à¸ĩ
Ġà¹Ģà¸ļ à¸²
Ġà¸Ľà¸£à¸° à¹Ģà¸Ķ
à¸ª à¸Ńà¸£
Ġà¸ªà¸Ńà¸ļ à¸ĸà¸²à¸¡
Ġà¸ªà¸¡ à¸²à¸Ħà¸¡
à¸Ĭ à¸¢
à¸Ļà¸¢ à¸²à¸¢à¸Ļ
à¸§à¸Ļ à¸«à¸Ļ
Ġà¸Ľà¸£à¸° à¸Ĺ
Ġà¸£ à¸²à¸§
à¸ĩà¸Ī à¸²à¸ģà¸Ĺ
à¸Ń à¹Ģà¸Ľ
Ġà¸ķà¸£à¸ĩ à¸Ļ
Ġà¸ģà¸ ģ
Ġ Q
ac e
à¸² à¹Ģà¸£
Ġà¸Ľ à¸§à¸Ķ
à¸Ńà¸³à¸Ļà¸§à¸¢ à¸ģà¸²à¸£
à¹ ĳ
à¸§à¸ĩ à¹Ģà¸§à¸¥à¸²
or m
g us
ã ģ
à¸ĩà¸« à¸²à¸Ħà¸¡
Ġ25 4
Ġà¹Ģà¸ī à¸¥
à¸ļ à¸ĭ
à¹Ģà¸ķ à¸£
à¸Ńà¸Ļ à¸«à¸Ļ
à¸Ńà¸¥ à¸¥
à¸¥ à¸²à¸Ļ
Ġà¸ģà¸²à¸£ à¹Ģà¸Ľà¸¥
Ġà¸ŀ à¸ĩ
à¸µ à¹Ĭ
à¸ģ à¹Ĩ
à¹Ģà¸ģà¸ ķ
ĠTha iland
à¸²à¸Ļ à¸¡
Ġà¸Ľà¸£à¸° à¸¡
ĠS BO
Ġà¹Ģà¸ĭ à¸¥à¸¥
ĠÂ »
à¸Ķ à¸Ķ
à¸ģ à¹Ģà¸¥
Ġà¸Ī à¸²
à¸Ļ à¹ģà¸£à¸ĩ
Ġà¸ģà¸²à¸£ à¹ģà¸ªà¸Ķà¸ĩ
O R
à¸ĩà¹Ģà¸Ĺà¸ŀ à¸¯
Ġà¹Ħà¸Ĥ à¸¡
Ġà¹ģà¸ ģà¸
Ġà¸¥à¸ĩ à¸¡à¸²
ĠâĢ ¢
ĠS e
Ð ¾
à¸Ľà¸£à¸°à¸ª à¸ĩà¸Ħ
a i
Ġà¸«à¸Ļ à¸Ńà¸ĩ
à¹ģà¸Ķ à¸Ļ
ĠE n
à¸ªà¸³ à¹Ģà¸£
Ġà¹Ĥ à¸Ńà¸Ļ
Ġà¸ģà¸²à¸ĩ à¹Ģà¸ģ
à¹Ģà¸ģ à¸Ńà¸£
à¸¢à¸§ à¸Ĭ
hleb olog
Ġà¹Ģà¸ ĸ
Ġà¹ģà¸ŀ à¸£
Ġà¹ģà¸ŀ à¸ĩ
à¸ģà¸© à¸°
Ġà¹Ĥà¸ŀ à¸ªà¸ķ
à¸²à¸§ à¸Ļ
à¸ļ à¸Ī
Ġà¸Ħà¸§à¸£ à¸Īà¸°
à¸ļ à¹ĥà¸Ī
Ġà¹ĥà¸Ļà¸Ĥà¸ĵà¸° à¸Ĺ
Ġà¸Ľà¸£à¸° à¹Ĥà¸¢à¸Ĭà¸Ļ
à¸²à¸ĩ à¸ªà¸£à¸£à¸Ħ
à¹Ģà¸ŀ à¸¨
u c
oc k
Ġà¸ģà¸² à¹ģà¸Ł
à¸ģ à¸Ń
Ġà¸« à¸Ń
Ġà¹Ĥà¸Ĭ à¸Ħ
à¸Ļà¸Ń à¸Ńà¸ģ
à¸²à¸£ à¸²à¸Ĭ
ã ĥ
Ġà¹Ĥ à¸«à¸¥à¸Ķ
à¸Ħà¸£ à¸²à¸¡
Ġà¸¡à¸²à¸ķà¸£ à¸²
Ġ201 6
à¸¡à¸« à¸²à¸Ļà¸Ħà¸£
à¸ĩà¹Ģà¸Ĺà¸ŀ à¸¡à¸«à¸²à¸Ļà¸Ħà¸£
à¸¢à¸§ à¸°
à¸¢à¸§à¸Ĭ à¸²à¸į
or d
Ġà¸Ĥà¸Ļ à¸¡
Ġà¸ģà¸²à¸£ à¸Ľà¸£à¸°à¸Ĭ
Ġ **
à¸Ļ à¸²à¸Ħà¸¡
ĠP r
à¸£à¸° à¸ļà¸ļ
Ġà¹Ģà¸ĭ à¸Ńà¸£
à¸Ńà¸ģà¸ ķ
Ġà¸£à¸²à¸Ĭ à¸ģà¸²à¸£
Ġà¸ģà¸²à¸£ à¸ļ
à¸³ à¸ļ
Ġà¸£ à¸«
g e
Ġà¸Ń à¸ģ
à¸² à¹Ģà¸Ĭ
as h
Ġà¸«à¸¡ à¸Ń
en s
Ġà¹Ģà¸¡ à¸©
à¸¥ à¸¯
à¹Ģà¸¥ à¸Ĥ
an s
Ġà¹ģà¸ļ à¸ķ
Ġ3 5
Ġà¸Ļ à¸§à¸Ķ
Ġà¸Ħà¸§à¸²à¸¡ à¸ľ
Ġà¹Ģà¸Ł à¸Ńà¸£
Ġà¸¯ à¸¥à¸¯
Ġà¹ģà¸Ĭ à¸¡à¸Ľ
Ġv al
Ġà¸Ľà¸£à¸°à¸Īà¸³ à¸Ľ
à¸ĩ à¹Ģà¸¨
ĠC l
Ġà¸Ĥà¸§ à¸²
Ġà¸Ķ à¸²à¸£à¸²
Ġà¸ģà¸£à¸°à¸Ķ à¸²à¸©
Ġà¸Ķà¸Ńà¸ģ à¹Ħà¸¡
à¸²à¸£à¸²à¸Ĭ à¸ģà¸²à¸£
us t
Ġà¸ģà¸£à¸°à¸Ī à¸ģ
à¸Ńà¸ª à¸Ńà¸ĩ
à¸ĩà¹Ģà¸¨ à¸ª
ĠH D
Ġà¸«à¸¥à¸§à¸ĩ à¸ŀ
un g
Ġà¹ģà¸Ĺ à¸ļ
à¹Ģà¸Ľ à¸Ńà¸£
à¸¢ à¸Ĭ
à¸ģà¸« à¸Ļ
à¹Ħ à¸¥
à¸Ļ à¸«à¸¥
Ġà¹ ī
ic es
Ġà¸£à¸§ à¸ļà¸£
à¸¡ à¸Ħ
à¸Ķà¸¥ à¸Ńà¸ĩ
ĠA d
à¸Ń à¸Ł
à¹Ģà¸¥ à¸¢
q u
Ġà¸ĸ à¸§à¸²à¸¢
Ġà¸ªà¸ĸà¸²à¸Ļ à¸ģà¸²à¸£à¸ĵ
à¸ĩ à¹ģà¸§à¸Ķà¸¥
à¸Ļ à¸²à¸¢à¸Ļ
à¸²à¸Ļ à¸«à¸Ļ
à¸Ķà¸Ĭ à¸Ńà¸ļ
Ġ255 8
à¸ª à¸£à¸°
à¸²à¸¢ à¸Ĺ
à¸§ à¸ģà¸ª
à¸§à¸ģà¸ª à¸ļà¸²à¸¢
Ġà¸ªà¸°à¸Ķ à¸§à¸ģà¸ªà¸ļà¸²à¸¢
Ġà¸Ħà¸³ à¸ĸà¸²à¸¡
à¸Ļ à¸«à¸¢
à¸ģà¸£à¸°à¸Ĺ à¸ļ
Ġà¸£à¸§à¸ļà¸£ à¸§à¸¡
à¸²à¸Ļ à¸ŀ
p le
à¸Ļà¹Ħà¸Ľ à¹Ħà¸Ķ
à¸§à¸ĩ à¸Īà¸£
Ġà¸ª à¸¢à¸²à¸¡
Ġà¸ĭ à¸°
Ġà¸ģà¸²à¸£ à¸ļà¸£
à¸ļ à¸Ĥ
à¸£ à¸Ńà¸ĩ
Ġà¸ª à¸§à¸¡
à¸²à¸Ī à¸Ń
E D
Ġà¹ģà¸Ĥ à¸Ļ
à¸ģà¸ ĸ
à¸ļ à¸¡
ĵ à¸ĳ
i re
Ġà¹Ĥà¸ļ à¸£à¸²à¸ĵ
Ġà¹Ģà¸¡à¸© à¸²à¸¢à¸Ļ
à¸Ķ à¸ĩà¸²à¸Ļ
Ġà¸ľ à¸Ļ
Ð °
Ġà¸Ĥà¸ĵà¸° à¸Ļ
à¸²à¸Ĭ à¸²à¸ķ
à¸¡ à¸°
à¸Ļà¸Ĭ à¸Ńà¸ļ
à¹Ĥà¸Ļ à¸¡
Ġà¸ľà¸¥ à¸ģà¸£à¸°à¸Ĺà¸ļ
u k
à¸Ļ à¸ľ
er m
Ġà¸Ħà¸³ à¸ª
à¸²à¸¢ à¸łà¸²à¸ŀ
en d
à¸Ħà¸£ à¸Ńà¸ĩ
Ġà¸Ĺà¸³ à¸«à¸Ļ
Ġà¹Ĥà¸Ħà¸£à¸ĩ à¸ªà¸£
ic k
à¸Ńà¸¡ à¸ķ
oo d
Ġ0 1
à¸Ķ à¸Ĺà¸³
à¸ļà¸£ à¸ĸ
Ġà¹ģ à¸£
à¸ķ à¹Ĥà¸Ļà¸¡
8 0
à¸ķ à¸ģà¸£à¸£à¸¡
à¸ĩà¸«à¸§ à¸°
à¹ģà¸Ļ à¸°à¸Ļà¸³
Ġà¸ģà¸ ¡
à¸²à¸ ľ
Ġà¹Ĥà¸Ķ à¸Ķà¹Ģà¸Ķ
A T
Ġà¸« à¸²à¸Ķ
à¹Ħà¸ĭ à¸Ļ
à¸Ļ à¹Ģà¸§à¸¥à¸²
à¸ĩ à¹Ģà¸ģà¸ķ
à¸ģà¸ İ
Ġà¸ģà¸²à¸£ à¸ķà¸¥à¸²à¸Ķ
ĠSBO BET
Ġà¸Ĭ à¸°
à¸Ńà¸ļ à¸£à¸¡
à¸ĩ à¸Ĭ
à¸¢à¸ļ à¹Ģà¸Ĺ
Ġà¸Ī à¸Ķ
Ġà¹Ģà¸«à¸¡à¸²à¸° à¸ģ
Ġc o
à¸Ī à¸ŀà¸£à¸°
à¸ª à¸¥
à¸ª à¸ĸ
Ġv ar
à¸§ à¸ļà¸Ħ
Ġà¸Ļ à¸²à¸¬
Ġà¸¡ à¸ģà¸£
Ġà¸ģà¸²à¸£ à¸Ļà¸³
à¸¥ à¸¡
à¸ŀ à¸ķ
g le
Ġà¸£ à¸ļ
I S
Ġà¸Ĥ à¸¢
Ġà¸§à¸ĩ à¸ģà¸²à¸£
à¸Ńà¸Ķ à¸Ķà¸³
E N
Ġà¸ķà¸¥à¸Ńà¸Ķ à¹Ģà¸§à¸¥à¸²
ĠS er
à¸Ľà¸£à¸°à¸ģà¸Ńà¸ļ à¸ģà¸²à¸£
Ġà¸« à¸Ńà¸¡
à¸ļà¸£ à¸²à¸ĩà¸§
à¹ģà¸ŀ à¸ĩ
Ð µ
Ġà¸Ħà¸Ļ à¹ĥà¸Ļ
Ġà¸ª à¸Ńà¸Ķ
ac h
à¸Ħà¸§à¸²à¸¡à¸ªà¸° à¸Ķà¸§à¸ģ
in k
Ġà¹ĥà¸Ļ à¸Ĺ
Ġà¸¡à¸ģà¸£ à¸²à¸Ħà¸¡
Ġà¹ģà¸Ń à¸ŀ
ac t
Ġà¸Ħ à¸²à¸£à¸²
on d
à¹ģà¸Ķ à¸Ķ
i ew
Ġà¸ģà¸£ à¸ģà¸İ
à¸© à¸ł
Ġà¹ģà¸Ľ à¸¥à¸ĩ
Ġà¸ªà¸¡ à¸Ńà¸ĩ
Ġà¸ ¿
Ġà¸Ĭ à¸§à¸Ļ
à¸ģà¹Ģà¸ª à¸ļ
Ġà¸Ĺà¸³ à¸¥à¸²à¸¢
Ġval gus
Ġà¸ĺà¸£à¸£à¸¡ à¸Ķà¸²
à¸²à¹Ħ à¸«à¸£
ĠT H
Ġà¹ģà¸¡ à¸Ļ
Ġà¸ļà¸²à¸ĩ à¸ª
à¸ŀ à¹Ģà¸Ķ
re e
Ġà¸Ļ à¸Ħ
à¹Ģà¸ģà¸ ©à¸ķà¸£
à¸ģà¸ İà¸«à¸¡à¸²à¸¢
à¸³ à¸Ķ
Ġb y
à¸¢ à¸ª
Ġà¸ģà¸²à¸£ à¸Ĥ
à¹ģà¸« à¸¥à¸°
Ġà¹ĥà¸Ķ à¹Ĩ
à¸Ķà¹Ģà¸ Ĭ
à¸£ à¸ª
à¸Ļà¸ķ à¸ģ
à¸Ķà¸¢ à¸Ńà¸Ķ
à¸ĵ à¸«
Ġà¸ģà¸£à¸ģà¸İ à¸²à¸Ħà¸¡
Ġà¸Ľ à¸²
Ġà¸ģà¸²à¸£ à¸Ń
Ġà¸ª à¹Ģà¸ķ
Ġà¸ŀà¸¤ à¸©à¸ł
à¸Ļà¸Ħ à¸ĩ
à¸²à¸Ķ à¹Ģà¸Ī
Ġà¸ģà¸²à¸£ à¸Ī
à¸ļ à¸ģ
Ġà¸ŀ à¸£à¸£à¸Ħ
Ġà¹Ģà¸ª à¸²à¸£
oo gle
Ġà¸«à¸Ļ à¸²
Ġà¸Ī à¸Ńà¸¡
Ġà¸ģà¸²à¸£à¸ª à¸Ńà¸Ļ
Ġà¸Ń à¸²à¸ļ
Ġà¹Ģà¸¢ à¸²à¸§
Ġà¸Ńà¸³à¸Ļ à¸²à¸Ī
à¸Ń à¸Ĥà¸²à¸¢
Ġà¸Ńà¸Ń à¸Ł
Ġà¸ģà¸ ©
à¹Ģà¸ģà¸ °
à¸¥à¸° à¸Ħà¸£
Ġà¸ ©
à¸ĩ à¹ģà¸¡
à¸Ħà¸§à¸²à¸¡ à¸ªà¸³à¸Ħ
à¸Ĭà¸Ļ à¸°
Ġà¸Ĭ à¸²à¸£
à¹Ĥà¸Ń à¹Ģà¸ģà¸°
Ġ7 0
Ġà¸£à¸ª à¸Ĭà¸²à¸ķ
à¹Ĥà¸¥ à¹Ģà¸¡à¸ķà¸£
Ġà¹ģà¸ľ à¸¥
à¹ ĸ
Ġà¸Ħà¸²à¸£à¸² à¹Ĥà¸Ńà¹Ģà¸ģà¸°
Ġ4 5
Ġà¸«à¸§ à¸²à¸Ļ
à¸Ļà¸§ à¸²à¸Ħà¸¡
Ġà¹Ĥà¸Ķà¸¢ à¸ķà¸£à¸ĩ
Ġà¹Ħ à¸Ĺ
à¸Ńà¸ĩ à¹ĥà¸Ĭ
e v
à¸§ à¸²
4 0
à¸¡ à¸Ĭ
Ġà¹ģà¸ĸ à¸§
1 1
Ġà¸§ à¸Īà¸°
on t
Ġà¸ªà¸¡ à¸²à¸£
a w
à¸ĩ à¸Īà¸°
à¸ĩà¸Īà¸²à¸ģ à¸Ļ
à¹Ģà¸ª à¸ŀà¸ķ
Ġà¸«à¸¡à¸²à¸¢ à¹Ģà¸¥à¸Ĥ
p er
à¸Ļ à¸ľà¸¥
is h
Ġà¹ ĵ
Ġ5 00
Ġà¹ģà¸Ļà¸§ à¸Ĺà¸²à¸ĩ
Ġà¸Ħà¸§à¸²à¸¡ à¸Īà¸£
Ġà¸ŀà¸¤à¸©à¸ł à¸²à¸Ħà¸¡
à¸Ńà¸¢ à¸¥à¸°
Ġà¸Ĺ à¸°
Ġà¸ªà¸²à¸ĺà¸²à¸£ à¸ĵ
Ġà¹ģà¸Ľ à¸¥à¸ģ
u ro
Ġà¹ģ à¸Ńà¸Ļ
à¸ł à¸²
à¸Ĺà¸¢ à¸²à¸Ļ
Ġà¸ģà¸²à¸ĩà¹Ģà¸ģ à¸ĩ
Ġà¹Ħ à¸«à¸§
A M
Ġ255 7
à¸Ķ à¸Ļ
Ġà¸ŀà¸¤ à¸ķ
Ġà¸¡à¸Ń à¹Ģà¸ķà¸Ńà¸£
à¸Ńà¸Ļà¹Ħ à¸Ĥ
à¸Ńà¸Ļ à¸²à¸Ħà¸ķ
s h
à¸§ à¸Ľà¸£à¸°à¹Ģà¸Ĺà¸¨
p t
or k
9 0
Ġà¸¢ à¸²à¸¡
à¸Ĺ à¸£à¸ĩ
à¸Ľ à¸ı
Ġhttp s
à¸ĩà¸Ħ à¸§à¸²à¸¡
à¸ª à¸Ńà¸ĩ
à¸Ńà¸Ļà¹Ħ à¸«à¸§
ow n
it h
à¸ĩ à¸§à¸¥
Ġà¸Ķ à¸Ļà¸ķà¸£
à¸İ à¸£
à¸Ļ à¸«
à¸¢ à¸¥
à¸ĵà¸« à¸ł
Ġà¸Ħ à¸ĵ
Ġ8 1
ĠiP hone
à¸Ļ à¸¡à¸²
Ġà¹Ģà¸ª à¸²
à¸Ļà¸Ļ à¸³
à¸Ńà¸ĩ à¸Ļà¸Ńà¸Ļ
im e
à¹Ģà¸Ĥ à¸ķ
am e
Ġà¸Ń à¸Ńà¸ª
or y
Ġà¹Ģà¸Ľ à¸Ńà¸£
8 8
à¸ŀà¸¢ à¸²à¸ģà¸£
b er
à¸ļ à¸ªà¸¡
O S
à¸ª à¸§
Ġ3 3
l y
Ġà¸ªà¸° à¸ªà¸¡
Ġà¹ĥà¸Ļ à¸Ńà¸Ļà¸²à¸Ħà¸ķ
à¹Ħ à¸«à¸¥
à¸ª à¹Ģà¸ĭ
à¸£à¸²à¸Ĭ à¸ģà¸²à¸£
à¸§à¸¡ à¸ĩà¸²à¸Ļ
à¹Ĥà¸Ķ à¸¢
Ġà¹ģà¸Ī à¸ģ
à¸Ļ à¹Ģà¸Ī
Ġà¸¡ à¸ĩà¸Ħà¸¥
à¸ķ à¸°
à¸ º
i x
ow er
Ġà¸łà¸²à¸¢ à¸Ļà¸Ńà¸ģ
ad a
Ġà¸Ħà¸§à¸²à¸¡ à¸Ķ
Ġà¹Ģà¸§ à¸¥
Ġà¸ģà¸²à¸£ à¹Ģà¸ĩ
ou t
Ġà¹ģ à¸Ńà¸¥
o us
à¸¡ à¸¢
à¸Ł à¸Ńà¸£
Ġà¸¡à¸Ńà¸ĩ à¹Ģà¸«
ĠL ike
Ġ!! !
Ġà¸ľà¸¥ à¹Ħà¸¡
à¹ĥ à¸ļ
Ġà¸Ļà¸³ à¹Ħà¸Ľ
Ġà¸Ń à¸ª
Ġ5 5
à¸ģà¸ģ à¸²à¸£
à¸²à¸ĩ à¸¡à¸²à¸ģ
Ġà¸Ļ à¸²à¸¡
Ġà¸¥ à¸²à¸Ķ
Ġà¸Ļ à¸Ļà¸Ĺ
Ġà¸ŀ à¸Ńà¸Ķ
à¸Ļ à¹Ħà¸¡
à¸ĩ à¹ĥà¸«à¸į
à¸Ħà¸¥ à¸²à¸ģà¸£
rom b
Ġà¸Ħà¸§à¸²à¸¡ à¹ģà¸Ĥ
âĢ ĭ
à¹ģà¸§ à¸£
A L
A S
Ġ0 6
Ġà¸Ħà¸ĩ à¸Īà¸°
ter n
Ð ¸
ĠF acebook
à¸²à¸¢ à¸£
à¸Ķ à¸Ń
à¹Ģà¸Ī à¸Ļ
Ġà¹Ħà¸Ľ à¸Ķ
ĠO n
Ġà¸ĩ à¸ļà¸Ľà¸£à¸°à¸¡à¸²à¸ĵ
m at
à¸ĵ à¹ģà¸¡
Ġà¹Ĥà¸¥ à¸«
Ġà¸ªà¸Ľ à¸Ńà¸£
Ġà¸ģà¸£à¸° à¸Ĭ
à¸ģà¸²à¸£ à¸¨
à¸Ĥ à¸§
Ġà¹Ģà¸Ĺà¸¨ à¸ļà¸²à¸¥
à¸Ļ à¹ĥà¸«à¸¡
à¸²à¸§ à¸ªà¸²à¸£
Ġn e
à¹Ģà¸¡ à¸¥
à¸Ĺ à¸Ńà¸ĩ
à¸Ķ à¸Ľà¸ģà¸ķ
Ġà¸Ńà¸Ńà¸ģà¸ ģà¸³à¸¥
à¸£ à¸²à¸¡
ab le
Ġà¸ĩ à¸²à¸¡
Ġ0 7
Ġà¸ģà¸ İ
à¸Ļ à¸²à¸¢
Ġà¸ļà¸²à¸ĩ à¸Ħà¸£
Ġà¸ī à¸¥
iv ers
à¸Ńà¸ĩ à¸Ĺà¸²à¸ĩ
ï ľ
Ġà¸Ľ à¸²à¸£
à¸Ńà¸Ń à¸²à¸Ĭ
Ġà¸«à¸¡à¸²à¸¢ à¸Ħà¸§à¸²à¸¡
Ġà¹ģà¸Ķ à¸Ļ
Ġc h
I T
Ġs h
à¸ģà¸ Ĳà¸²à¸Ļ
Ġà¹ģà¸Ļà¸§ à¸Ħ
E S
à¸Īà¸³ à¸«à¸Ļ
Ġà¸ī à¸²à¸ģ
Ġà¸ªà¸° à¸ŀà¸²à¸Ļ
Ġà¸¢à¸² à¹Ģà¸ªà¸ŀà¸ķ
l o
à¸ķ à¹ĥà¸Ī
Ġà¸Ĺ à¸°à¹Ģà¸ļ
Ġ ï¿½
à¸Ļ à¸²à¸Ķ
Ġ3 00
à¸²à¸ĩ à¹Ģà¸Ĭ
Ġà¸§ à¸Ļ
à¸Ħà¸§à¸²à¸¡ à¸ªà¸³à¹Ģà¸£
r ess
i an
Ġà¸ĸ à¸Ńà¸Ķ
à¸²à¸Ĭà¸Ļ à¸°
Ġà¹Ģà¸« à¸¢
Ġà¸Ľà¸£à¸°à¸ªà¸ļ à¸Ħà¸§à¸²à¸¡à¸ªà¸³à¹Ģà¸£
I C
Ġà¹ģà¸ķ à¸ģà¸ķ
Ġà¹Ĥà¸Ł à¸Ļ
à¸ª à¸²à¸¢
l d
Ġà¸£à¸²à¸¢ à¸Ĭ
Ġà¸«à¸¥ à¸ĩ
ã Ĥ
romb op
hleb itis
rombop hlebitis
Ġà¹Ĥà¸£à¸Ħ à¸ľ
Ġà¸¡à¸° à¹Ģà¸£
ak e
Ġà¸ģà¸£à¸°à¸Ī à¸²à¸¢
à¸¡ à¸łà¸²à¸ŀ
ĠN ew
Ġà¸Ĺà¸³ à¹Ģà¸¥
à¸Ľ à¸ķ
à¸²à¸¢à¸Ĺ à¸Ńà¸Ķ
Ġà¹Ģà¸¢ à¸Ńà¸£
à¸Ńà¸ĩ à¸Ī
Ġà¸Ħà¸³ à¸ķà¸Ńà¸ļ
Ġà¹Ģà¸Ī à¸²à¸°
à¸ģà¸¢ à¸łà¸²à¸ŀ
à¹ģà¸¥ à¸°
à¹Ĥ à¸Ĺà¸£
Ġà¹Ģà¸¢à¸²à¸§ à¸Ĭà¸Ļ
at t
s k
2 5
Ġà¸«à¸¡ à¸§à¸Ķ
à¹Ģà¸ģà¸ ¥
à¸ķ à¸Ńà¸¥
Ġà¹Ģà¸ª à¸¡
Ġà¸ģà¸²à¸£ à¸Ľà¸£
à¸¡ à¸§
Ġà¹Ģà¸Ł à¸ª
Ġà¹Ĥà¸ĭ à¸Ļ
Ġà¸Ħà¸§à¸²à¸¡ à¹Ģà¸Ĥ
à¸²à¸Ľ à¸£à¸°
Ġà¸Ľ à¸°
ĠP h
Ġà¸§à¸ĩ à¸¨
à¸Ĳ à¸Ń
Ġà¸Ħà¸³ à¹ģà¸Ļà¸°à¸Ļà¸³
à¸Ń à¹Ģà¸£
Ġà¸¢à¸²à¸§ à¸Ļà¸²à¸Ļ
e y
à¸Ķ à¸«à¸Ļ
Ġà¸£à¸°à¸ļ à¸²à¸¢
Ġà¹Ģà¸ª à¸Ķ
Ġà¸£ à¸²à¸¡
Ġà¸Ĺà¸²à¸ĩ à¹Ģà¸¥
Ġà¸Ī à¸²à¸Ļ
Ġà¹ģà¸Ĭ à¸£
à¸Ń à¹Ģà¸ªà¸Ļà¸Ń
Ġà¹Ģà¸ļ à¸¥
à¸Ķ à¸ĭ
ĠUS A
Ġà¸ļà¸£à¸£ à¸Ķà¸²
à¸© à¸Ĳ
Ġp ro
.... ....
ĠA s
Ġà¸Ńà¸Ńà¸ª à¹Ģà¸ķà¸£
à¸Ļ à¸²à¸Ĺ
at h
hlebolog ist
à¸¢à¸ĩ à¸£à¸²à¸¢
Ġà¸ªà¸ĩ à¸Ħà¸£à¸²à¸¡
Ġvar ices
Ġ3 4
à¸²à¸Ļ à¸«à¸¥
ĠA ir
u g
à¸Ļà¸Ĺà¸²à¸ĩ à¸ģà¸²à¸£
Ġà¹Ģà¸Ĺà¸¨ à¸ģà¸²à¸¥
à¸§à¸¢ à¸ķ
à¸ĩ à¸ļ
Ġà¸Ħà¸§à¸²à¸¡ à¹Ģà¸Ĭ
à¸į à¸²
Ġà¸Ķà¸³ à¸£à¸ĩ
Ġà¸Ľà¸£à¸° à¸ģà¸§à¸Ķ
ĠAn d
à¸£à¸²à¸ Ī
Ġp l
Ġà¸ļà¸²à¸ĩ à¸Ĺ
à¸ĵ à¸Ħ
Ġ255 6
Ġ ad
à¸ĺ à¸¢à¸¡
à¸¢ à¸§à¸¢
Ġà¸Ľà¸£à¸° à¸¢
Ġà¸¡à¸« à¸²à¸Ĭà¸Ļ
à¸ģà¸Ľ à¸£à¸°
Ġà¸Ħà¸§à¸²à¸¡ à¸Ń
à¸ģà¸³ à¸¥
Ġ201 5
à¸ª à¸§à¸Ļ
Ġà¸ª à¸ĩà¸ª
ĠC ol
Ġà¸§ à¸Ń
à¸Ĺ à¸°à¹Ģà¸¥
Ġà¸Ĺ à¸Ńà¸Ķ
am b
Ġà¸¡ à¸²à¸¢
Ġà¸Ī à¸¡
à¸¢ à¸²à¸§
à¹Ĥ à¸Ľà¸£
3 5
à¸Ń à¸ŀ
à¸Ĺà¸ĺ à¸¨
à¸§ à¹Ģà¸£
Ġà¸Ľ à¸ģà¸Ľ
à¸²à¸« à¸²à¸ģ
Ġà¸ķà¸£ à¸²
à¸Ľà¸£à¸°à¸ª à¸ļ
ĠS up
Ġà¸Ħ à¸Ńà¸¥
à¸ļ à¸Ľ
Ġà¸ļ à¸²à¸Ļ
à¸²à¸¡ à¹Ģà¸Ļ
Ġà¸ª à¸ķà¸£
à¸ľ à¸ªà¸¡
ig n
Ġà¹Ģà¸¥à¸Ĥ à¸Ĺ
à¹ģ à¸Ļà¸§
A C
Ġà¸¡à¸Ńà¸ĩ à¸«à¸²
à¹ģà¸ŀ à¸£
p ort
à¸Ĳà¸Ń à¹Ģà¸¡à¸£
Ġ8 7
Ġà¸ļ à¸§à¸ģ
6 0
ĠG oogle
à¸Ńà¸ĩ à¸¢à¸Ļà¸ķ
Ġà¸¢ à¸°
Ġà¸ĩ à¸ļ
à¹ģ à¸Ń
à¸ģà¸© à¸£
ic h
Ġà¹ģà¸ļà¸ķ à¹Ģà¸ķà¸Ńà¸£
à¸Ńà¸ª à¸Ńà¸ļ
ha i
à¸¡ à¹Ħà¸Ľ
Ġà¸Ĺ à¸Ķà¸¥à¸Ńà¸ĩ
à¹ Ķ
à¸Ķ à¸§à¸ĩ
ct ion
Ġà¸¡ à¸²à¸Ķ
ĠB e
Ġd e
Ñ Ĥ
Ġà¸ģ à¸²à¸¢
Ġ0 4
Ġth rombophlebitis
à¸ģà¸Ĭ à¸²à¸¢
à¸Ńà¸¢ à¸ģà¸§
à¹Ģà¸Ĺ à¸²
Ġ4 8
Ġà¸Ī à¸ĩ
Ġà¸£à¸ĸ à¸ļ
Ġà¸ŀ à¸¡
Ġà¸«à¸¡à¸²à¸¢à¸Ħà¸§à¸²à¸¡ à¸§
à¸¥ à¸ķ
Ġà¸Ħà¸§à¸²à¸¡ à¸¢
Ġà¸Ľà¸£à¸° à¹Ģà¸¡
Ġà¸¥ à¸Ńà¸¢
Ġà¸«à¸¡ à¸²
à¸³ à¸ģà¸§
Ġà¸ªà¸Ļà¸²à¸¡ à¸ļ
Ġà¸Ľà¸£à¸°à¸ª à¸²à¸Ļ
Ġà¸ŀ à¸²à¸£
Ġà¸ªà¸ĸ à¸²à¸Ľ
Ġà¹Ģà¸Ń à¸ģ
Ġà¹Ĥà¸Ī à¸Ĺà¸¢
Ġà¸Ħà¸§à¸²à¸¡ à¹Ģà¸«
à¹Ģà¸ŀ à¸²à¸°
Ġà¸Ĥà¸Ńà¸ĩ à¹ģà¸Ĺ
à¸ŀ à¸£à¸£à¸ĵ
à¸Ńà¸Ľ à¸Ľ
à¸Ħ à¸£à¸ĩ
à¸²à¸© à¸ĵ
Ġ0 3
Ġà¸¢à¸Ńà¸Ķ à¸Ļ
à¸¡à¸ł à¸²à¸©à¸ĵ
à¹Ħ à¸ģ
Ġà¸ª à¸£à¸£à¸ŀ
à¸£à¸£ à¸ł
à¸£à¸£ à¸ĸ
à¸²à¸« à¸²
Ġ0 5
à¸Ńà¸ĩ à¹Ģà¸£
à¸¡ à¸Ħà¸£à¸Ńà¸ĩ
ĠL e
Ġà¸ĩ à¸§à¸Ķ
Ġà¸ģà¸²à¸£ à¸§
Ġà¸ĭ à¸²à¸Ļ
à¸¨ à¸²
à¸ĩ à¹ģà¸ģ
à¸ŀà¹Ģà¸Ķ à¸Ĺ
ĠUn ivers
à¸¢à¸§à¸¢ à¸²
Ġt r
ro s
à¸³ à¹Ģà¸£
ar y
ol d
Ġà¸ģà¸²à¸£à¸Ľ à¸ı
à¸Ķ à¸Ī
Ġà¸£à¸ĸ à¹Ħà¸Ł
à¸£à¸© à¸°
Ġà¸Ļà¸³ à¹Ģà¸Ĥ
à¸ķ à¸³
à¸ĩ à¸§
à¸Ľ à¸ģà¸Ħà¸£à¸Ńà¸ĩ
à¸¢ à¸Ńà¸ĩ
à¸²à¸ĩ à¸«
Ġà¸Ń à¸²à¸§
à¸ĺ à¸¢à¸²
Ġà¹Ģà¸ģ à¸£
à¸²à¸ķ à¸²
Ġà¸ģà¸³ à¹Ħà¸£
Ġà¸ªà¸ł à¸²
ĠS c
à¸ģ à¹Ģà¸ģà¸Ńà¸£
2 2
à¹Ħ à¸«à¸¡
ĠF or
Ġà¹Ģà¸¥ à¸Ń
as e
Ġà¸Ń à¸ł
à¹ģà¸Ĺ à¸ģ
Ġà¹Ģà¸ĭ à¸Ļà¸ķ
à¸§ à¸ķ
Ġ> >
à¸Ńà¸Ļ à¹ģà¸Ń
ĠH ot
Ġà¸ªà¸²à¸£ à¸°
à¸ĩ à¸ģà¸£
à¹Ģà¸Ī à¸£
Ġà¸Ħ à¸²à¸Ĺ
Ġ3 7
of t
ĠT e
à¸²à¸Ń à¸¢
Ġà¸Ĥ à¸§à¸Ķ
Ġà¸Ľà¸£à¸° à¸ģà¸²à¸£
Ġà¹Ģà¸ľà¸¢ à¹ģà¸ŀà¸£
ĠâĢ Ķ
à¸Ĥ à¸Ń
à¸Ń à¹Ģà¸Ľà¸¥
Ġà¸ģ à¸£à¸²à¸
à¸ĸ à¸¡
o ol
à¸Ĭà¸Ļ à¸°à¹Ģà¸¥
Ġà¸£à¸° à¸§
Ġà¸Ń à¸ļà¸£à¸¡
Ġà¸ģà¸³ à¹ģà¸ŀà¸ĩ
Ġà¸Ħà¸Ļ à¹Ģà¸Ķ
U S
Ġà¸ĸ à¸Ńà¸Ļ
ot h
Ġ un
Ġà¸¥ à¸²à¸§
ĠP re
à¸²à¸ĩ à¸Ħ
Ġà¸Ĺà¸²à¸ĩ à¹Ģà¸Ĥ
à¸ģà¸Ĺà¸£ à¸Ńà¸Ļ
Ġà¸Ĭ à¸¥à¸ļ
ind ow
ĠB r
5 00
Ð ½
Ġà¸Ħà¸§à¸²à¸¡ à¸ĩà¸²à¸¡
Ġà¸Ł à¸²
à¸²à¸ª à¸Ļ
à¸²à¸ĩ à¸Ĭà¸²à¸ķ
r am
à¸Ńà¸ĩ à¸ª
à¸¨ à¸§
à¸Ļ à¸Ł
Ġà¸Ħà¸£ à¸Ńà¸ĩ
Ġà¸ģà¸£ à¸Ńà¸ĩ
Ġà¸« à¸²à¸£
à¹Ħ à¸ª
à¸¸ à¹ĭ
uro der
à¸Ļà¹Ģà¸Ĭ à¸ªà¹Ģà¸ķà¸Ńà¸£
i um
à¹ģà¸ Ĭ
à¸²à¸ģà¸ ©
à¸ĩà¸Ĥ à¸Ńà¸ĩ
mat itis
uroder matitis
à¸ĺ à¸ł
à¹Ħà¸Ľ à¸ĸ
Ġà¸£à¸§à¸¡ à¹Ħà¸Ľà¸ĸ
ad e
Ġà¹ģà¸¡ à¸Ļà¹Ģà¸Ĭà¸ªà¹Ģà¸ķà¸Ńà¸£
à¸ļ à¹Ģà¸Ħà¸¥
à¸§à¸ĩ à¸«à¸Ļ
Ġà¸ļà¸²à¸ĩ à¸Ńà¸¢
ĠM an
à¸ģà¸ª à¸Ļà¸²à¸Ļ
Ġà¸Ī à¸Ńà¸Ķ
Ġà¹Ħà¸Ľ à¹Ģà¸Ĺ
ĠA c
ha iland
Ġà¹ģà¸§ à¸°
ĠR es
Ġà¸ģ à¸Ń
Ġà¸Ļ à¸Ń
à¸§à¸Ļ à¸ľà¸ªà¸¡
Ġà¸¢ à¸²à¸Ļ
à¸Ħà¸¥ à¸²à¸¢
Ġà¸Ń à¸¥
Ġà¸Ńà¸Ļ à¸²à¸Ħà¸ķ
is s
Ġà¸Ńà¸ĩ à¸¨à¸²
Ġ <
Ġà¹Ģà¸ª à¸Ļ
m er
Ġà¸ļ à¸Ńà¸£
à¸Ļ à¸Īà¸£
à¸Ķ à¸«à¸²
à¸£à¸£ à¸¢à¸²
Ġà¹ģ à¸Ńà¸Ļà¸Ķ
à¹Ģà¸ ĺ
à¸Ńà¸Ļ à¹ģà¸ģ
à¸Ńà¸³à¸Ļ à¸²à¸Ī
Ġà¸łà¸²à¸©à¸² à¹Ħà¸Ĺà¸¢
Ġ201 4
Ġà¸ģà¸£à¸° à¸Ĺà¸³
à¸¡ à¹Ģà¸¥
Ġà¸Ħà¸§à¸²à¸¡à¸ª à¸³à¹Ģà¸£
ĠS am
ro id
Ġà¸Ĭà¸Ļ à¸°à¹Ģà¸¥
an ce
Ġà¸Ńà¸Ńà¸ªà¹Ģà¸ķà¸£ à¹Ģà¸¥
1 5
à¸Ľ à¸²à¸ģ
à¸¢à¸¡ à¸Ĭà¸¡
Ġ3 8
Ġp hlebologist
ĠCon t
Ġà¸¥ à¸²à¸Ļ
Ġà¸Ļà¸²à¸Ļ à¸²à¸Ĭà¸²à¸ķ
à¸³ à¹Ģà¸ª
Ġà¹ Ķ
p h
à¹Ĥ à¸Ħà¸£
an k
à¸Ļ à¸£
à¸Ļ à¸ł
Ġà¸ķ à¸ģà¸¥à¸ĩ
Ġà¸£à¸°à¸¢à¸° à¸¢à¸²à¸§
à¹Ģà¸ĭ à¸¥
p e
à¸§ à¸²à¸Ļ
ul t
à¸§ à¸£à¸£à¸ĵ
Ġ8 9
a f
à¸¢à¸Ļ à¸ª
à¸§ à¹Ģà¸¡
Ġ or
u x
Ġà¸ªà¸²à¸¢ à¸ķà¸²
at ch
Ġà¸Ľà¸£à¸° à¸Ī
Ġà¸® à¸Ńà¸£
à¸ģ à¹ģà¸ªà¸Ķà¸ĩ
Ġà¹Ħ à¸ķà¸£
à¸Ķ à¸ĩà¸Ħà¸§à¸²à¸¡
à¸Ńà¸³à¸Ļà¸§à¸¢ à¸Ħà¸§à¸²à¸¡à¸ªà¸°à¸Ķà¸§à¸ģ
Ġ5 9
Ġà¸ģ à¸Ńà¸ļ
Ġà¹Ĥà¸Ľà¸£ à¸ķ
Ñ Ģ
Ġà¸«à¸£ à¸Ńà¸ģ
à¸Ļ à¹Ģà¸Ľ
ar a
Ġà¸į à¸²à¸ķ
Ġà¸Ŀ à¸Ļ
Ġà¸ªà¸° à¸Ĺ
à¸Ħà¸£ à¸²à¸§
à¹ Ĵ
ï¿½ï¿½ ï¿½ï¿½
az ada
à¸ģà¸²à¸£ à¸Ħ
à¸Ļ à¹Ģà¸Ļ
à¹Ģà¸ŀ à¸¥
ĠA B
Ġà¹Ģà¸ļ à¸£
Ġà¸ģà¸ ª
ĠC ent
à¸ĩà¸Ħ à¸²
Ġà¹Ħà¸Ľ à¸«à¸²
Ġà¸łà¸²à¸ŀ à¸ĸ
Ġà¹Ĥ à¸Ĥ
à¸²à¸ĵ à¸²à¸Ī
E C
à¸²à¸ģà¸ ģ
Ġà¹Ģà¸ģà¸©à¸ķà¸£ à¸ģà¸£
à¸¢à¸Ķ à¸Ļà¸²à¸¡
Ġà¹Ħ à¸¥à¸Ļ
Ġà¸Ļà¸²à¸ĩ à¸ªà¸²à¸§
à¸ģà¸ķ à¸²
à¸Ńà¸Ļ à¸«à¸¥
à¸¡à¹Ħà¸Ľ à¸Ķ
à¸§ à¹ģà¸ķ
à¸£à¸£à¸© à¸²
Ġà¹ ķ
à¸Ļà¹Ģà¸Ĺ à¸Ńà¸£
Ġà¸Ĥà¸Ļ à¸ª
à¸ģà¸ °
à¸²à¸ĩ à¸Ī
Ġà¹ģà¸£à¸ĩ à¸ĩà¸²à¸Ļ
à¸ģà¸§ à¸Ļ
ĠS m
or ld
ex t
à¸Ķà¸ĩ à¸²à¸¡
à¸Ķ à¸§
Ġà¸ªà¸³ à¸£à¸§à¸Ī
à¸į à¹ģà¸Ī
7 0
Ġà¸ķà¸³ à¸Ļà¸²à¸Ļ
Ġne urodermatitis
à¸Ļ à¸Ńà¸ĩ
ul l
Ġà¹Ĥ à¸«
Ġà¸ªà¹Ģà¸Ľ à¸Ļ
en ce
à¸²à¸Ĭ à¸¡
Ġà¸Ńà¸² à¹Ģà¸ĭ
à¸ª à¸ª
at er
an n
Ġà¸Ńà¸³à¸Ļ à¸§à¸¢
Ġà¸ĭ à¸Ńà¸ĩ
à¸Ĵà¸Ļ à¸²à¸ģà¸²à¸£
indow s
Ġà¸§à¸²à¸ĩ à¹ģà¸ľà¸Ļ
Ġà¸ªà¸Ķ à¹ĥà¸ª
ĠTag s
à¸²à¸Ļ à¸ķ
ĠG r
à¸¨ à¸¥
à¸ķà¸° à¸§
à¹ģà¸ ļ
à¸²à¸ Ŀ
1 8
Ġà¸§ à¸£
am p
à¸Ļ à¹Ģà¸ģ
Ġà¹Ģà¸Ĺ à¸£à¸Ķ
O M
à¸Ń à¹ģà¸¡
ĠUnivers ity
Ġà¸§ à¸²à¸Ķ
Ġà¸Ħà¸£à¸Ńà¸ļ à¸Ħà¸¥
à¹ ĵ
à¸Ľà¸£à¸°à¸ªà¸ļ à¸ģà¸²à¸£à¸ĵ
Ġà¸ªà¸ķ à¸²à¸£
à¹Ĥà¸Ķà¸¢ à¸ªà¸²à¸£
à¸£à¸° à¹Ģà¸ļ
ģà¸ ¥
à¸²à¸ŀ à¹Ģà¸Ī
à¸¢à¸ĩ à¸Ķ
Ġà¸Ĥà¸Ńà¸ĩ à¸Ĥà¸§
à¸ĩ à¹Ģà¸Ķ
ĠW h
O T
c oin
Ġà¸ģà¸²à¸£à¸Ľà¸£à¸° à¸ģà¸§à¸Ķ
à¸Ľ à¸Ľ
Ġà¸ª à¸ļ
Ñ ģ
Ġà¸£ à¸ŀ
r i
à¸Ķà¹Ģà¸ ŀ
à¸Ń à¹Ħà¸Ķ
C lub
ĠH e
à¸Ń à¸«
a h
à¹Ĥ à¸Ĭ
Ġà¸Ľ à¸Ĺ
Ġà¸¥à¸ĩà¸Ĺ à¸°à¹Ģà¸ļ
Ġà¹Ħ à¸ª
Ġà¸¨ à¸²à¸ªà¸Ļà¸²
ĠD e
à¸ĩ à¸Ńà¸Ńà¸ģ
Ġà¹Ģà¸ķ à¸°
Ġà¹Ĥà¸® à¸¡
à¸ī à¸°à¸Ļ
Ġà¸Ħà¸§à¸²à¸¡à¸ª à¸Ļà¹ĥà¸Ī
Ġà¹ģà¸ģà¸ °
à¸Ļ à¸²à¸§
Ġ... .
à¸Ķà¸ª à¸£à¸£
Ġà¸£à¸ĸ à¹Ħà¸Łà¸Ł
à¸Ńà¹Ħà¸Ľ à¸Ļ
Ġà¸Ĺà¸Ńà¸ĩ à¸Ħà¸³
ĠM ar
Ġà¸ļ à¸²à¸Ķà¹Ģà¸Ī
Ġ- -
Ġ4 4
1 6
Ġà¹Ģà¸Ń à¸²à¸Ĭà¸Ļà¸°
Ġ15 0
__ __
ĠTha i
1 2
ĠD r
u al
Ġà¸ł à¸²
Ġà¸ µ
Ġà¸Ķ à¸Ńà¸¥à¸¥
Ġà¸ªà¸ĸà¸²à¸Ļ à¸°
Ġà¸«à¸¡ à¸§à¸ģ
à¸§ à¸ª
Ġà¸ķà¸¥à¸Ńà¸Ķ à¸Īà¸Ļ
à¸Ĥ à¸§à¸²à¸ĩ
Ġà¸Ĺ à¸²à¸§à¸Ļ
Ġà¸ªà¸£à¸° à¸§
à¸¡à¸¡ à¸Ńà¸ĩ
à¸Īà¸³ à¹Ģà¸Ľ
Ġà¸Ŀ à¸²
à¸Ń à¸²à¸¨
Ġà¸ģà¸²à¸£à¸Ħ à¸§à¸ļà¸Ħ
ĠG B
à¸ģà¸ª à¸²à¸§
Ġà¸Ħà¸§à¸²à¸¡ à¸ŀà¸£
à¸£à¸£ à¸¢
à¸ģà¸£à¸° à¸Ĺà¸³
Ġà¸¨ à¸²à¸ªà¸ķà¸£
Ġà¸² à¸ĩ
Ġ4 2
Ġà¸ģà¸£à¸²à¸ Ł
t e
Ġà¸ŀ à¸§à¸ĩ
à¸ª à¸²à¸¡
à¸§à¹Ģà¸¥ à¸Ĥ
Ġà¹ģà¸¥à¸ģ à¹Ģà¸Ľà¸¥
Ġà¸ģà¸²à¸£ à¹Ģà¸Ĥ
Ġ5 6
à¹Ģà¸Ħ à¸Ĭ
à¹Ĩ à¹Ĩ
Ġà¸Ńà¸²à¸«à¸²à¸£ à¹Ģà¸ªà¸£
Ġà¸§ à¸£à¸£à¸ĵ
E L
Ġà¸ģà¸¥ à¸¡
ot o
Ġ5 8
à¸ªà¸¡ à¸Ħà¸§à¸£
à¸ĩ à¸Ńà¸³à¸Ļà¸§à¸¢à¸Ħà¸§à¸²à¸¡à¸ªà¸°à¸Ķà¸§à¸ģ
p s
Ġà¸£ à¸ĵ
Ġà¸Ĥ à¸ļ
Ġ8 4
Ġà¸Ķ à¸Ńà¸Ļ
à¸£à¸£ à¸²à¸Ĭ
Ġà¹Ħà¸ĭ à¸ª
Ġp orn
à¸Ĺ à¸¯
Ġà¹Ģà¸Ĭ à¸¥
à¸Ńà¸Ļ à¸Ħà¸¥à¸²à¸¢
à¸Ķ à¹ĥà¸Ī
Ġà¸Ľà¸£à¸°à¸Ĭ à¸²à¸ª
à¸ļ à¹Ĥà¸¥à¸ģ
Ġà¸ķà¸²à¸¡ à¸¡à¸²
Ġà¸Ĺà¸²à¸ĩ à¹Ģà¸Ķ
Ġà¸¡ à¸§à¸¢
Ġà¹Ģà¸Ń à¸ģà¸¥
it al
à¸¢à¸ĩ à¸ŀà¸Ń
ĠA D
Ġ3 9
à¸Ķ à¸ŀà¸¥
Ġà¸¥à¸³ à¹Ħà¸ª
à¹Į ,
Ġà¸Ĺ à¸²à¸£à¸ģ
Ġà¹Ģà¸Ħ à¸ª
à¸Ķà¸Ĺ à¸°à¹Ģà¸ļ
Ġà¸Ĥ à¸Ńà¸Ļà¹ģà¸ģ
Ġp h
Ġ25 0
Ġà¸£ à¸£
ĠS M
it coin
à¸§ à¸Ĭ
Ġ9 4
Ġà¸Ħà¸Ļ à¸Ķ
à¸ģà¸£à¸° à¸Ķ
à¸Ļà¸Ń à¸²à¸Ĺ
Ġà¸Īà¸Ļ à¸ģà¸£à¸°à¸Ĺ
al e
à¹Ĥà¸¡ à¸Ļ
ĠF l
T S
Ġ255 5
Ġà¸Ńà¸²à¸ļ à¸Ļ
ov e
Ġà¸ĩà¸²à¸Ļ à¸§
Ġà¹Ģà¸§ à¸Ļ
Ġà¸łà¸²à¸¢ à¸«à¸¥
Ġon line
à¸Ľà¸£à¸° à¸Ķ
à¸Ńà¸ĩ à¸ªà¸³
à¸Ķà¸ŀà¸¥ à¸²à¸Ķ
ant ip
à¸²à¸§ à¸Ĥà¸Ńà¸ĩ
à¹Ĥ à¸¢à¸ĩ
à¸ª à¸ģ
Ġà¸ª à¹ģà¸ķ
Ġà¸ģà¸¥ à¸¢
Ġà¸ŀà¸Ń à¹ĥà¸Ī
Ġà¸ŀà¸ĩ à¸©
à¸§à¸ĩ à¸Ļ
à¸Ļ à¸Ľà¸£à¸°à¸Īà¸³
Ġà¹ĥà¸Ļ à¸ģà¸£à¸ĵ
à¸Ī à¸²à¸Ħ
s e
ĠL ED
à¸Ńà¸ĩà¸ªà¸³ à¸Ń
à¸ļ à¸«à¸Ļ
Ġ5 3
à¸Ń à¸²à¸Ĺ
à¸Ķà¹Ģà¸ŀ à¸¥
Ġà¹ģà¸ĸ à¸¥à¸ĩ
à¸ģ à¹ĥà¸Ī
Ġà¸Ĺà¸£ à¸²à¸¢
-------- --------
à¹Ĥ à¸ĭ
à¸ĩ à¸«à¸²à¸£
en g
Ġà¹Ĥà¸¥à¸« à¸°
Ġà¸ł à¸£à¸£à¸¢à¸²
à¹Ģà¸Ħ à¸¡
Ġ201 3
à¸«à¸§ à¸²à¸Ļ
à¸Ļ à¸Ľà¸£à¸°à¹Ĥà¸¢à¸Ĭà¸Ļ
ĠW indows
Ġà¹Ģà¸ Ŀ
Ġ201 2
Ġ: :
ĠA ut
Ġà¸«à¸Ļ à¸²à¸§
Ġà¸Ħà¸¥ à¸²à¸ª
Ġà¸ģà¸¥ à¸²
à¸Ħà¸£ à¹Ģà¸¥
Ġà¸Ń à¸²à¸ª
Ġà¸ī à¸²à¸¢
ĠÂ ·
à¸ķ à¸²à¸¥
Ġà¸«à¸¥à¸§à¸ĩ à¸Ľ
lo ad
à¸³à¸Ļ à¸²à¸į
à¸Īà¸Ī à¸²à¸£à¸°
Ð¾ Ð
Ġà¸¡ à¸¥
à¸ªà¸Ļ à¹Ģà¸Ĺà¸¨
Ġà¸Ľà¸£à¸° à¸ĸà¸¡
à¹Ģà¸ļ à¸Ńà¸£
ĠBl ack
Ġà¸¡à¸²à¸ģà¸ ¢
ĠL ine
à¸Ħ à¸Ń
à¹Ĳ à¹Ĳ
à¹ģà¸ķ à¸ģà¸ķ
à¸ģà¸ ¡
Ġ $
à¸§ à¸Ń
Ġ5 7
à¸¡ à¸ģ
à¸ī à¸ļ
Ġà¸Ħà¸§à¸²à¸¡ à¸ªà¸°
ĠH ome
Ā Ā
Ġà¸¡à¸²à¸Ķ à¸£
in t
à¸²à¸Ļ à¸ļà¸Ļ
Ġc l
à¸ĩ à¸ŀ
à¸³ à¹Ģà¸ĩ
Ġà¹Ģà¸ģ à¸£à¸Ķ
à¸¥à¸° à¸Ħà¸Ļ
à¸© à¸İ
à¸ļà¸Ĺ à¸§à¸Ļ
à¸į à¹Ģà¸ª
O L
Ġj ob
Ġà¹Ģà¸¥ à¹Ģà¸ĭà¸Ńà¸£
Ġà¹Ħ à¸Ļ
à¹Ģà¸ģà¸ ĵà¸ĳ
ov er
Ġà¸ģà¸²à¸£à¸Ń à¸Ńà¸ģà¸
à¸į à¸¥
à¹Ģà¸Ľ à¸£
in o
1 4
Ġà¸ľ à¸ĩ
à¸Ļà¸ª à¸Ķ
à¸²à¸ª à¸¡
Ġà¸Ħà¸£à¸ļ à¸§à¸ĩà¸Īà¸£
à¸« à¸²à¸Ķ
Ġà¸¢à¸ģ à¹Ģà¸¥
à¸ĩ à¹Ģà¸¥
à¸Ķ à¸«à¸§
Ġw ith
Ġà¹Ģà¸ļ à¸²à¸°
à¸¡à¸¡ à¸Ļà¸²
à¹Ģà¸Ħ à¸¢
à¸Ľà¸£à¸° à¸ķ
ã Ģ
Ġà¸Ī à¸Ķà¸Ĺà¸°à¹Ģà¸ļ
ĠAp ple
à¸ªà¸Ļ à¸Ńà¸ĩ
à¸³à¸ķ à¸ģ
à¸§ à¸¥à¸°à¸Ħà¸£
Ġà¸Ńà¸²à¸«à¸²à¸£ à¹Ģà¸Ĭ
Ġà¹Ĥà¸Ĺ à¸Ļ
à¸ģà¸£à¸° à¸ļ
à¹Ģà¸ª à¸ĺ
Ġ) .
à¹Ģà¸ŀ à¸ĵ
Ġà¸¡ à¸²à¸«à¸²
Ġà¸£ à¸§à¸¢
Ġ ro
it ion
Ġà¸Ńà¸¢à¸²à¸ģ à¹Ħà¸Ķ
Ġà¸¡à¸Ńà¸ĩ à¸§
Ġà¹Ĥà¸Ħ à¸¡
Ġà¹Ħ à¸ĩ
Ġà¸ŀà¸Ń à¸ªà¸¡à¸Ħà¸§à¸£
à¸ĩ à¸Ńà¸²à¸¢
à¹ Ļ
Ġà¸ģà¸Ńà¸ļ à¸Ķ
à¸Ļà¹Ģà¸¥ à¸ª
à¸Ĺ à¸£à¸£
I L
à¸ģà¸ŀ à¸£
Ġà¹Ĥà¸¡ à¹Ģà¸Ķ
Ġ is
m ail
à¸Ŀ à¸²à¸ģ
ĠG Club
à¸¡ à¸ª
à¹Ģà¸Ħà¸£ à¸Ķ
Ġp r
à¸Ļà¸Ĺ à¸²à¸Ļ
ĠAnd roid
Ġà¸Ħà¸§à¸²à¸¡ à¸«à¸¡à¸²à¸¢
Ġà¸Ĭà¸³à¸£à¸° à¹Ģà¸ĩ
Ġà¸ģà¸³ à¸ģ
Ġà¸ĺ à¸²à¸ķ
Ġà¸ģ à¸²à¸į
Ġà¸ŀà¸£à¸° à¸£à¸²à¸¡
à¸ļ à¸§
Ġà¸ķà¸Ńà¸ļ à¸ªà¸Ļà¸Ńà¸ĩ
Ġà¸Ĥà¸ļ à¸§à¸Ļ
ĠM ic
y s
à¸Ĳ à¸¯
Ġà¹ģà¸ĸ à¸ļ
od e
Ġà¹Ģà¸¥ à¸Ļà¸ª
2 4
Ġ4 3
ĠS k
à¸Ĭ à¸²à¸Ĭ
Ġà¹ģà¸Ħ à¸¥
à¸²à¸§ à¸ĸ
Ġ5 4
à¹ģà¸ ĭ
Ġà¹Ħà¸¥ à¸Ł
à¸²à¸¡ à¸ģà¸¥à¸²à¸ĩ
Ġà¸ģà¸Ńà¸ĩ à¸«à¸Ļ
1 7
à¸ĵà¸ĳ à¸¥
à¸Ī à¸²
Ġb l
Ġà¸Ķà¸Ńà¸¥à¸¥ à¸²à¸£
à¸ĩà¹ģà¸ģ à¸£
ĠS P
m in
Ġà¸ģà¸£à¸° à¹ģà¸Ĺà¸ģ
à¸²à¸§ à¸£
à¸²à¸ĩ à¹ĥà¸Ļ
= =
à¸ķ à¸Ĭ
Ġà¸« à¸Ńà¸¢
à¸ģà¸³ à¹Ģà¸Ļ
Ġ le
ub e
Ġà¸Ĭà¸²à¸¢ à¸«à¸²à¸Ķ
Ġà¹Ģà¸ŀà¸Ĭà¸£ à¸ļ
Ġà¸ģà¸²à¸£ à¹Ģà¸¥
Ġà¸ģà¸²à¸£à¸Ńà¸Ńà¸ģà¸ ģà¸³à¸¥
y n
Ġà¸ªà¸²à¸£ à¸ŀ
Ġà¹ģà¸ļ à¸Ļ
ous e
Ġà¹Ģà¸¢à¸Ńà¸£ à¸¡
à¸ķà¸£ à¹Ģà¸Ħà¸£à¸Ķ
à¸« à¸Ńà¸¡
< <
à¹Ĥà¸¢ à¸ķ
Ġà¸Ĺà¸³ à¹Ģà¸Ľ
Ġà¸ģà¸£ à¸Ķ
à¸Ńà¸¡ à¹Ĥà¸¢à¸ĩ
Ġà¸ĭ à¸¡
Ġà¸Ĭà¸²à¸§ à¹Ħà¸Ĺà¸¢
Ġa v
Ġà¸£à¸°à¸¢à¸° à¸ª
à¸Ļ à¹Ĥà¸Ķ
à¸ļ à¹Ģà¸ĩ
à¸ģ à¸Ńà¸ļà¸£à¸¡
Ġà¹Ģà¸Ļ à¸Ń
Ġà¹Ģà¸« à¸ĩ
Ġl azada
à¸£ à¸Ńà¸ļ
Ġà¸¥ à¸ĩà¸ª
à¸ŀ à¸¤
à¸ŀà¸Ń à¹ĥà¸Ī
à¸Ļà¸ĺ à¸¡
à¸Īà¸²à¸£ à¸ĵ
à¸²à¸ĩ à¹ĥà¸Ķ
Ġà¸Ĥ à¸¢à¸°
ic al
à¸ĩ à¹Ģà¸Ľ
ĠOn line
ĠIn tern
à¹ģà¸ģ à¸Ļ
Ġà¸¥ à¸§à¸Ķ
Ġà¹Ħà¸¡ à¹Ĥà¸Ħà¸£
Ġà¹Ģà¸Ī à¸¥
à¸Ń à¸Īà¸²à¸ģ
Ġ4 6
à¸²à¸Ĺ à¸²à¸ĩ
Ġà¸ģà¸²à¸£ à¸ģà¸£à¸°à¸Ĺà¸³
un d
Ġà¸ģà¸£à¸° à¹Ģà¸ļ
Ġà¹Ģà¸Ĭà¸¥ à¸ĭ
Ġà¸Ħà¸§à¸²à¸¡ à¹ģà¸ķà¸ģà¸ķ
Ġà¸Ĺà¸²à¸ĩ à¸§
Ġà¹Ģà¸Ī à¸Ļ
à¸ª à¸²à¸ĺà¸²à¸£
c ess
Ġà¸ģà¸²à¸£ à¸ĭ
Ġ6 4
Ġà¸ģà¸²à¸£ à¹Ģà¸¡
us h
à¸¨ à¸Ĺà¸²à¸ĩ
à¸Ķà¸³ à¹Ģà¸Ļ
ĠY ou
à¸ĩ à¹Ģà¸ŀà¸¥à¸ĩ
Ġà¸ģà¸²à¸£ à¸ģ
Ġà¸Ļà¸²à¸¢ à¸ģ
à¸Ķ à¸ŀ
Ġà¸Ħà¸¥ à¸Ńà¸Ķ
Ġà¹Ģà¸ŀà¸£à¸²à¸° à¸īà¸°à¸Ļ
Ġà¸Ĺ à¸Ķ
Ġà¹ģà¸ľ à¸Ļà¸Ĺ
Ġ at
ĠA m
ª à¸²à¸Ĺ
à¸¡ à¸²à¸£
3 3
Ġà¸ĩ à¸²
à¹ ĺ
ĠO ff
à¸Ńà¸ĩ à¹Ģà¸¥
à¹Ħà¸Ĥ à¸Ľ
Ġà¹ģà¸Ĭ à¸¡à¹Ģà¸Ľ
Ġà¹Ħà¸Ń à¹Ģà¸Ķ
s ung
à¹Ģà¸ ®
Ġà¸łà¸²à¸Ħ à¸£
Ġà¸Ľà¸£à¸²à¸ ªà¸²à¸Ĺ
ĠO r
à¸£à¸ĩ à¸Ħ
Ġà¹ģà¸ªà¸Ķà¸ĩ à¹ĥà¸«
à¸ĩ à¸ģà¸²à¸£
à¹Ĥ à¸ļ
1 9
Ġà¸Ħà¸§à¸²à¸¡ à¸ĸ
Ġà¹ģà¸« à¸§à¸Ļ
Ġb e
à¹Ģà¸¨ à¸£à¸©à¸Ĳà¸ģ
Ġà¸Ĺà¸° à¸¥
Ġà¸£à¸ļ à¸ģà¸§à¸Ļ
à¸ģà¸ŀ à¸²
y l
Ġà¸ķà¸£à¸° à¸ģ
ĠP ost
à¹Ĥ à¸£à¸ĩ
à¸³ à¸ª
P S
Ġà¸Ńà¸° à¹Ħà¸«à¸¥
Ġà¸ģà¸²à¸£à¸Ľà¸£à¸° à¹Ģà¸¡
à¸ĺ à¸²à¸ķ
Ġà¸¡ à¸¡
à¸§ à¸§
à¸ļ à¸Ńà¸Ļ
à¸²à¸ ¯
Ġà¹Ģà¸¨ à¸©
Ġà¸£ à¸²à¸Ħ
à¸²à¸ĩ à¸ķ
à¸ĺà¸£à¸£à¸¡ à¸Ļ
ro w
à¹ģà¸Ĭ à¸¡à¸Ľ
Ġ4 9
Ġà¸¢à¸Ńà¸Ķ à¸Ĥà¸²à¸¢
Ġà¹ ĸ
à¹Ģà¸Ķ à¸Ńà¸£
Ġà¸«à¸²à¸¢ à¹ĥà¸Ī
Ġà¸ªà¸³ à¸£à¸Ńà¸ĩ
à¸ªà¸ĸ à¸²à¸Ļ
à¸Ĳ à¸ĺà¸£à¸£à¸¡à¸Ļ
à¸ĺà¸¢à¸¡ à¸¨
ĠC ar
ation al
Ġà¸¥à¸Ńà¸ĩ à¸Ķ
à¸ģà¸³ à¸ģ
Ġ å
à¸²à¸ģà¸ ¢
Ġ z
Ġà¸ĭ à¸Ńà¸Ł
Ġà¸łà¸²à¸Ħ à¹ĥà¸ķ
à¸¢à¸ĩ à¹ģà¸ķ
à¸³ à¸Ĺ
Ġà¸ªà¸Ńà¸ļ à¸£à¸²à¸Ħà¸²
Ġà¹ģà¸Ĺ à¸Ļà¸Ĺ
g ed
à¸²à¸ļ à¸£
Ġà¸Ń à¸Ńà¸Ļ
Ġà¹Ģà¸Ħà¸£ à¸Ķ
ĺ ħ
à¸Ī à¸Ńà¸Ķ
ĠA M
Ġà¹Ĥà¸Ĭà¸Ħ à¸Ķ
à¸Ĺà¸ĺà¸¨ à¸²à¸ªà¸Ļà¸²
Ġà¸ĩ à¸Ķà¸ĩà¸²à¸¡
à¸Īà¸Ńà¸Ķ à¸£à¸ĸ
à¸Ķà¸¥ à¸¡
à¸ĺà¸£à¸£à¸¡ à¸Ĭà¸²à¸ķ
Ġà¸£à¸°à¸¢à¸° à¸Ĺà¸²à¸ĩ
Ġà¸£ à¸Ńà¸Ķ
à¸ĩà¸Ħ à¸²à¸£
Ġà¸Ķ à¸Ńà¸¢
à¸²à¸§ à¸«à¸Ļ
à¸Ń à¸²à¸£
à¸Ħà¸£à¸ĩ à¸²à¸Ļ
à¸¥ à¸Ń
en c
Ġà¸Ļ à¸ŀ
Ġà¸¥à¸ĩ à¸ķ
Ġà¸ŀà¸£à¸°à¸£à¸²à¸Ĭ à¸Ĺà¸²à¸Ļ
Ġ4 00
Ġà¸ļà¸£ à¸¡
Ġà¸¥à¸Ķ à¸Ļ
Ġà¸ªà¸§ à¸£à¸£à¸Ħ
ĠUS B
Ġà¸ŀ à¸²à¸ĵ
own load
Ġà¸ģà¸²à¸£ à¹Ģà¸ģà¸©à¸ķà¸£
Ġà¹Ĥà¸ķ à¹Ĥà¸¢à¸ķ
d u
à¸ģà¸ ł
Ġà¸ļ à¸Ķ
Ġà¹ģà¸¡ à¸¥à¸ĩ
Ġà¸Ľà¸£à¸° à¹Ģà¸ŀà¸ĵ
Ġà¸ŀ à¸²à¸¢
à¸¥à¸¢ à¸ģà¸£à¸£à¸¡
Ġà¹Ģà¸Ńà¸² à¹ĥà¸Ī
Ġà¸ŀà¸£à¸° à¸ļà¸£à¸¡
Ġà¸ªà¸Ńà¸Ķ à¸Ħà¸¥
Ġà¸ģà¸²à¸į à¸Īà¸Ļ
à¸ģà¸²à¸£ à¸ļ
Ġà¸Ĺ à¸ļà¸Ĺà¸§à¸Ļ
à¸Ńà¸ĩ à¹ĥà¸Ļ
ap an
Ġà¸ģà¸£à¸° à¸«à¸Ļ
à¹ģà¸ª à¸ĩ
à¸Ńà¸ķ à¸ģà¸¥à¸ĩ
Ġà¸Ħà¸§à¸²à¸¡ à¸¥
à¹Ĥà¸ŀ à¸ĩ
Ġ6 5
Ġà¸Ĥà¸Ńà¸ĩ à¹Ģà¸¥
à¸© à¸Ĳà¸²à¸Ļ
à¸Ń à¸«à¸Ļ
an c
à¸¨à¸Ī à¸£à¸£à¸¢
à¸Ĭ à¸ģà¸²à¸¥
Ġà¸ľà¸¥ à¸ģà¸²à¸£
Ġà¸¥à¸Ķ à¸£à¸²à¸Ħà¸²
Ġà¸ģà¸£à¸° à¹Ģà¸Ĺ
Ġà¸ģà¸ Ĺ
à¸ĵà¸łà¸²à¸ŀ à¸Ķ
à¸ª à¹Ģà¸ķ
Ġà¸£à¸° à¸¢à¸Ńà¸ĩ
I D
à¸§à¸ģ à¸£à¸£à¸¡
à¸Ļà¸Ķ à¸²à¸¥
à¸Ĭ à¸¡à¸ŀ
à¸Ķ à¸«à¸¡à¸²à¸¢
à¸²à¸§ à¸Ķ
à¸§à¸ĩ à¸¨
à¸£à¸²à¸ ©
Ġ9 5
Ġ ï
à¸¨ à¸§à¸ģà¸£à¸£à¸¡
Ġà¸ªà¸¡ à¸£à¸£à¸ĸ
à¸ĩà¸Ħ à¸£à¸£à¸ł
Ġà¹ģà¸Ł à¸£
Ġ5 2
ĠSup er
à¸Ńà¸ĩà¸ģ à¸ĩ
Ġà¸ł à¸²à¸£à¸ģ
Ġp antip
Ġà¸ªà¸²à¸¢ à¸ģà¸²à¸£à¸ļ
C D
à¸Ħ à¸Ĺ
7 7
ark et
6 6
à¸Ļ à¹Ģà¸Ħà¸¢
3 4
oy al
Ġà¸Ľ à¸Ńà¸Ļà¸Ķ
Ġà¸ģà¸²à¸£à¸ŀ à¸Ļ
à¹Ĥ à¸Ł
à¸§à¸Ļ à¸¡à¸²à¸ģ
Ġà¹Ģà¸Ń à¸Ļ
ap p
uc k
Ġ o
Ġà¸ŀ à¸ģà¸ŀà¸²
à¸Ńà¸ĩ à¸§
Ġà¸Ħà¸³ à¸ŀ
à¸Ńà¸ĩà¸ªà¸³à¸Ń à¸²à¸ĩ
is e
à¹Ģà¸¡ à¸Ńà¸£
à¸ķ à¸¨à¸²à¸ªà¸ķà¸£
à¸§ à¸Ĺ
Ġà¹ģà¸ģ à¸Ļ
à¸¨ à¸ŀ
Ġà¸ªà¹Ģà¸Ľ à¸Ħ
ĠF r
à¸Ĥ à¸ª
Ġà¸Ľà¸£à¸°à¸Ĭ à¸²à¸ģà¸£
ĠP ower
à¸įà¸į à¸²à¸ķà¸£
à¸Ńà¸ĩ à¹Ĩ
Ġà¹Ĥà¸Ķà¸¢ à¸£à¸§à¸¡
à¸Ķ à¸²à¸¢
Ġà¸ªà¸Ľ à¸²
à¸ĩà¸Ħ à¹Ĥà¸Ľà¸£
ol l
ĠI D
in a
ĠG l
Ġs p
ĠA S
Ġà¸Ħà¸§à¸²à¸¡ à¸Ĺ
à¸£à¸²à¸ Ķ
à¸ĩà¸Ĥ à¸¥à¸²
Ġà¸Ľà¸£à¸°à¸¡ à¸§à¸¥
Ġà¸ª à¸ĩà¸Ĥà¸¥à¸²
à¸ģ à¹ģà¸¥
à¸¢ à¸¢
Ġà¸ŀ à¸°
er t
av e
Ġà¸ŀ à¸²à¸ģà¸¢
Ġà¹Ģà¸ŀ à¸²à¸°
à¸§à¸¢ à¸§
à¸¨ à¸²à¸Ī
à¸ģà¸ Ŀ
Ġà¸¥à¸³ à¹Ĥà¸ŀà¸ĩ
Ġà¸Ĺà¸³ à¸ļ
! !
à¸ģà¸² à¹ģà¸Ł
à¸Ńà¸ĩ à¸«à¸²
ot e
à¸¡à¸ŀ à¸£à¸°
Ġ5 55
Ġ7 5
at or
à¸²à¸ĩ à¸Ĥà¸§à¸²à¸ĩ
Ġà¸ļ à¸³à¸ļ
ĠE d
à¸Ń à¹Ħ
à¸£à¸° à¸§
à¸²à¸ Ł
Ġà¸Ī à¸²à¸£
Ġà¸ģà¸²à¸£ à¸ĩà¸²à¸Ļ
Ġà¸ļà¸Ĺ à¸ļà¸²à¸Ĺ
à¸¡ à¸ªà¸£
Ġà¸£à¸Ńà¸ĩ à¸Ĭà¸Ļà¸°à¹Ģà¸¥
in i
Ġà¹Ĥà¸ŀ à¸ĺ
U R
à¸´ .
Ġà¸Ľà¸£à¸°à¸ĸà¸¡ à¸¨
Ġà¹Ģà¸Ń à¸ģà¸Ĭà¸Ļ
Ġm l
Ġà¹Ħ à¸§à¸£
ĠO ne
Ġà¹Ħà¸§ à¸Ĺ
O P
f orm
à¸£à¸£à¸²à¸Ĭ à¸ª
Ġà¸¥à¸ĩà¸ª à¸Ļà¸²à¸¡
à¸£à¸²à¸© à¸İà¸£
Ġà¹Ĥà¸Ī à¸¡à¸ķ
c lub
à¸§ à¸ļ
7 5
Ġà¸Ļà¸Ħ à¸£à¸£à¸²à¸Ĭà¸ª
Ġà¸Ńà¸ļ à¸Ń
Ġà¸ķà¸Ńà¸Ļ à¹ģà¸£à¸ģ
ĠM e
à¹Ģà¸«à¸¥ à¸§
Ġà¸«à¸¥ à¸²à¸Ļ
à¸ª à¸£à¸£à¸ŀ
Ġà¸ŀà¸¢ à¸²à¸ļà¸²à¸¥
à¸Ŀ à¸Ļ
à¸Ĺà¸£à¸£ à¸¨
à¸ŀ à¸²à¸ģà¸©
Ġà¸ī à¸¥à¸Ńà¸ĩ
Ġà¸ŀà¸ĩ à¸¨
ĠEn g
à¸´ à¹ĭ
Ġà¹ģà¸Ń à¸Ľ
3 6
à¸Īà¸³ à¸ģ
à¸Ĺà¸£à¸£à¸¨ à¸ģà¸²à¸£
à¹Ħ à¸«
à¸§à¸¢ à¸ĩà¸²à¸¡
à¸ľ à¸ªà¸²à¸Ļ
ĠAl l
Ġà¸² à¸Ļ
y st
Ġà¸§ à¸²à¸£
Ġà¸ļ à¸§à¸¡
Ġà¸Ħà¸§à¸²à¸¡à¸ª à¸§à¸¢à¸ĩà¸²à¸¡
Ġà¹Ħ à¸§à¸Ļ
Ġà¸Ļà¸³à¹Ħà¸Ľ à¹ĥà¸Ĭ
ĠC al
Ġà¸Ľà¸£à¸°à¸Ĭ à¸²
Ġm m
iz e
à¸²à¸ģà¸ §
à¸Ħ à¸Ħ
à¸Ľ à¸°
re am
à¸Ńà¸Ļ à¸§
à¸Ńà¸ĩ à¸Ľà¸£à¸°à¸Ĭ
p age
Ġà¸ģ à¸²à¸¥
à¹ Ĺ
à¸ŀ à¸²à¸£
Ġà¹Ĵà¹ķ à¹ķ
ĠI P
Ġà¹Ĥà¸Ķà¸¢à¹Ģà¸īà¸ŀà¸²à¸° à¸Ńà¸¢
Ġà¹Ģà¸Ħ à¸¡
ĠC o
ĠF an
à¸²à¸¢ à¸Ķà¸²à¸¢
à¸Ńà¸ĩ à¹Ģà¸ŀà¸¥à¸ĩ
ro l
amb l
à¸Ļà¸ŀ à¸ļ
Ġà¹Ģà¸¥ à¸Ļ
Ġà¹Ĥ à¸«à¸¡à¸Ķ
ĠR oyal
ĠW eb
à¸į à¹Ģà¸ķ
er e
Ġ) :
on s
Ġà¹Ģà¸¨ à¸£à¸©à¸Ĳ
à¹ģ à¸£
ĠD es
Ġà¸Ĥà¸²à¸¢ à¸ª
ic s
2 8
Ġà¸«à¸Ļ à¸Ń
à¸Ļà¸ªà¸¡ à¸²à¸Ĭ
à¸² à¹ģà¸ģ
ĠP C
à¸¡ à¸£
ol id
à¹ģà¸Ī à¸ĩ
Ġà¹ģà¸ķ à¸°
Ġà¸Ĥà¸Ńà¸ĩ à¹ĥà¸Ĭ
à¸Ńà¸ĩ à¸Ĺ
Ġ \
à¸¡ à¸²à¸ª
à¹ģà¸ ĸ
à¸Ńà¸¢ à¸¥à¸ĩ
Ġà¹Ģà¸ģà¸ ¢
b o
Ġà¸ģà¸Ńà¸ĩ à¸ģà¸¥à¸²à¸ĩ
à¸ŀ à¸ļ
à¸¢à¸Ļ à¹Ħà¸Ľ
Ġà¹Ĵà¹ķ à¹ĸ
à¸¢ à¸ģà¸£
oun t
à¸§à¸Ī à¸£
à¸§à¸¥ à¸Ĭà¸Ļ
à¸ļ à¸²à¸ģ
à¹Ģà¸ģà¸ ¡
ĠHot el
Ġà¸ļà¸£à¸£ à¸¥
Ġà¸ ı
Ġà¸ªà¸²à¸ĺà¸²à¸£ à¸ĵà¸°
à¸§ à¸Ħà¸£à¸²à¸§
Ġà¸Ħà¸Ļ à¸¥à¸°
Ġà¹Ĥ à¸ī
ĠSam sung
Ġà¸ ·
à¸Ńà¸Ļ à¹Ģà¸Ķ
à¹ģà¸¢ à¸ģ
Ġà¸ªà¸§à¸¡ à¹ĥà¸ª
à¸²à¸Ļ à¹Ģà¸Ķ
à¸²à¸ĩà¸« à¸²à¸ģ
Ġà¹Ģà¸ģà¸ ĵà¸ĳ
a ir
à¸Ļà¸ķ à¸²
Ġà¹ģà¸Ĥ à¸§à¸ĩ
Ġà¸ªà¸ĩ à¸ļ
Ġà¸ĭà¸Ńà¸Ł à¸ķ
à¸ļ à¸¢
à¹Ģà¸ģà¸ Ī
à¹Ģà¸ĭ à¸Ļ
à¸Ńà¸£ à¸²
Ġà¸ŀà¸£à¸° à¸Ļà¸Ħà¸£
à¸¥ à¸³à¸Ķ
Ġà¸ģà¸²à¸£ à¸ĸ
ĠS T
Ġà¸ª à¸£à¸£
à¸ķà¸¢ à¸ģà¸£à¸£à¸¡
at a
Ġà¹Ĥà¸ŀ à¸ª
? ?
à¸ļ à¹Ģà¸Ľà¸¥
as ter
Ø §
à¹Ģà¸Ń à¸²
Ġà¸Ĥà¸²à¸¢ à¸Ĥà¸Ńà¸ĩ
Ġà¸£à¸ĸ à¸ķ
Ġà¸Ľ à¸²à¸Ļ
à¸ª à¸ªà¸²à¸§
à¸ªà¸ªà¸²à¸§ à¸°
à¸³à¹Ģà¸ª à¸¡à¸Ń
Ġ12 0
Ġà¸Ļà¸²à¸¢ à¸ģà¸£
2 6
Ġà¸ªà¹ģà¸ķ à¸Ļà¹Ģà¸¥à¸ª
Ġ ac
D A
Ġà¹Ģà¸ĭ à¸Ļ
it s
Ġà¸ªà¸²à¸£ à¹Ģà¸Ħà¸¡
Ġà¹Ģà¸Ń à¸§
à¸²à¸ģ à¸²à¸ģ
à¸Ķ à¹Ģà¸£
Ġà¸Ĭ à¸¥
Ġà¸Ľ à¸ģ
Ġà¸ķ à¸²à¸ģ
Ġà¹Ģà¸¥ à¸°
à¸§à¸ĩà¸Īà¸£ à¸Ľ
à¸§à¸Ļ à¸¡
ĠS w
Ġà¸Ħà¸³ à¸Ļ
à¸Ńà¸ĩ à¸§à¸ĩà¸Īà¸£à¸Ľ
Ġà¸Ľ à¸£à¸²à¸ļ
à¸Ķà¹Ģà¸« à¸ķ
Ġà¸ľà¸ªà¸¡ à¸ľà¸ªà¸²à¸Ļ
Ġà¹Ĥà¸Ĺ à¸©
à¸²à¸Ń à¸Ńà¸ģ
Ġà¸Īà¸³ à¹Ģà¸¥à¸¢
à¸Ľ à¹Ħ
1 3
à¸Ľà¹Ħ à¸ķà¸¢
à¸³à¸£ à¸§à¸Ī
IN E
Ġà¸¢ à¸Ļ
Ġà¸ī à¸°à¸Ļ
à¸ªà¸ĩ à¸Ĩ
Ġà¸ŀà¸¤ à¸«
Ġà¹Ģà¸ľ à¸Ĭ
ĠK n
Ġà¸£à¸§à¸¡ à¸ģ
ĠCom p
à¸Ļ à¸²à¸ĩ
Ġà¸¥ à¸²à¸ģ
Ġà¸Ļà¸Ńà¸ģ à¹Ģà¸«à¸Ļ
Ġà¹Ħ à¸ļ
à¸Ĺà¸ĺ à¸²
Ġ255 4
à¹Ģà¸ ľ
à¸ĩ à¸ģà¸§
à¸ĩ à¸ļà¸Ľà¸£à¸°à¸¡à¸²à¸ĵ
à¸ģà¸ŀ à¸Ļ
Ġ4 7
à¸ĵ à¸ŀ
Ġà¸£à¸²à¸¢ à¸§
à¸ļ à¸ĸ
à¸£à¸²à¸Ī à¸£
Ġà¸Ħà¸£à¸ļ à¸ĸ
à¸Ļà¸Ķà¸²à¸¥ à¹ĥà¸Ī
à¸²à¸Ĥ à¸²à¸¢
er o
ĠRe ad
Ġà¸ªà¸²à¸Ĥ à¸²à¸§
Ġà¸¡à¸²à¸ķà¸£ à¸ģà¸²à¸£
ay a
Ġà¸£ à¸³
Ġà¸« à¸ĩà¸ª
Ġn o
ig ital
ob ile
Ġà¸ľà¸¥ à¸ľà¸¥
à¸¢ à¸ĺà¸£à¸£à¸¡
à¸Ĺà¸ĺ à¹Ģà¸Ī
à¸² à¹Ħà¸£
le t
re en
à¸Ļ à¹ĥà¸Ļ
Ġà¸ģà¸²à¸£ à¹Ģà¸¢
à¸²à¸ŀ à¸£à¸°
à¸Ľà¸£ à¸²à¸ģà¸²à¸£
Ġà¸Ł à¸²à¸£
oun d
à¸ª à¸ĩà¸Ħ
à¸Ļ à¸²à¸ģà¸²à¸£
à¸«à¸£ à¸²
ĠN ov
à¸¡ à¸Ĺà¸£
Ġà¸ģà¸²à¸£ à¸Ńà¸ļà¸£à¸¡
Ġà¹Ĥà¸ģ à¸ĩ
Ġà¸Ĺà¸³ à¸Ħà¸§à¸²à¸¡
Ġà¸Ļà¸Ļà¸Ĺ à¸ļ
Ġà¸« à¸ģ
à¸Ħ à¸¡
ĠG al
Ġà¹Ħà¸Ľ à¸¡à¸²
Ġà¸Ĺ à¸Ļà¸Ĺà¸²à¸Ļ
4 5
à¸Ń à¹Ģà¸Ĺ
Ġà¸Ħà¸§à¸²à¸¡ à¸Ī
à¸ģà¸ Ł
Ġin t
U N
à¸²à¸Ĺ à¸²à¸¢
Ġà¸¢à¸ģ à¹Ģà¸§
Ġà¸Ħà¸§à¸²à¸¡ à¸«à¸¥
Ġà¸ªà¸¡ à¸Ķ
Ġà¸Ľà¸£à¸°à¸ģà¸§à¸Ķ à¸£à¸²à¸Ħà¸²
Ġ8 2
Ġà¸Ĭ à¸¡à¸ŀ
à¸²à¸£ à¸ŀ
à¸ŀ à¸ĺ
Ġà¹Ĥà¸ĭ à¸¥
à¸²à¸« à¸§à¸²à¸Ļ
à¹Ģà¸«à¸¡ à¸²à¸°
Ġà¸¥à¸³ à¸Ķ
Ġ Ä
à¸Ľ à¸ĸ
à¸ģà¸²à¸£ à¸ļà¸£
Ġà¹ģà¸£à¸ĩ à¸ļ
à¸ļ à¸Ńà¸²à¸ģà¸²à¸¨
à¸§à¸Ļ à¸ļ
à¸Ļ à¹ģà¸Ķà¸Ļ
» ¿
Ġà¸ŀà¸£à¸°à¸£à¸²à¸Ĭ à¸ļ
er v
à¹Ĥ à¸Ĥ
à¸Ļ à¹ģà¸Ķà¸Ķ
à¸Ļà¸Ńà¸Ńà¸ģ à¹Ģà¸ī
ate g
à¸²à¸© à¸İà¸£
Ġà¹Ĥà¸ļ à¸Ļ
à¸§à¸£ à¸Ńà¸¢
à¸Ķ à¸«à¸¢
à¸² à¹Ĩ
à¸© à¸ĵ
ĠS E
Ġà¸«à¸¥à¸²à¸¢ à¸Ńà¸¢
i am
à¸ģà¸¥ à¸ĩà¸Ĺ
Ġà¸ļà¸£à¸£ à¹Ģà¸Ĺà¸²
à¸Ľ à¸ĭ
w are
Ġà¸¢ à¸ĩ
c l
Ġ up
à¸Ńà¸ĩ à¸«à¸¡à¸²à¸¢
iv es
à¸¢à¸į à¸Ĺà¸Ńà¸ĩ
Ġà¸¡à¸²à¸ģ à¹Ģà¸ģ
à¸²à¸Ļ à¹ĥà¸Ļ
Ġ... ..
Ġà¸Ħà¸£à¸Ńà¸ļà¸Ħà¸£ à¸Ńà¸ĩ
Ġà¸ĸ à¸Ļ
Ġ201 0
X X
Ġà¸ŀà¸£ à¸¡
à¸ļ à¹ĥà¸Ĭ
ic ation
it t
à¸Ļ à¹ģà¸«à¸¥à¸°
Ġà¹Ħ à¸ľ
à¸¹ à¹Ĭ
Ġà¸¡à¸° à¸Ļà¸²à¸§
¤ à¸ķ
Ġà¸Ħà¸§à¸²à¸¡ à¸Ľà¸£à¸°
Ġà¸ļà¸£à¸£ à¸¢à¸²à¸¢
Ġ201 1
ĠB ang
ĠAr ch
à¸Ńà¸ĩ à¹Ħà¸«
à¸Ľà¸£à¸°à¸Īà¸³ à¸§
Ġà¹Ģà¸Ī à¸Ķ
Ġà¸¡ à¸£
v iew
à¸§à¸Ĥ à¸²à¸§
il le
ĠSm art
Ġà¹ģà¸ľ à¸ĩ
Ġà¸ģà¸ ļ
à¸ªà¸³ à¸£à¸§à¸Ī
Ġà¸¢ à¸ģà¸£à¸°à¸Ķ
Ġà¸ª à¸²à¸ģà¸¥
Ġà¸§ à¸²à¸Ļ
Ġà¸ģà¸²à¸£ à¹ģà¸ŀà¸Ĺà¸¢
Ġc m
ĠI N
à¸Ļà¹Ģà¸Ļ à¸Ńà¸£
à¹Ħà¸ĭ à¸Ħ
Ġà¸ª à¸ģà¸£
ĠW orld
Ġ** *
à¸¡ à¸²à¸ķà¸£
3 9
Ġà¸Ħà¸Ńà¸Ļ à¹Ģà¸ª
à¸Ń à¸²à¸ĵà¸²à¸Ī
Ġà¸ľà¸¥ à¸¥
Ġà¸Ĺà¸²à¸ĩà¸ģà¸²à¸£ à¹Ģà¸ĩ
à¸³ à¸¢à¸²
Ġà¸ĭ à¸Ń
o h
à¸Ļ à¹Ĥà¸£à¸Ħ
à¸Ĺ à¸Ĭ
à¸Ļà¸¢ à¸³
à¸ķà¸³ à¹ģà¸«à¸Ļ
Ġ al
ĠI S
ax y
ĠP M
Ġà¸ģà¸¥à¸²à¸ĩ à¸Ħ
à¸¤ à¸Ĺà¸ĺ
à¸£à¸£ à¸Ĺ
em ent
Ġà¹Ģà¸Īà¸£ à¸Īà¸²
I G
Ġà¹Ģà¸« à¸¡à¸²
à¸¢ à¸Ĺ
Ġà¸£ à¸²à¸ģ
3 7
Ġ an
Ġà¹Ģà¸ŀà¸¨ à¸Ĭà¸²à¸¢
à¸§ à¹Ģà¸Ĺ
Ġà¸Ĺ à¸²à¸¢
Ġà¹Ĥ à¸§
Ġà¸ģ à¸Ńà¸¥
Ġà¸Ķ à¸²à¸£
à¸¡ à¸ĩà¸Ħà¸¥
à¹Ģà¸ģà¸ ©
Ġà¸¨ à¸ŀ
à¹Ĥà¸Ľ à¸£à¸ĩ
2 9
Ġà¸Ħà¸Ļ à¸Ĥ
à¸² à¹Ħà¸¡
a ut
Ġà¸¥à¸³ à¸Ľ
le ct
à¸§à¸Ļ à¸Ľà¸£à¸°à¸ģà¸Ńà¸ļ
Ġy ou
à¸ģ à¸Ńà¸ģ
à¸Ħ à¸Ķ
Ġà¹ģà¸¥ à¸Ļà¸Ķ
à¹Ĥ à¸ķà¸£
à¸Ļà¸Ĺ à¸Ļà¸²
d ing
e p
à¸£à¸²à¸ ĭ
Ġà¸ĸ à¸¥
à¸ª à¸²à¸ļ
Ġà¸Ĺà¸²à¸ĩ à¹ĥà¸Ļ
Ġà¸¡à¸Ńà¸ļ à¹ĥà¸«
à¸Ķ à¹Ģà¸ģ
Ġ he
Ġà¸ģà¸ ķ
ra v
Ġà¸§à¸ĩ à¸Īà¸£
Ġ Ñ
Ġà¸«à¸¥à¸²à¸¢ à¸Ħà¸£
Ġà¹ģà¸Ĥ à¸§à¸Ļ
Ġà¸Ľà¸¥ à¸Ńà¸¡
Ġ á
Ġà¹Ģà¸¥à¸Ĥ à¹Ģà¸Ķ
à¸²à¸ĩ à¸Ń
Ġà¸ģà¸²à¸£ à¹Ģà¸Ħà¸¥
ĠR o
à¸Ńà¸ĩ à¸Ĭ
à¸Ľ à¸ªà¸£à¸£à¸Ħ
Ġà¸Ļà¸³à¹Ħà¸Ľ à¸ª
ĠP R
à¸² à¹Ģà¸Ķ
ĠPl us
Ġà¸Ĺ à¸ĺ
Ð »
Ġà¹Ģà¸ĩ à¸²
Ġà¸¥à¸³à¸Ľ à¸²à¸ĩ
à¸Ļ à¸Ī
Ġà¸¡ à¸²à¸Ļ
à¸ķ à¸³à¸£à¸§à¸Ī
ee k
ĠPl ay
ĠAn g
i er
Ġ ex
Ġf acebook
¸ ı
Ġ u
Ġà¸ªà¸łà¸²à¸ŀ à¹ģà¸§à¸Ķà¸¥
I P
à¸ªà¸³ à¸Ļ
r on
** **
à¸Ķà¸ĩà¸Ħà¸§à¸²à¸¡ à¸Ħ
à¸Ńà¸ĩ à¸Ľà¸£à¸°à¸Ķ
Ġà¸Ļ à¸£
Ġ6 9
ĠM A
ĠS l
à¸ģà¸ ĺ
à¸ģà¸£à¸° à¸Ī
à¹Ģà¸¥ à¹Ģà¸ĭ
Ġ4 1
Ġà¸Ķà¸§à¸ĩ à¸ķà¸²
Ġà¸¡ à¸Ńà¸ª
Ġà¸Ħà¸¥à¸²à¸ª à¸ª
Ġà¸£ à¸²à¸ĩ
à¸²à¸Ħ à¸£
à¸Ļà¸Ĭ à¸¡
Ġà¹Ħ à¸«
Ġà¸¡à¸² à¹Ģà¸¥à¹Ģà¸ĭ
à¸§ à¸ķà¸Ļ
ĠP al
ĠD is
Ġà¸Ĺ à¸Ń
Ġ us
on y
Ġà¹ģà¸ľ à¸Ļà¸ģà¸²à¸£
Ġà¸Ħà¸§à¸²à¸¡ à¸Ŀ
à¸£à¸° à¸¥
Ġà¸ģà¸£à¸° à¹Ĥà¸Ķ
Ġ+ +
Ġà¸§ à¸¢
Ġà¸Ĺà¸³ à¸Ńà¸²à¸«à¸²à¸£
Ġà¸ŀà¸£ à¸«à¸¡
en er
Ġà¸ģà¸£à¸°à¸Ĺ à¸ļ
Ġà¸łà¸²à¸Ħ à¹Ģà¸«à¸Ļ
Ġà¸£ à¸²à¸©à¸İà¸£
Ġà¹ģà¸«à¸¥ à¸¡
à¸Ńà¸ģà¸ ª
à¸ĺ à¸£
à¹Ħà¸¥ à¸Ĺ
à¸Ńà¸ĩ à¹Ģà¸ª
ĠFan page
à¹Ģà¸ª à¸Ļ
à¸Ľà¸£à¸°à¸ģ à¸²à¸¨
à¹ģà¸ĭ à¸¡
Ġà¸ģà¸£à¸° à¹Ĥà¸Ľà¸£à¸ĩ
Ġà¸ªà¸ĸà¸²à¸Ļ à¸¨
âĢ Ķ
Ġà¹Ĥà¸£ à¸¡
à¸ļ à¸Ł
à¸Ńà¸¡ à¹ģà¸ĭà¸¡
Ġà¸Ľà¸¥ à¸Ķ
if e
à¸Ĺà¸¢à¸²à¸Ļ à¹ģà¸«
à¸Ńà¸ģà¸ ³
ear ch
Ġ19 9
Ġà¸ĩ à¸ģ
ar m
à¸Ī à¸ĩ
Ġà¸§ à¸°
F A
Ġà¸£à¸²à¸Ĭ à¸ł
Ġà¸Ĺà¸°à¹Ģà¸¥ à¸ªà¸²à¸ļ
à¸ªà¸§ à¸£à¸£à¸Ħ
Ġà¸Īà¸Ļ à¸ģà¸§
Ġà¸Ľà¸¥ à¸Ńà¸Ķ
Ġ em
Ġà¸Ħà¸§à¸²à¸¡ à¸ģ
ï ¸ı
Ġr es
à¸ģ à¹Ģà¸ī
ĠÃ ©
à¸Ļ à¸Ħà¸§à¸²à¸¡
à¸³ à¸«à¸Ńà¸¡
Ġà¸£à¸²à¸Ĭ à¸ļ
Ġà¸Ĥ à¸Ńà¸£
IN G
ĠU p
3 8
Ġâ ľ
à¸ĩ à¸ĸ
à¹Ĥ à¸Ħà¸Ļ
à¸¢ à¹Ģà¸§à¸¥à¸²
Ġà¸ĸ à¸²à¸§à¸£
à¹Ģà¸Ń à¸ª
à¹Ĥ à¸ª
à¸ļ à¸²à¸ĩ
Ġà¹Ģà¸§ à¸Ĭ
à¸Ĺà¸£ à¸Ľà¸£à¸²à¸ģà¸²à¸£
à¸¢à¸Ķ à¸²à¸¢
à¸¢ à¸Ĭà¸Ļà¸°
à¹Ģà¸ ĸ
ĠCent er
à¸¢à¸§à¸° à¹Ģà¸ŀà¸¨
4 4
à¸Ļ à¹Ģà¸«à¸ķ
Ġà¹Ĥ à¸ª
à¹Ĥà¸Ł à¸Ļ
r u
à¸Ńà¸ĩ à¸Ħà¸£
à¸Ĺà¸£ à¸²à¸¢
k ok
ĠTag ged
Ġà¸Ļà¸²à¸Ļ à¸²
Ġà¸ª à¹ģà¸ģà¸Ļ
à¹Ĥ à¸Ħ
Ġà¹Ģà¸Ń à¸Ĭ
Ġ6 6
ĠT w
ĠE l
à¸²à¸ĺ à¸£à¸£à¸¡
à¸ĩ à¸ŀà¸Ńà¹ĥà¸Ī
Ġà¸¥à¸²à¸Ķ à¸ŀà¸£
Ġà¹Ģà¸¡ à¸²
Ġ" :
à¸ģà¸« à¸į
Ġ255 3
Ġà¸ģà¸Ĺ à¸¡
Ġà¸ľà¸¥ à¸Ľà¸£à¸°à¹Ĥà¸¢à¸Ĭà¸Ļ
Ġà¸ķà¸£à¸ĩ à¸Ĥ
à¸ķà¸¢ à¸ªà¸²à¸£
à¸Ľ à¸Ĺà¸£à¸ĩ
er n
à¸ª à¸ļà¸Ķ
ĠM P
i y
à¸Ń à¸ĺ
Ġà¸ģà¸²à¸£ à¸Ńà¸Ļ
à¹Ħ à¸ģà¸¥
à¸£à¸° à¸Ķ
à¸ģà¸¥ à¸¡
à¸Ń à¸ģà¸¥
ĠP art
Ġ6 00
ĠB itcoin
r ic
Ġà¸Ļà¸³à¸¡à¸² à¹ĥà¸Ĭ
Ġà¹ģà¸Ľ à¸£à¸ĩ
Ġ {
Ġà¸ģà¸¥à¸²à¸ĩ à¹Ģà¸¡
ĠT V
j ect
à¸ķ à¸ķà¸²
Ġà¸ģ à¸£à¸²à¸ļ
an a
ĠT O
Ġà¹Ģà¸ķ à¸²
à¸Ĺà¸ĺ à¸¨à¸²à¸ªà¸ķà¸£
ĠN o
Ġà¹ģà¸Ĥ à¸ģ
à¸¤ à¸©à¸İ
Ġà¸ªà¸ł à¸²à¸§à¸°
er y
à¸¡ à¸²à¸¥
Ġ1 000
Ġà¹ģà¸ģà¸ ¥
Ġ256 2
à¸ŀ à¸²
Ġà¸¡à¸Ńà¸ª à¹Ĥà¸ģ
Ġà¸ģà¸£à¸°à¹Ĥà¸Ķ à¸Ķ
Ġ as
à¸Ķ à¹Ħà¸Ľ
à¸ķ à¸Ľà¸£à¸°à¸Īà¸³à¸§
Ġà¸Ĺà¸³ à¸£
ĠGal axy
Ġà¸Ľà¸£à¸²à¸ ¨
Ġà¸Ħà¸§à¸²à¸¡ à¸ŀ
t s
à¹ĥ à¸¢
à¸Ļà¹Ħà¸Ľ à¸ķà¸²à¸¡
Ġà¸£ à¸²à¸¨
à¸¢ à¸ł
Ġ9 7
L E
ed ia
Ġà¸ ´
Ġà¸ Ĳ
l ess
à¸Ī à¸ļ
à¸£à¸²à¸Ĭ à¸ĺà¸²à¸Ļ
à¸ļà¸¥ à¸£à¸²à¸Ĭà¸ĺà¸²à¸Ļ
Ġà¸ļ à¸ģà¸ŀà¸£
à¸ķà¸§ à¸£à¸£à¸©
yst em
à¸ĩà¸ª à¸§
à¸Ĺ à¸Ļ
à¸ģà¸Ľà¸£à¸° à¸ªà¸ĩà¸Ħ
b n
Ġà¸Ħà¸£ à¸²à¸§à¸Ļ
à¸¡à¹Ģà¸Ľ à¸į
à¸Īà¸ī à¸£
Ġà¹Ĥà¸Ħ à¸ķà¸£
er a
Ġà¸Ħà¸Ńà¸Ļ à¸ģà¸£
à¸ķ à¸²à¸¢
à¸¥ à¹Ģà¸¥
Ġà¹Ģà¸«à¸£ à¸Ń
Ġà¹ģà¸ļ à¸Ħà¸Ĺ
Ġà¹Ģà¸Ĭ à¸Ł
m e
à¸Ī à¸į
Ġà¸ļà¸£ à¸²
à¸Ńà¸ĩ à¸«à¸¥
Ġ5 1
Ġà¸ģà¸²à¸£à¸Ľ à¸ģà¸Ħà¸£à¸Ńà¸ĩ
Ġà¸¥à¸³ à¸ļà¸²à¸ģ
t on
à¸Ħà¸³ à¸Ľà¸£
Ġà¹ģ à¸Ńà¸Ķ
à¸ĵ à¸ĺà¸£à¸£à¸¡
Ġà¹Ģà¸Ķ à¸Ĭ
à¸Ń à¹Ģà¸ģ
Ġà¹ģà¸Ħ à¸£
Â ¸
c o
ap h
Ġà¸Ń à¸ŀà¸²à¸£
Ġà¸«à¸¡à¸§à¸Ķ à¸«à¸¡
à¸Ńà¸ĩ à¸Ľà¸£
A P
Ġà¸ķà¸£à¸° à¸«à¸Ļ
8 9
Ġà¸Ħà¸£à¸ļ à¸Ħà¸£
Ġà¹Ĥà¸ķ à¹Ģà¸ģ
Ġà¸£à¸ĸà¸ļ à¸£à¸£à¸Ĺ
Ġà¸ģà¸£à¸° à¹Ģà¸ŀà¸²à¸°
d o
Ġà¸Ĺà¸§ à¸²à¸£
à¸«à¸²à¸£ à¸ª
2 7
Ġà¸¡ à¸Ķ
et h
Ġà¸Ĺà¸³ à¸ģ
Ġ8 5
ĠM y
Ġà¸Ľ à¸Ńà¸Ķ
Ġà¸Ńà¸²à¸ª à¸²
ĠA g
à¸«à¸¥ à¸²à¸Ķ
à¸³ à¹ģà¸Ĥ
à¸²à¸£à¸ĸ à¸Ļà¸²
Ġà¸« à¸ĩ
Ġà¸¡ à¸Ńà¸Ļ
re at
Ġà¸«à¸¥ à¸Ńà¸ģ
Ġà¹Ģà¸ļ à¸Ļ
Ġà¸Ħà¸§à¸²à¸¡à¸ª à¸³à¸Ħ
Ġà¹Ħà¸¡ à¸¥
à¸² à¹Ģà¸ª
ĠMan ag
ĠD igital
Ġà¸Ķà¸³ à¸Ļ
âĢ¦ âĢ¦
à¸ģà¸³ à¹Ħà¸£
à¸¢à¸¡ à¸ķ
ĠF ree
ĠE P
t r
Ġà¹Ĥ à¸į
Ġà¸ļ à¸£à¸²à¸ĭ
Ġs c
à¸¡ à¸ĩ
Ġà¸Ħà¸§à¸²à¸¡ à¸ļ
à¹Ģà¸¡ à¸Ļà¸ķ
à¸Ļà¸§ à¸ĵ
à¸Ħ à¸Ĭ
Ġà¸ŀ à¸Ńà¸£
à¸Ļ à¹ģà¸ļà¸ļ
Ġà¹Ħà¸Ķ à¸£
à¸¡à¸Ļ à¸²à¸Ħà¸¡
à¸£à¸Ķ à¸ģ
Ġà¸Ľà¸£à¸°à¸ª à¸²à¸Ĺ
à¸Ńà¸¡ à¸ŀ
à¸²à¸ĺà¸£à¸£à¸¡ à¹Ģà¸Ļ
ide o
à¸ĩ à¸ĩ
Ġà¸¡ à¸²à¸¥
Ġà¸Ľà¸£à¸°à¸Īà¸³ à¹Ģà¸Ķ
Ġ. ,
à¸¢ à¹ĥà¸Ī
io us
à¸Ķ à¹ģà¸¢
Ġà¸Ĺà¸³ à¸ķà¸²à¸¡
Ġà¸«à¸¡ à¸Ńà¸Ļ
Ġà¸Ĭà¸²à¸¢ à¹ģà¸Ķà¸Ļ
Ġà¹Ħà¸® à¹Ĥà¸¥
Ġà¹Ħà¸Ń à¸Ĺ
à¸ģà¸« à¸¥
à¸ģà¸ ¤à¸ķ
Ġà¸Ħà¸§à¸²à¸¡à¸ªà¸° à¸Ķà¸§à¸ģ
à¸ªà¸¡ à¹Ģà¸Ķ
à¸¥à¸² à¹Ģà¸Īà¸Ļ
Ġà¸Ł à¸Ń
à¸Ķ à¸²à¸Ļ
du ct
Ġà¹ĥà¸ļ à¸Ńà¸Ļ
Ġà¸¨à¸²à¸¥ à¸²
à¸Ķ à¸Īà¸³à¸«à¸Ļ
olid ay
al th
Ġà¸ŀà¸¥ à¸Ńà¸¢
Ġà¸Ħà¸Ńà¸¥ à¸¥à¸²à¹Ģà¸Īà¸Ļ
ĠM od
ĠN et
e ed
Ð º
Ġb r
à¸Ļ à¸°
Ġà¹ģà¸ Ŀ
à¸²à¸Ļ à¹Ģà¸¡
Ġ }
à¸Ķà¸Ĥ à¸²à¸Ķ
à¹Ĥà¸¥ à¸ģà¸£
ĠG u
à¸ŀ à¸²à¸¢
à¸§à¸¡ à¹ĥà¸Ļ
à¸Ķ à¹ģà¸ªà¸Ķà¸ĩ
à¸¢à¸ļ à¸ĩ
ĠiP ad
Ġà¸Ħà¸³ à¸Ļà¸§à¸ĵ
Ġà¸ł à¸²à¸£à¸°
Ġà¸Ħà¸§à¸²à¸¡à¸«à¸¥ à¸²à¸ģà¸«à¸¥à¸²à¸¢
Ġà¸Ħà¸£ à¸²à¸ļ
Ġà¸ĩ à¸Ń
I M
à¸² à¹Ģà¸Ĺ
2 00
Ġà¹Ĥ à¸ł
à¸į à¸Ĭà¸²
Ġà¸Ĭà¸¡ à¸£à¸¡
à¸Ĺ à¸ļ
âĢ ľ
Ġà¹Ģà¸ļ à¸ª
Ġà¸ªà¸²à¸¢ à¸ŀ
à¸³ à¸ľ
al k
Ġà¹Ģà¸Ł à¸ĭ
y le
à¹ģà¸ľ à¸¥
6 5
ĠB ET
Ġà¸ªà¸Ļ à¸Ńà¸ĩ
l and
n ing
à¸§ à¸ĸ
Ġ ^
à¸ģà¸£ à¸ĺ
Ġà¸ľ à¸²
Ġà¸Ķà¸Ńà¸ģ à¹Ģà¸ļ
ĠSh op
Ġà¸ģà¸£à¸£à¸¡à¸ģà¸²à¸£ à¸ľ
s p
à¸Ľ à¸Ĳà¸¡
Ġà¸ªà¸¡ à¸²à¸ĺ
Ġà¸£ à¸¡
à¹ģ à¸ĩ
ĠIn t
Ġà¸ģà¸²à¸£ à¹Ģà¸Īà¸£
Ġà¸ªà¸¡ à¸Ħà¸§à¸£
à¸²à¸Ļ à¸ģà¸²à¹ģà¸Ł
Ġà¸¥à¸ĩ à¸¡
ch n
or s
Ġà¸ªà¸²à¸ĺà¸²à¸£à¸ĵ à¸ª
à¸Ļà¸§ à¸²à¸¢
à¹Ĥà¸¢ à¸Ħ
Ġà¸Ļà¸Ħà¸£ à¸Ľà¸Ĳà¸¡
Ġà¹Ħà¸® à¹Ħà¸¥à¸Ĺ
u z
Ġà¹ģà¸Ĺà¸ļ à¸Īà¸°
Ġà¸ĩà¸²à¸Ļ à¹ģà¸ķ
à¸Ļ à¸£à¸°à¸ļà¸ļ
Ġà¸Ľà¸£à¸²à¸¨ à¸Īà¸²à¸ģ
Ġà¸Ħ à¸ª
ĠQ u
à¸ĩà¸¢ à¸²à¸ģ
ĠI m
à¸Ń à¹Ģà¸Ĭ
I R
as on
Ġâ Ĩ
os e
Ġà¹Ĥà¸Ľà¸£ à¹Ģà¸Ī
ĠâĢ¦ .
f er
Ġà¸ĩ à¸ĩ
Ġà¸¡à¸° à¸ŀà¸£
Ġw h
à¸ģà¸Ľ à¸£à¸ģ
Ġà¸ķà¸³ à¸«à¸Ļ
Ġà¹ģà¸Ļ à¸°
à¸²à¸ģà¸ Ĥ
à¸ģà¸©à¸² à¹Ĥà¸£à¸Ħ
Ġà¹Ģà¸ģà¸ ©
Ġà¸ģà¸¥à¸²à¸ĩ à¹ģà¸Ī
c om
w ork
Ġà¸ĺ à¸²à¸Ļ
Ġà¸Ļ à¸²à¸Ħ
Ġà¸Ħà¸§à¸²à¸¡à¸ª à¸Ļ
à¸²à¸ĩ à¸ļ
Ġà¸ļà¸£à¸£ à¸Ĺ
Ġà¸ģà¸¥ à¹Ħà¸ģ
à¸ļà¸²à¸Ĺ à¸ªà¸¡à¹Ģà¸Ķ
Ġà¸Ħ à¸¡
Ġà¸ŀà¸Ń à¸Ĺ
à¸Ń à¹Ĥà¸£à¸Ħ
Ġm e
Ġà¸£ à¸Ļ
Ġ8 00
à¸Ľ à¸¥à¸²à¸¢
à¸Ńà¸¢ à¸Ķ
Ġà¸Ĺà¸Ķ à¹ģà¸Ĺà¸Ļ
Ġà¹ģà¸Ħ à¸¡à¹Ģà¸Ľà¸į
à¸§ à¹Ģà¸£à¸²
Ġà¹Ĩ à¸Ħà¸Ļ
Ġà¹Ģà¸Ļ à¸¢
à¸§ à¸«
Ġà¸Ľ à¸Ń
Ġà¹Ĥà¸¡ à¸ĩ
Ġ am
Ġà¹ģà¸ľ à¸Ļà¸ģ
Ġà¸Ń à¸²à¸Ļ
à¸²à¸Ī à¸²à¸£à¸¢
Ġà¸Ń à¹Ģà¸Ļ
à¸£à¸© à¸ĵ
Ġà¸£à¸ĸ à¸Ī
2 3
Ġà¸ķà¸²à¸¡ à¸ģà¸İà¸«à¸¡à¸²à¸¢
Ġà¸ŀà¸£à¸° à¸ļà¸²à¸Ĺà¸ªà¸¡à¹Ģà¸Ķ
Ġà¸ĭ à¸²à¸ģ
Ġà¸Ħ à¸¡à¸Ĭ
à¸Ķ à¸£à¸°à¸§
am a
Ġà¹ģà¸£à¸ĩ à¸Ķ
Ġà¹Ĥà¸ĭ à¹Ģà¸Ĭ
ĠC as
Ġà¸ º
à¸® à¸Ńà¸¥
Ġà¹ ĩ
Ġà¹Ģà¸ĸ à¸Ńà¸°
ro p
à¹Ĥà¸Ĺà¸£ à¸¨
Ġà¸Ī à¸ķ
Ġà¸ģà¸²à¸£ à¸§à¸²à¸ĩ
à¸Ľà¸£à¸° à¸Ĺà¸²à¸Ļ
à¸²à¸Īà¸° à¹Ģà¸Ľ
à¸ĺà¸£à¸£à¸¡ à¸£à¸²à¸Ĭ
ĠH y
à¸ķà¸Ńà¸ļ à¹ģà¸Ĺà¸Ļ
à¸Ń à¸Ī
à¸ª à¸Ńà¸¢
Ġpl ay
Ġà¸Ļà¸Ħà¸£ à¸¨à¸£
à¸Ń à¸²à¸Ĭ
ĠArch ives
à¸Ļ à¸¢à¸Ļà¸ķ
à¸ģà¸£à¸° à¸Ļ
Ġà¹Ģà¸ľ à¸²
o on
Ġà¹ģà¸Ļ à¸ļ
Ġà¹ģà¸ª à¸§à¸ĩ
Ġà¸¡ à¸Ķà¸¥
C T
Ġà¸ľà¸¥ à¸ķà¸Ńà¸ļà¹ģà¸Ĺà¸Ļ
à¸¢à¸§ à¸ļ
à¹Ģà¸Ķ à¸Ĭ
à¸Ļà¸Ħ à¸¥
à¸Ħà¸§à¸²à¸¡à¸ª à¸Ļà¹ĥà¸Ī
Ġà¸ªà¸³ à¹Ģà¸Ļ
Ġà¸¢ à¸Ń
Ġà¸«à¸¡ à¸Ńà¸ģ
Ġà¸® à¸²à¸£
hlebolog y
ĠD ownload
Ġà¸« à¸²à¸ĩ
Ġà¸Ħà¸Ļ à¹Ģà¸£à¸²
à¸¡ à¸ĺà¸²à¸Ļ
Ġà¹Ĥà¸¥ à¹Ĥà¸ģ
à¸ªà¸²à¸ĺà¸²à¸£ à¸ĵà¸°
Ġà¹Ĥà¸Ĺà¸£ à¸Ĺ
à¸ģà¸£à¸°à¸ļ à¸°
ĠM arket
à¸§à¸Ļ à¸£
à¸ģà¸³ à¸«à¸Ļà¸Ķ
Ġà¸ļ à¸³
Ġà¸ŀà¸£à¸°à¸£à¸²à¸Ĭ à¸§
Ġà¹ģà¸Ĭ à¸¡à¸ŀ
Ġà¸Īà¸³ à¹Ģà¸ŀà¸²à¸°
ĠS C
à¸§à¹Ģà¸£ à¸²à¸°
Ġà¹Ĥà¸Ħà¸¡ à¹Ħà¸Ł
ĠG old
Ġà¹Ħà¸Ĺà¸¢ à¹ģà¸¥à¸Ļà¸Ķ
à¸ļ à¹Ħà¸Ķ
ĠP hlebology
à¸Ľ à¸Ńà¸ĩ
à¸Ļà¸ĺà¸£à¸£à¸¡ à¸Ĭà¸²à¸ķ
ur n
à¸Ķ à¸ļ
Ġà¸Ĺà¸²à¸ĩà¸ģà¸²à¸£ à¹ģà¸ŀà¸Ĺà¸¢
Ġà¸¥à¸³ à¸ķ
à¸Ļ à¹Ģà¸§
à¸ª à¹Ħà¸ķà¸¥
ĠAng el
à¸ª à¸łà¸²
à¸¡ à¸ĭ
Ġà¸ªà¸Ńà¸ļ à¸ªà¸§à¸Ļ
Ġà¸ķ à¸²à¸Ĥ
à¸ļ à¹Ģà¸¥
à¸Ħ à¹Ģà¸ģà¸Ī
Ġà¸ªà¸ģ à¸Ńà¸£
Ġà¹Ĥà¸¡à¹Ģà¸Ķ à¸¥
à¸ĩ à¹Ĥà¸ķ
I ON
ĠM us
Ġà¸£à¸ĸ à¸ģà¸£à¸°à¸ļà¸°
ä ¸
à¸Ńà¸ĩ à¸¢
à¹Ģà¸¡ à¸°
ond a
à¸¡à¸ŀà¸£à¸° à¹Ģà¸ģ
ĠD ay
à¸§à¸Ļ à¸Ĺ
à¸Ķ à¸Ł
Ġà¹ Ĺ
Ġà¹Ĥà¸ī à¸¡
in ess
ïľ ĭ
2 1
à¹Ĥà¸Ĥ à¸Ĺ
âĢĶ âĢĶ
Ġà¸Ħà¸§à¸²à¸¡ à¸Ĥ
à¸²à¸Ļ à¸Ĥà¸²à¸¢
à¸ĩà¸¡ à¸Ńà¸ļ
à¹Ģà¸Ń à¸ģà¸Ĭà¸Ļ
à¸¡ à¹Ģà¸¡à¸Ńà¸£
Ġ im
Ġà¸Ĭ à¸ĩ
à¸Ĺ à¸°
à¹Ģà¸¥ à¸ª
Ġà¸ªà¸²à¸£ à¸ªà¸Ļà¹Ģà¸Ĺà¸¨
à¸ļà¸Ĺ à¸ļà¸²à¸Ĺ
ĠM ac
I V
Ġà¸ķ à¸Ń
Ġà¸Ľ à¸İ
Ġc ont
ĠC lub
à¸£à¸ĸ à¹Ħà¸Ł
à¸«à¸¡ à¸Ń
Ġà¸«à¸¥à¸²à¸¢ à¸Ĭà¸Ļ
ĠB TS
Ġà¸ģà¸£à¸° à¸Ľ
à¸£à¸ģ à¸£à¸£à¸¡
à¸ģ à¹Ģà¸ģà¸ĵà¸ĳ
ĠB ar
à¸Ńà¸¢ à¸Ĺ
à¸² à¹ģà¸Ĭà¸¡à¸Ľ
Ġà¸ŀà¸£à¸° à¸¡à¸«
Ġà¹Ģà¸¡ à¸Ĺ
à¹Ģà¸Ĺ à¸Ļà¸Ļ
Ġà¸Ĳà¸²à¸Ļ à¸Ĥ
à¸Ĺ à¸«à¸²à¸£
Ġà¸Ħà¸§à¸²à¸¡ à¹Ģà¸Ħà¸£
Ġà¹Ĩ à¹Ĩ
Ġà¸§ à¸ª
E M
Ġà¸Ľ à¸Ĳà¸¡
à¸Ļà¸ģà¸²à¸£ à¸¨
Ġà¸ļà¸²à¸ĩ à¸Ļà¸²
ĠB u
à¸Ł à¸£
8 5
à¸£à¸²à¸Ī à¸²à¸£à¸¢
Ġ op
v ent
à¸²à¸¢ à¹ĥà¸Ļ
à¸Ļ à¹ģà¸Ļ
à¸ģà¸£à¸¢à¸²à¸Ļ à¸¢à¸Ļà¸ķ
à¸²à¸ŀà¸£à¸° à¸¢à¸²
à¹Ģà¸Ī à¸²à¸°
à¸Ļà¹Ĥà¸Ķ à¸Ļ
à¹Ĥà¸¡ à¸¢
Ġà¸Ļà¸²à¸ĩ à¹Ģà¸Ńà¸ģ
ur g
à¸Ńà¸Ķ à¸£
ĠH igh
Ġà¸¢ à¸ģà¸ķ
à¹ģà¸Ļ à¸°
Ġà¸ķà¸²à¸¡ à¸Ľà¸ģà¸ķ
Ġà¹Ĥà¸Ħ à¸¥
ob et
Ġà¸¡ à¸ķ
Ġà¸Ĥ à¸¡
à¸²à¸¢ à¸²à¸¡
à¸²à¸¨ à¸²à¸¥
Ġà¹Ħà¸ķà¸£ à¸¡à¸²à¸ª
à¹ģà¸Ļà¸§ à¹Ĥà¸Ļ
Ġà¹Ģà¸ ł
Ġà¸¥à¸§à¸Ķ à¸¥à¸²à¸¢
Ġà¸Ĺà¸²à¸ĩ à¹Ģà¸ŀà¸¨
á ŀ
y t
Ġà¸īà¸¥ à¸²à¸Ķ
à¸Īà¸į à¸ł
à¸¡à¸° à¹Ģà¸£
Ġà¸ªà¸° à¹Ģà¸ģ
Ġà¸Ļ à¸Ķ
à¸ģ à¹Ģà¸Ĥ
à¸§ à¸²à¸ª
e i
Ġà¹ į
Ġà¸Ĥ à¸Ī
A D
Ġà¸ģà¸£ à¸Ńà¸ģ
à¸¨ à¸ģ
à¸Ħà¸§à¸²à¸¡ à¸«à¸¡à¸²à¸¢
oin t
ĠAp p
Ġà¸ģà¸³à¸«à¸Ļà¸Ķ à¹ĥà¸«
à¸ļ à¸Ńà¸¥
à¸Ĭ à¸ª
Ġà¹ģà¸ªà¸ĩ à¹ģà¸Ķà¸Ķ
Ġà¸Ĺà¸²à¸ĩ à¸«à¸¥à¸§à¸ĩ
m an
Ġw ill
Ġà¸ķà¸ģ à¹ĥà¸Ī
à¸²à¸ł à¸²à¸ŀ
à¸ĩ à¹Ģà¸Ļ
ĠSer v
ĠâĢĭ âĢĭ
à¸£ à¸ļ
T C
à¸Ļ à¸īà¸ļ
F i
4 9
à¹Ĥà¸¥ à¸«
à¸²à¸ªà¸ķ à¸£à¸²à¸Īà¸²à¸£à¸¢
à¸ķà¸³ à¸ļà¸¥
Ġà¹Ħ à¸Ĺà¸£
Ġ255 2
Ġm ore
à¸Ļ à¸¥
à¸Ľ à¹Ģà¸Ľà¸Ńà¸£
à¸Ļ à¹ĥà¸«à¸į
Ġà¸ ±
ĠT en
à¸£ à¸¢
e k
Ġà¸Ľà¸£à¸°à¸Ĭ à¸²à¸ĺ
à¹Ģà¸§ à¸¥à¸²à¸Ļ
à¸²à¸ĩ à¸Ĺà¸²à¸ĩ
à¸ĩà¸ª à¸²à¸§
Ġà¸ŀà¸£à¸° à¹Ģà¸Ńà¸ģ
à¸ĩ à¹Ģà¸ģ
Ġà¸ĩ à¸Ķ
à¸ŀà¸¢ à¸²à¸¢à¸²à¸¡
Ġà¹ģ à¸Ńà¸¡
Ġà¹Ħ à¸Ĭà¸¢
ĠL os
à¸£ à¸Ļ
à¹Ģà¸¡ à¸Ļ
ĠC H
ros oft
à¹ģà¸¥ à¸ķ
Ġà¸Ĺà¸²à¸ĩà¸ģà¸²à¸£ à¹Ģà¸¡
Ġà¹Ĥà¸£à¸Ħ à¸¡à¸°à¹Ģà¸£
à¸Ĺà¸ĺ à¸£
n y
ĠIn st
Ġà¸ªà¸²à¸£ à¸Ńà¸²à¸«à¸²à¸£
Ġà¸¨ à¸²à¸ªà¸Ļ
ĠF ull
Ġà¸£ à¸Ķ
à¸² à¹Ģà¸Ń
Ġà¸ª à¸¥à¸°
à¸Ļ à¹Ģà¸Ħà¸£
Ġà¸Ľà¸¥à¸²à¸¢ à¸Ĺà¸²à¸ĩ
à¸ĩ à¹Ģà¸£
à¸Ļ à¹ģà¸¥à¸°
Ġà¸łà¸²à¸ŀ à¸£à¸§à¸¡
à¸Ħ à¸Ńà¸Ļ
à¹Ģà¸Ļ à¸ª
à¸ŀà¸²à¸ģà¸© à¸²
à¸ªà¸ĩ à¸ļ
ĠW i
Ġà¸Ľà¸£à¸²à¸ģà¸ İ
à¸Ķà¸£ à¸ĺà¸²à¸Ļ
à¸ģà¸Ń à¸®à¸Ńà¸¥
Ġà¹Ģà¸ļ à¸£à¸ģ
à¸£à¸²à¸ ª
r al
à¸ģà¸ĩà¸²à¸Ļ à¹Ģà¸Ĥà¸ķ
à¹Ĥà¸¡ à¸Ĺ
Ġà¹Ģà¸Ħ à¸²à¸£à¸ŀ
Ġà¸ģà¸²à¸£à¸§à¸²à¸ĩ à¹ģà¸ľà¸Ļ
v ille
à¸³ à¸ŀ
Ġà¹ģà¸Ńà¸ŀ à¸ŀà¸¥
Ġà¸ªà¸£à¸£à¸ŀ à¸ª
à¸Ļ à¹Ħà¸£
Ġà¸ª à¸§à¸Ķ
à¸Ń à¹Ģà¸ŀà¸¥à¸ĩ
Ġà¹ģà¸Ńà¸Ļ à¸ķ
Ġà¸Ħà¸£ à¸²à¸§
Ġ7 7
à¸ļà¸£ à¸Ńà¸ļ
ĠSp ort
à¸į à¸Ĭà¸²à¸ķ
Ġà¸ģà¸²à¸įà¸Īà¸Ļ à¸ļ
Ġà¹Ĥà¸Ń à¹Ģà¸Ħ
Ġà¸Ħ à¸ļ
à¸§à¸²à¸ĩ à¹ĥà¸Ī
à¸²à¸« à¸£
Ġà¹Ĥà¸ļ à¸ªà¸ĸ
a j
at ed
à¸ŀà¸¤ à¸ķ
Ġà¸¡à¸²à¸£ à¸Ķà¸²
Ġà¸¡ à¸§à¸¥
Ġà¹ĥà¸Ħà¸£ à¹Ĩ
Ġà¸¡à¸« à¸²à¸¨à¸²à¸¥
à¸Ĭ à¸įà¸²
à¸³ à¸ķà¸²
Ġà¹ģà¸Ńà¸¥ à¸ģà¸Ńà¸®à¸Ńà¸¥
Ġà¹Ģà¸ļà¸£ à¸Ħ
Ġà¹Ĥà¸Ľà¸£à¹Ĥà¸¡ à¸Ĺ
ud io
à¸Ļà¸ķ à¸Ļà¸²à¸ģà¸²à¸£
Ġà¸£ à¸ģ
A G
à¸Ļà¸Ĥ à¸²
Ġà¸Ķ à¸Ńà¸ģà¸
Ġà¸Ħà¸£ à¸ļà¸£à¸Ńà¸ļ
à¸Ī à¸ª
à¸Ĺ à¸§
à¸§ à¸²à¸Ķ
Ġà¸Ĥà¸ĵà¸° à¹Ģà¸Ķ
Ġà¸Ńà¸³à¸Ļà¸§à¸¢ à¸Ħà¸§à¸²à¸¡à¸ªà¸°à¸Ķà¸§à¸ģ
Ġw eb
ĠA A
O C
ou d
à¸³ à¸Ń
Ġà¸ª à¸Ļà¸Ĺà¸Ļà¸²
Ġà¸« à¸¢à¸Ķ
Ġà¸¥à¸³ à¸ŀ
ĠC he
à¸Ńà¸¢ à¸Ńà¸Ķ
à¸Ńà¸ĩ à¸ªà¸¡
Ġà¸«à¸¥ à¸²à¸ģ
à¸Ĺà¸¢ à¸²à¸Ħà¸¡
Ġ% ,
Ġà¸ª à¸²à¸ĺ
Ġà¸ª à¸ģà¸¥
âĢ¦ ]
à¸Ļà¹ģà¸¥à¸° à¸ģ
ĠIn d
Ġà¸Ĭà¸²à¸§ à¸ķ
Ġà¸Ńà¸Ńà¸Ł à¸Ł
à¹Ģà¸¢ à¸²
ĠF ile
à¸ª à¸Ńà¸Ļ
à¸Ļ à¹Ģà¸¡
Ġà¸į à¸²à¸ĵ
Ġd is
r id
à¸¡ à¹ģà¸Ĥ
à¸²à¸Ń à¸²à¸ģà¸²à¸¨
Ġà¸Ľà¸£à¸° à¹Ĥà¸¢à¸Ħ
ïľ Ĭ
Ġà¸ªà¸¡ à¸²
b le
b obet
Ġà¹ģà¸® à¸¡
v is
Ġl ine
à¸¡ à¸Ŀ
ro up
à¸Ńà¸Ļ à¸¢
Ġà¸Ķ à¸ĩ
à¸ķà¸£ à¸§à¸Ī
ic a
Ġà¸Ĥà¸¢à¸²à¸¢ à¸ķ
ĠH oliday
Ġ en
à¸¨ à¸²à¸¥
Ġà¹ ĺ
Ġà¸ª à¸²à¸Ļ
Ġà¹Ħà¸ĭ à¸ķ
à¸¡à¸¡ à¸²à¸ģà¸Ĥ
à¸«à¸Ļ à¸²à¸§
Ġ[ âĢ¦]
à¸Ĺ à¸ģ
Ġà¸Ĥà¸Ļ à¸¡à¸Ľ
à¸ĩà¸ģà¸ °
à¸ĩ à¸«à¸¥
in s
Ġà¸ļ à¸°
ĠP ol
Ġà¸¢ à¸²à¸¢
Ġà¸ģà¸²à¸£ à¸ªà¸³à¸£à¸§à¸Ī
à¹Ģà¸ī à¸¥
ĠSt ar
à¸²à¸¢à¸Ĺà¸Ńà¸Ķ à¸ªà¸Ķ
iv er
Ġà¸Īà¸³ à¸ŀ
à¸¡à¸ŀ à¸£
if i
ĠBang kok
à¸¡ à¸Ľà¸£à¸°à¸ª
à¸£ à¸²à¸ĩà¸§
à¸²à¸ģà¸ģ à¸²
Ġà¸Ľà¸£à¸°à¸ª à¸ĩà¸Ħ
Ġà¸Ĥà¸§ à¸ļ
Ġà¸ľ à¸ļ
à¸ļà¸Ľ à¸§à¸Ķ
Ġà¸ĸ à¸Ńà¸¢
Ġà¸Ĺ à¸¤à¸©à¸İ
ĠC R
à¸²à¸ģ à¸Ńà¸²à¸ģà¸²à¸¨
o ot
it ed
à¸«à¸²à¸£ à¸²à¸Ĭ
ĠA V
ĠS ch
t ion
ĠB us
à¸ªà¸£à¸£à¸ŀ à¸ª
à¸Ĺ à¹Ģà¸¡
à¸²à¸ĩ à¸ªà¸£à¸£à¸ŀà¸ª
Ġà¹Ģà¸Ĺ à¸£à¸Ļà¸Ķ
at s
Ġà¸Ħà¸²à¸Ķ à¸«à¸§
Ġà¸Ńà¸§ à¸ļ
à¸«à¸²à¸£ à¸ĩà¸²à¸Ļ
à¸Ļ à¹Ģà¸ŀ
Ġà¹ģà¸ªà¸Ķà¸ĩ à¸§
à¸§ à¹ģà¸¡
Ġ6 2
U T
ang e
Ġà¸ Ĵ
Ġà¸Ħà¸¥ à¸²à¸¢
Ġs e
Ġà¸Ĺà¸³à¸Ħà¸§à¸²à¸¡ à¹Ģà¸Ĥ
Ġà¹Ģà¸ļ à¸Ĺ
Ġà¸¥à¸° à¹Ģà¸¡
Ġà¸«à¸²à¸Ķ à¹ĥà¸«à¸į
à¸Ľà¸£ à¸²à¸¡
à¸Ī à¸Īà¸£
Ġà¹ģà¸Ł à¸¥
Ġà¹ģà¸Ł à¸Ļà¸Ħà¸¥
Ġà¸ģà¸¥ à¸Ńà¸ĩ
à¸² à¹ĥà¸ļ
y pe
Ġà¸ģà¸²à¸£ à¸Ĭ
Ġà¸¥à¸° à¸¥à¸²à¸¢
Ġà¸Ļà¸Ńà¸Ļ à¸«à¸¥
Ġà¸ĺà¸Ļ à¸ļ
ĠP er
Ġà¸¥ à¸Ńà¸ģ
Ġà¸ī à¸°
Ġi OS
Ġà¸Ń à¸Ńà¸¡
ĠD V
à¸ģà¸© à¸²à¸ĺ
Ġà¸® à¸Ńà¸¥
ĠR ed
Ġà¹Ħ à¸ŀà¸£
à¸¢à¸ļ à¸ªà¸ĩà¸ļ
Ġà¸ģà¸§ à¸²à¸ĩ
à¸¡ à¸¥
Ġà¸ľ à¸Ń
ĠS oc
it ch
Ġà¸ļ à¸²à¸¢
Ġ æ
Ġà¸¡ à¸£à¸Ķà¸ģ
à¸Ł à¹Ģà¸Ł
9 00
em ber
Ġà¹Ģà¸Ĺ à¸§
à¹Ħà¸ĭ à¸Ķ
à¸Ńà¸Ļ à¸ķ
ĠM obile
Ġà¸ĩà¸²à¸Ļ à¸ģà¸²à¸£
à¸²à¸Ļ à¸Ļà¸Ńà¸ģ
U B
Ġà¸£à¸²à¸¢ à¹Ģà¸Ķ
à¸ĵ à¸«à¸¡à¸Ń
Ġà¸ŀà¸£à¸° à¸¢à¸²
Ġà¹ģà¸¡ à¸ĩà¸¡
M S
AN D
ev el
an y
Ġh all
A Y
Ġ255 1
Ġà¸ªà¸« à¸ģà¸£à¸ĵ
à¸ĩ à¸Ĩ
à¸Ĺà¸³ à¸ģà¸²à¸£
à¸Ńà¸ģà¸ ĭ
à¸ĩà¸Ľ à¸§à¸ĩ
ĠC ap
Ġ are
ï »¿
Ġà¸Ķà¸³à¸£à¸ĩ à¸ķà¸³à¹ģà¸«à¸Ļ
Ġà¸ģ à¸²à¸§
à¸Ķ à¸«
Ġà¹Ĥà¸Ķà¸¢ à¸ª
à¸Ħ à¸²à¸¢
ĠM ag
ĠN e
6 7
il d
ĠC P
Ġà¹ģà¸Ķ à¸Ķ
ĠO ut
Ġà¸¤ à¸Ĺà¸ĺ
ĠP ark
à¸Ńà¹Ħ à¸«à¸£
Ġà¹Ģà¸Ĺà¸¨à¸ļà¸²à¸¥ à¸ķà¸³à¸ļà¸¥
à¸ª à¸²à¸«
à¸¡ à¸Ķ
r ip
in al
ĠIntern ational
Ġà¸ģà¸²à¸£à¸Ĥ à¸Ļà¸ª
à¸²à¸ĩ à¹Ģà¸Ħ
à¸ģà¸ķ à¸²à¸ģà¸Ńà¸²à¸ģà¸²à¸¨
Ġ36 0
ĠWh ite
Ġà¸Ĺà¸²à¸ĩ à¸Ńà¸Ńà¸ģ
à¸Ńà¸ĩ à¸ªà¸²à¸§
à¹Ĥà¸£ à¸Īà¸Ļ
3 2
ĠV al
Ġà¸Ľà¸£à¸°à¸ĺà¸²à¸Ļ à¸²à¸ĺ
ĠC am
à¸Ħ à¸ķ
à¸Ń à¹Ģà¸¥
Ġà¹Ģà¸Ĺ à¸Ľ
à¸§ à¸°
à¸ķ à¹Ģà¸ķà¸Ńà¸£
Ã ł
Ġà¸ªà¸¡à¸£à¸£à¸ĸ à¸Ļà¸°
Ġà¸Ĺ à¸²à¸ª
Ġà¸ķà¸²à¸¡ à¸«à¸²
ĠL INE
â ĺħ
à¸Ń à¸ł
Ġt e
an e
Ġà¸£à¸²à¸¢ à¸Ī
Ġà¹Ĥà¸Ķà¸¢ à¸ªà¸²à¸£
Ġà¸ģà¸Ńà¸ĩ à¸«à¸¥
if t
Ġ Ø
Ġà¹Ģà¸ģà¸ ķ
Ġà¸Ĺà¸²à¸ĩ à¹Ģà¸¨à¸£à¸©à¸Ĳà¸ģ
6 9
à¹ĥ à¸Ħà¸£
Ġà¹Ģà¸ī à¸¢
Ġà¸ŀà¸§à¸ĩ à¸¡à¸²à¸¥
Ġà¸ŀà¸£à¸° à¹Ģà¸Ħà¸£
ĀĀ ĀĀ
Ġà¸Ĺà¸²à¸ĩ à¸ļ
à¸ļà¸ļ à¸Ĺ
or ies
Ġà¸§à¸ĩ à¹Ģà¸ĩ
à¸Ľ à¸Ĺ
Ġà¹ģà¸Ļà¸§ à¹Ĥà¸Ļ
o oth
Ġs m
ar g
w ard
ot a
Ġà¹Ģà¸Ī à¸Ńà¸ģ
à¸£ à¸ł
Ġn et
Ġà¹Ħà¸Ń à¸ĭ
Ġà¹ģà¸ģ à¸£à¸Ļà¸Ķ
p ress
Ġà¹ģà¸ªà¸Ķà¸ĩ à¸ľà¸¥
à¸ŀà¸£à¸£à¸ĵ à¸ļ
Ġf l
à¸²à¸£à¸²à¸Ĭà¸ģà¸²à¸£ à¸Ī
à¸ģ à¹Ģà¸ĭà¸¥
à¹Ģà¸«à¸¡à¸²à¸° à¸ªà¸¡
à¸ľà¸¥ à¸ķ
U M
Ġ11 0
Ġà¸Ĺà¸³ à¹Ģà¸Ļ
Ġà¸Ħà¸§à¸²à¸¡ à¹Ģà¸«à¸¡à¸²à¸°à¸ªà¸¡
à¸¡ à¸²à¸Ļ
Ġà¸ Į
Ġà¸Ħà¸§à¸²à¸¡ à¸ŀà¸¢à¸²à¸¢à¸²à¸¡
y m
ir l
ĠI s
ĠP ar
à¸ķ à¸ĭ
à¸ģà¸£ à¸²à¸Ļà¸ķ
à¸ļ à¹Ģà¸ļ
Ġà¸ļ à¸§à¸Ĭ
à¸¡ à¸Ļà¸ķà¸£
ĠÃ ł
l es
Ġà¸¨ à¸ķà¸§à¸£à¸£à¸©
ĠT R
Ġà¸Īà¸Ķ à¸«à¸¡à¸²à¸¢
ĠB ig
à¸Ń à¹Ģà¸ŀà¸¥
Ġ ag
Ġà¸ŀà¸£à¸° à¸ĺà¸²à¸ķ
à¸Ł à¸²
à¸ļ à¸ķà¸²
à¸įà¸Ĭ à¸§à¸Ļ
Ġà¸£à¸§à¸¡ à¸ķ
Ġà¹Ĵà¹ķà¹ĸ à¹ĳ
ĠCom m
Ġad min
ä º
Ġà¸ķà¸Ńà¸Ļ à¹Ģà¸Ĭ
ing s
if orn
Ġà¸¢ à¸¨
Ġà¸ªà¸ĩ à¸ģà¸£à¸²à¸Ļà¸ķ
O D
à¸ģ à¹Ħà¸¡
à¸¨ à¸ķà¸°à¸§
Ġà¹ Ļ
Ġc on
Ġà¸ģà¸²à¸£à¸Ľà¸£à¸° à¸¡
Ġ/ /
Ġà¸¡ à¸ĵ
à¸²à¸§ à¸²à¸ª
iforn ia
à¸¢ à¹Ģà¸ĩ
Ġà¸¡ à¸ĵà¸ĳà¸¥
à¹Ĥà¸ŀ à¸ģ
et s
à¸Ľ à¸²
à¸Ķ à¹Ĥà¸Ńà¸ģà¸²à¸ª
Ġà¸ģ à¸²à¸¬
Ġà¹ģà¸« à¸¥à¸°
Ġà¹Ģà¸ĭ à¸Ł
Ġà¸Ń à¸ļà¸ķ
Ġà¸ķà¸²à¸¡ à¸¥à¸³à¸Ķ
à¸¢à¸Ļ à¹Ģà¸Ľ
or r
Ġà¸Ľà¸£à¸° à¹Ģà¸ªà¸£
6 8
Ġ9 00
à¸Ħ à¸²à¸¡
à¸²à¸į à¸²
Ġà¸ŀ à¸£à¸£à¸©à¸²
à¹ģà¸¥ à¸£
I A
à¸¡ à¸Ļà¸ķ
Ġà¸ŀ à¸Ľ
Ġà¸ļ à¸²à¸ª
à¸ģà¸¥ à¸²à¸ĩà¸§
Ġà¸ļà¸Ĺ à¹Ģà¸£
n er
à¸Ļ à¹Ģà¸ĩ
Ġà¸ªà¸Ķ à¸Ĭ
Ġà¸ªà¸ĩ à¸§à¸Ļ
à¹Ĥ à¸Ī
ĠCal ifornia
bn b
Ġà¹Ģà¸Ħ à¸Ļ
n a
Ġà¸Ĥ à¹Ĥà¸¡à¸¢
et t
à¸§ à¹Ĩ
Ġun der
à¸ªà¸²à¸« à¸ģ
ĠAs s
Ġà¸ģà¸²à¸£ à¸ľ
ra in
Ġ6 7
à¸ł à¸²à¸¢à¹ĥà¸Ļ
à¸¨ à¸Ļà¸²
à¸² à¹Ģà¸«à¸ķ
à¸« à¸§à¸¢
à¹Ĥà¸Ĭ à¸Ħ
à¸²à¸Ļ à¸²à¸¢
Ġà¸£ à¸Ĺ
Ġà¸«à¸Ń à¸ŀ
ĠDes ign
Ġà¸Ńà¸Ńà¸ģ à¹Ģà¸Ķ
Ġà¸£à¸ĵ à¸£à¸ĩà¸Ħ
à¸ Į
à¸²à¹Ģà¸Ń à¸¥
H z
olog y
ĠT oy
à¸¥ à¸²à¸Ķ
p ing
Ġà¸Ľ à¸²à¸ģà¸ģà¸²
O W
Ġà¸Ļà¸²à¸ĩ à¹ģà¸ļà¸ļ
Ġà¸ľà¸¥ à¸Ķ
à¸Ļà¸« à¸Ńà¸¡
ou ch
g ram
Ġà¹Ĥà¸£ à¹ģà¸¡
à¸Ńà¸¡ à¸§à¸¥à¸Ĭà¸Ļ
A B
à¸ŀ à¸Ļ
a o
ĠM et
ot t
ĠAir bnb
à¸Ńà¸ģà¸³ à¸«à¸Ļà¸Ķ
ĠX XX
Ġà¹Ĥà¸Ī à¸Ĺà¸ģ
Ġà¹ģà¸ŀ à¸¥à¸ķ
9 5
Ġà¸ģà¸£à¸° à¹Ģà¸Ī
Ġ ip
Ġà¸Ħ à¸²à¸Ļ
Ġà¸ª à¸ª
à¸Ļà¸Ĺ à¸Ļ
Ġà¸§ à¸Ńà¸¥
Ġà¸ļà¸²à¸ĩ à¸ģà¸Ńà¸ģ
v e
à¸ļ à¸ľà¸¡
Ġà¸Ĺà¸³ à¸Ļà¸Ńà¸ĩ
ĠT op
ĠM on
Ġà¸Ńà¸Ńà¸ģ à¸Ńà¸²à¸ģà¸²à¸¨
à¸ĩ à¹Ģà¸Ħà¸£à¸²à¸°à¸«
Ġà¸ģà¸¥à¸²à¸ĩ à¸§
Ġà¸ģà¸²à¸£ à¸Ŀ
Ġ2 000
it ter
Ġà¹ģ à¸ĩ
Ġà¸Ħ à¸¥à¸²
Ġà¹ĥà¸Ļ à¹Ģà¸Ħà¸£
à¸Ĺà¸¢ à¸²à¸ģà¸£
à¸Ĳà¸²à¸Ļ à¸°
à¸ģà¸ł à¸²à¸ŀ
Ġp ost
Ġà¹Ĥ à¸ģà¸£à¸ĺ
à¸Ĭ à¸Ĭ
à¸ĩà¸ª à¸£à¸£à¸Ħ
os h
ub l
à¸Ń à¹ĥà¸Ī
Ġà¹Ģà¸¥ à¸ª
. )
à¹Ģà¸¢ à¸²à¸§
Ġ200 9
Ġ255 0
........ ........
Ġà¹ĥà¸ļ à¹Ħà¸¡
Ġà¸Ĥà¸²à¸¢ à¸Ķ
Ġà¸ŀ à¸į
Ġà¹Ģà¸§ à¸¥à¸²à¸Ļ
à¸²à¸Ļà¸Ĥà¸²à¸¢ à¸¢à¸²
à¹Ĥà¸¢ à¸ĺ
à¸Ļà¸ª à¸²à¹Ģà¸«à¸ķ
Ġà¹Ĥà¸£à¹ģà¸¡ à¸Ļà¸ķ
Ġà¸Ħà¸§à¸²à¸¡ à¹ģà¸£à¸ĩ
à¸§à¸Ļ à¸ģà¸¥à¸²à¸ĩ
Ġà¹Ģà¸¢à¸Ńà¸£ à¸¡à¸Ļ
Ġà¸ªà¸²à¸ĺà¸²à¸£à¸ĵ à¸£
Ġà¸ģ à¸Ńà¸Ķ
à¸ĸ à¸Ļà¸Ļ
à¹Ģà¸§ à¸¢
Ġà¹ģà¸ŀà¸¥à¸ķ à¸Łà¸Ńà¸£
Ġà¸Ħà¸Ļ à¸ŀ
Ġà¸ªà¸° à¹Ĥà¸ŀà¸ģ
à¸Ķà¸¡ à¸¨
Ġà¸Īà¸³ à¸¥à¸Ńà¸ĩ
es h
ĠAngel es
à¸²à¸ģ à¸£à¸£à¸¡
à¹Ĥ à¸«
à¹Ĥà¸Ĺà¸£ à¸Ĺ
à¸£à¸ĵ à¸²à¸ģà¸²à¸£
Ġ6 8
Ġà¸Īà¸Ń à¸«
ĠS H
4 8
Ġà¸Ĭ à¸²à¸į
Ġà¹Ĥà¸Ł à¸ģ
ĠAr t
Ġà¸ªà¸¡ à¸¡à¸ķ
Ġà¸Ħà¸ĩ à¸Ńà¸¢
Ġà¸ļà¸³ à¹Ģà¸ŀ
Ġn ew
à¸¢ à¸łà¸²à¸ŀ
Ġà¸ªà¹Ģà¸Ľ à¸Ńà¸£
à¹Ģà¸§ à¸¨
ĠP S
ĠSM E
à¸Ļà¹Ħ à¸Ĭà¸ª
4 7
ĠW ar
à¸Ļ à¸ĩ
à¸Ķ à¹ģà¸Ľà¸¥à¸ĩ
Ġhall ux
Ġà¸ªà¸ļà¸²à¸¢ à¹ĥà¸Ī
à¸²à¸§ à¸¥
à¹Ħ à¸Ń
à¸Ļà¸Ĺà¸£ à¸²
Ġà¸ļ à¸²à¸Ķ
Ġà¹Ĥ à¸Īà¸£
à¸Ľà¸£à¸°à¸ª à¸²à¸Ĺ
à¸³ à¹Ģà¸łà¸Ń
Ġà¹Ĥ à¸ģà¸°
Ġà¸Ħà¸£ à¸²à¸ĩ
à¸§à¹ģà¸Ĺà¸Ļ à¸Īà¸³à¸«à¸Ļ
ĠPost ed
à¸Ľà¸£à¸° à¸§
à¸ī à¸¥à¸Ńà¸ĩ
à¸¢à¸ĩ à¹ĥà¸ķ
à¸§à¸¢ à¸ĭ
à¸¨à¸§ à¸ģà¸£
à¹Ģà¸ļ à¸²
k i
à¸ģ à¸£à¸²à¸Ĭ
Ġà¸ķà¸Ńà¸ļ à¸ģà¸¥
3 1
Ġà¹Ħ à¸ĸ
ĠG ame
Ġà¸® à¸Ńà¸Ļà¸Ķ
à¸Ńà¸ģà¸ §
Ġà¹Ĥà¸ĭ à¸Łà¸²
à¹Ģà¸ŀ à¸Ĭà¸£
m a
à¹Ģà¸ ©
à¸¢ à¹ĥà¸«à¸¡
ĠH onda
à¸ļà¸¡ à¸Ńà¸ļ
Ġ18 0
à¸Ĺà¸£à¸ĩ à¸Īà¸³
ĠTr ans
ĠTr ip
à¸²à¸ľ à¸¥
Ġà¸Ħà¸§à¸²à¸¡ à¸Ĺà¸£à¸ĩà¸Īà¸³
Ġà¸ķà¸ģ à¹Ģà¸Ľ
à¸¡ à¸ĵà¸ĳà¸¥
Ġà¸Ħà¸² à¹Ģà¸Ł
à¸ķ à¸Ļà¸²
____ ____
à¸Ń à¹ĥà¸«à¸¡
Ġà¸Ĺà¸Ļ à¸²à¸¢
od y
v en
à¹Ħ à¸ŀà¸£
Ġà¸£à¸ĸ à¸£
Ġà¸Īà¸Ķ à¸Īà¸³
Ġà¸Ī à¸²à¸ĩ
Ġà¸Ĺà¸³ à¹Ģà¸Ńà¸²
ĠMic rosoft
q ue
à¸Ķ à¸²à¸§
à¸¢à¸ĩ à¹Ģà¸«à¸Ļ
Ġà¸ĺà¸£à¸£à¸¡ à¸°
Ġà¹Ħà¸Ĺà¸¢ à¸£
à¸¥ à¸ª
ĠL ove
à¸ļà¸ļ à¸²à¸Ķà¹Ģà¸Ī
T H
Ġà¸ģà¸²à¸£ à¹ģà¸ģ
ĠO p
i et
Ġà¸ŀ à¸Ńà¸ģ
o le
ut ion
Ġ it
p r
Ġà¹Ĥ à¸Ħà¸£
Ġ 000
i el
à¸Ńà¸ĩ à¸Ń
à¸§ à¸Ħà¸¥
Ġà¸§ à¸²à¸£à¸°
I F
Ġà¹ģà¸ļ à¸£
à¸¢ à¸Ī
à¸Ńà¸ĩ à¸Ł
Ġà¹ģà¸Ľ à¸£
rav el
ĠN E
Ġà¸Ħà¸ª à¸Ĭ
Ġà¸ķà¸¥à¸²à¸Ķ à¸Ļ
Ġ10 1
à¸į à¸Ī
ĠC D
à¸²à¸§à¸Ĥà¸Ńà¸ĩ à¹Ģà¸Ħà¸£
à¹Ħ à¸®
Ġà¸¢à¸²à¸Ļ à¸¢à¸Ļà¸ķ
à¸įà¸įà¸² à¹Ĥà¸Ĺ
Ġà¸ªà¸łà¸²à¸ŀ à¸Ńà¸²à¸ģà¸²à¸¨
Ġg l
Ġà¸ķà¸Ńà¸ļ à¸£
o om
à¸²à¸§ à¸ļ
à¸Ļà¸Ħ à¸Ķ
à¸ĩ à¸Ľà¸£à¸°à¹Ģà¸Ĺà¸¨
à¸ĩà¸Ľà¸£à¸°à¹Ģà¸Ĺà¸¨ à¹Ħà¸Ĺà¸¢
ment s
à¸Ńà¸§ à¸²à¸Ļ
s er
Ġà¸ķà¸£à¸ĩ à¸ģ
Ġà¹Ĥ à¸ļà¸£
Ġà¸Ńà¹Ģà¸Ļ à¸ģà¸Ľà¸£à¸°à¸ªà¸ĩà¸Ħ
Ġ Å
à¸²à¸ª à¸²à¸§
Ġà¸«à¸¥ à¸ļ
Ġà¸Ľà¸£à¸°à¸ªà¸²à¸Ļ à¸ĩà¸²à¸Ļ
w ay
Ġà¸Ļà¸²à¸Ļ à¹Ĩ
à¸ªà¸¥ à¸²à¸¡
ĠKn ox
an o
Ġà¸«à¸¢ à¸²à¸ļ
à¹Ĥà¸ļ à¸£à¸²à¸ĵ
à¸ŀ à¸Ļà¸ĺ
Ġà¹ģà¸Łà¸£ à¸Ļà¹Ħà¸Ĭà¸ª
Ġà¹Ĥ à¸Ńà¸¥
ĠM R
Ġà¸ŀ à¸£à¸£à¸ĵ
Ġp re
Ġà¸¥à¸ĩ à¸Ļà¸²à¸¡
Ġà¸Ĥà¸Ńà¸ĩ à¸Ĭ
Ġ9 8
ĠC ard
Ġà¸Ń à¸§à¸¢
Ġà¸ł à¸£
Ġ08 1
ess ee
os s
Ġà¸ŀà¸£à¸°à¸ļà¸£à¸¡ à¸£à¸²à¸Ĭ
Ġà¹Ģà¸¥à¸Ĥ à¸²à¸ĺ
à¸Ļà¸Ĺ à¸ļ
Ġà¹Ĥà¸Ĥ à¸ĩ
à¸ģà¸Ń à¸²à¸¨
ĠE m
ĠN ext
Ġà¹ĥ à¸¢
ĠA C
à¸ĵ à¸ª
Ġà¸Ľ à¸ģà¸Ħà¸£à¸Ńà¸ĩ
Ġà¹Ģà¸ł à¸ª
um p
ĠA P
ĠKnox ville
à¸ľà¸¥ à¹Ħà¸¡
Ġà¸ŀà¸£à¸° à¸ªà¸ĩà¸Ĩ
T R
ĠTen ne
Ġà¸ģà¸© à¸²
E E
aut y
à¸Ļà¸Ħ à¸§
T M
ul ar
à¸¢ à¸§à¸Ļ
ĠC an
à¸«à¸¥ à¸²à¸ļ
Ġà¸Ĥà¸Ļ à¸¢
Ġà¸Ł à¸Ńà¸ĩ
à¸ªà¸ĩ à¸Ħà¸£à¸²à¸¡
à¸ļ à¹Ģà¸«
Ġ8 6
ĠTenne essee
Ġà¹ģà¸ĸà¸¥à¸ĩ à¸Ĥ
Ġà¸ģà¸° à¸Ĺ
Ġà¸§ à¸¥
à¸ªà¸²à¸£ à¸ªà¸Ļà¹Ģà¸Ĺà¸¨
ĠW e
Ġà¸£à¸²à¸Ħà¸² à¹ģà¸ŀà¸ĩ
à¸¢ à¸Ńà¸¡
Ġà¸ĭ à¸Ńà¸ª
ĠC ity
ut e
Ġint l
Ġor g
à¸ģà¸²à¸£ à¹ĥà¸Ĭ
f t
à¹ģà¸ĸ à¸§
ĠH u
Ġh d
Ġà¸Ķà¸²à¸§ à¸£
à¸³à¸ļ à¸²à¸ģ
T ER
ĠL ight
Ġà¹ģà¸Ńà¸Ľ à¹Ģà¸Ľ
à¸ ¿
Ġà¸Ħà¸Ńà¸Ļà¹Ĥà¸Ķ à¸¡
Ġà¸Ħà¸Ļ à¹Ħà¸Ĥ
Ġà¸Ħà¸§à¸²à¸¡à¸ª à¸ĩà¸ļ
à¹Ģà¸Ĺ à¸ŀ
à¸²à¸Ĭ à¸²à¸¢
à¸²à¸§ à¹Ģà¸§à¸Ńà¸£
ad ing
à¸ĺ à¸Ļ
à¸Ľ à¸¥à¸²
Ġà¸Ķ à¸²à¸ļ
à¸ģà¸²à¸£ à¹Ģà¸¡
Ġà¹Ĥ à¸¢à¸Ļ
Ġà¸ªà¸£à¸£à¸ŀ à¸Ħ
Ġà¹Ĥà¸Ł à¸¡
à¸ģà¸£ à¸§
à¸Ĥ à¸²à¸Ķ
à¹ģà¸¢ à¸°
Ġà¸ģà¸£à¸° à¹Ģà¸Ķ
à¸ªà¸° à¹Ģà¸ģà¸©
Ġà¸ªà¸£à¸° à¸ļ
Ġà¹ĳ à¹Ĳ
Ġà¸² à¸¢
à¸Ńà¸Ļà¸Ķ à¸Ńà¸Ļ
à¸¥à¸¢ à¹Ģà¸Ķà¸Ĭ
å ¤
ĠS n
Ġà¹Ģ à¹Ģà¸¥
Ġv iew
à¸ĩ à¸ľ
ĠSer ver
ĠM ot
Ġà¹ĥà¸Ļ à¹ģà¸ĩ
ĠS ystem
Ġà¸¥ à¸Ńà¸Ļà¸Ķà¸Ńà¸Ļ
Ġ- --
Ġà¹ģ à¸£à¸¡
Ġà¸ł à¸²à¸§
Ġ7 2
à¸įà¸Ĭ à¸²à¸ģà¸²à¸£
ĠS ec
à¸¥à¸° à¸§
Ġà¸łà¸²à¸ŀ à¸¥
Ġà¹ģà¸ ī
à¸£à¸²à¸ ĺ
en z
Ġà¹Ģà¸Ļ à¸¡
Ġà¸Ń à¸²à¸ĵà¸²à¸Ī
O K
Ġà¸® à¸Ńà¸ķ
Ġt it
le y
à¸²à¸ĩà¹Ħ à¸ģà¸¥
à¹Ģà¸© à¸ģ
Ġà¹Ħà¸Ł à¹Ģà¸ļà¸Ńà¸£
ĠU l
Ġà¸¢ à¸¡
Ġà¹Ģà¸¨ à¸£
Ġà¸¡ à¸ģ
ĠCl ass
ĠL a
Ġà¹ģà¸ķ à¸ĩ
à¸ĵ à¸¥
à¸Ńà¸Ļ à¸²à¸¡
Ġà¸Ĺà¸²à¸Ļ à¸Ńà¸²à¸«à¸²à¸£
c k
à¸ļ à¹Ħà¸¥
ĠG club
Ġà¸ģà¸²à¸£à¸Ĺ à¸Ķà¸¥à¸Ńà¸ĩ
Ġc ol
à¸Ńà¸¡ à¸ļ
Ġà¸Ľà¸£à¸²à¸ļ à¸Ľà¸£à¸²à¸¡
à¸Ń à¸³à¹Ģà¸łà¸Ń
à¸ļ à¸ĩà¸²à¸Ļ
Ġà¹Ĥà¸ł à¸Ĭà¸Ļ
er b
Ġà¸Īà¸³à¸ŀ à¸§à¸ģ
S t
s c
Ġà¸Ńà¸¢à¸²à¸ģ à¸£
v ious
Ġ9 6
Ð° Ð
att le
Ġà¸ªà¸²à¸§ à¸ģ
ire ct
à¸Ļà¸§ à¸¥
à¸²à¸« à¸į
Ġà¸§à¸²à¸ĩ à¹Ģà¸Ķ
à¸²à¸«à¸Ļ à¸°
p ro
Ġ201 9
Ġà¹ģà¸ģ à¸£
Ġà¸ªà¸ģà¸¥ à¸Ļà¸Ħà¸£
Ġà¸Ĺà¸³ à¸Ļà¸²à¸¢
à¸ģà¸Ħ à¸¥
Ġà¸Īà¸Ļ à¹Ħà¸Ķ
à¸Ļà¸ķ à¸²à¸ķ
à¸Ķà¹Ģà¸ §
Ġà¸ŀà¸Ļ à¸¡
Ġà¸ª à¸Ľà¸£
à¸²à¸¢ à¹ģà¸£à¸ĩ
Ġà¹ĥà¸Ī à¸Ķ
à¸ģà¸£à¸°à¸Ī à¸²à¸¢
Ġ7 00
Ġà¸ģà¸²à¸£ à¸¢
Ġà¸ªà¸³à¹Ģà¸Ļ à¸²
à¸² à¹Ģà¸Ľ
à¸²à¸Ļ à¸Ĺà¸²à¸Ļ
Ġ. )
Ġà¸ģà¸£à¸° à¸ª
Ġà¸Ĥà¸Ńà¸ĩà¸Ĭ à¸³à¸£
à¹Ĥ à¸¢à¸Ļ
Ġ16 88
Ġ8 3
à¸ķ à¸²à¸£
ĠS il
à¸Ļ à¹Ĥà¸¥à¸«
à¹ĥ à¸ģà¸¥
Ġà¹ģà¸Ĺà¸ĩ à¸«à¸§à¸¢
Ġà¸£à¸²à¸§ à¸ģ
ĠSer ies
Ġ ap
Ġà¸§ à¸Ķ
y r
Ġà¸ģà¸²à¸£ à¸Ł
Ġà¹ģà¸Ħ à¸ļ
à¸ļà¸Ĺ à¸£à¸²à¸ļ
Ġà¸Ŀ à¸Ļà¸ķà¸ģ
à¹Ģà¸ģ à¸²à¸°
Ġà¸ļà¸²à¸£ à¸¡
à¸¡ à¸Ī
Ġà¸£à¸° à¸ĩ
à¸Ļà¹ģà¸Ļ à¸¥
à¸¡à¸²à¸ķà¸£ à¸Ĳà¸²à¸Ļ
ĠI t
Ġà¸¥à¸ĩ à¹Ĥà¸Ĺà¸©
à¸Ńà¸Īà¸²à¸ģ à¸Ļ
à¸§à¸¢ à¸Ķ
à¸²à¸ĩ à¸łà¸²à¸ŀ
Ġph p
Ġ" ,
Ġà¸ļ à¸Ńà¸ª
Ġà¸Ľà¸£à¸° à¸«à¸¥à¸²à¸Ķ
Ġà¸¡à¸« à¸ģà¸£à¸£à¸¡
Ġà¹Ģà¸Ķ à¸Ļ
Ñ ĥ
Ġà¹Ĥà¸ĭ à¸Ķà¸²
Ġà¸Īà¸³ à¹Ħà¸Ķ
Ġà¹ģà¸Ħ à¸Ļ
ĠM in
Ġà¸§ à¸£à¸£à¸Ħ
ĠS ol
Ġà¸Ļ à¸ª
Ġà¸ªà¸Ļà¸²à¸¡ à¸ģ
Ġà¸ªà¹Ģà¸Ľ à¸£à¸¢
ĠTe chn
à¸£à¸£ à¸Ķ
Ġà¸ķà¸£à¸ĩ à¸ģà¸¥à¸²à¸ĩ
ĠG o
Ġà¸Ħà¸§à¸²à¸¡à¸Ľà¸£à¸° à¸Ĺ
Ġà¹Ĥà¸¥ à¸Ĭ
A V
à¸Ńà¸Ļ à¸Ļ
Ñ ĭ
sh op
Ġà¸ŀà¸° à¹Ģà¸¢à¸²
à¸¢ à¸²à¸ĩ
à¸ļ à¸Ńà¸£
à¸² à¹ģà¸ķ
à¸Ħ à¸¡à¸Ļà¸²à¸Ħà¸¡
as k
à¸Ķ à¸³à¸£
C H
à¸Ńà¸ĩà¸¡ à¸²à¸Īà¸²à¸ģ
ĠTH E
à¸ĩà¹Ģà¸Ĺ à¸£à¸²
Ġà¹Ħà¸Ń à¸¨
à¸ģà¸£ à¸¡
Ġà¸Īà¸²à¸ģ à¹Ħà¸Ľ
Ġà¸ĺ à¸Ļà¸²
Ġà¸īà¸° à¹Ģà¸Ĭ
Ġà¹ģà¸Ľ à¸£à¸£
ĠM B
Ġà¸Ĺà¸²à¸ĩ à¸ª
Ġà¸ģà¸²à¸¬ à¸ª
f l
Ġà¹ģà¸Ħà¸¥ à¹Ģà¸ĭ
Ġà¸ķ à¸£à¸²à¸ļ
Ġa b
à¸³ à¸Ĺà¸°à¹Ģà¸¥
à¸¥ à¹Ĥà¸Ķ
Ġà¹Ģà¸Ħ à¸²à¸Ļ
Ġ% )
<< <<
à¹Ĥ à¸¥à¸Ļ
Ġà¸Ĭ à¸³à¸Ļà¸²à¸į
Ġà¹ģà¸Ħ à¸§
Ġà¹Ĥà¸Ľ à¹Ĥà¸¥
Ġà¸ĩ à¸Ħ
Ġà¸ķà¸° à¸¥
à¸ĵà¸łà¸²à¸ŀ à¸Ĭ
à¸¡ à¹Ģà¸«à¸¥à¸§
Ġà¸Ħà¸§à¸²à¸¡ à¸«à¸§
à¸Ńà¸£ à¸Ńà¸ĩ
ent er
Ġà¸ķ à¸¥à¸ģ
à¸²à¸ ı
à¸£à¸° à¹Ģà¸Ĥ
à¹ĥà¸ļ à¹Ħà¸¡
ĠM al
à¸¢à¸ĩ à¸Ħ
Ġà¹Ĥà¸Ķà¸¢ à¸£à¸Ńà¸ļ
Ġà¸ªà¸²à¸§ à¸Ļ
ĠP H
ĠPal ace
c on
Ñ ı
Ġà¸ķà¸²à¸£à¸²à¸ĩ à¹Ģà¸¡à¸ķà¸£
à¸Ńà¸Ļ à¸ļ
Ġin d
à¸£à¸¡ à¸²à¸Ļ
at ing
ĠH ouse
Ġà¸ģà¸³ à¹Ģà¸Ļ
ĠAn t
à¸Ńà¸ĩà¸Ħ à¸Ńà¸¡à¸ŀ
e el
Ġà¹Ģà¸Łà¸ĭ à¸ļ
Ġ art
ĠA R
Ġà¸Ļà¸Ħà¸£ à¸ªà¸§à¸£à¸£à¸Ħ
à¸Ńà¸¢ à¸²à¸ģ
t d
à¸Ļà¸²à¸¢ à¸ģ
Ġà¸ª à¸Ħ
ĠI T
ĠBl ue
Ġà¹Ģà¸ŀ à¸Ķà¸²à¸Ļ
à¸ķà¸ķ à¸²à¸Ļ
Ġ6 3
à¸ł à¸²à¸©
Ġà¸Ħà¸Ńà¸¡ à¸¡
Ġà¹Ĥà¸Ķà¸¢ à¸Ľà¸ģà¸ķ
d e
Ġ] [
ĠFor ex
Ġà¹ģà¸Ĺ à¸£
o z
à¸¡ à¹Ģà¸Ĺ
Ġà¸Ħà¸ĵà¸° à¸£
ĠP ort
à¸Ńà¸ĩ à¸«à¸¥à¸§à¸ĩ
à¸§ à¸łà¸²à¸ŀ
à¸Ħ à¸ĭ
Ġà¹Ĥà¸£à¸Ħ à¸ķ
Ġà¸ģà¸²à¸£à¸ļ à¸£à¸£
Ġà¸Ħà¸£ à¸²
ĠH P
y c
à¸Ľà¸£à¸° à¸ĺà¸²à¸Ļ
Ġà¸«à¸¡à¸²à¸¢ à¹Ģà¸«à¸ķ
ĠM ore
Ġà¸Īà¸³ à¸ķ
Ġà¸¡à¸² à¹ģà¸£à¸ĩ
ar i
Ġ200 8
à¹ģà¸« à¸ĩ
à¸²à¸Ļ à¸Ļà¸²
Ġà¹ģà¸Ĺ à¸£à¸ģ
en a
Ġà¹ģà¸Ľ à¸Ķ
Ġà¹Ĥ à¸ģà¸¥
à¸§à¸¢ à¸Ńà¸£
à¸Ĭ à¸Ńà¸ļ
Ġà¸ģà¸ Ħ
Ġà¸¥ à¸ŀà¸ļ
à¸Ħà¸³ à¸ĸà¸²à¸¡
Ġà¸¥ à¸¥
à¸ģà¸Ŀ à¸Ļ
à¸Ķ à¸ī
Ġà¹Ħà¸¥ à¸Ĺ
Ġà¹Ħ à¸Ħ
ĠP L
à¸¢ à¸Ħ
à¸Ħà¸§à¸²à¸¡ à¸ķ
Ġt hailand
Ġà¸£à¸°à¸ļà¸ļ à¸Ľà¸ı
Ġà¸Ħà¸§à¸²à¸¡à¸Ĭ à¸Ńà¸ļ
ï ¼
Ġm p
ĠBl u
Ġà¸¡à¸« à¸²à¸ª
o e
à¸³ à¸Ī
Ġà¸ģà¸£à¸°à¸Ĺà¸£à¸§à¸ĩ à¸ģà¸²à¸£
Ġà¸Ľ à¸²à¸¥
Ġà¹ģà¸® à¸£
à¹Ģà¸¨ à¸£
à¹Ĥ à¸Ħà¸£à¸ĩ
à¸ģà¸ģ à¸²à¸£à¸°
Ġà¸ķ à¸ļ
Ġà¸§à¸²à¸£ à¸ªà¸²à¸£
Ġà¸Ĥà¸Ń à¹Ĥà¸Ĺà¸©
enc y
ag on
ok e
ĠB M
Ġà¸ĭ à¸²à¸£
Ġà¸Ĥà¸Ńà¸ļ à¹Ģà¸Ĥà¸ķ
Ġà¸£à¸Ńà¸¢ à¸¢
à¸Ħà¸§à¸²à¸¡ à¹Ģà¸Ľ
Ġà¸ļ à¸ģ
i ambl
Ġà¹ģà¸ļà¸ļ à¸Ńà¸¢
le x
Ġs ex
à¸² à¸²
Ġà¸Ī à¸Ńà¸£
7 9
à¸ĩà¸Ľ à¸ı
Ġ12 5
s on
Ġà¸Ĥà¸Ń à¸Ńà¸Ļ
Ġà¹Ĥà¸Ķà¸¢ à¸Ń
à¸Ķ à¹Ģà¸ķà¸£
ĠEng ine
ake oto
Ġwill iambl
Ġwilliambl akeoto
Ġà¹Ĥà¸Ħ à¸Ļ
Ġà¸Ńà¸²à¸Ĭ à¸į
Ġà¸ĩà¸²à¸Ļ à¹Ģà¸¥
à¸ļ à¸ģà¸²à¸£
à¸Ļà¸ª à¸³à¸Ħ
à¸Ń à¸ģà¸²à¸£
Ġà¹Ģà¸¡ à¸Ĩ
am es
à¸Ńà¸ĩ à¸Ńà¸²à¸«à¸²à¸£
Ġà¸Ń à¸§à¸Ķ
à¸ģà¸Ħ à¸²à¸¡
ĠC L
à¸Ķ à¹Ĩ
Ġà¸ªà¸Ķ à¹Ĩ
à¸§ à¸ŀà¸£à¸£à¸ĵ
à¸ĩ à¹Ģà¸Ń
à¸Ľà¸£à¸° à¸¡à¸²à¸ĵ
Ġà¹ Ĳ
à¸Ľ à¸ģà¸²à¸£
Ġà¹Ĥà¸£ à¸Ļ
Ġà¹Ģà¸¢ à¸Ļ
à¹Ģà¸ŀ à¸£à¸²à¸°
à¹Ģà¸Ļ à¸Ńà¸£
à¸§à¸£à¸£à¸ĵ à¸ł
ĠSt r
ĠIn ter
à¸Ńà¸Ļ à¸ģà¸¥
à¸ŀà¹Ģà¸Ķ à¸ķ
Ġà¸ļ à¸Ńà¸¢
ĠâĢ º
à º
à¸Ħ à¸Ńà¸¡
Ġà¹Ģà¸ļ à¸Ļà¸ĭ
Ġd r
ĠAut o
Ġà¸ķà¸° à¸ģà¸£
à¹ģà¸¥ à¸ģ
Ġà¸ª à¹Ħ
à¸¢à¸Ļ à¹ģà¸ļà¸ļ
ĠB ack
a u
ĠC le
Ġà¹Ģà¸ķ à¸¢
Ġà¸§ à¸²à¸¥
Ġà¹ģà¸Ń à¸Łà¸£
à¸ļ à¸Ĭ
Ġà¹ģà¸Ħ à¸Ľà¸ĭ
Ġà¸Ĺà¸³ à¸Ľà¸£à¸°à¸ķ
à¸ª à¸²à¸Ħà¸£
à¸¹ à¹ĭ
ĠU FA
Ġh ot
ĠBus iness
à¸¢ à¸¨
à¸Ħà¸§à¸²à¸¡ à¸Īà¸³à¹Ģà¸Ľ
à¸§à¸Ķ à¸²
à¹Ģà¸ĭà¸Ļ à¸Ńà¸¥
Ġt ag
4 6
à¸Ńà¸¢ à¸¥
Ġà¸£à¸° à¸¡
b ox
ĠE X
à¹ĥà¸« à¸¥
ĠM aster
j i
ĠN ot
Ġà¹Ģà¸Ł à¸£
Ġà¸ªà¸Ļà¸Ńà¸ĩ à¸Ħà¸§à¸²à¸¡à¸ķ
O V
à¸Ļ à¹ģà¸Ļà¸§
Ġà¸īà¸¥ à¸²à¸ģ
Ġà¸ŀà¸£à¸° à¸Ńà¸²à¸Ĺ
à¸£ à¸ĵà¸°
ĠI I
à¸Ńà¸ģà¸ª à¸£à¸£
Ġà¸ļ à¸²à¸Ľ
à¸³ à¸ļà¸¥
à¸²à¸£ à¸Ħà¸²à¸¡
es e
Ġà¸¡à¸«à¸²à¸ª à¸²à¸£à¸Ħà¸²à¸¡
à¸²à¸Ľ à¸¥
Ġà¸Ľ à¸²à¸ĩ
Ġà¹ĥà¸Ļ à¸Ļà¸²à¸¡
Ġ Ù
pl ay
Ġ qu
en e
à¸¢à¸Ļ à¸Ńà¸Ļ
à¸²à¸ľà¸¥ à¸²à¸į
à¸Ĭ à¸°
it or
à¸¡ à¹Ĩ
à¸Ĳ à¸§
Ġà¸Ĺà¸³ à¹Ģà¸ĩ
ĠFile d
Ġà¹ģà¸ļ à¸¥
à¸ģà¸ ¯
à¸Ħà¸§à¸²à¸¡ à¸ľ
à¸²à¸ĩà¸Ļ à¸Ńà¸ģ
à¸ŀ à¸ŀ
Ġà¸Ľà¸£à¸° à¸ŀà¸¤à¸ķ
Ġà¸Ĥà¸Ńà¸ĩ à¸Ķ
à¹Ħ à¸«à¸§
Ġà¹Ħà¸Ń à¹Ĥà¸Łà¸Ļ
Ġs up
Ġà¸Ľ à¸ķ
ĠS S
à¸Ń à¹Ģà¸¢
à¸£à¸²à¸Ĭ à¸Ńà¸²à¸ĵà¸²à¸Ī
à¸Ńà¸Ńà¸ģ à¹ģà¸ļà¸ļ
ĠM ult
à¸§à¸¢ à¹Ģà¸ķ
à¸§à¸ģ à¸²à¸¨
à¹Ģà¸Ķ à¸¢
à¸¢à¸Ļà¸£ à¸ĸ
Ġà¹Ħ à¸ģà¸Ķ
Ġà¸ĸ à¸²à¸Ķ
ĠB y
ĠA L
Ġà¹ģà¸ªà¸§à¸ĩ à¸«à¸²
à¸Ħà¸£ à¸Ńà¸ļ
ĠC r
à¹Ģà¸« à¸¢
à¸Ļà¸²à¸Ķ à¸²
à¸Ĺà¸£ à¸ªà¸²à¸Ħà¸£
Ġà¸£ à¸²à¸ģà¸
Ġà¸Ľà¸¥à¸²à¸¢ à¸Ľ
Ġà¹ģà¸ĭ à¸¡
à¹ Ģ
Ġà¸ªà¹Ģà¸ķ à¹Ģà¸Ķ
à¹ģà¸Ĥ à¸ģ
à¸Ķ à¸ģà¸İà¸«à¸¡à¸²à¸¢
Ġà¸ģà¸Ķ à¸Ľ
à¹Į âĢĿ
à¸ŀà¸¢ à¸ŀ
Ġ id
h or
Ġà¸Ĺà¸£à¸ĩ à¸ľà¸¡
Ġs l
à¸Ł à¸Ĺ
Ġ ãĢ
Ġf rom
ĠPr in
Ġà¸ľ à¸Ńà¸¡
à¹Ģà¸ĭ à¹Ĥà¸¥à¸Ļ
Ġà¹Ģà¸ģà¸ ª
Ġà¸łà¸²à¸§ à¸Ļà¸²
Ġà¹Į ,
oth er
à¸§à¸Ļà¸ķ à¸³à¸ļà¸¥
one y
Ġà¹Ĥà¸£à¸Ħ à¸«
à¸ļà¹Ģà¸« à¸¡à¸²
Ġd es
Ġà¸ģà¸§ à¸Ļ
Ġà¸Ħà¸³ à¸Ńà¸ĺ
à¸² à¹Ģà¸¥
k a
à¸Ļ à¸«à¸¡
à¹Ģà¸Ĺ à¸¥
ĠÂ ®
à¸Ńà¸¢ à¸Ħà¸£
Ġà¹Ģà¸ª à¸ĸ
Ġà¹Ģà¸ŀ à¸¥à¸¢
Ġà¸Ł à¸¥
Ġà¸ªà¸« à¸łà¸²à¸ŀ
ĠU K
Ġt hai
ĠU V
à¸ģà¸£à¸° à¸Ĺà¸£à¸§à¸ĩ
ip s
à¸ĩ à¸¨à¸£
à¹Ģà¸ģ à¸£à¸Ķ
à¸ªà¸£ à¸²à¹Ģà¸Ńà¸¥
ï¿½ï¿½ï¿½ï¿½ ï¿½ï¿½ï¿½ï¿½
Ġ7 8
Ġà¸¡ à¸Ĺ
ĠServ ice
Ġà¸Ľà¸£à¸° à¸Ĺà¸²à¸Ļ
Ġà¸Ļ à¸Ĥ
Ġà¹Ĥà¸Ħ à¸ģ
à¸²à¸Ľà¸£à¸° à¸ķ
ĠPro duct
Ġ all
er c
à¹Ĥà¸Ķ à¸£
à¸Ļ à¹Ģà¸ĭà¸Ńà¸£
Ġà¸ģà¸£à¸°à¹Ģà¸ŀà¸²à¸° à¸Ńà¸²à¸«à¸²à¸£
Ġà¸Ľ à¸²à¸ģà¸
à¸ĺ à¸²
à¸ļà¸ª à¸§à¸Ļ
à¸¡à¸Ĥ à¸Ļà¸²à¸Ķ
Ġà¸Ķ à¸Ńà¸Ĺ
Ġà¸ķà¸³ à¸£à¸²
Ġà¸Ĺà¸²à¸ĩ à¸Ĥ
Ġà¸ŀ à¸ģ
Ġà¸Ħ à¸ķ
Ġs bobet
Ġà¸Ńà¸Ńà¸ģà¸ ĭ
re et
Ġà¸Ĥà¸Ńà¸ĩ à¸Ĺ
Ġà¹Ĥà¸« à¸Ķ
à¸³à¸Ļ à¸¡
à¸²à¸£ à¸Ńà¸ļ
Ġà¸Ĺà¸Ńà¸ĩ à¹ģà¸Ķà¸ĩ
Ġà¹ģà¸Ńà¸Ľ à¸ŀà¸¥
Ġà¹Ĵ à¹Ķ
ĠW in
Ġà¸Ļà¸²à¸¢ à¸ģà¸¯
Ġà¹Ģà¸¡ à¸²à¸ª
Ġà¸Ĺà¸³ à¸ķ
Ġà¹Ģà¸ļà¸¥ à¹Ģà¸¢
ĠP ass
à¸ģà¸© à¸²à¸ķ
un ction
Ġà¸¡à¸° à¹Ģà¸Ĥ
p o
ĠOff ice
Ġà¸ŀà¸ļ à¹Ģà¸«
Ġà¸Ńà¸²à¸«à¸²à¸£ à¸ģà¸¥à¸²à¸ĩà¸§
Ġà¸ķà¸Ńà¸ļ à¸Ħà¸³à¸ĸà¸²à¸¡
Ġà¹Ĥà¸łà¸Ĭà¸Ļ à¸²à¸ģà¸²à¸£
ĠPre vious
à¸ģà¸© à¸²à¸Ľà¸£à¸°à¸ķ
Ġà¸Ńà¸Ń à¹Ĥà¸ķ
7 8
ī à¸¥
Ġ7 9
u ter
== ==
à¸Ļà¸ª à¸²à¸¢
Ġ16 0
Ġà¹ģà¸ª à¸ĩà¸ªà¸§
Ġà¸Ń à¸²à¸ĵ
Ġà¸Ħà¸§à¸²à¸¡ à¹Ģà¸Īà¸£
ĠS oft
ĠÂ «
à¸ģà¸ ģà¸
y e
at ure
à¸²à¸Ļ à¹Ģà¸ģ
à¸³ à¹ĥà¸Ī
Ġà¸ģà¸²à¸£ à¹ģà¸ª
ĠT ime
à¸ĩ à¸¥
Ġg o
Ġà¸ŀà¸ļ à¸Ľà¸°
à¸£à¸²à¸ į
Ġà¸Ľà¸£à¸°à¸¡à¸§à¸¥ à¸ľà¸¥
à¸§ à¸ĭ
à¸ļ à¸£à¸²à¸Ĭà¸ģà¸²à¸£
à¸ĩ à¸ģà¸£à¸ĵ
ĠS ony
at ur
Ġà¹Ģà¸¡ à¸ķà¸ķà¸²
Ġà¹Ģà¸Ĺ à¸§à¸Ķà¸²
Ġà¹ģà¸Ħ à¸Ļà¸²à¸Ķà¸²
Ġà¸£à¸²à¸Ĭ à¸§à¸ĩà¸¨
ĠIntern et
Ġà¹Ģà¸§ à¸¢
à¸§ à¹ĥà¸«à¸¡
of f
à¹Ģà¸Ĺ à¸Ħ
Ġà¸ĺ à¸ĩ
i ence
à¸§ à¸ĵ
à¸Ńà¸Ļ à¹ģà¸£à¸ĩ
ĠB ook
à¸Ļ à¹ĥà¸Ķ
ain t
à¸Ķà¹Ģà¸ ģà¸¥
Ġà¹Ģà¸¥ à¸ģ
ic t
Ġj apan
Ġà¸¡à¸§à¸¢ à¹Ħà¸Ĺà¸¢
Ġà¸Ľà¸¥ à¸§à¸ģ
à¸²à¹Ħ à¸«à¸¡
Ġà¹ģà¸Łà¸¥ à¸Ĭ
Ġà¸Ħà¸§à¸²à¸¡à¸ªà¸° à¸Ńà¸²à¸Ķ
à¸ķà¸¥ à¸Ńà¸Ķ
l a
Ġà¸ŀà¸£à¸°à¸Ļà¸Ħà¸£ à¸¨à¸£
Ġà¸ŀà¸£à¸°à¸£à¸²à¸Ĭ à¸Ķà¸³à¸£
Ġà¹Ģà¸Ĥà¸ķ à¹Ĥà¸Ĺà¸©
à¸Ķà¸Ĥ à¸§à¸²à¸ĩ
Ġà¸ģà¸ ¤à¸©
Ġà¸łà¸²à¸¢à¹ĥà¸Ļ à¸ļ
O U
Ġf ree
evel op
Ġà¹Ĥ à¸«à¸§
Ġ= "
à¸Ń à¸®
à¸ĩ à¸Ńà¸²à¸«à¸²à¸£
Ġc ar
à¸Ń à¸Īà¸³à¸ģ
Ġà¹Ĥ à¸ľà¸¥
à¸²à¸Ļ à¹Ģà¸£
Ġà¹Ģà¸ĭ à¸ķ
à¸Ķà¸ĩà¸Ħà¸§à¸²à¸¡ à¸¢
Ðµ Ð
à¸£à¸²à¸ «
ash ion
Ġà¹Ħà¸® à¹Ĥà¸Ķà¸£
ĠâĢ İ
Ġà¸ľà¸¥ à¸Ĥ
Ġà¸ŀ à¸²à¸Ļ
à¸Ń à¸²à¸įà¸²
Ġà¸ķ à¸£à¸²à¸Ķ
à¸Ľ à¹Ĥà¸Ľ
Ġb itcoin
ĠS u
à¸Ńà¸¢ à¹Ģà¸Ń
ĠP an
Ġg el
à¸Ļà¹Ħ à¸«à¸§
à¸Ńà¸¡ à¸ª
Ġof f
Ġà¹Ģà¸Ľ à¸Ļ
re d
ĠD ec
Ġà¹Ģà¸ŀ à¸²
ĠAd d
à¹Į )
Ġà¸£ à¸²à¸Ķ
à¸ĩ à¸Ĭà¸Ļà¸°à¹Ģà¸¥
ir t
Ġà¸ķ à¸£à¸¡
Ġà¸ł à¸ŀ
à¸²à¸Ńà¸²à¸ģà¸²à¸¨ à¸¢à¸²à¸Ļ
à¸£à¸²à¸ ķ
Ġà¸Ļ à¸£à¸²à¸ĺ
Ġ3 50
Ġà¸£à¸ĸ à¹Ģà¸Ĥ
ĠCont rol
Ġ7 1
Ġâ ĺħ
Ġ ak
à¸ĩ à¹Ģà¸ª
à¸ģà¸²à¸£ à¸ļà¸Ķ
Ġà¸Ĺ à¸Ńà¸¡
u y
Ġà¸Ľà¸£ à¸²à¸£à¸ĸà¸Ļà¸²
à¹Ĥà¸ģ à¹ģà¸¥à¸ķ
à¸£à¸¡ à¸«
Ġsh op
à¸Ńà¸Ļ à¹Ĥà¸¢à¸Ļ
Ġà¸§ à¸²à¸¢
Ġà¹ģà¸Ħ à¸¡
ĠNew s
ent s
ĠK ey
à¸ĩ à¹ĥà¸Ķ
Ġà¹Ģà¸Ľ à¹Ģà¸Ľà¸Ńà¸£
ov ie
âĢ Ļ
ĠS un
ĠCol le
Ġ200 7
à¸²à¸ļ à¸Ļ
ĠDV D
Ġà¸¡à¸Ńà¸ļ à¸«à¸¡à¸²à¸¢
Ġà¸£à¸° à¸¥
w ord
à¹Ģà¸ģà¸ ª
à¸¡ à¸ªà¸²à¸§
ĠW ork
Ġà¹Ģà¸īà¸ŀà¸²à¸° à¸ķ
Ġà¸Ńà¸Ńà¸ģ à¹Ģà¸ª
Ġà¸ģà¸£à¸°à¸Ķ à¸²à¸Ļ
Ġà¸Ĭà¸²à¸¢ à¸«à¸Ļ
Ġà¹Ģà¸ģ à¸£à¸ĩ
à¸Ľà¸£ à¸¡
à¸Ĺ à¸¥
i or
à¸ĩ à¹ĥà¸ª
Ġà¸Ĭà¸Ļ à¸ļà¸Ĺ
ĠV ar
Ġà¸Ħà¸§à¸²à¸¡ à¹Ģà¸ģ
à¸ķà¸£ à¸łà¸²à¸ŀ
Ġà¹Ĩ à¹Ĩà¹Ĩ
à¸Ńà¸ĩ à¸Ĭà¸²à¸¢
Ġà¸ªà¸« à¸£à¸²à¸Ĭà¸Ńà¸²à¸ĵà¸²à¸Ī
à¸²à¸ģà¸£ à¸ĵ
b urg
Ġà¸ İ
ĠC S
à¸§à¸¢ à¹Ģà¸«à¸ķ
à¸¡à¸« à¸²à¸Ķ
Ġà¸ŀ à¸įà¸²
Ġà¸«à¸² à¹Ģà¸ĩ
Ġà¸ªà¸²à¸¢ à¹Ħà¸Ł
A I
à¸Ńà¸ģ à¹Ģà¸ļ
Ġà¸£à¸° à¸§à¸²à¸ĩ
ĠS U
Ġà¸¡ à¸Ļà¸ķ
Ġà¸§à¸²à¸Ķ à¸łà¸²à¸ŀ
à¸Ķà¸¡ à¸ªà¸¡à¸ļ
Ġà¸¥ à¸²à¸¢à¸Ļ
Ġà¸ģà¸£à¸°à¸Ĺà¸£à¸§à¸ĩ à¸¨
à¹Ģà¸ļ à¸²à¸«à¸§à¸²à¸Ļ
ĠV iew
à¸§ à¹Ģà¸Ĥ
Ġà¹Ģà¸¥ à¸ªà¹Ģà¸ķ
à¸Ńà¸ª à¸ĩà¸ª
ĠSoc ial
Ġà¸ģà¸³à¹ģà¸ŀà¸ĩ à¹Ģà¸ŀà¸Ĭà¸£
Ġà¸Ļ à¸²à¸§
Ġà¸«à¸£ à¸Ń
ĠSt ore
ĠUFA BET
Ġc as
âĢ ¢
out ube
ab y
Ġà¸ķà¸²à¸¡ à¹ĥà¸Ī
pl ication
ĠO pt
à¸Ń à¸¨
ĠB est
Ġ7 4
à¸¢à¸Ļ à¸Ļà¸²
à¸ĺ à¸¢
Ġà¸Ńà¸ĩà¸¨à¸² à¹Ģà¸ĭà¸¥
Ġà¸Ńà¸ĩà¸¨à¸²à¹Ģà¸ĭà¸¥ à¹Ģà¸ĭ
à¸ĵ à¸§
à¹Ģà¸Īà¸²à¸° à¸Īà¸ĩ
Ġà¹Ģà¸īà¸ŀà¸²à¸° à¹Ģà¸Īà¸²à¸°à¸Īà¸ĩ
Ġà¸Ń à¸£à¸£à¸ĸ
+ +
Ġà¸ķà¸¥à¸²à¸Ķ à¸«à¸¥
Ġà¸Ĥà¸Ńà¸ĩ à¸ģ
ĠK ing
ĵ à¸£
Ġà¹Ģà¸§ à¸ªà¸ķ
ĠL im
Ġà¹Ĥà¸£à¸Ħ à¹Ģà¸ļà¸²à¸«à¸§à¸²à¸Ļ
Ġà¸łà¸²à¸Ħ à¹Ģà¸Ńà¸ģà¸Ĭà¸Ļ
id s
Ġà¸Ħà¸Ńà¸¥ à¹Ģà¸¥
Ġà¸ķà¸° à¸ģ
à¸Ħ à¸Ńà¸¢
Ġ7 6
Ġà¸Ĭà¸²à¸¢ à¸Ŀ
ĠL ive
à¸²à¸ŀ à¸¢
g r
à¸¡ à¹ĥà¸Ī
Ġà¸¢ à¸Ńà¸ĩ
à¸²à¸ĩ à¸¥
Ġà¹Ĥà¸ķ à¸°
à¸ķ à¹Ģà¸Ļà¸ª
Ġà¹ĥà¸Ī à¸ģà¸¥à¸²à¸ĩ
à¸Ńà¸ļ à¹ģà¸Ĺà¸Ļ
Ġà¸£à¸Ń à¸Ħà¸Ńà¸¢
à¸¢à¸ĩ à¸¥
d ate
Ġà¸łà¸²à¸Ħ à¸Ń
ĠS al
à¸Ļà¸Ħ à¸ķ
à¸ģà¸Ĺ à¸Ńà¸ĩ
t op
Ġà¹Ģà¸Ĺ à¸£
à¹Ģà¸Ħà¸£ à¸Ļ
Ġà¸¥ à¸Ńà¸Ļ
ĠB B
ĠA b
à¸Ń à¸Ńà¸ĩ
ĠEx c
à¸Ļ à¸łà¸²à¸ŀ
ag en
à¸§à¸Ļ à¸£à¸²à¸Ĭà¸ģà¸²à¸£
Ġà¸į à¸²
à¸²à¸¢ à¸Ĺà¸³
Ġà¸Ľ à¸Ńà¸¢
Ġà¸ŀà¸ļ à¸ģ
er ry
Ġà¸® à¸°
à¹ģà¸£à¸ĩ à¸ĩà¸²à¸Ļ
à¸Ń à¸Ńà¸¢
ĠC OM
Ġà¹Ģà¸§ à¸Ľ
Ġà¸¡à¸²à¸ª à¹Ģà¸ķà¸Ńà¸£
Ġà¸Ľ à¸Ļ
à¸«à¸²à¸£ à¸ĺ
Ġà¹ģà¸ļà¸ļ à¸Łà¸Ńà¸£
ĠG ener
à¸ļ à¸²à¸Ļ
ĠL td
à¹Ĥ à¸Ĩà¸©
M A
à¸¬ à¸²à¸¥
à¸Ńà¸ĩà¸Ħ à¸²à¸¢
Ġà¸ģà¸³ à¸Ļ
Ġ= >
Ġà¹Ĥà¸Ķ à¸Ļà¹ĥà¸Ī
à¸ĵ à¸Ħà¸£
à¸ģà¸ª à¸Ńà¸Ļ
Ġà¸® à¸Ńà¸¥à¸¥
Ġà¹Ħà¸Ľ à¸£à¸©à¸ĵ
Ġà¸ģà¸²à¸£à¹ģà¸ª à¸Ķà¸ĩà¸Ħà¸§à¸²à¸¡à¸Ħ
Ġà¸Ħà¸²à¸Ķ à¸ģà¸²à¸£à¸ĵ
Ġà¸ģà¸²à¸£ à¸ķà¸²à¸¡
à¸£ à¸Ńà¸Ķ
Ġà¸«à¸Ļ à¸Ńà¸ĩà¸Ħà¸²à¸¢
Ġà¹Ħà¸Ķ à¸Ńà¸²à¸£
à¸Ĥ à¸²à¸§
d a
Ġà¸ ¸
Ġà¸Ħà¸§à¸²à¸¡ à¸ģà¸¥
à¸ļà¸ļ à¸Ńà¸£
A d
à¸Ħ à¸ĵà¸°
ĠS D
à¸²à¸Ń à¸²à¸§à¸²à¸ª
Ġà¸ĩà¸²à¸Ļ à¸¨
Ġà¸Ħà¸Ńà¸Ļ à¹Ģà¸Ĺ
Ġà¹ģà¸Ľ à¸°
Ġà¹ģà¸¡ à¸ķà¸Ĭ
à¸²à¸¢ à¸ļ
Ġà¸Ĺà¸²à¸ĩ à¸Ķ
à¸ģ à¸²à¸Ĥ
Ġà¸ķ à¸²à¸¥
ambl ia
el s
à¸²à¸§ à¹Ĥà¸ŀ
à¸Ħà¸³ à¹ģà¸«à¸ĩ
à¸Ķà¸ķ à¸²
ĠS et
l er
à¸ŀ à¸Ļà¸¡
Ġà¹Ħ à¸Ĭ
Ġà¸Ľà¸£à¸²à¸ģà¸ı à¸ģà¸²à¸£à¸ĵ
à¸ª à¸«
à¸²à¸Ĺ à¸£
Ġà¸ļà¸Ĺ à¹Ģà¸ŀà¸¥à¸ĩ
S T
à¸¢à¸Ńà¸¡ à¸£
Ø§ Ù
à¸ªà¸²à¸ĺà¸²à¸£ à¸ĵà¸ª
à¸Ĺà¸¢à¸² à¹Ģà¸Ĥà¸ķ
Ġs eek
Ġà¹Ģà¸Ĥà¸² à¹ĥà¸«à¸į
Ġà¹Ģà¸Ļ à¸ķ
iv al
Ġ22 0
à¸³à¸Ļ à¸§à¸ĵ
ion s
à¹ģà¸Ĺ à¸Ħ
à¸ª à¸²à¸ģà¸¥
ĠT our
Ġ10 5
Ġà¸Ķà¸Ńà¸Ļ à¹Ģà¸¡
Ġà¹Ħà¸¡ à¸Ħ
à¸¨ à¸Ļà¸Ħà¸ķ
Ġà¸ł à¸²à¸Ĭà¸Ļà¸°
à¸ģà¸« à¸¥à¸²à¸Ļ
à¸ĩà¸ĩ à¸²
ĠP e
à¸Ħà¸¥ à¸Ńà¸Ķ
Ġà¸¡à¸° à¸¡
ĠI C
Ġà¸ļ à¸²à¸¥
Ġà¸ª à¸ģà¸Ľà¸£à¸ģ
Ġà¹Ĥ à¸ĸ
à¹ģà¸Ľ à¸£
Ġ out
Ġà¹ģà¸ªà¸Ķà¸ĩ à¸ĸ
Ġà¸£à¸²à¸Ħ à¸²à¸ª
à¸ļ à¸²
Ġà¸Ķ à¸ģ
ĠL og
à¸§à¸¢ à¸Ħà¸§à¸²à¸¡
Ġà¸¢ à¸ģà¸¢
à¸Ħ à¹ĥà¸«à¸¡
Ġà¹Ģà¸Ī à¸¡à¸ª
Ġà¸Ļà¸° à¸Ī
Ġà¸Ľà¸£à¸°à¸Ī à¸§à¸ļà¸Ħ
ĠÃ ¡
Ġ ~
Ġà¸Ĭ à¸²à¸Ļ
Ġà¸ģà¸²à¸£à¸Ħ à¸³à¸Ļà¸§à¸ĵ
à¸Ľ à¹Ĥà¸łà¸Ħ
a e
Ġà¸ ³
ĠC ateg
ĠNet work
à¸Ŀ à¸£
à¸²à¸ģà¸ Īà¸Ļ
Ġà¹ģà¸ģ à¸ĩ
Ġá »
Ġà¹Ĥà¸Ķà¸¢à¹Ģà¸ īà¸¥
Ġà¸Ĥà¸Ļ à¸²à¸Ļ
Ġà¹ģà¸ĭ à¸ĩ
à¸¨ à¸§à¸£
à¸Ńà¸ĩ à¸ķà¸²à¸¡
Ġà¸§ à¸Ńà¸£
Ġà¸Ł à¸²à¸Ļ
à¸²à¸ģà¸¥ à¸³à¸ļà¸²à¸ģ
Ġà¸ķà¸£à¸ĩ à¹Ħà¸«à¸Ļ
à¹Ģà¸¥ à¸ĩ
à¸Ļà¸¢ à¸Ńà¸¡
ĠRe view
Ġà¹Ĥà¸Ķ à¹Ģà¸¡à¸Ļ
Ġà¹ģà¸¡ à¸ĩ
E A
ĠG reen
ĠIS O
Ġà¹ģà¸ª à¸Ķà¸ĩà¸Ħà¸§à¸²à¸¡à¸Ħ
Ġà¹Ģà¸Ľ à¸²
Ġà¸ŀà¸Ń à¹Ģà¸ŀ
Ġà¸łà¸²à¸Ħ à¸§
ĠC or
Ġà¸ķà¸Ńà¸Ļ à¸ģà¸¥à¸²à¸ĩ
à¸ĵ à¸²à¸ĺ
Ġà¹Ĥ à¸«à¸¡
00 00
Ġà¸¨ à¸²à¸ª
Ġà¸Ńà¸Ļ à¸²à¸¡
ĠC all
Ġth is
ĠIn n
> >
à¸²à¸Ĺ à¸³
ĠA ward
Ġà¸Ĥà¸Ńà¸ĩ à¸ķà¸¥à¸²à¸Ķ
Ġà¸ģà¸ ı
Ġ' '
Ġà¹ĥà¸Ļ à¹Ģà¸§à¸¥à¸²à¸Ļ
bo ard
m l
ĠM ini
Ġà¸ª à¸Ń
Ġà¸¢à¸° à¸¥à¸²
y d
à¹Ģà¸ģà¸¡ à¸ª
Ġà¸ĩà¸²à¸Ļ à¸ŀ
à¸¥ à¸Ĥ
Ġr u
à¹ģà¸¥à¸° à¸ŀ
Ġà¸Ħà¸§à¸²à¸¡ à¹Ģà¸Ħà¸¥
ĠC O
Ġà¸Ħà¸ĵà¸° à¸§
n ess
Ġà¸ķà¸¥à¸Ńà¸Ķ à¹Ħà¸Ľ
Ġà¸Ħà¸§à¸²à¸¡ à¹Ģà¸Ī
Ġà¹Ģà¸Ĭ à¸Ń
ĠâĨ Ĵ
ĠR E
8 6
ĠM ax
at ive
Ġà¸Ļà¸Ħà¸£ à¸ŀà¸Ļà¸¡
à¸¢ à¸ģà¸²à¸£
ĠJ apan
ĠðŁ Ĵ
Ġà¹Ģà¸ŀà¸² à¹Ģà¸§à¸Ńà¸£
---------------- ----------------
it a
Ġà¸ª à¸¥à¸²à¸¢
I O
ĠJ un
à¸Ķ à¸ľ
5 9
er g
à¸ī à¸²à¸¢
ĠS ing
à¸² à¹ĥà¸Ķ
à¹Ħ à¸¥à¸Ļ
Ġà¸Ħà¸§à¸²à¸¡ à¸§
à¸ĩ à¸łà¸²à¸¢à¹ĥà¸Ļ
ĠD et
Ġ ur
Ġà¹Ħà¸Ł à¹ģà¸Ļà¸Ļ
à¸²à¸§ à¸Ħ
Ġà¹Ĥ à¸ĩ
ĠB ank
à¸³ à¸ľà¸¥à¹Ħà¸¡
ĠN ote
à¸Ń à¸Ĭ
à¸Ľà¸£à¸°à¸Ĭ à¸²à¸Ĭà¸Ļ
Ġà¹Ħ à¸Ńà¸Ķ
à¹Ĥà¸Ĩà¸© à¸ĵà¸²
Ġl amblia
à¸į à¸²à¸ĵ
Ġà¸Ĥà¸Ńà¸ĩ à¸§
à¸Ńà¸Ļ à¹ĥà¸Ī
à¸ªà¸²à¸§ à¸£
is m
row n
à¸² à¹ģà¸¡
od a
Ġà¸Ĭ à¸Ķ
à¸² à¹Ģà¸¡
à¸¥à¸ģ à¸£à¸°
à¸¬à¸²à¸¥ à¸ĩà¸ģà¸£à¸ĵ
à¸ĩ à¹Ĥà¸£à¸Īà¸Ļ
D F
à¸Ńà¸ĩà¸ª à¸Ńà¸Ļ
à¸Ħà¸§à¸²à¸¡ à¸Ħ
Ġà¸¡ à¸«à¸²à¸£à¸²à¸Ĭ
à¸Ńà¸ĩ à¹ģà¸ķ
à¸Ļ à¸Ŀà¸²à¸ģ
I K
Ġà¸Ĭà¸° à¸¥à¸Ń
à¸¨à¸Ļ à¸°
Ħ ¢
Ġà¹Ĥ à¸Ńà¸ļ
à¹Ģà¸¢ à¸ĭ
à¸ķà¸£ à¸Ķ
Ġà¹Ĥà¸¢ à¸Ħà¸°
à¸Ń à¹Ħà¸£
Ġà¸¢à¸Ńà¸¡ à¹ĥà¸«
à¸ŀà¸¥ à¸Ńà¸Ķ
ĠB L
ic le
ĠPro gram
Ø ±
à¸Ļà¸Ĺ à¸Ńà¸ĩ
ĠE lect
à¸¢à¸ļ à¸ŀà¸¥
âĺħ âĺħ
Ġà¸Ħà¸§à¸²à¸¡ à¹ĥà¸Ļ
he v
Ġà¹Ĥà¸Ł à¸¥
s ite
Ġà¸Ľà¸£à¸°à¸ĺà¸²à¸Ļ à¸ģà¸£à¸£à¸¡à¸ģà¸²à¸£
Ġà¸ªà¸£à¸£ à¸«à¸²
à¸²à¸§à¹Ĥà¸ŀ à¸Ķ
à¸ł à¸ŀ
ĠD ata
Ġà¸ŀ à¸²à¸ª
Ġà¸ľ à¸ªà¸²à¸Ļ
ĠG PS
à¸ŀà¸¤ à¸ģà¸©
Ġà¹Ĥ à¸ªà¸¡
Ġà¸§à¸²à¸ĩ à¹ĥà¸Ī
à¸£à¸° à¸¢à¸°
Ġà¸ŀà¸£à¸° à¹Ģà¸¢à¸ĭ
af e
à¸Ńà¸ªà¸Ńà¸ļ à¸ĸà¸²à¸¡
à¸²à¸ª à¸°
à¸£ à¸Ńà¸¢
à¸Ļà¸ª à¸Ļ
à¸Ĵà¸Ļ à¸°
Ġà¸ļ à¸Ńà¸Ļ
Ġt ha
Ġà¹Ħà¸Ńà¸Ķ à¸Ńà¸¥
Ġà¸¢ à¸²à¸ª
à¸¡ à¸¤à¸Ĺà¸ĺ
ĠC ha
Ġà¸Ķà¸³à¸£à¸ĩ à¸Ĳà¸²à¸Ļà¸°
Ġà¹Ĥà¸Ľà¸£à¹Ģà¸Ī à¸Ħ
vis or
à¸§ à¸Ħ
à¸² à¹Ģà¸ļ
P P
Ġà¸Ńà¸²à¸ª à¸²à¸ªà¸¡
k s
à¸Ķà¹Ģà¸ ¢
Ġà¸«à¸Ń à¸Ľà¸£à¸°à¸Ĭ
Ġà¸Ĥà¸²à¸Ķ à¸Ĺ
Ġ^ ^
Ġà¸ĺ à¸²à¸£
ĠO N
à¸Ļà¸Ĺ à¸£à¸¡à¸«
à¸Īà¸ŀà¸£à¸° à¸Ľà¸£à¸¡
à¸Ļà¸Ĺà¸£à¸¡à¸« à¸²à¸ł
Ġà¸ģà¸³à¸«à¸Ļà¸Ķ à¸ģà¸²à¸£
Ġs k
Ġà¸¤ à¸ģà¸©
ĠG roup
i ang
t ect
ĠHe alth
Ġà¸Ļ à¸£à¸ģ
Ġà¸«à¸¥à¸Ńà¸Ķ à¹Ħà¸Ł
Ġà¸ģà¸§ à¸²à¸Ķ
ĠÃ Ĺ
ĠMA X
Ġà¸ģ à¸²à¸¡
Ġà¸Ļà¸Ħà¸£ à¸Ļà¸²à¸¢à¸ģ
Ġà¸« à¸²à¸§
b r
à¸¡ à¸Ħà¸Ļ
Ġà¸ķà¸£à¸ĩ à¹Ĩ
Ġà¹ĥà¸Ļ à¸ª
à¹Ģà¸ŀà¸¨ à¸ª
ĠF ood
à¹ģà¸Ľ à¸¥
5 6
ĠTr ue
à¹Ģà¸Ĥà¸² à¹Ħà¸Ł
ĠA v
Ġà¸Ł à¸Ńà¸ģ
ĠA ct
Ġà¸ļà¸Ńà¸ģ à¹Ģà¸¥
Ġ/ %
Ġà¹ģà¸ľà¸Ļ à¸ĩà¸²à¸Ļ
Ġà¸ģà¸£à¸°à¸Ĺ à¸°
à¸Ńà¸ĩ à¸Ĥà¸Ń
à¸Ł à¹Ģà¸§à¸Ńà¸£
ĠIn f
à¸Ļ à¹ĥà¸¢
à¸¢ à¸ªà¸³à¸Ħ
Ġ ar
Ġà¸ģà¸£à¸¡ à¸ģà¸²à¸£
ar ge
Ġà¹Ĥà¸Ķà¸¢ à¹Ħà¸¡
Ġà¹ģà¸£à¸ĩ à¸¡
ĠW atch
à¸ĩ à¸«à¸¡à¸²à¸¢
à¸Ĥ à¸²à¸¡
ĠW ater
Ġ16 8
Ñ Į
à¸Ķà¹Ģà¸§ à¸¥à¸²
Ġà¸Ĥà¸Ńà¸ĩ à¹Ģà¸«à¸¥à¸§
Ġcom p
Ġà¹ĥà¸Ļà¸Ĥà¸ĵà¸° à¹Ģà¸Ķ
à¹Ģà¸§ à¸Ļ
Ġà¹Ģà¸Ĺ à¸Ńà¸£
à¸¥à¸° à¸¥à¸²à¸¢
et er
ĠCol l
à¸² à¹ģà¸Ĥ
à¸²à¸§ à¸ķ
Ġà¸«à¸¡ à¸Ķà¸ª
Ġt ime
Ġà¹Ģà¸¡ à¸¢
Ġà¹Ģà¸Ħ à¸²
Ġà¹Ħà¸Łà¹ģà¸Ļà¸Ļ à¸ĭ
Ġà¸¥à¸° à¸¡
t y
ĠM ay
ĠG M
à¸Ħà¸²à¸¢ à¹Ģà¸Ħ
Ġà¸łà¸²à¸¢à¹ĥà¸Ļ à¸Ľà¸£à¸°à¹Ģà¸Ĺà¸¨
Ġà¸§à¸ĩ à¸©
as y
à¸¢à¸ļ à¹Ģà¸£
Ġ254 9
Ġà¸¢à¸Ńà¸Ķ à¸®
à¹ģà¸ķ à¸ģ
à¸łà¸²à¸ŀ à¸¢à¸Ļà¸ķà¸£
à¸Ķ à¹Ģà¸Ĺ
à¸¢ à¹ģà¸¥
Ġà¸Ħà¸§à¸²à¸¡à¸Ĭ à¸³à¸Ļà¸²à¸į
ot ion
Ġà¸ĸ à¸¡
Ġà¸ĩ à¸Ńà¸ģ
Ġc an
Ġà¸ŀà¸£à¸° à¸Ĺ
à¸Ķà¸ª à¸£
à¹Ģà¸Ķ à¸Ļ
Ġà¸ĺ à¸£
ĠT o
Ġà¸ļ à¸Ńà¸Ķ
Ġy our
à¸ŀà¸¢à¸²à¸ģà¸£ à¸ĺà¸£à¸£à¸¡à¸Ĭà¸²à¸ķ
à¸Ķà¹Ģà¸Ĭ à¸¢
V C
à¸ģà¸£ à¸ŀ
ĠSp ec
à¸¥à¹Ģà¸¥ à¸Ńà¸£
Ġà¹Ģà¸Ħ à¹Ģà¸ļ
Ġà¸Ľà¸£à¸²à¸ Ī
il y
Ġ17 0
7 6
Ġà¸ģà¸²à¸ĩà¹Ģà¸ģà¸ĩ à¹ĥà¸Ļ
b y
Ġà¹Ģà¸£ à¸Ĺ
p or
us s
Ġà¸ªà¹Ħ à¸¥à¸Ķ
ĠL ife
Ġà¸ģà¸£à¸°à¸Ĺà¸£à¸§à¸ĩ à¸ªà¸²à¸ĺà¸²à¸£à¸ĵà¸ª
à¸Ļ à¹Ģà¸Ĥà¸²
Ġà¸£à¸³ à¸¥
Ġà¸ĵ à¸£à¸ĩà¸Ħ
Ġà¸§ à¸Ńà¸Ļ
Ġà¹Ģà¸ľ à¸¥à¸Ń
à¸§ à¸ľ
Ġà¸ĸ à¸²
à¸£à¸¡ à¸¢
Ġà¸łà¸²à¸© à¸²à¸Ī
U L
à¸²à¸Ħ à¸§à¸²à¸¡
à¸Ļ à¸£à¸²à¸¢
Ġ13 0
à¸ģà¸£ à¸Ńà¸ĩ
ĠManag er
Ġà¸«à¸¡ à¸²à¸ģ
Ġâ ĸ
Ġà¸Ħ à¸Ħ
g a
à¸¢ à¸ĵ
Ġà¸«à¸Ļ à¸Ĺà¸²à¸ĩ
Ġb ack
w orm
à¸²à¸Ħ à¸¥
à¸ŀà¸£à¸° à¸Ħ
Ġà¸«à¸¥ à¸ļà¸«à¸Ļ
Ġà¹Ĥà¸Ħà¸£à¸ĩ à¸ĩà¸²à¸Ļ
Ġà¸Ķà¸²à¸§ à¹Ģà¸Ĺ
Ġà¸Ńà¸²à¸«à¸²à¸£ à¸Ĺà¸°à¹Ģà¸¥
ĠK h
à¸ŀ à¸ŀà¸²à¸Ļ
à¸Ńà¸¡ à¸¥
t ra
T V
es k
à¹ģà¸Ħ à¸¥à¸Ļ
Ġ... ...
l ish
à¸¡à¸Ĥ à¸Ļ
Ġà¹Ģà¸ĭ à¸£à¸²à¸¡
à¸Ķ à¹Ħà¸Ł
Ġà¸ľà¸¥ à¸ģà¸³à¹Ħà¸£
à¸§à¸ĩ à¹ģà¸£à¸ģ
Ġà¸ģà¸²à¸£à¸Ī à¸£à¸²à¸Īà¸£
ĠS ou
ĠV is
Ġà¸Ĭ à¸ģ
Ġs er
or i
ĠPre m
Ġà¸Ĺ à¸¢
à¸ĩà¸ģà¸° à¸ª
à¸¢ à¹Ĥà¸Ļ
T E
à¸ķ à¸£à¸²à¸Ķ
à¹Ĥ à¸ī
Ġà¸£ à¸Ńà¸Ļ
r aph
Ġà¸Ķ à¸Ńà¸£
ag ram
Ġà¹Ĥà¸Ĭ à¸ķ
à¸ļ à¸Ń
ĠB R
Ġà¸Ľà¸£à¸°à¸Īà¸³ à¸§
Ġà¸ķà¸£ à¸§
ĠL CD
xx x
Ġà¸£à¸²à¸Ĭ à¸Ńà¸²à¸ĵà¸²à¸Ī
à¸Ķ à¸Ľà¸£à¸°à¸ªà¸ĩà¸Ħ
Ġà¸«à¸¥ à¸Ńà¸ģà¸¥
et ooth
ro t
ĠA N
H D
à¸²à¸Ĭ à¸²à¸Ķ
à¸Ĺ à¸Ķà¸ªà¸Ńà¸ļ
à¹Ģà¸¥ à¸Ļ
ĠToy ota
à¸ĩà¸ģà¸ ³
ĠV ol
Ġ9 3
Ġà¸£à¸²à¸Ĭ à¸²
à¹Ģà¸Ń à¹Ģà¸Ĭ
Ġà¹Ģà¸Ħà¸£ à¸Ļ
4 2
à¹Ĥ à¸¨à¸ģ
Ġà¸Ĥà¸§ à¸²à¸ĩ
ĠS ur
Ġà¸Ļà¸²à¸¢ à¸Ī
ĠM S
à¸ªà¸³ à¸£à¸Ńà¸ĩ
ĠRe al
Ġà¸ģà¸£à¸°à¸ļ à¸Ńà¸ģ
Ġà¸ģà¸° à¸Ľ
Ġà¹Ĥà¸Ħ à¸£à¸²à¸Ĭ
Ġm in
ĠSh ow
à¸ļ à¹Ģà¸ģ
Ġà¸ªà¸§à¸Ļ à¸ªà¸²à¸ĺà¸²à¸£à¸ĵà¸°
à¸²à¹ĥà¸Ī à¸ľ
à¸Ńà¸¢ à¸ķ
Ġà¸Ľà¸²à¸Ļ à¸ģà¸¥à¸²à¸ĩ
à¸¢à¸ĩ à¹Ĥà¸Ĭà¸Ħ
Ġà¸Ķ à¸§à¸¥
à¸ª à¸ľ
ĠH ar
à¸Ńà¸ĩ à¸«
à¸ŀ à¹Ģà¸ģà¸£à¸Ķ
Ġà¸ķà¸²à¸¡ à¹Ģà¸§à¸¥à¸²
Ġà¸Ļ à¸ķ
à¸ł à¸²à¸§à¸°
ak er
S h
Ġà¸ŀà¸£à¸£à¸Ħ à¸ģà¸²à¸£à¹Ģà¸¡
ĠI CD
Ġà¸ģà¸¥à¸¡ à¸ģà¸¥
à¸Ńà¸ĩ à¸ĭ
à¸Ļà¸Ľ à¸ģà¸ķ
Ġà¹Ģà¸£ à¸¢
Ġà¸ģà¸²à¸£ à¸Ĺà¸³
à¸ķà¸£à¸²à¸Ķ à¸Ńà¸ģà¹Ģà¸ļ
ĠRes ort
Ġà¹Ĥ à¸¢à¸ģ
ĠC E
Ġà¸ŀà¸£à¸°à¸£à¸²à¸Ĭ à¸²
à¸²à¸Ľà¸£à¸° à¸Ĺ
ĠMus ic
Ġà¸Ļ à¸ļ
Ġà¸Ľà¸° à¸Ĺà¸°
Ġp art
ĠEn ter
Ġh t
ĠG en
à¸ĩ à¸Ľà¸¥
à¸Ķà¹Ģà¸ ª
à¸¨à¸§ à¸£à¸£à¸©
ill a
Ġà¸Ķà¸Ńà¸Ĺ à¸Ħà¸Ńà¸¡
Ġà¸Ĥ à¸³
Ġà¹Ĥà¸Ħ à¸¥à¸Ļ
Ġà¸Ľ à¸ģà¸Ħà¸¥
Ġà¸Ĺà¸³ à¸Ħà¸§à¸²à¸¡à¸£
à¸ģà¸Ľ à¸¥à¸²
ĠCl oud
# #
Ġà¸Ńà¸²à¸Ĭà¸į à¸²à¸ģà¸£à¸£à¸¡
Û Į
Ġ ç
Ġà¸ľ à¸Īà¸įà¸ł
à¸Ħà¸° à¹ģà¸Ļà¸Ļ
Ġà¸ª à¹Ĥà¸ķà¸£
Ġà¸Ħà¸§à¸²à¸¡ à¸Īà¸³
Ġà¸Ĺ à¸¨à¸§à¸£à¸£à¸©
à¸²à¸ĩ à¸ĩà¸²à¸Ļ
à¹Ģà¸ª à¸¡
ĠF il
Ġ14 0
Ġà¸ļ à¸§à¸£
Ġà¸Ľà¸ķ à¸Ĺ
å ½
w e
à¸§à¸¢à¸Ħà¸§à¸²à¸¡ à¸Īà¸³
à¸¢à¸¡ à¸ŀà¸£
ĠOp en
à¸¢à¸Ļ à¸²à¸Ĺ
ĠW ord
à¸Ĺà¹Ģà¸¡ à¸Ļà¸Ĺ
à¸Ńà¸ļ à¸£
ĠCont in
Ġà¸Ħ à¸²à¸ĸ
à¸¥à¸Ľ à¸§
Ġv s
â ĸ
Ġà¹Ģà¸Ķ à¸¢
Ġà¹ģà¸ļ à¸ĩà¸Ħ
Ġ08 6
à¸² à¹Ģà¸ŀ
à¸ģà¸£à¸§ à¸²à¸¥
à¸¢à¸ĩ à¸ª
ut t
Ġà¹Ĥ à¸Ļà¸Ļ
à¸³à¸£ à¸§à¸¢
à¸ª à¸ģà¸²à¸£
Ġà¸£à¸°à¸ļ à¸Ńà¸ļ
ur a
Ġà¸¢ à¸³
8 00
Ġà¸Ĭà¸¥ à¸Ľà¸£à¸°à¸Ĺà¸²à¸Ļ
à¸Ńà¸ģà¸ ģà¸¥
ĠC ream
à¸£ à¸Ń
Ġà¸¢ à¸Ńà¸Ļ
Ġà¹Ģà¸¥ à¸§à¸£
Ġà¸ŀà¸£à¸°à¸¡à¸« à¸²à¸ģà¸©
Ġà¸« à¸²à¸Ĺà¸²à¸ĩ
Ġà¸ĩà¸²à¸Ļ à¸ģ
à¸Ń à¹Ģà¸ķ
Ġà¹Ĥà¸Ĭ à¸Ħà¸¥
Ġà¸£à¸²à¸¡ à¸Ń
Ġà¸« à¸²à¸ģà¸§
ĠBr and
el y
Ġà¸Ľà¸£à¸²à¸ ĵ
à¸ªà¸£ à¸ĵ
à¸²à¸ĩ à¸«à¸¥
à¸Ķà¸Ĺ à¸Ļ
Ġà¸Ń à¸²à¸¥
Ġà¹Ģà¸ĭ à¸²
Ġ one
ĠD S
Ġà¹Ģà¸ļ à¸²à¸«à¸§à¸²à¸Ļ
Ġà¸Ħà¸Ńà¸Ļ à¹Ģà¸ĭ
Ġà¸ģà¸£à¸Ńà¸ļ à¸£
Ġ08 9
Ġà¸£à¸Ńà¸ĩ à¸Ľà¸£à¸°à¸ĺà¸²à¸Ļ
ĠL ink
à¸Ńà¸ĩ à¸Ħà¸¥à¸Ńà¸Ķ
ĠM edia
Ġà¹ĥà¸Ļ à¸«à¸¥à¸§à¸ĩ
Ġà¹ģà¸ªà¸Ķà¸ĩ à¸Ńà¸Ńà¸ģ
G A
à¸ļà¸Ĺ à¸Ńà¸Ķ
Ġà¹Ģà¸ģ à¸²
Ġt op
f ect
à¸ĩ à¸¨
s s
Ġn ot
in es
à¸ļ à¹ģà¸ķ
Ġà¹Ĥà¸«à¸§ à¸ķ
Ġà¹Ģà¸¥à¸ª à¹Ģà¸ļ
ro om
ĠR em
Ġà¸Ķ à¸°
T A
à¸Ľà¸£à¸°à¸Ĭ à¸²à¸ĺ
Ġà¸Ł à¸²à¸¢
à¹Ħ à¸ŀ
ĠC M
iel d
à¸Ń à¹Ģà¸Ĺà¸¨
Ġà¸£à¸²à¸¢ à¹ĥà¸«à¸į
Ġà¸£à¸Ńà¸ĩ à¸ŀ
8 4
à¸Ńà¸Ļ à¸Ń
ov a
ĠM ed
ĠP ack
à¸ŀ à¸²à¸£à¸²
à¸§ à¹Ģà¸ªà¸£
Ġ9 2
g an
Ġà¹Ģà¸¢à¸Ńà¸° à¹ģà¸¢à¸°
à¸¡ à¸Ļà¸§à¸¥
Ġp m
Ġà¸¢à¸Ńà¸Ķ à¹Ģà¸Ĥà¸²
Ġà¹Ĥà¸ļ à¸§
Ġà¸ŀ à¸Īà¸Ļ
à¸Ĭà¸° à¸ķà¸²
à¸ĩà¸ģà¸£ à¸²à¸Ļ
à¸Ĳ à¸ªà¸łà¸²
Ġà¸Īà¸³ à¸Ļà¸³
à¹Ģà¸Ń à¸Ł
à¸Ļà¸Ķ à¸²
Ġà¸Ļà¸Ńà¸ģà¸ ļ
Ġà¹Ģà¸Ł à¸£à¸¡
Ġà¸¢à¸²à¸ĩ à¸ŀà¸²à¸£à¸²
Ġà¸«à¸¢ à¸Ńà¸Ķ
Ġà¹Ģà¸ŀà¸¨ à¸ª
Ġà¸ģà¸Ķ à¸Ķ
Ġâ Ŀ
Ġ10 2
um e
Ġà¹Ĥà¸£à¸Ħ à¸ł
à¸ģà¸ģ à¸£à¸°
à¸²à¸§ à¸«à¸²
à¸ĩà¸¢ à¸²à¸ĩ
Ġà¸Ń à¸Ķà¸Ĺà¸Ļ
à¸² à¹ĥà¸«à¸¡
ĠS an
à¸¢ à¹ģà¸¥à¸°à¸ŀ
à¸¢à¸Ļ à¸«à¸Ļ
Ġà¸ŀà¸£à¸° à¸ĺà¸£à¸£à¸¡
à¸ĩà¸ª à¸¡
Ġn g
Ġâ Ħ¢
Ġà¸¥ à¸Ńà¸Ķ
4 00
à¸Ĺ à¸Ĺ
Ġà¹Ĥà¸Ķ à¸¡
Ġà¸Ļà¸²à¸¡ à¸ªà¸ģ
ĠH i
Ġp er
r ing
Ġà¸Ľà¸£à¸° à¸Ħ
l l
i ent
à¸²à¸ĩ à¸Ĺà¸Ńà¸ĩ
à¸¢à¸į à¹Ģà¸ĩ
Ġà¸ª à¹Ģà¸ģ
à¸Ķ à¸Ńà¸ģ
Ñģ ÑĤ
ĠX L
Ġà¸Ħà¸³ à¸£
à¸į à¸¡à¸ĵ
à¸ģ à¹Ģà¸Ķ
ĠBM W
Ġà¹Ģà¸ļ à¸įà¸Ī
Ġ9 1
à¸ģà¸ ģà¸¥
g et
à¸ı à¸Ĳ
à¸į à¸Īà¸£
à¸ľ à¸¥à¸ģà¸£à¸°
à¸ľà¸¥à¸ģà¸£à¸° à¸Ĺà¸ļ
ĠT el
Ġà¸Ļ à¸§à¸¥
Ġà¸£à¸° à¸Ļà¸Ńà¸ĩ
ĠS ub
ĠSE O
Ġ7 3
ĠðŁ ĵ
Ġà¸ģà¸ ĭ
à¸Ķ à¸¡à¸²
à¸ģà¸£à¸° à¹ģà¸Ĺà¸ģ
Ġà¸Ļà¸³ à¸ŀà¸²
à¸Ńà¸ģ à¹Ģà¸Ĥà¸²
ĠSch ool
ĠÐ ¿
Ġà¹Ģà¸ª à¸ŀ
à¸Ĺà¸¢ à¸²à¸ģà¸²à¸£
à¸Ļ à¸£à¸°à¸¢à¸°
Ġà¸Ńà¸² à¹Ģà¸Ī
ĠU N
Ġà¸£ à¸²à¸Ļ
Ġà¸Ħà¸³à¸ª à¸Ńà¸Ļ
à¹Ħ à¸Ĺ
Ġà¸ĵ à¸²
à¸Ķ à¹Ĥà¸Ĺà¸©
à¸į à¸ŀ
å ı
v it
am m
ĠAB S
Ġà¹Ĥà¸Ĭà¸Ħà¸¥ à¸²à¸ł
Ġà¸Ń à¸§à¸ģà¸²à¸¨
Ġà¹ģà¸Ľà¸¥à¸ģ à¹ĥà¸«à¸¡
re t
Ġà¸ŀ à¸«à¸¥
Ġà¸§ à¸Ĭ
AN G
Ġà¸Ĺ à¸²à¸£
à¸Ľà¸ģà¸²à¸£ à¸°
ĠCol or
Ġà¹Ģà¸Ĺà¸¨à¸ļà¸²à¸¥ à¹Ģà¸¡
b ook
Ġà¸ģ à¸ĩ
à¸ļ à¸Ńà¸Ķ
ov o
Ġà¹ģà¸§ à¸£
ĠM r
ubl ic
Ġà¸Ĺà¸²à¸ĩ à¹Ħà¸Ķ
Ġà¹ģà¸Ħ à¸¡à¸Ľ
Ð ²
à¸Ńà¸ª à¸²à¸¢
A K
ĠS ize
uk i
Ġà¸£ à¸²à¸ļ
ĠAc c
à¹į à¹ī
Ġà¸Ħà¸ĵà¸° à¸Ĺà¸³à¸ĩà¸²à¸Ļ
ĠMarket ing
à¸£ à¸ķ
à¸Ħà¸§à¸²à¸¡ à¸Ń
Ġà¸Ħà¸§à¸²à¸¡à¸ķ à¸²à¸¢
à¸Ļ à¹Ĥà¸ķ
Ġà¹Ģà¸Ĺ à¸²
à¸Ħ à¸ªà¸¡
ĠS K
à¸§à¸« à¸Ńà¸ģ
æ ľ
Ġà¸£à¸Ńà¸ļ à¸Ĥ
ĠI B
à¸Īà¸ī à¸²
ĠA I
à¸Ļ à¹ģà¸ļ
8 7
Ġà¹Ģà¸Ń à¸¡
ĠH and
à¸§à¸Ļ à¸²
à¸ģà¸Ķ à¸²à¸«à¸²à¸£
à¸§à¸Ļ à¸ªà¸³à¸Ħ
Ġà¸ķà¸¥à¸Ńà¸Ķ à¸Ĭ
à¸§à¸¡ à¸ªà¸¡
Ġ... ....
à¸²à¸ŀ à¸Ļ
Ġà¸£à¸²à¸¡ à¸Ħà¸³à¹ģà¸«à¸ĩ
ĠV ideo
Ġà¸ŀà¸£à¸° à¸Ń
id er
Ġà¸¥ à¸Ĺ
Ġà¹Ģ à¹Ģà¸ķ
à¸¢à¸ļ à¹Ģà¸ªà¸¡
Ġà¸Ĥà¸Ń à¸Ńà¸ł
ir st
Ġà¸ķà¸¥à¸²à¸Ķ à¸«
à¸Ļ à¸£à¸ĸ
Ġà¸ŀà¸¥ à¹Ģà¸¡
à¸Ļ à¸¥à¸ĩà¸Ĺ
à¸ĩ à¹Ģà¸«
à¸£à¸²à¸Ĭ à¸²
ĠSt and
ĠPro ject
à¸Ķà¸³ à¸£à¸ĩ
à¸Ķ à¸§à¸²à¸ĩ
Ġà¹Ģà¸Ħ à¸£à¸²à¸°à¸«
å ħ
ĠMic ro
Ġà¹Ĥà¸ļà¸£ à¸ģà¹Ģà¸ģà¸Ńà¸£
i os
à¸Ļ à¸²à¸ĸ
Ġà¸¢ à¸²à¸Ļà¸ŀ
Ġà¸¢à¸²à¸Ļà¸ŀ à¸²à¸«à¸Ļà¸°
ĠGr and
Ġà¸Ħà¸²à¸ĸ à¸²
Ġà¸£à¸ĸ à¹Ģà¸Ĭ
ur r
Ġà¸ķà¸²à¸¡ à¸Ħà¸³
à¸Ľ à¸Ĭ
Ġà¹Ģà¸ª à¸§à¸Ļà¸²
Ġà¸¥à¸Ķ à¸Ħà¸§à¸²à¸¡à¸Ń
ĠðŁ ĺ
Ġà¹Ĥ à¸«à¸Ļ
ar n
Ġà¸ªà¸£à¸° à¹ģà¸ģ
ĠPro f
ar is
Ġs eb
à¹ĳ à¹ĳ
Ġà¸ŀà¸£à¸° à¸ł
Ġà¹Ģà¸Ĭ à¸Ļ
à¸ªà¸ķ à¸²à¸£
à¸Ļ à¸ģà¸³à¹Ģà¸Ļ
Ġà¹Ĥ à¸ªà¸Ķ
Ġà¹Ģà¸Ī à¸ķà¸Ļà¸²
om y
le d
à¸Ļà¸ģà¸²à¸£ à¸ŀà¸Ļ
Ġà¹ģà¸ŀ à¸Ħà¹Ģà¸ģà¸Ī
Ġà¸¥à¸ĩ à¸§
Ġà¸¨ à¸²à¸ªà¸ķà¸£à¸²à¸Īà¸²à¸£à¸¢
C E
Ġà¸Ĺà¸³ à¸ģà¸³à¹Ħà¸£
or a
Ġà¸ģà¸²à¸ĩà¹Ģà¸ģ à¸ĩà¸Ĥ
à¸Ńà¸ĩ à¸Ľà¸ı
ĠT ravel
à¸Ħà¸§à¸²à¸¡à¸ª à¸²à¸¡à¸²à¸£à¸ĸ
ak i
à¸ĺà¸£à¸£à¸¡ à¸Ķà¸²
P G
Ġà¸ģ à¸²à¸ģ
à¸ģà¸Ĺ à¸²à¸¢
Ġà¸Ħà¸§à¸²à¸¡ à¹Ħà¸¡
à¸¢à¸ĩ à¹ĥà¸Ķ
b id
Ġà¸¡à¸Ńà¸ĩ à¸Ķ
Ġà¸Ļà¸²à¸¢ à¹ģà¸ŀà¸Ĺà¸¢
ĠSe ason
à¸ģà¸£à¸ŀ à¸£à¸£à¸Ķ
O B
Ġ24 0
et a
à¸ģ à¹Ģà¸§à¸¥à¸²
Ġà¸«à¸¥ à¸²
Ġà¹ģà¸Ľ à¸ĭ
à¸Ńà¸£ à¸ª
à ¤
à¸ļ à¹ģà¸Ĥà¸ģ
à¸¢à¸§ à¸ĭ
à¹Ģà¸ĭ à¹Ĥà¸¥
à¹Ģà¸ĭà¹Ĥà¸¥ à¸Ļà¸²
à¹ģà¸¥à¸ģ à¹Ģà¸Ľà¸¥
Ġà¸ķà¸²à¸¡ à¸«à¸¥
op h
Ġà¹ģà¸Ĥ à¸Ļà¸Ĥà¸²
à¸ļ à¹Ģà¸Ĭ
à¸ļà¸ª à¸ĸ
à¸ĩ à¸ģà¸²
à¹Ĥ à¸ļà¸ªà¸ĸ
if ic
r or
Ġà¹Ĥ à¸ģà¸Ķ
à¸ŀ à¸²à¸ĵ
Ġà¸¥ à¸ģ
à¸¨ à¸¡
à¸Ńà¸ĩ à¹Ĥ
ĠO ct
4 3
à¸Ļ à¹ģà¸ķ
Ġà¸Ħà¸§à¸²à¸¡ à¹Ģà¸Ħ
p hone
à¹Ĥà¸Ķà¸¢ à¸ķà¸¥à¸Ńà¸Ķ
ĠW ire
il ity
Ġà¸¡à¸² à¹Ĥà¸Ķà¸¢à¸ķà¸¥à¸Ńà¸Ķ
Ġà¸Ķà¸£ à¸²à¸¡
Ġc he
à¸į à¸«à¸²à¸¢
Ġà¸§à¸ĩ à¸ģà¸¥à¸¡
Ġà¸Ľà¸£à¸° à¸ģà¸ļ
à¸ĩ à¹ģà¸Ĭà¸¡à¸Ľ
Ġà¹ģà¸Ĭ à¸Ĺ
ight s
à¸Ļ à¸£à¸°à¹Ģà¸ļ
Ġà¸£ à¸²à¸ļà¸£
Ġà¸ŀà¸£à¸° à¸Ļà¸²à¸ĩ
à¸Ħ à¸Ńà¸£
ĠSt art
ation s
à¸²à¸ĩ à¸Ĭ
Ġà¸ģà¸£à¸²à¸Ł à¸Ł
Ġà¸Ĺà¸°à¹Ģà¸¥ à¸²à¸°
ĠRe c
Ġm y
ĠNE W
à¹Ģà¸Ĺ à¸Ħà¸Ļ
r ad
ĠO S
Ġà¸Ń à¸Ľ
ĠAs ia
Ġà¹Ģà¸¡ à¸°
Ġà¹Ĥà¸£ à¸¢
**** ****
Ġp x
Ġ10 8
b ps
T ube
aw ei
à¸ģà¸ģà¸²à¸£ à¹Ģà¸¡
Ġà¸£ à¸¨
Ġà¹Ĥà¸Ľà¸£ à¸Ķà¹Ģà¸ģà¸¥
Ġg oogle
ĠManag ement
Ġà¹ģà¸¡à¸Ļ à¸¯
ne y
om en
à¹Ĥà¸ģ à¸ĩ
Ġà¸Ľà¸£à¸° à¸ĵ
à¸¢à¸įà¸Ĺà¸Ńà¸ĩ à¹ģà¸Ķà¸ĩ
Ġà¹ģà¸¥ à¸Ļ
Ġà¸Ľà¸£à¸°à¸Ĭ à¸²à¸Ħà¸¡
Ġ app
ĠLim ited
à¸Ľà¸£à¸°à¸Īà¸³ à¸ķ
Ġur l
Ġà¹Ĥ à¸ŀà¸¥
ĠB re
ĠCam era
à¸¡à¸« à¸²à¸¢
ĠD el
ĠMR T
à¸£à¸²à¸« à¸¡à¸ĵ
rom e
ro und
ĠG R
Ġà¹ģà¸ģà¸° à¸ªà¸¥
Ġà¸Ļà¸³ à¹ģà¸ªà¸Ķà¸ĩ
ap y
Ġà¸Ĥà¸²à¸Ķ à¹ģà¸Ħà¸¥à¸Ļ
Ġà¸¡à¸« à¸²à¸ªà¸¡
à¹ģà¸Ĺ à¸£à¸ģ
à¹Ģà¸® à¸²à¸ª
Ġà¸ŀ à¸²à¸Ķ
Ġà¸Ķà¸§à¸ĩ à¸Ńà¸²à¸Ĺ
ĠD evelop
Ġà¸ģà¸²à¸£ à¸Ķà¸³à¹Ģà¸Ļ
Ġd o
az on
Ġw orld
à¸Ĭ à¸¥
Ġà¹Ħ à¸ģà¸£
à¸Ĺà¸ĺ à¸£à¸ĵ
ĠCom ments
Ġà¹ģà¸ŀ à¸Ĺ
Ġ) âĢĿ
à¸Ńà¸ģà¸ ¢
Ġà¸ķà¸¥à¸Ńà¸Ķ à¸ģà¸²à¸¥
à¹ĥà¸Ī à¹Ħà¸Ķ
g or
à¹Ģà¸Ļ à¸Ĭ
à¹ģà¸« à¸§à¸Ļ
ĠF u
ĠA IS
9 6
Ġà¸Īà¸³ à¸Ħ
4 1
Ġà¸£à¸Ńà¸ļ à¸ķ
ĠBlu etooth
à¸¢ à¸ģà¸ģ
Ġà¸ °
Ġà¹Ĥà¸¥ à¸ķ
Ġà¸¥à¸²à¸Ķ à¸ģà¸£à¸°à¸ļ
à¸Ħ à¸Ńà¸ļ
z h
Ġà¸Īà¸ļ à¹Ģà¸ģà¸¡
Ġà¸Ĥà¸Ńà¸ĩ à¸£à¸²à¸ĩà¸§
Ġà¸ĭ à¸Ńà¸Ļ
à¸³à¸Ħ à¸²à¸į
Ġà¸£à¸Ńà¸ļ à¸Ħà¸Ńà¸ļ
Ġà¸ģ à¸£à¸£
Ġà¹ĥ à¸ļà¸£
Ġà¹ĥà¸Ļ à¸Ĺà¸²à¸ĩ
ĠCas ino
Ġà¹Ħ à¸ļà¸Ħ
Ġà¹Ħà¸Ńà¸¨ à¸ģà¸£
Ġà¹Ģà¸Ĺà¸£ à¸Ļà¹Ģà¸Ļà¸Ńà¸£
à¸²à¸ĩà¸§ à¸²
Ġà¸ķà¸²à¸£ à¸²à¸ĩà¸§à¸²
à¸Ń à¹ĥà¸ļ
à¸ļ à¸ŀ
Ġà¸ªà¸ĩ à¸Ĩ
à¹Ģà¸§ à¸Ĺ
el f
Ġà¹ģà¸¡ à¸Ħ
Ġà¸Ļ à¸²à¸£
ĠS im
Ġà¸Ľà¸£à¸°à¸ģà¸Ńà¸ļ à¸Ńà¸²à¸Ĭ
ĠBe auty
at ter
ĠAc cess
Ġà¸Ĺà¸¢ à¸Ńà¸¢
Ġà¹Ģà¸Ĥ à¸¢
ĠB ro
Ġm an
ĠG S
ur i
à¸ªà¸Ńà¸ļ à¸ªà¸§à¸Ļ
à¹Ģà¸Ķ à¸²
Ġà¸Ļ à¸Ļ
Ġà¸ģà¸ ¨
à¸Īà¸ģà¸²à¸£ à¸¨
Ġà¸«à¸¥à¸Ńà¸ģà¸¥ à¸§à¸ĩ
à¸³ à¸Ŀà¸Ļ
erm al
Ġà¸Ĥà¸ļà¸§à¸Ļ à¸ģà¸²à¸£
à¸² à¹Ģà¸ĩ
à¸ĩ à¸Ľà¸£à¸°à¸ķ
à¸ļ à¸£à¸£
Ġà¸ĩ à¸§à¸ĩ
um b
h am
Ġà¹Ģà¸Ķ à¸²
ion al
ce pt
Ġà¸Ĭà¸Ķ à¹ĥà¸Ĭ
el and
Ġà¸Ħà¸³ à¸¨
at ic
Ġà¸¡à¸Ńà¸ĩ à¸Ĥ
D R
Ġà¸Ħà¸§à¸²à¸¡ à¹Ħà¸§
Ġà¹ĳ à¹Ĵ
Ġà¸ŀ à¸§
Ġà¸ģà¸£à¸° à¸ľà¸¡
à¸¡ à¸īà¸¥à¸Ńà¸ĩ
ĠA t
H ome
à¸²à¸ĩ à¹Ģà¸ģ
Ġà¸Ĥà¸Ńà¸ĩ à¸Īà¸£
Ġà¸ŀà¸¢ à¸²à¸ģà¸£à¸ĵ
ad y
Ġà¹ģà¸Ľà¸¥à¸ģ à¹ĥà¸Ī
E X
à¸¥à¸¡ à¸Ńà¸Ļ
à¸ĭ à¸ĭ
à¸²à¸ĩ à¸ŀ
à¸§à¸Ļ à¹ģà¸ļ
à¸ļ à¸Ĭà¸²à¸ķ
à¸²à¸ķ à¸Ńà¸ļà¹ģà¸Ĺà¸Ļ
Ġà¸ģà¸£à¸° à¹Ģà¸Ĭ
à¸Ķ à¹ģà¸ķ
Ġà¹Ĥà¸Ł à¸£
Ġà¸Ħà¸§à¸²à¸¡ à¸Ľà¸£à¸°à¸ªà¸ĩà¸Ħ
à¸ķà¸² à¹Ģà¸¥
ens e
Ġà¸ģà¸£à¸°à¸ļ à¸°
à¸Ń à¹Ģà¸«à¸ķ
Ġ10 80
ĠR et
ĠRe g
y a
ĠL G
à¹Ĥ à¸®
r ay
à¸Ķ à¸Ľ
ĠB o
Ġà¹ģà¸ĭ à¸¥à¸¡à¸Ńà¸Ļ
Ġh ome
à¸ªà¸¡ à¸£à¸ª
Ġà¸ªà¸²à¸£ à¸Ľà¸£à¸°à¸ģà¸Ńà¸ļ
Ġà¸ģà¸ Ľ
Ġà¸Ħà¸§ à¸²à¸¢
orr he
Ġà¸ļà¸²à¸ĩ à¸£à¸²à¸¢
ãĥ ¼
Ġà¹ģà¸ŀ à¸°
Ġà¸Ľà¸£à¸°à¸ªà¸ļ à¸Ľ
Ġà¸Ľà¸° à¸ģà¸²à¸£
à¸Ńà¸ĩà¸ª à¸ĩà¸ª
Ġà¸Ń à¸Ńà¸£
ĠP ay
Ġà¸£à¸°à¸Ķ à¸¡
Ġà¸¡ à¸Ńà¸¥à¸¥
y o
iz ed
Ġà¸Ħà¸£ à¸²à¸¡
Ġà¹Ĥà¸Ĺà¸£ à¸Ħà¸¡à¸Ļà¸²à¸Ħà¸¡
Ġà¸«à¸¥à¸ĩ à¹ĥà¸«à¸¥
Ġm ic
à¸¡à¸«à¸²à¸Ķ à¹Ħà¸Ĺà¸¢
Ġà¹Ħà¸«à¸¥ à¹Ģà¸§
Ġà¸Ĭà¸²à¸§ à¸Ļà¸²
Ġà¸ļ à¸¡à¸Ī
à¸ķ à¸£à¸²à¸ª
à¸Ļ à¹Ģà¸ª
Ġà¸ª à¸²à¸Ĺà¸£
ĠInt el
Ġà¸£ à¸ķ
8 1
Ġà¸Ĭà¸² à¹Ģà¸Ĥ
à¸²à¸ĩà¹Ħà¸£ à¸ļ
form ation
ĠA US
ĠYou Tube
ĠC ore
Ġà¹Ģà¸ªà¸² à¹Ģà¸Ĥ
à¸Ľà¸£ à¸²à¸£à¸ĸà¸Ļà¸²
Ġà¸Ħà¸Ļ à¹Ģà¸ģ
ĠF ire
ĠE p
à¸²à¸ĩ à¸£
à¸Ķ à¸Ļà¸ķà¸£
à¸ŀà¸Ń à¹Ģà¸ŀ
6 00
âĢĭ âĢĭ
C O
Ġà¸Ńà¸§à¸¢ à¸ŀà¸£
à¸Ī à¸ŀà¸Ńà¹Ģà¸ŀ
u ch
ĠFl ash
o ice
Ġ4 50
Ġà¸ģ à¸²à¸Ļ
g er
à¸¡à¸«à¸²à¸¢ à¹ĥà¸Ī
Ġà¸ª à¸²à¸«à¸£
Ġs erv
Ġà¸ģà¸£à¸°à¸Ĺà¸£à¸§à¸ĩà¸ģà¸²à¸£ à¸Ħà¸¥
à¸ģà¸Ľà¸£à¸° à¸ģ
Ġà¸¡à¸° à¸Ĥà¸²à¸¡
Ġà¸ģà¸£à¸°à¸Ĺà¸£à¸§à¸ĩ à¸¡à¸«à¸²à¸Ķà¹Ħà¸Ĺà¸¢
Ġà¸ªà¸§à¸Ļ à¸ªà¸Ļ
app y
à¸Ĭ à¸Ķà¸²
Ġà¸ĩà¸²à¸Ļ à¸Ńà¸²à¸Ĭ
Ġà¹Ģà¸ģà¸© à¸¡
Ġà¸¡ à¸²à¸ķ
ä ¹
ĠR ob
Ġà¸ľà¸¥à¸ģà¸²à¸£ à¸Ķà¸³à¹Ģà¸Ļ
à¸Ńà¸ĩ à¸¥
Ġà¹ģà¸Ŀ à¸ĩ
Ġà¸« à¸Ńà¸ļ
ĠTechn ology
Ġà¸Ħà¸ĩ à¸Ĺ
Ġà¸Ħà¸Ļ à¸ķ
Ġà¸Ĺà¸³à¹Ģà¸¥ à¸Ĺ
Ġà¹ģà¸ª à¸ļ
ĠR el
Ġà¸§ à¸ķ
Ġà¸Ļà¸² à¹Ĥà¸Ļ
à¸¡ à¸¡à¸²
à¸ģà¸Ķ à¸Ķ
t hailand
our ce
ĠC ode
Ġà¸Ļà¸²à¸ĩ à¸Ł
ĠP A
ĠB ox
Ġà¸ĭ à¸Ńà¸ģ
oh n
Ġà¸ª à¸ģà¸²à¸¢
Ġà¹Ģà¸« à¸§
I n
Ġà¸ŀ à¸²à¸£à¸²
ĠF R
am in
Ġd ownload
à¸Ļà¸²à¸ĩ à¹Ģà¸Ī
à¸Īà¸ŀà¸£à¸° à¸Ļà¸²à¸ĩà¹Ģà¸Ī
à¸£à¸²à¸ ¨
ĠE S
Ġ200 6
ĠL ip
à¸Ķà¸ī à¸²à¸ģ
ĠAp plication
Ġà¸Ń à¸ŀà¸¢à¸ŀ
à¸Ń à¹ĥà¸Ķ
Ġth at
à¸²à¸¢à¸Ļ à¸Ńà¸ģ
ĠT able
ur y
à¸²à¸Ī à¸²
à¸Īà¸ŀà¸£à¸° à¸£à¸²à¸Ĭ
ath er
Ġà¸Ħà¸ĵ à¸²à¸Īà¸²à¸£à¸¢
Ġà¸ªà¸ĸà¸²à¸Ľ à¸Ļ
ĠE v
Ġà¸Ħà¸§à¸²à¸¡ à¸«à¸Ļ
Ġm A
ĠW r
Ġà¹ģà¸¥ à¸Ķ
Ġà¸Ĥà¸Ńà¸ĩ à¸Ŀà¸²à¸ģ
8 2
Ġà¸¥ à¸²à¸ł
Ġà¸ŀà¸¢ à¸²à¸Ļ
Ġà¸Ľà¸§à¸Ķ à¸«
à¸²à¸¢ à¹ģà¸ŀ
à¸ªà¸¡ à¸²à¸ĺ
à¹ģà¸Ĥ à¸Ļ
Ġà¸ģà¸²à¸£ à¸Ķà¸³à¸£à¸ĩ
ĠC N
ĠDr ive
ers on
Ġà¸ļà¸²à¸ĩ à¹ģà¸«
Ġà¸ķà¸²à¸¡ à¸ķ
z a
Ġà¸¨à¸²à¸¥ à¹Ģà¸Ī
ĠC ry
Ġà¸Ħà¸§à¸²à¸¡à¸Ħ à¸²à¸Ķ
Ġâ Ļ
or der
99 0
ĠH ard
ĠO F
à¸Ļ à¹ģà¸¡
à¸Ļ à¹Ģà¸Ń
Ġà¸£à¸²à¸Ĭ à¸¡à¸ĩà¸Ħà¸¥
ĠF re
à¸Īà¸³ à¸¥à¸Ńà¸ĩ
Ġà¸ªà¸« à¸ŀ
Ġà¸ľà¸¥ à¹Ģà¸ª
å ®
à¸ģà¸ª à¸£
Ġà¸ģà¸²à¸£ à¸£à¸°
ĠS iam
t hai
Ġà¸Ĥà¸Ļà¸²à¸Ķ à¸Ĺ
Ad visor
Ġ ed
Ġà¹Ģà¸Ń à¸²à¸Ĺ
ĠP age
Ġà¸Ĺà¸²à¸ĩ à¸ģà¸²à¸¢
à¸Ń à¹Ģà¸Ķ
ĠD o
ĠG e
Ġà¸ķ à¸ģà¸«à¸Ļ
ĠG T
Ġg club
6 1
est a
à¸¨ à¸²à¸ªà¸ķà¸£à¸²à¸Īà¸²à¸£à¸¢
Ġà¸Ħà¸§à¸²à¸¡ à¸ĩ
Ġà¸ģà¸ª à¸Ĺà¸Ĭ
ap e
à¸Ļ à¸ļà¸Ļ
à¸³ à¸ŀà¸£
i h
al s
Ġà¸ľà¸¥ à¸£à¸§à¸¡
ĠÂ ©
H A
Ġà¸Ĺà¸³à¸ĩà¸²à¸Ļ à¸«à¸Ļ
ir d
à¸¢à¸Ļ à¸Īà¸ļ
à¸¢ à¸ķà¸°à¸§
Ġà¸Ī à¸²à¸¡
Ġà¸Ĺ à¸ļ
Ġà¸ĸà¸Ļ à¸Ńà¸¡
à¸£à¸²à¸ķ à¸£
Ġà¸ŀà¸£à¸° à¸Ħà¸£
Ġà¸ŀà¸«à¸¥ à¹Ĥà¸¢à¸ĺ
ĠC C
à¸ĩ à¹Ģà¸Īà¸Ńà¸£
Ġà¹Ģà¸Ļ à¸Ĭ
ĠEng lish
ĠBl og
à¸²à¹ģà¸ķ à¸°
à¸Ļ à¹ģà¸ľà¸¥
ĠJ ul
Ġà¸Ń à¸²à¸ķ
ers ion
ĠSe attle
9 7
Ġà¸ľà¸¥à¸ģà¸²à¸£ à¹ģà¸Ĥ
Ġà¸Ļà¸²à¸¢ à¸Ĺ
bid ding
Ġv ideo
Ġà¸Ń à¹Ĥà¸¨à¸ģ
Ġà¸Ľà¸£à¸°à¸ģà¸Ńà¸ļ à¸ģà¸²à¸£
à¸ļà¸¡à¸Ńà¸ļ à¸«à¸¡à¸²à¸¢
ĠE L
Ġà¸ª à¸ŀ
Ġà¸Ĺà¸²à¸ĩ à¸Ī
Ġà¸ģà¸²à¸£à¸ķ à¸Ńà¸ļà¸£
à¸ĩà¸ŀ à¸²
ĠSk in
u le
à¸Ńà¸ĩ à¹ĥà¸«à¸¡
Ġà¸¥ à¸¡à¸«à¸²à¸¢à¹ĥà¸Ī
à¸ģ à¹ģà¸«
Ġà¸¡à¸« à¸²à¸¥
Ġà¹Ģà¸Ļ à¸£à¸¡
Ġà¸ī à¸Ļà¸§à¸Ļ
Ġà¸Ľà¸£à¸°à¸ģà¸²à¸¨ à¸Ļ
å½ ©
Ġà¸Ľà¸£ à¸²à¸ģà¸²à¸£
ros s
Ġà¹Ģà¸Ļ à¸ª
ĠTrip Advisor
Ġà¸£à¸Ńà¸¢ à¸ª
Ġà¸Ľà¸£à¸°à¹Ģà¸Ĺà¸¨ à¸Ĭà¸²à¸ķ
Ġà¸ªà¸³ à¸£à¸²à¸į
8 3
à¸ĩ à¸Ľà¸£à¸°à¸ªà¸ĩà¸Ħ
Ġà¸ķ à¸ģà¸ķ
Ġà¸ģà¸£à¸°à¸ļà¸§à¸Ļà¸ģà¸²à¸£ à¸ľà¸¥
à¸Īà¸ŀà¸£à¸°à¸£à¸²à¸Ĭ à¸Ķà¸³à¹Ģà¸Ļ
at es
à¸²à¸Ĺà¸³ à¸ĩà¸²à¸Ļ
ĠComm un
à¸ķ à¸ģ
ĠF in
à¸ª à¸§à¸¢
à¸Ľà¸£à¸°à¸Ĭ à¸²à¸Ĭà¸²à¸ķ
og raph
Ġag o
Ġ) )
à¸²à¸Ľ à¸ı
Ġà¹Ģà¸Ĥ à¸¡à¸£
Ġà¸ªà¸Ńà¸ĩ à¸Ĭ
à¸²à¸ªà¸° à¸ŀà¸²à¸¢
à¸ŀ à¸£à¸¡
Ġm od
Ġseb orrhe
Ġà¸ŀà¸¥ à¹Ģà¸Ńà¸ģ
à¸Ńà¸¡ à¸£à¸Ńà¸ļ
Ġà¹ģà¸ļ à¸ģ
Ġà¸ĺà¸£à¸£à¸¡ à¸ģà¸²à¸¢
ob al
à¸§à¸Ļ à¹Ģà¸ģ
Ġà¹Ģà¸īà¸ŀà¸²à¸° à¸Ĺ
Ġà¹ģà¸« à¸¡
à¸« à¸ĩ
3 00
ĠMot or
Ġà¸§à¸ĩ à¸Ķà¸Ļà¸ķà¸£
Ġà¸Ĭ à¸²à¸¡
à¸Ļà¸ģà¸²à¸£ à¹Ģà¸ĩ
ĠM T
Ġà¹ĥà¸Ļ à¸Ħà¸§à¸²à¸¡à¹Ģà¸Ľ
à¸²à¸¢ à¸Ħà¸¥
à¸ĵ à¸Ľà¸£à¸°à¹Ĥà¸¢à¸Ĭà¸Ļ
Ġip hone
Ġà¸Ī à¸²à¸ģà¸ģ
ĠP hone
Â¸ Â
Ġà¸Ļ à¸¤
à¸¡ à¸²à¸¢
Ġà¸Ļà¸²à¸¡ à¸ļ
iz ation
Ġà¹Ħà¸Ł à¸«à¸Ļ
à¸ĺà¸¢ à¸²à¸¨
ĠF OR
Ġà¹Ģà¸Ļ à¸ķà¸£
ic ial
Ġà¹ĥà¸ļ à¸ªà¸¡
à¸ĩ à¸Ń
Ġà¹ģà¸ģ à¸Ļà¸Ļà¸³
ĠD C
Ġà¸ģà¸²à¸£ à¸¥
ĠContin ue
all y
Ġà¸Ħà¸Ļ à¸ĩà¸²à¸Ļ
âĢĶâĢĶ âĢĶâĢĶ
à¸©à¸¢ à¸Ĭà¸Ļ
Ġà¸ľ à¸¨
Ġ9 99
Ġseek ers
Ġà¹ĳ à¹ķ
Ġà¸Ħà¸§à¸²à¸¡à¸ĩ à¸Ķà¸ĩà¸²à¸¡
ĠC B
Ġà¸ªà¸° à¸ģà¸Ķ
à¸³ à¸¥à¸²à¸¢
ol a
à¸§ à¸²à¸£
à¸§à¸¢ à¹Ħà¸¡
Ġï ¼
Ġà¸ŀ à¸Ńà¸¥
Ġà¸ªà¸¡à¸£à¸£à¸ĸ à¸łà¸²à¸ŀ
à¸ķà¸Ļ à¸£à¸²à¸Ĭ
Ġà¹Ħà¸Ń à¸Ħà¸Ńà¸Ļ
A IL
Ġà¸§à¸²à¸ĩ à¸Ĥà¸²à¸¢
à¸ĩà¸ļ à¸Ńà¸ģ
Ġà¸Ķà¸§à¸ĩ à¸Ī
Ġà¸Ĥà¸Ń à¸Ħà¸§à¸²à¸¡
Ġà¸Ĺ à¸¢à¸²
C l
à¹ī à¹į
Ġà¸Ĥà¸Ńà¸ļ à¸ŀà¸£à¸°à¸Ħ
Ġà¹Ĥà¸£à¸ĩ à¹Ħà¸Łà¸Ł
à¸²à¸§ à¸¡à¸²
ĠM en
O G
à¹Ĥà¸¥ à¸§
s ter
Ġà¸Ħà¸£ à¸¡
à¸§ à¸²à¸«
t ain
ust om
7 2
à¸Ń à¸«à¸¡
ĠG ood
à¸§à¸ĩ à¸ķ
Ġj av
Ġâ Ĺ
à¸¡ à¸ªà¸²à¸¢
Ġà¸ŀà¸£ à¸ļ
Ġà¸Ŀà¸²à¸ģ à¹Ģà¸ĩ
Ġà¸ª à¸¢à¸Ńà¸ĩ
à¸§à¸Ļ à¸Ī
à¸¢à¸ĩ à¹Ģà¸Ĺ
à¹Ģà¸ª à¸¡à¸Ń
à¸¢ à¸ŀ
à¸Ńà¸ļ à¸Īà¸°
Ġ254 8
b et
à¸Ļà¹Ģà¸Ķ à¸Ńà¸£
Ġà¸īà¸²à¸¢ à¸²
à¹Ĥà¸ª à¸ĺà¸£
à¸ļ à¹Ģà¸Ĥà¸²
7 4
à¸§à¸¢ à¸¡
à¸Ńà¸ĩ à¸ķà¸¥à¸²à¸Ķ
Ġà¸ļà¸Ļ à¸ļà¸²à¸Ļ
ĠT a
ĠðŁ ĳ
ĠHu awei
à¹ģà¸ Ŀ
Ġà¸ľà¸¥ à¸ª
0 5
Ġà¸§à¸£à¸£à¸ĵ à¸ģà¸£à¸£à¸¡
Ġà¸Ķ à¸Ńà¸ĩ
ĠS earch
à¸Ļà¸Ķ à¸£
ĠM V
Ġà¸ķà¸Ńà¸Ļ à¹Ģà¸¢
à¸ĩ à¸ŀà¸¥
à¸ĩ à¸Ħà¸£
ri end
Ġà¸Ńà¸Ń à¹Ģà¸Ķà¸Ńà¸£
ra w
Ġà¸łà¸²à¸ŀ à¸§à¸²à¸Ķ
Ġà¸Ĺà¸³ à¸ľ
à¸²à¸ĩ à¸²à¸Ļ
à¸Ľà¸£à¸°à¸Ĭ à¸²à¸ª
Ġà¸Ħà¸Ļ à¹ĥà¸Ĭ
ĠTw itter
Ġà¸ª à¸Ĺ
ĠCent ral
à¸Ń à¹Ģà¸¡
à¸ģ à¹Ģà¸Ĭ
à¸²à¸¢ à¸¡
Ġà¸ģà¸²à¸£à¸Ľà¸£à¸°à¸¡ à¸§à¸¥
ĠS um
iv ing
Ġà¸Ľà¸£à¸²à¸ģà¸ı à¸ķ
à¸ĩà¸ª à¸ģà¸Ľà¸£à¸ģ
à¸ªà¸° à¸Ńà¸²à¸Ķ
ee p
Ġà¸Ī à¸ģ
Ġà¸ĩà¸²à¸Ļ à¸Ľà¸£à¸°à¸Īà¸³
à¸ģà¸ķ à¸£
o i
Ġà¸Ĺà¸²à¸ĩ à¸Ń
à¸Ńà¸ĩ à¸Īà¸£
à¸³ à¸¢
Ġà¸ªà¸ĩà¸§à¸Ļ à¸ª
à¸ĵà¸ĳ à¸°
Ġà¸Ļ à¸¢
Ġ88 8
Ġà¸Ĺà¸²à¸¢ à¸²à¸Ĺ
Ġà¹Ħ à¸Ļà¸Ĺ
Ġà¸Ħà¸¥ à¸Ń
ĀĀĀĀ ĀĀĀĀ
Ġ", "
1 00
Ġd ay
ĠU R
Ġà¸«à¸¡ à¸Ńà¸ĩ
Ġà¸ªà¸° à¸ŀà¸²à¸¢
ĠMAX BET
ĠB el
à¸ªà¸« à¸ģà¸£à¸ĵ
en ing
is k
à¸Ļ à¸ģà¸¥
6 2
Ġà¸§à¸²à¸ĩ à¹ģà¸ľ
Ġà¸¡à¸Ńà¸ĩ à¹Ħà¸¡
ul a
à¸§ à¸ķà¸²
à¹Ģà¸§ à¸Ĭ
à¹Ģà¸£ à¸¨à¸§à¸£
Ġà¹ģà¸§ à¸Ķà¸§à¸ĩ
c rip
Ġà¸ģà¸³ à¹Ģà¸£
Ġà¸ģà¸ ģà¸
C h
Ġà¸ĭ à¸²à¸§
ĠG irl
ĠE N
Ġà¸Ńà¸Ńà¸ģ à¹Ħà¸ĭà¸Ķ
Ġà¸Ħà¸Ļ à¸ªà¸³à¸Ħ
à¹Ģà¸ĺ à¸Ńà¸£
Ġà¹Ĵà¹ķà¹ĸ à¹Ĳ
ĠâĢ Ĥ
it er
Ġà¹Ģà¸«à¸ĩ à¸²
à¸Ķà¸Ĭ à¸¡à¸§
r ust
à¸²à¸¢ à¹Ħà¸Ķ
Ġà¸ķ à¸£à¸²à¸ª
Ġl a
Ðµ Ð½
ĠM a
Ġind ex
ar at
as is
B ook
à¸¥ à¸Ł
Ġà¸Ħà¸§à¸²à¸¡ à¸Ńà¸Ķ
Ġà¹Ģà¸ģà¸ °
9 3
à¸²à¸Ļ à¸ĭ
Ġà¸«à¸²à¸£ à¸²à¸¢à¹Ħà¸Ķ
ĠÑ ĭ
Ġà¸ŀ à¸Ńà¸ĩ
à¸¢ à¸«à¸Ļ
à¸Ļ à¸ªà¸°
à¸¢à¸¡ à¸ģà¸²à¸£
à¹Ħà¸ĭ à¸¡
Ġà¸¥ à¸Ńà¸ª
ĠSt reet
à¸²à¸£ à¸¡à¸ĵ
am ily
Ġà¸« à¸§à¸ĩ
Ġà¸§ à¸²à¸Īà¸²
Ġà¹Ĥà¸ŀ à¸£à¸ĩ
Ġm g
à¸Ľà¸£à¸° à¸¡à¸ĩ
sh ip
Ġà¹Ģà¸¥à¸Ĥ à¸²à¸Ļ
ear s
ĠH ost
d r
à¸ģà¸© à¸²à¸ŀà¸¢
à¸ģà¸©à¸²à¸ŀà¸¢ à¸²à¸ļà¸²à¸¥
à¸§ à¸¨
à¸Ľà¸£à¸° à¸ģà¸²à¸¢
Ġp ol
Ġà¸« à¸¢à¸ģ
d ay
Ġà¸Ħ à¸²à¸ĩ
ro g
ĠAn al
Ġà¸ĩà¸²à¸Ļ à¸ļ
EN T
ĠSP F
Ġà¸ªà¸ĸà¸²à¸Ľ à¸Ļà¸²
Ġm on
à¸Ķà¹Ģà¸ ļ
à¸ĩ à¹Ģà¸¡
Ġà¸® à¸§à¸ĩ
à¸²à¹Ħ à¸Ĺ
Ġà¸ªà¸²à¸¢ à¸ĩà¸²à¸Ļ
à¸ŀ à¸²à¸Ĺ
à¹ģà¸Ĺ à¸£
à¸Ļ à¹ģà¸Ķà¸ĩ
ut o
6 4
ant s
Ġà¸ģà¸²à¸£ à¹Ħà¸Łà¸Ł
Ġà¸Ħà¸³ à¸Ĥà¸Ń
à¸ķà¸ķ à¸²à¸Ħà¸²à¸£
Ġà¹ĥà¸ļ à¹Ģà¸ªà¸£
Ġà¸ŀà¸£à¸°à¸£à¸²à¸Ĭ à¸ŀ
ĠB al
¤ à¸Ĺà¸ĺ
Ġà¸Ħ à¸²à¸ļ
Ġà¸ªà¸¡ à¸¡
Ġà¹Ģà¸Ńà¸²à¹ĥà¸Ī à¹ĥà¸ª
Ġà¸ĸà¸§à¸²à¸¢ à¸ŀà¸£à¸°
Ġà¸ŀà¸į à¸²à¹Ħà¸Ĺ
á Ģ
Ġà¸ģ à¸²à¸¢à¸łà¸²à¸ŀ
en n
à¹Ģà¸« à¸£
p orn
Ġà¸ªà¸¥ à¸²à¸ģà¸ģ
9 4
n xx
Ġh and
à¹Ģà¸ ĵà¸£
Ġà¸Ī à¸§
Ġà¹ĥà¸Ļà¸Ĥà¸ĵà¸° à¸Ļ
Ġà¸Ĺ à¸£à¸¡à¸²à¸Ļ
à¸Ľà¸£à¸°à¸ª à¸²à¸Ļ
Ġht ml
à¸¡à¸ł à¸²à¸£à¸°
ap er
ĠM em
ĠSt ud
7 3
à¸° à¹ģà¸Ļà¸Ļ
à¸Ńà¸ģà¸ Ħ
iss an
b e
Ġà¸¡ à¹Ĥà¸Ļ
à¸ĩà¸Ĥ à¸Ļà¸²à¸Ķ
ĠD ou
à¸¥à¸ģ à¸²à¸ģà¸£
Ġà¸ķà¸£à¸§à¸Ī à¸Ī
Ġ12 8
ens or
Ġà¸Ńà¸²à¸ķ à¸¡à¸²
Ġà¸ŀ à¸²à¸§à¹Ģà¸§à¸Ńà¸£
Ġà¹Ģà¸Ķ à¸§
à¸ĩ à¹Ģà¸Ħà¸£
Ġs ub
Ġà¹ģà¸Ħà¸¥ à¸Ńà¸£
ĠT ok
ĠG P
à¸§ à¸²à¸Ĺ
ĠB i
ĠP in
Ġà¸ķ à¸ģà¸Ħ
à¸Ĳ à¸Ľà¸£à¸°
à¸Ńà¸Ļ à¸Ĭ
à¹Ģà¸ģà¸© à¸¡
Ġà¹Ģà¸Ńà¸Ł à¹Ģà¸§à¸Ńà¸£
Ġà¸ģà¸£à¸°à¹ģà¸ª à¹Ħà¸Łà¸Ł
à¸³ à¸ĭ
Ġà¹ĥ à¸Īà¸£
Ġà¸ŀà¸£à¸° à¸Ī
ĠE r
Ġà¸ªà¸Ńà¸Ļ à¸ŀ
Ġà¸Ļà¸³ à¸Ĺà¸²à¸ĩ
Ġà¸Ļà¸²à¸¢ à¹ĥà¸«à¸į
à¸ģà¸© à¸²à¸ģà¸²à¸£
Ġà¸Ĥà¸Ń à¸ŀà¸£
um an
Ð¾Ð ²
Ġà¸Ĺà¸²à¸ĩ à¸Ĺà¸°à¹Ģà¸¥
Ġâľ ĵ
ä »
à¸ģà¸£ à¸Ľà¸ģà¸Ħà¸£à¸Ńà¸ĩ
à¸ģà¸£à¸Ľà¸ģà¸Ħà¸£à¸Ńà¸ĩ à¸ª
à¸Ńà¸ĩ à¸ªà¸³à¸Ħ
Ġà¸£à¸°à¸ļ à¸²à¸Ķ
Ġà¸Ľà¸¥ à¸Ńà¸ģ
Ġà¹Ģà¸® à¸ĩ
à¸¤ à¸ģà¸©
P l
Ġà¸«à¸¢ à¸§à¸Ļ
ĠF est
Ġà¸ķ à¸ģà¸Ľà¸¥à¸²
Ġà¹Ĥà¸ĭ à¹Ģà¸Ķ
b l
à¹Ĥ à¸§
Ġw as
iy a
à¹Ģà¸§ à¸Ł
Ġà¸ģà¸³ à¸¡à¸°
ĠT em
Ġà¸£à¸²à¸Ħ à¸²à¸Ĥà¸²à¸¢
Ġà¸Ĭ à¸³à¸£
à¹Ģà¸¥ à¸ĭ
Ġà¸Ħ à¸£à¸£à¸ł
Ġà¸Ĺà¸Ļà¸²à¸¢ à¸Ħà¸§à¸²à¸¡
Ġà¹ģà¸ľà¸¥ à¹Ģà¸Ľ
à¸Ń à¸Ńà¸Ļ
Ġà¹ģà¸ŀ à¸Ļ
AR D
à¸į à¹ĥà¸Ī
Ġà¸ķ à¸Ńà¸ģà¸¢
c he
k k
à¸Ķ à¸Ľà¸²à¸ģ
as er
ĠT it
à¸¢ à¸²à¸Ĺ
à¹ģà¸Ľ à¸¥à¸ģ
à¸Ħ à¸§
Ġà¸Ľà¸£à¸°à¸¡ à¸ĩ
à¸ķà¸£à¸² à¹ģà¸¥à¸ģà¹Ģà¸Ľà¸¥
Ġà¸Ļ à¸Ńà¸£
à¸Ļà¸Ĺ à¸°à¹Ģà¸ļ
à¸ģ à¹Ģà¸ģ
à¸Ńà¸¨ à¸Ńà¸ģ
à¸Ńà¸ĩà¸Ķ à¸Ļà¸ķà¸£
ĠRo ad
à¸¡à¸ĩ à¸§à¸Ķ
Ġà¸ªà¸²à¸¢ à¸ŀà¸²à¸Ļ
Ġà¸ķ à¸Ńà¸ģ
à¸Ńà¸ĩà¸£ à¸Ńà¸¢
fer ence
Ġà¸ģà¸²à¸£ à¸ģà¸³à¸ģ
A A
9 8
Ġà¹ģà¸Ńà¸¡ à¸Ľ
à¹ģà¸ģ à¸£à¸ĩ
om a
à¹Ģà¸Ł à¸Ńà¸£
à¸Ķ à¸Ħà¸§à¸²à¸¡à¸ªà¸²à¸¡à¸²à¸£à¸ĸ
ĠP s
Ġà¸£ à¸¡à¸§
Ġà¸ķà¸Ńà¸Ļà¸ģà¸¥à¸²à¸ĩ à¸Ħ
ĠV it
Ġà¸§à¸ĩ à¹ģà¸«à¸§à¸Ļ
ĠB ag
6 3
un t
å Ľ
à¸ĩ à¸Ĺà¸³
Ġà¸ģà¸²à¸£ à¸ĵ
Ġà¸ģà¸£ à¸§à¸¢
om i
ĠAg oda
Ġà¸Ħà¸§ à¸ļ
à¸Ħ à¸Ľ
à¸Ĺà¸£ à¸ªà¸ĩà¸Ħà¸£à¸²à¸¡
Ġà¸Ĭ à¸£à¸²
Ġà¸ģ à¸Ļ
Ġà¸Īà¸£ à¸Ķ
à¸ĩ à¹Ħà¸Ĺà¸¢
ĠP DF
Ġà¸£à¸° à¸Ĩ
à¹Ģà¸ Ŀ
Ġà¸Ħà¸§à¸²à¸¡ à¹ģà¸¡
F C
à¸§à¸¢ à¸Ĥà¸§à¸²à¸ĩ
Ġà¸ªà¸§à¸Ļ à¸ª
am i
Ġà¹ĳ à¹ĳ
W eb
Ġg r
à¸ĩ à¹ĥà¸«à¸¡
à¸Ļà¹Ħà¸Ľ à¹Ħà¸¡
ĠMod el
à¸¡ à¸ļ
ĠUS D
à¹Ħà¸ŀà¸£ à¸ª
ort h
Ġà¸¥à¸³ à¸Ħà¸Ń
à¸¢à¸ĩ à¸Ļà¸Ńà¸Ļ
à¹Ĥà¸¡ à¸ĩà¸Ħ
Ġà¹Ģà¸§à¸¥ à¸²à¸§
AC K
à¸§ à¹ģà¸Ľà¸£
ĠE C
à¸§à¸Ļ à¸°
à¸²à¸ŀ à¸Ńà¹ĥà¸Ī
Ġà¹Ĥà¸Ļ à¸°
à¸Ī à¸Ķ
à¹Ĥà¸¥ à¸¡
Ġà¹Ĥà¸Ń à¸Ĭà¸²
ĠP orn
à¸ª à¸²à¸Ĥ
ĠE MS
Ġà¸Ĩ à¸²à¸ķ
n et
d om
Ġà¹Ģà¸Ĺà¸ŀ à¹Ģà¸Ī
l ight
ĠA mer
Ġà¸£à¸ĸ à¹Ĥà¸Ķà¸¢à¸ªà¸²à¸£
à¹Ĥà¸ŀ à¸ĺ
Ġà¸ķà¸° à¹ģà¸ģà¸£à¸ĩ
à¸ģ à¸Ńà¸Ńà¸ģà¹ģà¸ļà¸ļ
b all
à¸²à¸ªà¸ķ à¸²à¸ĩà¸Ħ
à¸§à¸ĩ à¸«à¸¥
ĠE D
à¸¡à¸ŀ à¸£à¸£à¸©à¸²
ĠTh is
Ġà¸ģà¸£à¸°à¸Ĺà¸³ à¸ģà¸²à¸£
à¹ģà¸¥à¸° à¸ªà¸«à¸ģà¸£à¸ĵ
ar s
à¸Ļ à¸ģà¸¥à¸²à¸ĩ
à¸§ à¹Ģà¸Ħà¸¥
Ġà¹Ĥà¸£ à¸Īà¸Ļ
Ġà¸ĸ à¸ģ
à¸Ļà¸ª à¸²à¸§
Ġ254 7
à¸Ńà¹Ģà¸£ à¸Ĭ
à¸Ľà¸£à¸°à¸ªà¸²à¸Ļ à¸ĩà¸²à¸Ļ
Ġà¸ªà¸²à¸¡ à¹Ģà¸ĵà¸£
Ġà¸ģà¸²à¸£ à¸ķà¸£à¸§à¸Ī
à¹Ģà¸Ĺ à¸ŀà¸£
ĠmA h
Ġà¸ŀ à¸£à¸²à¸«à¸¡à¸ĵ
ĠCP U
es ter
à¸¡à¸ªà¸²à¸¢ à¸Ĭ
ĠB ody
à¸¢ à¸Ń
ĠP P
Ġà¸Ľà¸£à¸° à¸ŀ
Ġà¹ģà¸ĸà¸¥à¸ĩ à¸ģà¸²à¸£à¸ĵ
Ġà¸© à¸²
ĠD irect
Ġà¹Ĥà¸£à¸ĩ à¸ŀ
Ġà¸¡à¸¥ à¸ŀ
Ġx x
Ġk ey
à¸¨à¸§à¸ģà¸£à¸£à¸¡ à¸¨à¸²à¸ªà¸ķà¸£
ĠU ser
Ġà¸ģà¸£à¸° à¸ĸ
à¹Ģà¸Ķ à¸ķ
à¸Ļ à¸ģà¸£
Ġà¹ģà¸¡ à¸Ĺ
Ġà¸īà¸¥ à¸²à¸¡
Ġtit an
à¸Īà¸ŀà¸£à¸° à¹Ģà¸Ĺà¸ŀà¸£
à¸ķà¸Ļà¸£à¸²à¸Ĭ à¸ª
à¸² à¹Ģà¸Ī
U E
Ġà¸Ĥ à¸¥
à¸²à¸£ à¸²à¸¡
à¸§ à¸«à¸¥
Ġà¹Ģà¸Ĥ à¸Ļ
à¸¢à¸ļ à¹Ĩ
à¸ķà¸²à¸¡ à¸Ńà¸ĩ
ĠEd ition
à¸ģ à¹Ģà¸¡
eland ine
à¸ĵ à¸¢
7 1
à¸²à¸ĩ à¸ļà¸Ļ
à¸Ńà¹Ģà¸ªà¸Ļà¸Ń à¹ģà¸Ļà¸°
b on
ist r
Ġà¸ªà¸¡ à¸²à¸Ļ
à¸Ńà¸ĩ à¸Ĥ
Ġà¸ķà¸Ńà¸ļ à¹ģà¸Ĺà¸Ļ
Ġà¹ģà¸® à¸Ľà¸Ľ
à¸ł à¸²à¸¢à¸Ļà¸Ńà¸ģ
Ġà¹ģà¸ĭ à¸ĩà¸ķ
Ġà¸Ńà¸²à¸«à¸²à¸£ à¸Ħ
Ġ[ /
Ġà¹Ĥà¸Ķà¸¢ à¸Ľà¸£à¸°à¸¡à¸²à¸ĵ
Ġ Ñģ
ib r
Ġà¹Ģà¸ĭ à¹Ģà¸§
à¹Ģà¸Ĺ à¸¡
à¸£à¸ĸ à¸¢à¸Ļà¸ķ
Ġad d
Ġin f
Ġà¹Ħà¸¡à¹Ĥà¸Ħà¸£ à¹Ĥà¸Łà¸Ļ
ĠE V
Ð¸ Ð
ĠO T
gor od
Ġà¹Ĥà¸Ĩà¸© à¸ģ
Ġà¹Ħà¸Ń à¹Ģà¸Ĺà¸¡
à¸ģà¸ĩà¸²à¸Ļ à¹ĥà¸«à¸į
ĠWire less
ĠHe ad
Ġà¸Ńà¸³à¸Ļà¸²à¸Ī à¹Ģà¸Īà¸£
Ġà¸Ľà¸¥ à¸²à¸«à¸¡
ĠL and
Ġà¹Ħ à¸Ńà¸£
Ġ19 0
à¸²à¸£ à¸²à¸ĩà¸§
?? ??
Ġ5 35
à¸Ħ à¹Ģà¸ģ
à¸ļ à¸ķà¸²à¸¡à¸Ńà¸ĩ
Ġ é
ib er
Ġre ading
9 2
ĠV S
ob e
à¸£ à¸ŀà¸²
ou l
à¸Ńà¸ĩ à¸Ĺà¸³
ĠR un
Ġà¸Ĥà¸Ńà¸ĩ à¸«à¸§à¸²à¸Ļ
Ġà¸£ à¸ĩà¸Ħ
ĠL ong
Ġà¸Ħà¸§à¸²à¸¡ à¹Ģà¸Ľà¸¥
à¸Ńà¸ģ à¹Ĥà¸ģà¹ģà¸¥à¸ķ
Ġà¸ŀà¸¥ à¸²à¸ĭ
à¸ª à¹Ĥà¸ģ
ĠT ype
Ġà¸ªà¸Ļ à¸ĺ
à¸Ķ à¹Ħà¸¡
Ġà¸«à¸¥ à¸°
à¸²à¸ł à¸£à¸ĵ
ich esk
à¹Ģà¸Ĺà¸¨ à¸ģà¸²à¸¥
Ġà¹ĥà¸Ī à¸¡à¸²
Ġà¸ªà¸° à¹Ģà¸Ĺ
Ġà¸ģà¸£à¸£à¸¡ à¸§
à¸Ľ à¸ĺà¸£à¸£à¸¡
Ġà¸Ľ à¸²à¸¢
m ar
à¸Ľ à¸ł
f a
ail s
Ġfor ex
à¸į à¸ģ
Ġà¸Ńà¸³à¸Ļà¸§à¸¢ à¸ģà¸²à¸£
ĠA T
Ġv e
à¸Ĭà¸Ļ à¸¡à¸ŀà¸£à¸£à¸©à¸²
Ġà¹Ģà¸Ń à¹Ģà¸Ńà¸Ł
Ġà¹Ĵ à¹Ĳ
à¸Ľà¸£ à¸²à¸¢
à¸§ à¹Ģà¸«à¸¥
Ġà¸« à¸²à¸ĩà¸Ī
à¸Ľà¸¥ à¸Ńà¸¡
Ġà¸«à¸²à¸ĩà¸Ī à¸£à¸°à¹Ģà¸Ĥ
Ġà¸ŀà¸² à¹Ģà¸¥à¸ĭ
à¹Ħ à¸ģà¸£
Ġin st
ŀ ĸ
Ġà¹Ģà¸ģà¸ Ī
Ġá º
Ġà¸ģà¸²à¸¥ à¹Ģà¸§à¸¥à¸²
à¸Ĥ à¸Ļà¸²à¸Ķ
Ġà¹Ĥà¸Ķà¸¢ à¹Ģà¸£
à¸Ńà¸Ļà¹Ħ à¸¡
ĠÐ ²
à¸Ńà¸ĩ à¸Ľà¸²à¸ģ
ĠD on
ĠS L
H I
Ġà¸ª à¸£à¸£à¸Ħ
is ter
ud e
ara oke
à¸Ńà¸¡à¸ļ à¸³à¸£
ĠAd v
Ġà¸ģà¸²à¸£à¸Ľ à¸ģà¸Ľ
ne ct
Ġw ork
ĠM Hz
Ġà¹Ģà¸Ń à¹Ģà¸¢
Ġà¹Ħà¸«à¸Ļ à¸Īà¸°
ĠN ok
à¸ļ à¹Ģà¸Ľ
Ġà¸ģà¸£à¸°à¸Ĺà¸³ à¸Ħà¸§à¸²à¸¡à¸ľ
ĠÃ ¼
à¸ªà¹Ģà¸ķà¸Ńà¸£ à¸Ńà¸¥
Ġà¹Ģà¸¥ à¸§
à¸ª à¸ķà¸£
ĠP VC
à¸ķ à¹Ģà¸ĭà¸Ńà¸£
à¸Ńà¸ĩà¸Ī à¸²à¸ģà¸§
ot s
Ġà¸¥ à¸ĩà¸Ħ
à¸²à¸Ĥà¸Ńà¸ĩ à¸ļ
à¸Ńà¸Ķ à¹ģà¸Ķà¸ĩ
ĠM il
AR T
à¸ĩà¸Ħ à¸³
Ġà¹Ģà¸Ħ à¸²à¸°
Ġà¹Ģà¸ļ à¸ķ
AR K
Ġà¸¿ à¸¿
Ġà¸Ħà¸§à¸²à¸¡à¸ª à¸§
in burg
Ġà¸Ī à¸£à¸²à¸Īà¸£
rust al
à¸ģà¸« à¸ģ
ĠT ouch
Ġà¸Ńà¸¡ à¸£
Ġà¸Ĭ à¸Ķà¹Ģà¸Ĭà¸¢
y at
Ġà¹ģà¸ľà¸Ļ à¸ģà¸ķ
ys hev
à¸Ľ à¸ªà¸ķ
Ġà¸Ħà¸£ à¸Ńà¸ª
à¸ŀ à¹Ģà¸£
Ġà¸Ĭà¸Ļ à¸Ĭ
Ġï »¿
Ġà¹ģ à¸Ļà¸Ļ
à¹Ħà¸Ľ à¸£à¸©à¸ĵ
ĠR AM
à¹ĥ à¸ł
ĠÂ °
Ġà¹Ģà¸§ à¸ª
Ġà¸Ĺà¸³ à¸ŀ
od ay
Ġà¸ģà¸²à¸£à¸Ľà¸£à¸°à¸¡à¸§à¸¥ à¸ľà¸¥
à¸ĩà¸Ħà¸³ à¸ĸà¸²à¸¡
om b
Ġà¸Īà¸Ńà¸¡ à¹Ģà¸ģà¸¥
à¸¢à¸ĩ à¸£
Ġà¸¢ à¸²à¸Ľà¸ı
à¸ĩà¹Ģà¸ģà¸ķ à¹Ģà¸«
Ġà¸Ħà¸Ńà¸¥à¹Ģà¸¥ à¸Ħà¸Ĭ
Ġà¸ģ à¸£à¸ĩ
à¸²à¸ĩ à¸Ķ
â ľ
Ġcas ino
Ġà¸£à¸ĸ à¹Ģà¸ģ
Ġp c
Ġà¹Ģà¸Ĺà¸¨à¸ļà¸²à¸¥ à¸Ļà¸Ħà¸£
Ġà¸Ľ à¸§
à¸Ķ à¸ľà¸¥
à¸ķà¸ĸ à¸ģà¸£à¸£à¸¡
à¹Ħ à¸ļ
à¸Ľ à¹Ģà¸Ķà¸ķ
à¹Ĥ à¸«à¸¡
Ġem ail
Ġà¸Ļ à¸²à¸ı
Ġc c
à¸²à¸ ®
à¸²à¸ Ĩ
Ġà¸¡à¸²à¸ķà¸£à¸Ĳà¸²à¸Ļ à¸ªà¸²à¸ģà¸¥
ãĥ ³
Ġà¸®à¸§à¸ĩ à¸Ī
à¸ª à¸¢
Ġ11 5
ĠV IP
Ġtr ans
Ġà¹Ģà¸Ħà¸¥ à¸¡
off ee
Ġ3 20
Ġt w
Ġà¸Ľ à¸¡
à¸² à¹Ģà¸īà¸¥
Ġà¸ķ à¸Ńà¸ĩ
in c
Ġà¹Ħà¸Ł à¹Ħà¸«à¸¡
Ġà¹Ģà¸ģà¸©à¸ķà¸£ à¸ģà¸£à¸£à¸¡
ish i
à¸į à¸«à¸Ļ
à¸ĵ à¸ľ
Ù Ī
ĠR S
ĠSt ation
Ġà¸ģà¸¥ à¸ļ
à¸¢à¸Ļ à¸¡à¸²
Ġà¸£à¸°à¸ļà¸²à¸¢ à¸ª
Ġà¹Ħ à¸ļà¸£
ĠC op
ĠColl agen
P ro
Ġp ar
ĠPrem ium
ann el
Ġà¸«à¸¥ à¸ĩà¸£
m ing
ak h
Ġà¸ģà¸° à¸£
M I
Ġà¸Ĺà¸²à¸ĩà¸ģà¸²à¸£ à¸Ħ
i j
ĠM ach
Ġt ar
Ġà¸Ļà¸²à¸¢ à¸Ńà¸³à¹Ģà¸łà¸Ń
Ġb et
Ġà¸ªà¸§à¸Ķ à¸¡à¸Ļà¸ķ
D O
à¸ĩ à¹Ģà¸Ĭ
à¸Ļà¸Ĺ à¸²
à¹Ģà¸¨ à¸£à¸©à¸Ĳ
Ġà¸Ĥ à¸²à¸ķ
ĠM ir
à¸ĩà¸ª à¸²à¸£
Ġà¸Ń à¸ķ
à¸Ĭ à¸Ĭà¸²
à¹ģ à¸Ļà¸ģ
à¸¡ à¹Ģà¸¨à¸£
Ġd et
im a
ĠE mail
Ġà¸¥ à¸²à¸¡
à¸²à¸« à¸²à¸ģà¸§
ĠD I
it es
Ġà¸Ĥà¸Ļà¸¡ à¸«à¸§à¸²à¸Ļ
à¸¢ à¸Ńà¸Ķ
ĠN ational
ĠF it
ðŁ ı
ĠP et
Ġà¸ŀà¸Ń à¹ģà¸¥
â ĺ
ĠSt e
ĠZ ero
à¸Ńà¸ĩ à¸ľ
Ġà¸Ľà¸£à¸°à¸¡ à¸²à¸Ĺ
ĠJ ohn
ĠSpec ial
it ies
um ber
Ġs et
à¸Ńà¸ļ à¸Ń
Ġà¸§à¸Ńà¸¥ à¹Ģà¸¥à¸¢
à¸ģà¸ĩà¸²à¸Ļ à¸ªà¸Ńà¸ļà¸ªà¸§à¸Ļ
à¸ĩà¸ª à¸Ńà¸Ļ
à¸Ļà¸Ĺ à¸³
à¸¡ à¹ģà¸£à¸ģ
Ġà¸£ à¸Ķà¸Ļ
mer ce
Ġpl us
Ġà¸ģà¸¥ à¸Ńà¸Ļ
Ġà¸Ķ à¸²à¸Ķ
à¸ĺ à¸²à¸£
Ġà¹Ģà¸ŀà¸¨ à¸«à¸į
Ġà¹Ģà¸ŀ à¸¥à¸²
Ġà¸Ĺà¸³ à¹ĥà¸Ī
ĠF ord
Ġà¹Ħ à¸ļà¸Ļ
à¸¥ à¸Ńà¸¢
Ġà¸ªà¸³ à¸Ļà¸§à¸Ļ
Ġà¸ļà¸£à¸£ à¸ĵ
i en
à¸ģà¸£ à¸Ńà¸ļ
ĠL azada
à¸¡ à¹ģà¸¡
ok u
pl y
ĠRes earch
Ġà¸Ĺ à¸²à¸ļ
ib le
Ġà¸ļ à¸Ńà¸ģà¸ķ
ĠC at
Ġà¸Ń à¸¡à¸ķ
ra ft
Ġà¸ķà¸£à¸§à¸Ī à¸«à¸²
ĠL ab
Ġw e
ĠN ight
à¹Ģà¸Ń à¸¡
Ġ/ >
ES T
ĠIn c
Ġ? ?
Ġà¸£ à¸Ńà¸ģ
Ġà¸ģ à¸ĩà¸ª
à¸£à¸²à¸Ĭ à¸ģ
Ġà¸Ħà¸Ļ à¹Ģà¸Ĥ
Ġ q
à¸ĵ à¸¢à¸²à¸¢
Ġà¸łà¸²à¸ŀ à¸Ľà¸£à¸°à¸ģà¸Ńà¸ļ
ł Ģ
à¸Ķà¸« à¸ĩ
Ġà¸ĩ à¸¡
Ġà¸£à¸²à¸§ à¹Ĩ
à¸³ à¹Ģà¸¢
Ġà¸Ńà¸Ńà¸ģà¸ ¤à¸Ĺà¸ĺ
Ġà¸ģà¸Ńà¸ĩ à¸ģà¸³à¸¥
Ġà¸ģà¸²à¸£ à¸¥à¸Ķ
h ouse
Ġà¹Ģà¸Ļ à¸¥
Ġà¸Ľà¸¥à¸²à¸¢ à¹Ģà¸Ķ
à¹Ģà¸¥ à¸ģ
Ġà¸ªà¸ĩ à¹Ģà¸Ħà¸£à¸²à¸°à¸«
à¹Ĥ à¸ģà¸Ļ
Ġà¸£à¸° à¸Ĺ
ov sk
Ġà¹ģà¸ª à¸Ķà¸ĩà¸Ħà¸§à¸²à¸¡à¸¢
Ġf r
Ġà¸¢ à¸²à¸ģà¸¥à¸³à¸ļà¸²à¸ģ
Ġà¸ģà¸§ à¸²
Ġ ent
Ġà¸¢ à¸²à¸ļ
à¸²à¸Ľ à¸Ļà¸ģ
Ġà¸Ħà¸§à¸²à¸¡à¸Ĺ à¸Ļà¸Ĺà¸²à¸Ļ
aw a
Ġà¸¢ à¸¢à¸¢
5 4
Ġà¹Ĥà¸Ķà¸¢ à¸¡à¸²à¸ģ
à¸²à¸« à¸²à¸į
Ġp s
Ġà¸£à¸°à¸ļà¸ļ à¸Ľà¸£à¸°à¸ªà¸²à¸Ĺ
l ing
ON E
à¸ģà¸ļ à¸²à¸ķà¸£
Ġà¸Ĺà¸²à¸ĩ à¸ĺà¸£à¸£à¸¡à¸Ĭà¸²à¸ķ
Ġà¹Ĥà¸ģ à¸Ļ
Ġà¸ģà¸²à¸£à¸ľ à¸Īà¸įà¸ł
à¸Ķà¸Ī à¸²
ĠAp r
à¸Ĭ à¸Į
Ġà¹ģà¸« à¸ģ
ig ment
Ġà¸Ļ à¸²à¸ĸ
Ġà¹Ģà¸Ńà¸² à¹ģà¸ķ
Ġà¸ģà¸£à¸°à¸Ĭ à¸²à¸ģ
ur ity
à¸¢ à¹Ģà¸Ķ
à ®
Ġs ize
Ġà¸¡ à¸ŀ
ĠK r
Ġà¸ķ à¸ģà¸«à¸¥
à¸¢à¸ĩ à¹Ħà¸®
à¸¥ à¸Ĺ
Ġà¸¢ à¹Ĥà¸ªà¸ĺà¸£
Ġ( )
Ġà¹Ģà¸ªà¸¡ à¸Ńà¹Ħà¸Ľ
ES S
Ġà¹Ħà¸ļ à¹Ĥà¸Ń
à¸ĩà¸ªà¸Ńà¸ĩ à¸Ŀ
à¸¡ à¸ĸà¸Ļà¸Ļ
Ġà¹ģà¸® à¸Ļà¸Ķ
Ø§ Ø
ĠComp uter
Ġà¹Ħà¸®à¹Ĥà¸Ķà¸£ à¹Ģà¸Īà¸Ļ
Ġà¹Ħà¸ļà¸Ļ à¸²à¸£
Ġà¹Ģà¸Ĺ à¸Ļà¸Ļ
à¸³ à¹Ģà¸«à¸¥
à¸ķ à¸ªà¸³à¸Ļ
Ġ3 000
ĠâĢ¦ ..
à¸³ à¹Ģà¸ķ
ĠG Hz
Ġ ïľĭ
oc al
à¸¢à¸ª à¸¥à¸°
ĠÃ Ń
ĠPl at
Ġà¸Ľà¸£à¸°à¸ģ à¸²à¸¢
ĠSt udio
Ġà¸ĸà¸Ńà¸Ļ à¹Ģà¸ĩ
Ġà¹Ĥ à¸ģà¸«à¸ģ
Ġà¸Ħ à¸Ńà¸ģ
ĠO ver
Ġà¸Ħà¸§à¸²à¸¡ à¹Ģà¸Ķ
à¸²à¸ĩ à¹Ģà¸ªà¸£
ĠB aby
à¸ļà¸Ľà¸£à¸° à¹Ĥà¸¢à¸Ĭà¸Ļ
à¸ª à¸«à¸£
Ġ7 50
orm ing
Ġà¸ªà¸¥ à¸²à¸ģ
ĠâĢ¦ âĢ¦
Ġà¸£à¸° à¹Ģà¸«à¸¢
z e
Ġc elandine
ater inburg
Ġl og
b it
Ġà¸ľ à¸ģà¸ģ
ðŁ Ĵ
Ġà¹Ħà¸¡à¹Ĥà¸Ħà¸£ à¹Ģà¸§à¸Ł
Ġà¸£à¸Ńà¸ĩ à¸ľ
p ut
à¸ļ à¹Ģà¸ª
à¸¨à¸Ļ à¸¨
ĠIn s
ap s
Ġà¹Ĥ à¸łà¸Ħ
ĠS yn
Ġà¸¡à¸²à¸£ à¸¢à¸²à¸Ĺ
à¸§à¸Ļ à¸Ĭ
Ġg mail
B S
à¸Ļà¸ª à¸Ń
Ġà¸Ħà¸§à¸²à¸¡ à¸Ńà¸ļà¸Ń
æ Ĺ
à¸Ļ à¹ģà¸ģ
ard en
Ġà¸Ńà¸Ńà¸ģ à¸ĩà¸²à¸Ļ
à¸Ńà¸ģà¸ «
Ġ10 3
Ġà¸ªà¸²à¸£ à¸Ħà¸Ķ
à¹Ģà¸Ń à¸ģà¸ªà¸²à¸£
Ġà¸Ĺ à¸¨
Ġà¸§ à¸Ńà¸¥à¸¥
à¸Ĥ à¸Ļà¸ª
Ġà¹Ģà¸Ńà¸² à¹Ģà¸Ľ
ĠR ock
Ġà¸Ĭà¸Ļ à¸ģ
ermal ink
à¸¨ à¹Ģà¸«à¸Ļ
Ġà¸ĸà¸Ńà¸¢ à¸«à¸¥
à¹Ĥ à¸ģà¸ª
à¸« à¸²à¸ģ
5 8
à¸ģà¸¥ à¸²
à¸Ńà¹Ħ à¸§à¸£
Ġà¸Ľà¸£à¸° à¸łà¸²
Ġà¹Ģà¸Ķ à¸Ĺ
à¸ĩà¸Ĥ à¸²à¸£
à¸Ńà¸ĩà¸Ń à¸²à¸ļà¸Ļ
Ġà¸«à¸Ļ à¸§à¸Ķ
Ġà¸Ĥà¸²à¸¢ à¸ķ
th er
Ġà¹ģà¸ŀà¸Ĺà¸¢ à¸¨à¸²à¸ªà¸ķà¸£
à¹Ģà¸Ĺà¸¨ à¸¡à¸Ļà¸ķà¸£
Ġà¹Ģà¸® à¸Ķ
Ġà¸ĩà¸²à¸Ļ à¹Ģà¸Ĺà¸¨à¸ģà¸²à¸¥
Ù Ĩ
ur es
à¹ģà¸Ħ à¸§à¸£
à¸° à¸Ĺà¸³à¸ĩà¸²à¸Ļ
Ġbl og
Ġà¸ªà¸²à¸§ à¹ĥà¸«à¸į
Ġà¹ģà¸Ŀ à¸Ķ
Ġà¹Ĥà¸£à¸ĩ à¸łà¸²à¸ŀà¸¢à¸Ļà¸ķà¸£
à¸Ļà¸¢ à¸Ńà¸Ķ
Ġà¸ªà¸Ńà¸ļ à¸Ħ
ĠJ an
Ġà¸Ĥ à¸Ķ
Ġà¸¢ à¸Ļà¸ķ
Ġà¹Ģà¸ļà¸£ à¸²à¸§
Ġà¸¡à¸« à¸²à¸Ļà¸Ħà¸£
à¸ģ à¹Ģà¸ģà¸Ī
Ġà¹Ģà¸Ńà¸Ļ à¹Ħà¸ĭà¸¡
E AN
Ġà¸Īà¸³ à¸Ļà¸Ńà¸ĩ
à¸Ķ à¸ģà¸£
Ġà¸ŀ à¸²à¸«
Ġà¸ķà¸£à¸ĩ à¸«à¸Ļ
Ġà¸Ĥà¸²à¸Ķ à¹Ħà¸¡
à¸¡à¸ŀ à¸¥
Ġà¸ĩà¸²à¸Ļ à¸¨à¸ŀ
à ¦
ĠS ha
Ġà¸Īà¸³ à¹Ħà¸§
à¹Ģà¸§à¸¥à¸² à¹Ģà¸Ķ
ĠT ur
Ġà¸Ļà¸²à¸¢à¸ģ à¹Ģà¸Ĺà¸¨à¸¡à¸Ļà¸ķà¸£
à¸Ĭ à¸Ķ
Ġà¹ĥà¸Ļ à¹Ģà¸§à¸¥à¸²à¹Ģà¸Ķ
Ġà¹Ģà¸Ń à¸Ń
Ġà¸Ķà¸§à¸ĩ à¹ĥà¸Ī
F T
Ġà¹Ģà¸ŀà¸¥ à¸ª
Ġà¸ľ à¸Ķ
Ġà¸Ĺà¸³ à¸Ķ
ĠQ ual
ĠRo om
à¸²à¸Ĥ à¸Ńà¸ĩà¸£
Ġà¸ģà¸²à¸£à¸ļ à¸³à¸ļ
à¸Ńà¸Ħ à¸Ńà¸¢
Ġà¸ŀà¸¥ à¹Ģà¸£
Ġà¹Ģà¸¥ à¸Ĺ
Ġak rustal
Ġà¸Ĺà¸£ à¸Ń
Ġà¸¥ à¸Ń
à¸Ńà¸¡ à¹Ģà¸ģà¸¥
à¸ļ à¸łà¸²à¸©
à¹Ĥ à¸Ńà¸Ļ
à¸ģà¸£ à¸Ńà¸ģ
Ġà¸«à¸¥à¸Ńà¸Ķ à¸Ńà¸²à¸«à¸²à¸£
à¸Ŀ à¸Ńà¸¢
à¸£ à¸ģà¸²à¸£
Ġà¸« à¸Ķ
Ġà¸«à¸¡à¸Ķ à¸Ńà¸²à¸¢
ĠT im
à¸²à¸§ à¹Ĩ
ãģ ®
ĠP rom
Ġà¸ķà¸£à¸ĩ à¸Ī
Ġà¸ģà¸²à¸£ à¹Ģà¸ľ
Ġà¸ĭ à¸²à¸Ń
Ġà¸ģà¸£ à¸ģ
ew s
à¸²à¸Ī à¸£
Ġà¹ģà¸Ńà¸Ķ à¸¡
Ġà¸¢à¸²à¸ĩ à¸£à¸ĸà¸¢à¸Ļà¸ķ
Ġà¸Ļ à¸łà¸²
à¸¥ à¸ĺà¸£à¸£à¸¡
ĠS ale
Ġà¸¡à¸² à¹Ģà¸ģ
9 1
à¸ĩà¸£ à¸ª
Ġà¸Ńà¸²à¸«à¸²à¸£ à¸Ī
Ġl i
à¸° à¸£à¸Ķ
p ack
h d
à¸£à¸° à¸ļà¸²à¸¢
p os
Ġà¸ķà¸³à¸£à¸§à¸Ī à¸ł
à¹ģà¸ªà¸ĩ à¸Ńà¸²à¸Ĺ
Ġà¸Ħà¸Ļ à¹ĥà¸Ķ
ad em
Ġà¹ĥà¸Ī à¸ĸ
ĠC ase
Ġà¹Ģà¸ī à¸¥à¸¢
Ġà¸£à¸°à¸ļà¸²à¸¢ à¸Ńà¸²à¸ģà¸²à¸¨
Ġà¹Ģà¸īà¸ŀà¸²à¸° à¸Ĺà¸²à¸ĩ
d f
à¸Ľ à¸Ńà¸£
az z
Ġà¸ªà¸£à¸° à¸Ļ
AL L
ĠB O
ĠV R
ac ing
à¹Ĥ à¸ªà¸Ķ
Ġà¸ª à¹Ĥà¸ķ
à¸¢à¸ĺà¸£à¸£à¸¡ à¸¨à¸²à¸ªà¸ķà¸£
en der
Ġà¸¥ à¸²à¸Ńà¸Ńà¸ģ
ĠT rain
ĠSk y
Ġà¸Ĺà¸§à¸²à¸£ à¸«à¸Ļ
oc ation
à¹Ĳà¹Ĳ à¹Ĳ
Ġà¸¥ à¸³à¸Ļ
à¸Ńà¸ĩà¸ĸ à¸Ļà¸Ļ
à¸¢à¸Ļ à¸ŀ
à¸ļ à¸ģà¸¥
ĠSp eed
à¸Ńà¸¢ à¸Ħà¸³
Ġà¸Īà¸° à¹ģà¸Ī
à¸Ļà¹Ħ à¸Ĺà¸Ļ
ĠO f
Ġà¸Ł à¸²à¸Ķ
an i
à¸Ķ à¸£à¸²à¸ķà¸£
u i
ĠC are
Ġà¸ļà¸²à¸ĩ à¹Ģà¸ļà¸²
ĠN issan
ĠD ual
ĠPr es
do or
u f
à¸£ à¸«
Ġà¹Ħà¸¡ à¹Ģà¸Ħ
à¸Ńà¸Ļ à¸ªà¸Ļ
Ġà¹Ģà¸ŀà¸Ĭà¸£ à¹Ģà¸ģà¸©à¸¡
ig o
ĠAd min
Ġà¸ŀà¸£à¸°à¸¡à¸« à¸²à¸ģà¸£
Ġà¹Ģà¸¡ à¹Ģà¸Īà¸Ńà¸£
à¸Ļà¸Ń à¸²à¸¢
ĠBl ock
Ġà¸Ħà¸§à¸²à¸¡ à¸«
à¹Ħ à¸ķà¸£
Ġà¸«à¸§ à¸²à¸Ķ
Ġà¹ĥ à¸Ŀ
Ġà¸Ľ à¸Ļà¹Ģà¸Ľ
à¸ª à¸ĭ
ĠNot ebook
os is
ĠC amp
Ġà¹Ģà¸ª à¸ģ
7 00
Ġà¸Ķ à¸¡
à¹Ģà¸§à¸¥à¸²à¸Ļ à¸²à¸Ļ
at o
Ġjob s
un ch
Ġà¸§ à¸Ĺ
ï¼ Į
Ġà¹Ĥà¸¡ à¹Ģà¸¥à¸ģ
à¸Ļà¸Ħ à¸Ń
à¸Ħà¸£à¸Ńà¸ļ à¸Ħà¸£
à¸Ńà¸ĩ à¸ģà¸¥
Ġà¸ŀà¸£à¸° à¸Ļà¸²à¸¡
à¸§à¸¡ à¹Ģà¸ŀà¸¨
à¸§à¸Ļ à¸ł
ç ļ
à¸²à¸§ à¹Ģà¸«à¸Ļ
Ġà¸Ħà¸§à¸²à¸¡à¸Ńà¸Ķ à¸Ĺà¸Ļ
uc ation
ĠSME s
ĠS DA
Ġà¸Ł à¸Ńà¸ĩà¸Ļ
à¸ŀà¸ŀ à¸¥à¸²à¸¢
à¸Ń à¸Ńà¸³à¸Ļà¸§à¸¢
à¹Ģà¸ł à¸²
ag es
ew el
ĠL E
Ġj p
Ġà¸Ľ à¸ª
à¹Ģà¸ľ à¸²
ĠLe g
à¸Ķ à¸Ļà¸Ńà¸Ļ
A W
à¸¥ à¸Ī
Ġà¸¢ à¸²à¸ģà¸Īà¸Ļ
à¸² à¹ģà¸¥
Ġà¸¥à¸ĩà¸Ħ à¸°à¹ģà¸Ļà¸Ļ
à¹Ģà¸ŀà¸£à¸²à¸° à¸§
ĠT C
Ġà¸ģà¸²à¸£ à¹Ģà¸Ĺ
à¸² à¹ģà¸£à¸ĩ
ĠI M
à¸ģà¸² à¹ĥà¸ķ
Ġà¹Ģà¸ģà¸ ¨
à¸Ńà¸¢ à¸ª
à¸Ńà¸ĩ à¸Ńà¸ģ
us e
Ġà¸¡à¸²à¸Ļ à¸°
Ġà¸£à¸°à¸¢à¸° à¹Ħà¸ģà¸¥
ä ¸Ń
Ġ et
m y
on es
Ġà¹Ģà¸Ľ à¸£à¸¡
E P
ĠU s
Ġcl ass
Ġà¹Ģà¸Ļ à¹Ģà¸ĺà¸Ńà¸£
à¸¡à¸Ń à¹Ģà¸ķà¸Ńà¸£
Ġà¸Ļ à¸§à¸¡
Ġà¸«à¸Ļà¸² à¹ģà¸Ļ
à¸Ĺà¸§ à¸²à¸£
Ġà¸Ĺà¸Ńà¸ĩ à¹Ģà¸«à¸¥
ĠF ashion
à¸¡ à¸ģà¸³à¹Ģà¸Ļ
Ġà¸ģà¸²à¸£à¸ļà¸£à¸£ à¸¢à¸²à¸¢
à¸įà¸į à¸²à¸ģà¸²à¸¨
â ŀĸ
Ġà¸ģà¸¡ à¸¥
Ġà¸ģà¸ģà¸ ķ
ĠM C
à¹Ĥ à¸ĺ
ĠÐ ¸
à¸Ļ à¸ŀà¸£à¸°
ĠPh ot
an ch
Ġ++ +
Ġà¸Ĺ à¸§à¸ĩ
Ġà¸¥à¸³ à¸¥à¸Ńà¸ĩ
ĠW ith
à¹Ģà¸Ī à¸Ļà¸ķ
Ġ21 0
à¹ģ à¸Ńà¸ķ
à¸¡à¸Ĺ à¸°à¹Ģà¸¥
C om
ĠTO Y
à¸£à¸° à¸¡
ĠGl obal
Ġà¸ģà¸£à¸°à¸Ĺà¸£à¸§à¸ĩ à¸ŀà¸²à¸ĵ
âĢ¦âĢ¦ âĢ¦âĢ¦
à¸§à¸¡ à¹ĥà¸Ī
Ġà¹ģà¸ļ à¸ĩà¸ģ
i que
à¸ģà¸ģà¸ İà¸«à¸¡à¸²à¸¢
ĠÃ ³
ĠColle ction
Ġà¹Ģà¸Ĥ à¸¡
ĠPh oto
Ġk araoke
à¹ģà¸Ĺà¸£ à¸ģà¸ĭ
ĠAut hor
Ġdes ign
à¸¢à¸¡ à¸«
Ġà¹ģà¸Ńà¸Ļà¸Ķ à¸£
ĠS ound
ĠAm azon
oun g
ĠW al
à¸Ńà¸Ł à¸Ĺ
ĠGener al
Ġà¹Ģà¸Ļ à¸Ńà¸°
Ġà¸ļà¸²à¸ĩ à¹ģà¸Ħ
Ġin ter
à¸į à¸ļ
Ġà¹Ĵà¹ķ à¹Ķ
5 2
I I
ĠCh ar
u it
à¹Ħà¸Ĺ à¸¡
Ġcom ment
am mer
Ġà¸Ľ à¸Ĳ
Ġà¸ļà¸²à¸Ķ à¹ģà¸ľà¸¥
ĠA F
ĠH ero
Ġà¸ģà¸²à¸£à¹Ģà¸ľ à¸²à¸ľà¸¥à¸²à¸į
Ġà¸ļà¸¥ à¸Ńà¸Ļà¸Ķ
à¹Ģà¸Ĺ à¸Ļ
OR T
à¸Ĥ à¸²
ol ution
L S
Ġà¸Ħà¸Ńà¸Ļà¹Ģà¸Ĺ à¸Ļà¸ķ
Ġà¹ĳ à¹ĵ
t o
à¸Ļ à¸Īà¸°
à¸²à¸ĩ à¸Īà¸°
Ġà¸ªà¸ĸà¸²à¸Ļ à¸Ľà¸£à¸°à¸ģà¸Ńà¸ļà¸ģà¸²à¸£
f r
ĠV e
ĠD R
à¸Ļà¹Ħ à¸ŀ
ide os
ĠF e
Ġà¸Ħà¸²à¸Ķ à¸Ħ
Ġà¹ģà¸Ħ à¸Ľ
Ġà¸Ĺà¸²à¸ĩ à¸£à¸²à¸Ĭà¸ģà¸²à¸£
à¹Ģà¸ īà¸ŀà¸²à¸°
ĠBe ach
à¸Ńà¸ģà¸²à¸£ à¸£
ĠP op
Ġà¸ķà¸° à¹Ģà¸ģ
Ġà¸ªà¸²à¸£ à¸łà¸²à¸ŀ
à¸¥ à¹Ĥà¸Ĭ
ĠM iss
ç ¥
Ġà¸ķà¸¥à¸Ńà¸Ķ à¸Ĺ
Ġc am
Ġà¸ļ à¸Ńà¸ļ
à¹Ģà¸ª à¸²à¸£
ff ect
Ġà¸«à¸²à¸Ķ à¸Ĺà¸£à¸²à¸¢
à¹Ģà¸¥ à¸ķ
à¸§ à¸ģà¸¥à¸²à¸ĩ
à¸Ļ à¸Ŀà¸£
Ġà¹Ģà¸Ńà¸Ļ à¸ģà¸Ľà¸£à¸°à¸ªà¸ĩà¸Ħ
ĠCh r
Ġà¸Ľà¸Ĳà¸¡ à¸§
Ġà¸Ĥà¸Ńà¸ĩ à¹Ģà¸ª
art ment
z y
Ġà¸£à¸ĸ à¸ĸ
N A
à¹Ģà¸Ĺ à¸£
Ġb it
Ġs w
f ace
Ġà¹Ĥà¸¥ à¸Ī
à¸²à¹ĥà¸Ī à¸ĩ
à¸¥ à¸²à¸ģ
other apy
Ġà¹Ģà¸ļ à¹Ģà¸ģà¸Ńà¸£
Ġà¸Ħà¸§à¸²à¸¡ à¸Īà¸³à¹Ģà¸Ľ
Ġà¸Ĺà¸£ à¸§à¸ĩ
5 3
Ġà¸ģà¸İ à¹Ģà¸ģà¸ĵà¸ĳ
Ġà¸ģà¸£à¸°à¸Ĺà¸£à¸§à¸ĩ à¹Ģà¸ģà¸©à¸ķà¸£
à¸ģà¸Ĭ à¸§à¸Ļ
Ġ254 6
à¸²à¸¨ à¸ģ
Ġà¸¡à¸²à¸ª à¸Ķ
5 7
Ġà¸« à¸§à¸Ļ
Ġà¸Ľà¸£à¸°à¸«à¸¥à¸²à¸Ķ à¹ĥà¸Ī
Ġà¸«à¸² à¹Ħà¸¡
ĠNok ia
à¸¥à¸Ľ à¸²à¸ģà¸£
CT V
U D
Ġà¹Ĥà¸¡ à¸ļà¸²à¸¢
ust r
ĠSl im
à¹Ģà¸¥ à¸Ļà¹Ħà¸Ĺà¸Ļ
Ġà¸ ĳ
ĠS o
Ġ: )
à¸ķà¸£à¸ĩ à¸Ĥ
Ġcol or
Ġà¸Ħà¸§à¸²à¸¡ à¸Ńà¸¢à¸²à¸ģ
ĠDis c
à¸Ķ à¸ľà¸¡
à¸ķà¸Ļ à¹Ĥà¸ģà¸ª
à¸Ļ à¸¥à¸¡
Ġà¸Ńà¸²à¸ļ à¹ģà¸Ķà¸Ķ
Ġà¸ģà¸£à¸¡ à¸ª
Ġà¸ªà¸¡ à¸Īà¸£
ell o
Ġà¹Ģà¸ŀ à¸£
à¸§à¸¡ à¸Ĺ
Ġà¹ĥà¸Ħà¸£ à¸ģ
ĠM M
ĠSh are
Ġbl ack
Ġre al
à¸Ļ à¸£à¸§à¸¡
à¸ģà¸£ à¸ļ
I E
Ġà¸ĩ à¸Ļ
ĠUl tra
Ġl ink
à¸İ à¸ģ
à¸ļà¸ª à¸²à¸Ļ
Ġà¸ªà¸²à¸¢ à¸Ļ
Ġà¸£à¸§ à¸ļ
à¸Ļ à¸ŀà¸£
Ġà¸Ĺ à¸²à¸§à¹Ģà¸§à¸Ńà¸£
Ġà¹ģà¸« à¸§à¸ģ
Ġ" )
à¸¢ à¸ĺà¸²à¸Ļ
à¸Ļà¸ĺ à¸£
ĠWi Fi
à¸¢à¸ĩ à¸Ĥ
à¸Ńà¸ģà¸³ à¹Ģà¸Ļ
u ff
Ġà¸§à¸² à¹Ģà¸¥à¸Ļà¹Ħà¸Ĺà¸Ļ
Ġà¸ģ à¸²à¸Ļà¸ķ
ĠUp date
ĠF orm
Ġà¸Īà¸Ń à¹ģà¸ªà¸Ķà¸ĩ
Ġseborrhe ic
ĠR ad
à¸²à¸£ à¸«
Ġà¸£à¸ĸ à¸¡à¸Ńà¹Ģà¸ķà¸Ńà¸£
Ġà¸ķà¸Ńà¸Ļ à¸Īà¸ļ
g id
à¸§à¸ĩ à¹ĥà¸¢
Ġà¸ªà¸ĩà¸ª à¸²à¸£
Ġà¸Ĺà¸£à¸ĩ à¸ŀà¸¥
Ġ11 2
Ġt ext
atur al
à¸Ľà¸¥à¸²à¸¢ à¸Ĺà¸²à¸ĩ
Ġà¸ķà¸¥à¸Ńà¸Ķ à¸Ľ
à¸Ķà¹Ģà¸Ĺ à¸Ńà¸¡
Ġà¸ģà¸İ à¸£à¸°à¹Ģà¸ļ
à¸ģà¸ĩà¸²à¸Ļ à¸ķ
à¸ĩ à¹ĥà¸«
ĠM ark
à¸Ķ à¸¢à¸²
Ġà¸¢ à¸²à¸Ħ
er r
à¸§à¸ķ à¸²à¸¢
à¸Ńà¸¢ à¸Ħà¸Ń
ĠO il
ĠL T
à¸²à¸ľ à¸²
Ġà¹Ģà¸ģ à¸£à¸²à¸°
ĠSoft ware
Ġ5 50
ĠCh amp
Ġâ ĺ
Ġ act
ĠM o
à¸Ńà¸Ļ à¸ĭ
Ġ200 4
ĠL in
ĠUR L
à¸Ī à¸ģ
Ġ200 5
Ġà¸Ħà¸§à¸²à¸¡ à¸«à¸§à¸²à¸Ļ
à¸Ķ à¸²à¸¯
à¸¢ à¸ķ
â Ļ
à¸ļ à¸ªà¸²à¸£
à¸Ļà¸ª à¸ļà¸²à¸¢
à¹Ģà¸¡ à¸Ĭ
am ic
Ġà¹Ĥà¸Ķ à¸Ķ
P R
ĠH ol
Ġà¸£à¸ĸ à¹Ģà¸¡à¸¥
à¹ģà¸Ńà¸ķ à¹Ģà¸Ĺ
Ġà¹Ģà¸¥ à¸²
à¸ģà¸²à¸£ à¸ģ
Ġview s
à¸¢à¸ĩ à¹Ģà¸ŀà¸¥à¸ĩ
ad er
ĠS he
ĠF ace
ĠCan on
Ġ è
ĠL i
Ġà¸§à¸²à¸ĩà¹ģà¸ľ à¸Ļà¸ģà¸²à¸£
à¸Ĺ à¸£à¸²à¸ļ
Ñ ĩ
Ġà¹Ģà¸ªà¸¡ à¸Ńà¸ģ
Ġà¸£à¸°à¸¢à¸° à¸«
à¸ĩà¸Ħ à¸Ļ
âĢ¢ âĢ¢
Ġà¸ģà¸²à¸£à¸ļ à¸§à¸¡
in sk
ent ing
à¸¡à¸²à¸ĵ à¸¡à¸²à¸ģ
à¸§ à¹Ħà¸«à¸¥
Ġà¹Ħà¸® à¹Ĥà¸ĭ
à¸Ńà¸° à¹Ħà¸£
à¸Ńà¸ģà¸ķ à¸²
à¸Ļ à¸£à¸Ńà¸ĩ
à¸Ļà¸¢ à¸²à¸§
Ġà¹ĳ à¹ĸ
à¸Ķà¸§à¸ĩ à¸Ĺà¸§à¸²à¸£
à¸£à¸ļ à¸ģà¸§à¸Ļ
5 1
à¸Ħ à¸§à¸ļà¸Ħ
Ġ11 1
à¹Ģà¸¥ à¸ªà¹Ģà¸ķà¸Ńà¸£à¸Ńà¸¥
ĠC up
à¸ģà¸ļ à¸²à¸¨à¸ģ
à¸ķ à¸³à¸«à¸Ļ
à¸ļ à¸£à¸°à¸Ķ
Ġart icle
à¸²à¸¢ à¸ĵ
ĠC CTV
Ġ12 00
Ġ6 50
atter y
Ġà¹ģà¸ķà¸° à¸ķ
Ġà¸¢ à¸²à¸£
Ġà¸ªà¸£à¸£ à¹Ģà¸ªà¸£
à¸²à¸«à¸Ļ à¸²à¸§
â łĢ
å¤ ©
g h
oc us
à¸¡à¸ķ à¸²
Ġà¸Īà¸Ńà¹ģà¸ªà¸Ķà¸ĩ à¸ľà¸¥
à¸³ à¸Ľà¸£à¸°à¸ģ
à¹Ħ à¸Ħà¸£
ĠAn ime
à¸Ľ à¸Ńà¹Ģà¸£à¸Ĭ
Ġà¸ģà¸£à¸°à¹ģà¸ª à¸Ħà¸§à¸²à¸¡
à¸§ à¸ªà¸³à¸£à¸Ńà¸ĩ
Ġp age
Ġà¸Ľà¸£à¸°à¸Ī à¸§à¸ļ
Ġà¸Ĥà¸Ńà¸ĩ à¹Ģà¸ģ
Ġà¸ªà¸° à¹ĥà¸Ī
ol f
ĠOr gan
ĠDevelop ment
es n
Ġà¹Ģà¸ľ à¸²à¸ľà¸¥à¸²à¸į
ĠB and
à¸¡à¸« à¸²à¸Ĭà¸Ļ
AIL AND
k o
ĠC able
av a
ðŁ ĺ
oo p
ĠSt yle
ĠPH P
à¸Ħ à¸£à¸£à¸²à¸Ĭ
ĠC ON
ĠÐ ½
à¸³ à¸ł
çļ Ħ
c es
à¸Ļà¸²à¸Ļ à¸²à¸Ĭà¸²à¸ķ
m et
Ġà¸ªà¸²à¸¢ à¹Ħà¸«à¸¡
Ġà¸£à¸Ńà¸¢ à¸ķ
à¸²à¸¡ à¸ķ
Ġà¸Ħà¸Ńà¸Ļ à¹Ĥà¸Ĺà¸£
à¹Ģà¸£ à¸²à¸°
ĠH appy
à¸ļ à¸«
à¸Ńà¸ĩ à¹Ģà¸Ħà¸£
à¸Ļà¸³ à¹Ģà¸Ĥ
à¸« à¸°
à¸ļ à¸Ļà¸²à¸Ļà¸²à¸Ĭà¸²à¸ķ
Ġ ãĥ
à¸Ľà¸£à¸°à¸ªà¸ļ à¸ł
ĠM erc
à¸¡ à¹Ģà¸«à¸¥
à¸§à¸¥ à¸³à¸ł
à¸ĳ à¸²
ĠB a
<<<< <<<<
o id
ĠStand ard
Ġ": "
Ġà¸Ĺà¸²à¸ĩ à¸ģà¸İà¸«à¸¡à¸²à¸¢
Ġf il
Ġà¸«à¸Ļ à¸Ńà¸ĩà¸ļ
Ġ> <
IG H
ĠNov gorod
ĠO m
à¸Ļà¸Ķ à¸²à¸¡
Ġc ard
Ġà¸£à¸ĸ à¹ģà¸Ĥ
ĠS ET
ĠP ink
à¸ļ à¸³à¸ļ
Ġà¸ļ à¸ŀ
Ġà¸ĩ à¸°
Ġà¸ģà¸²à¸£ à¹Ģà¸Ĭ
ĠAnt i
Ġà¸łà¸²à¸© à¸²à¸ķ
ĠS af
Ġà¸ªà¸ķ à¸Ń
ent al
Ġà¸ª à¸²à¸Ķ
Ġre m
Ġà¸Ĭ à¸³
à¹Ģà¸Ľ à¸ķ
Ġv is
Ġà¸ķà¸²à¸¡ à¸£à¸Ńà¸¢
à¸ĩà¹Ģà¸ģà¸ķ à¸§
Ġxxx x
E F
Ġà¸¥à¸° à¹Ģà¸¥à¸¢
à¸²à¸Ħ à¸ĵà¸°
à¸²à¸ļ à¸Ńà¸Ķ
Ġà¸Ķà¸§à¸ĩ à¸Ĭà¸°à¸ķà¸²
à¸Ļà¸¡ à¸²à¸£
à¸Ńà¸²à¸£ à¸¡à¸ĵ
Ġg ame
à¸ģà¸« à¸¡à¸²à¸ģ
em on
à¸²à¸Ĥ à¸Ļà¸«à¸Ļ
à¸¡à¸²à¸ģ à¸£à¸£à¸¡
ik o
Ġp e
à¸Ļà¸Ĺ à¸Ļà¸²à¸ģà¸²à¸£
à¸Ħà¸£à¸£à¸²à¸Ĭ à¸Ĺ
Ġà¸Ľà¸£à¸° à¸Ľà¸²
à¸Īà¸³ à¸Ļà¸§à¸Ļ
Ġà¸ĺà¸£à¸£à¸¡ à¹Ģà¸Ļ
Ġà¸ªà¸« à¸Ľà¸£à¸°à¸Ĭà¸²à¸Ĭà¸²à¸ķ
à¹Ģà¸Ń à¸Ĺ
Ġ, "
Ġcl ip
Ġà¸£ à¸ªà¸Ļ
ag s
Ġà¸«à¸¡ à¸§à¸¢
i i
Ġy outube
à¹Ĥ à¸Ńà¸Ķ
à¸Ľà¸£à¸°à¸Īà¸³ à¸Ĺà¸²à¸ĩ
Ġà¸Ľà¸Ńà¸¢ à¹Ģà¸Ľà¸ķ
à¸Ļà¸²à¸¢ à¸ģà¸£
ĠE ss
Ġà¸Ľà¸£à¸°à¸ģà¸Ńà¸ļ à¸ĺ
ãĢ Ĥ
n g
Ġà¹ģà¸ķà¸ĩ à¹Ĥà¸¡
à¸¢à¸£ à¸łà¸²à¸ŀ
à¸Ľà¸£à¸° à¸ģà¸²à¸£
Ġà¸ī à¸²à¸ļ
Ġà¹Ĥà¸Ľ à¸ªà¹Ģà¸ķà¸Ńà¸£
ĠCateg ories
Ġà¸«à¸Ń à¸ģà¸²à¸£à¸Ħ
Ġà¸¢ à¸ģà¸Ĺ
Ġà¸ªà¸¡ à¹ĥà¸Ļ
Ġà¹Ģà¸ļ à¸Ń
à¸ªà¸¡ à¸²à¸Ĭ
à¸Ķ à¹ģà¸§à¸£
à¸Ĺ à¸ģà¸ł
Ġà¸ŀà¸Ń à¹Ħà¸Ķ
OR N
à¸© à¸²
Ġà¸Ħà¸§à¸£à¸Īà¸° à¹Ģà¸Ľ
à¸į à¹Ģà¸Ĭ
ĠH ow
Ġ61 0
ĠInst agram
ĠJ ob
à¸ĩà¸Ħà¸¡ à¸¨à¸²à¸ªà¸ķà¸£
Ġm ini
à¹ģà¸ĸ à¸¡
Ġà¹Ģà¸ª à¸§à¸¢
à¸Ħ à¸¡à¸Ń
Ġa ir
Ġà¸¡ à¸¡à¸²à¸ģ
ĠB as
Ġc r
ĠW omen
à¸¡ à¹Ģà¸ĩ
ĠG ar
Ġà¹Ĥà¸¢ à¹Ģà¸ģ
Ġà¹ģà¸« à¸§
Ġà¸Ł à¸Ńà¸ª
Ġà¸Ńà¸²à¸«à¸²à¸£ à¹Ģà¸Ī
Ġà¸¡ à¸£à¸£à¸Ħ
à¸¥ à¹Ģà¸§
Ġà¸Ń à¸²à¸«à¸£
Ġd el
ĠAward s
Ġà¸ķà¸²à¸¡ à¹Ģà¸ĩ
Ġà¹Ģà¸¨à¸£à¸©à¸Ĳ à¸¨à¸²à¸ªà¸ķà¸£
Ġà¸Ĺà¸²à¸ĩ à¹Ģà¸Ĺà¸Ħà¸Ļ
Ġà¸ĩ à¸ª
à¸ªà¸¡ à¸ľà¸¥
Ġà¸¥à¸° à¸Ńà¸Ńà¸ĩ
à¸²à¸¥ à¸²à¸¢
Ġà¸ļà¸£à¸£ à¸ŀà¸ļ
u v
ĠI G
ĠSp ace
à¸Ľ à¸Ļ
f ul
æ ĸ
Ġà¸Ħ à¸§à¸ĩ
Ġà¸Ħà¸¥ à¸²à¸Ļ
Ġà¹Ĥà¸Ī à¸§
à¸Ĥà¸łà¸²à¸ŀ à¸Ī
à¸ķà¸£ à¸Ľà¸£à¸°à¸Ĭà¸²à¸Ĭà¸Ļ
à¸ļà¸Ľ à¸°à¸£à¸Ķ
Ġà¹Ģà¸ľ à¸Ķ
à¹Ģà¸¡ à¸Ķ
ĠM c
à¸ĩ à¸Īà¸³à¹Ģà¸Ľ
ir us
Ġà¸ªà¸ĩà¸Ħà¸£à¸²à¸¡ à¹Ĥà¸¥à¸ģ
à¸Ĳà¸Ľà¸£à¸° à¸«à¸²à¸£
Ġà¸Ļà¸²à¸¢ à¸«à¸Ļ
Ġ7 20
Ġà¹Ģà¸Ĭ à¸Ńà¸£
ifi ed
Ġà¸¡à¸Ń à¸į
Ġà¸« à¸Ńà¸ģ
Ġd i
Ġà¸£à¸²à¸¢à¸ĩà¸²à¸Ļ à¸ķ
Ġà¸Ĭà¸° à¸¥
Ġà¸Ļà¸²à¸ĩ à¸£à¸Ńà¸ĩ
ot al
à¹Ģà¸ģà¸©à¸ķà¸£ à¸¨à¸²à¸ªà¸ķà¸£
Ġà¹Ĥà¸£à¸ĩà¸ĩà¸²à¸Ļ à¸Ń
à¸¢ à¹Ģà¸ģà¸©à¸ķà¸£à¸¨à¸²à¸ªà¸ķà¸£
Ġà¸ŀà¸Ń à¹Ģà¸«à¸¡à¸²à¸°
Ġà¹ĸ à¹ĳ
à¸²à¸ģ à¸Ńà¸Ļ
Ġà¸«à¸¡ à¸Ńà¸¢
am ing
à¸ī à¸¥à¸²à¸Ķ
Ġà¸ļà¸£à¸£ à¸ŀ
à¸Īà¸ģà¸²à¸£ à¸Ħ
ast ic
ĠB ur
id as
Ġ est
Ġà¹Ĥà¸Ķ à¸£
IV E
Ġà¸Ľ à¸²à¸Ķ
ar ed
Ġà¹Ģà¸Ķ à¸Ļà¸¡à¸²à¸£
Ġà¸Ĥà¸Ńà¸ĩ à¹ģà¸ĸà¸¡
ug h
à¸ĩ à¸Ľà¸£à¸°à¸Ķ
Ġà¸Ńà¸¡à¸ķ à¸°
ed ding
ĠY our
à¸²à¸ĩà¸Ī à¸²à¸Ļ
à¸Ķà¸«à¸¡à¸²à¸¢ à¸Ľà¸¥à¸²à¸¢à¸Ĺà¸²à¸ĩ
à¸ģà¸ Īà¸²à¸ģ
Ġà¸¢à¸²à¸¡ à¸Ħ
ĠSM S
Ġà¸Ļ à¸£à¸²
az a
Ġà¸¢ à¸§à¸ģ
Ġà¹Ģà¸Ń à¸Ķà¸ª
Ġà¸ªà¸²à¸£à¸° à¸ªà¸³à¸Ħ
à¹Ģà¸Ĭ à¸¢
iz h
à¸§ à¸į
Ġà¸Ĥ à¸²à¸«à¸Ļ
Ġà¸Ł à¸Ł
ĠJ ack
Ġà¸ķà¸£à¸§à¸Ī à¸£
Ġà¸Ľà¸¥ à¸²à¸Ĺ
Ġà¸ªà¸ł à¸²à¸Ļ
ĠL ot
à¸ĩ à¸Ĭà¸Ļ
Ġà¹ģà¸Ńà¸ļ à¸Ķ
ak a
Ġk g
Ġf ull
ĠR O
Ġà¸Ľà¸²à¸ģ à¸Ļ
ĠO R
Ġà¹ģà¸Ħ à¸Ĭ
à¸Ķ à¸ģà¸£à¸°à¸Ĺà¸£à¸§à¸ĩ
e et
ĠS qu
Ġg et
Ġà¸· à¹ī
Ġà¸Ĺà¸²à¸ĩ à¸£à¸ĸà¹Ħà¸Ł
Ġà¸ģ à¸²à¸Ĭà¸²à¸Ķ
Ġw atch
ĠCh iang
k e
à¸¤ à¸«
Ġà¸ķà¸£à¸²à¸ª à¸²à¸£
à¸ªà¸Ńà¸ļ à¸ĸà¸²à¸¡
à¸ģà¸ļ à¸Ńà¸¥
à¸²à¸Ļ à¸ģà¸²à¸£
à¸Ńà¸ģà¸ ĸ
Ġ254 0
à¸Ĭ à¸ŀ
à¸¢à¸ł à¸²à¸©
Ġà¹Ĥà¸Ħà¸£ à¹Ģà¸Ńà¹Ģà¸Ĭ
ber ry
Ġ ic
rot ichesk
à¸Ļ à¸ģà¸£à¸°à¹ģà¸Ĺà¸ģ
Ġà¸Ĭà¸³à¸£à¸° à¸Ħ
à¸Ķ à¸£à¸°à¹Ģà¸ļ
Ġà¸Ķ à¸¥
t ime
Ġà¸ķà¸° à¹Ħà¸Ħà¸£
Ġà¹Ģà¸ŀà¸£à¸²à¸° à¸Ńà¸°à¹Ħà¸£
Ġà¸ĸà¸²à¸¡ à¸ĸ
ĠSil ver
gid rotichesk
B A
if f
å Ĳ
à¸ĩ à¹Ħà¸Ľ
ĠS R
à¸²à¸Ļà¸ģà¸²à¸£ à¸Ĺà¸Ķà¸ªà¸Ńà¸ļ
à¸Ń à¸Ĭà¸²à¸ķ
ĠB ut
Ġà¹Ĥà¸Ń à¹Ģà¸§à¸Ńà¸£
Ġà¸Ľà¸§à¸Ķ à¸Ĺ
Ġà¸£à¸° à¸¢
Ġà¹Ģà¸Īà¸²à¸° à¸¥
Ġb ig
à¹ģà¸« à¸¥à¸¡
Ġà¸§à¸ĩ à¸ģà¸§
Ġà¸ŀ à¸¥à¸°
ĠT P
à¸Ļà¸ķà¸ģ à¹Ģà¸ī
ĠâĢ ³
Ġà¹ģà¸Ľà¸¥ à¸ģà¸ķà¸²
à¸² à¹ģà¸Ľà¸¥à¸ģ
Ġà¹Ĥà¸Ĥ à¸Ļà¸ĩ
Ġà¹ģà¸ķ à¸Ķ
j ob
à¸¨ à¹ĥà¸ķ
âŀĸ âŀĸ
ĠM az
à¸Ńà¸ĩà¸£ à¸²à¸ĩ
ĠH R
Ķ à¸Ńà¸ģ
Ġà¸Ħà¸§à¸²à¸¡à¸Ħà¸²à¸Ķ à¸«à¸§
à¸ģà¸ĩà¸²à¸Ļ à¸ļà¸£
Ġà¹Ĥà¸ģà¸¥ à¸Ķ
s b
Ġà¸ģà¸¨ à¸Ļ
v est
Ġà¸Ħà¸§à¸²à¸¡ à¸Ľà¸£à¸²à¸£à¸ĸà¸Ļà¸²
ĠT est
j a
ĠU P
ĠP hlebologist
Ġà¹Ĥà¸Ľ à¹ģà¸¥à¸Ļà¸Ķ
ĠT ool
à¸¡ à¹Ģà¸ļ
ĠP U
à¸Ķ à¸Īà¸³
ĠB en
Ù Ħ
Ġà¸Ī à¸£à¸°à¹Ģà¸Ĥ
Ġà¸Īà¸Ńà¸ĩ à¸ķ
à¸¥à¸Ī à¸Ńà¸¡à¹Ģà¸ģà¸¥
Ġà¸Ļà¸²à¸¢ à¸Ĺà¸«à¸²à¸£
Ġ] ,
à¸į à¸£
ĠPer fect
ĠG D
à¸¢ à¸²à¸ģ
Ġà¸ªà¸²à¸¡ à¹Ģà¸«à¸¥
ĠP T
à¸ģ à¹Ģà¸ļ
ĠÃ ¤
ĠP a
Ġà¹Ĥà¸Ħ à¸Īà¸£
Ðµ ÑĢ
Ġà¸ģà¸²à¸£à¹ģà¸ªà¸Ķà¸ĩ à¸Ńà¸Ńà¸ģ
à¸Ńà¸ķ à¹Ģà¸ķà¸Ńà¸£
à¸¥à¸¢ à¹ģà¸ŀà¸Ĺà¸¢
Ġà¸ģà¸Ńà¸ĩ à¸ļ
à¸įà¸įà¸² à¹Ģà¸Ńà¸ģ
Ġà¸ı à¸²à¸Ħà¸¡
Ġh igh
Ġp igment
il t
Ġà¸Ń à¸«
à¸£à¸° à¸ļ
à¸Ħ à¹Ģà¸ķà¸Ńà¸£
Ġà¸¥ à¸²à¸¥
ĠEx po
Ġà¹ģà¸£à¸ĩ à¸Ī
ĠH all
Ġà¹Ģà¸Ķ à¸¥
Ġà¸łà¸²à¸Ħ à¹Ģà¸£
Ġ ant
à¸Ļà¸ķ à¸²à¸¡
ĠS uk
à¸Ł à¸Ł
Ġà¹Ģà¸Ł à¸¥
à¸Ļà¸ľ à¸§à¸Ļ
Ġà¸ľà¸¥à¸ĩà¸²à¸Ļ à¸§
if y
ĠRe v
Ġà¸ķà¸³ à¸£
ĠM ake
à¸²à¸¥ à¸°
à¸ģà¸Ĥ à¸²à¸Ķ
ĠEx press
à¸¡ à¸£à¸ª
à¸²à¸Ļ à¸£
ĠP ur
à¸² à¹ĥà¸ģà¸¥
ĠC re
ĠTe am
Ġà¹Ģà¸ļ à¸¢
le ase
Ġà¸Īà¸Ń à¸łà¸²à¸ŀ
Ġà¸ĺ à¸£à¸ĵ
à¹Ĥà¸£à¸ĩ à¹ģà¸£à¸¡
ĠS uz
Ġw orming
id a
ĠTH AILAND
g o
Ġà¸Ńà¸Ńà¸ģà¸ Ķà¸Ńà¸ģ
ĠCon do
Ġ254 2
à¸¢à¸§à¸Ĥ à¸§à¸²
Ġà¸Ħà¸ĵ à¸ļà¸Ķ
ĠSc ience
à¸ĩ à¹Ģà¸§
å ľ
m un
à¸Ĭ à¸ľ
ĠLe ave
Ġà¹Ĥ à¸ĺ
à¸ĩà¸ĩà¸²à¸Ļ à¹Ħà¸Łà¸Ł
Ġà¸¡ à¸ĩ
Ġà¸«à¸¥ à¸§à¸¡
á Ł
ĠN ik
Ġà¹Ģà¸Ń à¹Ģà¸ĭ
OT A
ĠI v
à¸Ļ à¹Ģà¸Ľà¸¥
ess ional
m p
IS A
ĠE le
C L
Ġà¹Ĥ à¸Ńà¸ģ
Ġ12 3
Ġà¹ģà¸Ī à¸ĩ
ĠCon s
Ġà¸² à¸£
Ù ħ
Ġà¸£à¸°à¸ļà¸ļ à¹Ģà¸Ħà¸£
Ġå ¤
Ġà¸Ĺà¸²à¸ĩ à¹Ħà¸ģà¸¥
à¹Ģà¸ ļà¸ļ
ĠB T
à¸ģà¸§ à¸²à¸ĩ
Ð ´
Ġà¸ģà¸²à¸£à¸ķ à¸²à¸¢
UN G
Ġà¸ŀà¸§à¸ĩ à¸«à¸£
O O
à¸ģ à¹Ĥà¸Ĺà¸©
à¹Ģà¸« à¸ĩ
ĠF ac
itt le
Ġà¸Ńà¸ļ à¸Ī
l or
ĠEx t
ĠF eb
iet y
Ġà¹Ģà¸§ à¸ļ
à¹Ĥ à¸į
Ġs ec
Ð° Ð½
ĠF air
Ġà¸ªà¸Ļ à¸Ĭ
à¸ĩà¸ŀ à¸²à¸ĵ
ĠM ovie
à¸¢ à¹Ģà¸Ĭ
Ġà¸«à¸Ļ à¸²à¸¡
ĠA ction
Ġhot mail
à¸Ńà¸® à¸²
Ġà¸Ĭ à¸Ļà¸²
à¸²à¸ľ à¸²à¸ģ
Ġà¸Ķ à¸²à¸Ļ
Ġà¸ķà¸° à¹Ĥà¸ģà¸Ļ
à¸¡ à¹ĥà¸ª
à¹Ĥà¸ĭ à¸Ļ
à¹Į "
à¸Ļà¸ª à¸ķà¸²
à¸Ļà¸ªà¸ķà¸² à¹ģà¸ģà¸£à¸¡
âłĢ âłĢ
Ġà¸Ķ à¸Ķ
Ġà¹ĳ à¹Ķ
Ġà¸Ħà¸¥ à¸°
u a
Ġà¹Ħà¸ŀ à¸ļ
à¸ģà¸ĩà¸²à¸Ļ à¸Ĥà¸²à¸¢
Ġg en
à¸Ķ à¸Ŀ
Ġà¸Ħà¸§à¸²à¸¡à¹Ģà¸Ħ à¸²à¸£à¸ŀ
ãĢ ģ
Ġà¸Ļà¸³ à¹Ģà¸Ĺ
à¸ĩà¸Ħà¸¡ à¸¨
Ġà¸£à¸²à¸¢ à¸£
ell a
Ġà¹ģà¸ª à¸Ķ
à¸²à¸§ à¸Ľà¸£à¸°à¸Ĭà¸²à¸ª
Ġà¹Ģà¸Ń à¸ĭ
Ġ< <
à¸¥ à¹Ģà¸Ł
Ġro om
Ġ? âĢĿ
Ġà¸ķà¸£à¸° à¸ģà¸²à¸£
Ġà¸«à¸Ļà¸²à¸§ à¹Ģà¸¢
à¸Ńà¸ĩà¸ªà¸³à¸Ń à¸²à¸ĩà¸Ħ
Ġà¸Ľ à¸¨
Ġà¸¥à¸²à¸¢ à¹Ħà¸¡
Ġà¸£à¸²à¸Ĭ à¸ŀà¸¤à¸ģà¸©
ĠMult i
à¸Ńà¸ĩ à¸«à¸Ļ
à¸²à¸ģà¸ ª
Ġà¹Ĥà¸Ħà¸£à¸ĩ à¸Ĥ
ĠD ress
ĠL ear
Ġà¹Ħà¸Ĺ à¸¡
ak ing
Ġà¸ļà¸Ĺ à¸ļ
on ic
Ġà¸ª à¸²à¸Ļà¸ķ
Ġà¸ĭ à¸ļ
Ġà¸Ł à¸²à¸ĩ
à¸ĩ à¸Ĺà¸²à¸ĩ
Ġà¸ķà¸²à¸¡ à¸¥
à¸Ļà¸ķ à¹ģà¸ŀà¸Ĺà¸¢
Ġà¸Ĺ à¸Ĺà¸Ĺ
Ġà¸Ńà¸²à¸ĵ à¸²
Ġà¹Ĥ à¸¢à¸ĩ
à¸²à¸ĺ à¸Ńà¸Ļ
Ġà¹Ģà¸¥ à¸Ńà¸°
à¸ŀà¸£ à¸²à¸Ļ
Ġà¹ģà¸§ à¸Ķà¸¥
if ication
Ġ36 5
ĠN ar
ĠSport s
à¹Ħà¸Ł à¸¥
à¸ĩà¸ļ à¸²à¸ĩ
Ī à¸°
Ġà¸Ĭ à¸²à¸¥
Ġà¹ģà¸Ĥà¸Ļ à¸ĩ
ra il
à¸Ļ à¸Ľà¸£à¸°à¸ªà¸²à¸Ĺ
à¸Ļà¸Ļ à¸²à¸ĩ
à¸Ķà¹Ģà¸ ¡
ĠH air
à¸Ĺ à¸Ńà¸Ķ
ĠM i
à¸Ńà¸Ļ à¹ĥà¸Ļ
Ġà¸ģà¸§ à¸Ļà¸Ń
ewel ry
Ġà¹Ģà¸Ń à¸²à¸ķ
à¸ģà¸£ à¸ģà¸¥
Ġà¸Ĭ à¸²à¸Ķ
Ġ23 0
à¸Ł à¸ķ
i us
à¸ª à¹Ģà¸ĭà¸Ńà¸£
ost ed
ĠJ Y
Ġserv ice
à¸³ à¹ģà¸£
iz z
Ġp ass
Ġà¸ªà¸¡ à¹Ģà¸«à¸ķ
Ġà¸Ĺà¸£à¸ĩ à¸ģà¸¥à¸¡
Ġà¸¡ à¸ĩà¸ģ
à¸ķà¸§ à¹ģà¸ŀà¸Ĺà¸¢
Ġà¹ģà¸ª à¸ķ
à¸§à¸Ļ à¹ģà¸¥
â Ŀ
Ġà¸Ħà¸§à¸²à¸¡ à¸ªà¸¡à¸ļ
Ġà¸ŀà¸¥ à¸²à¸ĩ
Ġà¸ ¹
ĠG L
op e
Ġà¸¢ à¸²à¸¡à¸²
S P
Ġf unction
à¸Ļà¹Ģà¸Ķ à¸ªà¸¥
Ġà¸ŀà¸£à¸° à¸Ħ
ac y
ĠS em
ĠH el
m ark
Ġà¹Ħà¸Ķà¸£ à¸Ł
à¸³ à¸¥
ĠSw itch
à¸¡ à¸²à¸ĭ
um in
v el
Ø ¯
Ġà¸Ļà¸³ à¸¡à¸²à¸ĭ
à¸²à¸§ à¸ª
à¸ªà¸ª à¸Ļà¸²
Ġà¸ªà¸ķ à¸²à¸ĩà¸Ħ
ĠM bps
Ġà¸ªà¸ŀ à¸Ĳ
Ġà¸ģ à¸²à¸ķ
Ġà¸ģà¸²à¸£à¸Ħ à¸§à¸ļ
ĠFest ival
à¸³ à¸ªà¸°à¸Ńà¸²à¸Ķ
à¸ģà¸²à¸£ à¹Ģà¸ĩ
Ġà¸Ļ à¸Ńà¸Ļà¹Ħà¸¡
Ġà¹Ģà¸«à¸¥ à¸§
AT ION
à¸£à¸²à¸ ģà¸
à¹Ĥà¸Ĺ à¸£à¸¡
Ġà¸Ĺà¸°à¹Ģà¸¥ à¸Ĺà¸£à¸²à¸¢
à¹Ħà¸Ń à¹Ģà¸Ńà¸ª
T he
Ġà¸Ł à¸Ńà¸ģà¸ª
à¸ĩ à¸³
Ġà¸Ĺà¸³ à¸Ļà¸²
à¸ĩà¸Ĩ à¸£à¸²à¸Ĭ
à¸Ļà¹Ħ à¸ª
à¸Ļ à¹Ħà¸Ł
ä ½
** *
Ġà¸£à¸°à¸ļà¸ļ à¸Ļ
f or
à¸Ń à¸ªà¸¡
à¸Ńà¸ĩ à¹ģà¸ļà¸ļ
Ġà¸Ńà¸Ńà¸ģà¸ Īà¸°
Ġsm art
Ġà¹Ĥà¸«à¸Ļ à¸ģ
à¸ļà¸ªà¸²à¸£ à¸łà¸²à¸ŀ
Ġà¸ŀà¸¥ à¸¨
Ġ10 9
à¸Ńà¸ĩ à¸ģà¸£
ic an
ç Ķ
Ġà¸ģà¸ Ł
à¸Ń à¸Ĺà¸³
Ġà¹Ģà¸£ à¸ĭ
Ġà¹Ĥà¸£ à¸¥
Ġà¸£à¸Ńà¸ĩ à¸Ļà¸²à¸¢à¸ģà¸£
à¸Ļà¸ªà¸° à¹Ģà¸Ĺ
ason ic
à¸ģà¸¥ à¸²à¸¡
S E
iv ate
à¸¡à¸ŀà¸£à¸° à¸Ĭà¸Ļà¸¡à¸ŀà¸£à¸£à¸©à¸²
ĠO PP
Ġà¸ģà¸£à¸¡ à¸ªà¸£à¸£à¸ŀ
à¸²à¸ģà¸ Ħ
iz er
à¸Ļ à¸ĸ
à¸ķ à¸ģà¸ģ
ĠP ump
Ġà¸¥ à¸§
ing er
Ġre view
Ġà¸¥ à¸Ńà¸ļ
Ġà¸Ľ à¸ĵ
à¹Ģà¸ļ à¸ķ
Ġà¸Ħà¸²à¸Ķ à¹Ģà¸Ķà¸²
t a
Ġà¹Ģà¸¥ à¸ķ
Ġcont ent
Ġp ower
Ġm et
à¸Ĺà¸¢ à¸²à¸Ħà¸²à¸£
Ġà¸¡à¸²à¸ª à¸Ħ
g round
Ġà¹Ħà¸«à¸¥ à¸ľ
Ġà¹Ģà¸ī à¸Ķà¸ª
Ġm ax
à¸²à¸§ à¸Ħà¸£à¸²à¸§
Ġ) (
ĠP oint
à¸Ńà¸Ļ à¸ģà¸§à¸²à¸ĩ
Ġà¸ķà¸²à¸¡ à¸£à¸°à¹Ģà¸ļ
ĠExc el
ĠT om
à¸ķ à¹Ģà¸§
ĠS ign
Ġà¸ĩà¸²à¸Ļ à¸īà¸¥à¸Ńà¸ĩ
Ġà¸¨ à¸ģ
Ġà¸£à¸° à¸Ħà¸²à¸¢à¹Ģà¸Ħ
Ġà¸Ĭà¸²à¸§ à¹Ģà¸¡
op l
à¸§à¸Ļ à¸¥
ĠC ustom
ĠE R
Ġà¸ķ à¸¡
à¸³ à¸ªà¸¡
Ġà¹Ĥà¸® à¹Ģà¸ķ
Ġà¸¥ à¸ª
its ub
P ER
Ġà¹Ģà¸ŀà¸²à¸° à¸Ľà¸¥
à¸Ļ à¸²à¸¨
à¸Ĺ à¸£à¸¡à¸²à¸Ļ
à¸ŀà¸£à¸° à¸£à¸²à¸Ĭ
Ġà¸· à¹Ī
Ġth or
à¹Ħ à¸£à¸ģ
Ġà¸Ħà¸§à¸²à¸¡ à¹Ģà¸¡
Ġà¸Ļ à¹Ģà¸£à¸¨à¸§à¸£
ĠM ain
Ġà¸Ńà¸° à¹Ħà¸£à¸ģ
à¸Ń à¸²à¸ģà¸²à¸£
ig inal
Ġdis gidrotichesk
à¸Ļà¸«à¸Ļ à¸²à¸§
à¸Ħà¸£à¸Ńà¸ļ à¸Ħà¸£à¸Ńà¸ĩ
à¸Ńà¸Ļ à¸«
à¸Ńà¸Ļ à¸Ŀ
ĠCom ment
Ġs port
ĠC reat
Ġ254 5
à¹Ģà¸£ à¸ģ
ĠÂ ĵ
à¸ģà¸¨ à¸£
ĠCle an
Ġà¸Ħ à¸²à¸¡
Ġà¸Ľà¸£à¸°à¸¡à¸§à¸¥ à¸ģà¸İà¸«à¸¡à¸²à¸¢
ĠW alk
Ġà¹Ģà¸ªà¸Ļà¸Ń à¸Ĥà¸²à¸¢
à¸łà¸²à¸Ħ à¸ł
re y
à¸²à¸ĩ à¸²à¸¡
à¸§à¸ĩ à¸Ĺ
Ġt v
Ġg ener
Ġà¸Ńà¸Ńà¸¡ à¸Ĺà¸£
i ation
à¸Ļ à¸²à¸£
à¸²à¸§ à¸Ĥ
ĠM ask
ie ce
ĠÐ ¾
ĠDou ble
Ġà¹Ģà¸Ń à¸°
Ġà¸¢ à¸§
ĠPrin cess
Ġà¸Ħà¸§à¸²à¸¡ à¸łà¸²à¸Ħà¸ł
ĠF ort
Ġà¸Ķà¸³ à¸£
Ġà¹Ģà¸Ńà¸ª à¹Ģà¸Ń
à¸¥ à¸²à¸ģà¸²à¸£
Ġà¸Ĺà¸³ à¸ª
b an
à¸Ļ à¸ģà¸³à¸¥
Ġà¸Ľ à¸ģà¸£à¸ĵ
Ġà¹ģà¸ķ à¸Ļ
ĠCl ick
Ġà¸² à¸§
à¸²à¸«à¸¥ à¸§à¸ĩ
Ġà¸§ à¸ģ
ðŁı »
EC T
Ð ¼
Ġà¸ģà¸£à¸£à¸¡ à¸Ĳà¸²à¸Ļ
à¹Ģà¸Ĺà¸¨ à¸ļà¸²à¸¥
à¸Ļ à¹Ģà¸Ł
ia omi
Ġà¹Ģ à¹Ģà¸ļà¸ļ
Ġà¸ģà¸²à¸ĩà¹Ģà¸ģà¸ĩà¸Ĥ à¸²à¸ª
à¸ĵ à¸«à¸į
à¸ĩà¸ĩà¸²à¸Ļ à¹ģà¸ªà¸ĩà¸Ńà¸²à¸Ĺ
ĠAd ap
ple x
ĠPower ed
er ing
ĠE ver
ĠPol y
U C
Ġà¸Ħà¸Ļ à¹ģà¸ģ
à¸Ķ à¹ģà¸Ĥ
ĠW H
Ġà¹Ĥ à¸Ńà¸£à¸ª
à¸Ń à¹Ģà¸Ńà¸²
à¸ĩà¹Ħà¸Ľ à¸ģà¸§
Ġà¸£à¸²à¸ģà¸ Ĳà¸²à¸Ļ
Ġà¸§ à¸²à¸Ĺ
ver ter
Ġà¸Ħà¸Ļ à¸Īà¸Ļ
Ġà¸Ĺà¸³ à¸Ĺ
à¸Ĭà¸Ļ à¸¡
à¸¥à¸¥ à¸Ńà¸®
per ia
ĠS a
Ġpro duct
Ġx v
Ġà¸Ĺà¸Ļ à¹Ħà¸¡
Ġà¹ģà¸ªà¸ĩ à¹Ħà¸Ł
Ġà¸ģà¸£à¸¡ à¸¨
ç ī
Ġà¹Ģà¸¡ à¸ģà¸°
Ġà¸Ħà¸§à¸²à¸¡ à¸«à¸£
Ġà¸ ¬
à¸ģ à¹Ĥà¸Ľ
Ù ĩ
Ġ el
itsub ishi
à¹Ģà¸Ĺà¸£ à¸¥à¹Ģà¸¥à¸Ńà¸£
ĠA udio
à¹Ģà¸ŀ à¸£à¸ª
os p
ent ial
ĠB ear
Ġà¸ĸà¸Ńà¸Ļ à¸ķ
à¹Ģà¸¥ à¸Ńà¸£
Ġà¸Į à¸²à¸Ļ
Ġà¹Ģà¸Ń à¹Ħà¸Ńà¹Ģà¸Ńà¸ª
Ġà¸Ľà¸£à¸° à¹Ģà¸§à¸¨
à¸Ļà¸Ķ à¸²à¸£
à¸Ńà¸¡ à¹Ĩ
Ġà¸Ľà¸£à¸°à¸Īà¸³ à¸Ī
Ġà¸£à¸ĸ à¹Ģà¸Ĺà¸£à¸¥à¹Ģà¸¥à¸Ńà¸£
à¸ļ à¸²à¸ķ
à¸²à¸Ŀ à¸Ļ
à¸Ķ à¸ģà¸§
ĠT M
à¸Ńà¸Ļ à¹Ģà¸¢à¸²à¸§
Ġà¹ĥà¸Ī à¹Ģà¸¢
à¸Ńà¸ĩ à¸Ĺà¸°à¹Ģà¸¥
________ ________
à¸Ńà¸ĩ à¹ģà¸Ħ
Ġ5 000
Ġà¸ŀà¸¤ à¸ģà¸©
Ġà¸£à¸°à¸Ķ à¸¡à¸Ĺ
Ġà¹ĳ à¹Ļ
à¸© à¸Ī
Ġh ave
à¸Ĭ à¸ģà¸£
Ġà¸Ħà¸Ļ à¸Ī
IT Y
ad o
Ġà¹ģà¸¡ à¸£
i w
Ġà¸Ħ à¸Ńà¸ª
Ġà¸Ĺà¸«à¸²à¸£ à¸ļà¸ģ
à¸ģà¸²à¸£ à¸Ľà¸£à¸°à¸Ĭ
ĠTr ack
à¸²à¸§ à¸¡
à¸¥ à¹ģà¸§à¸£
ĠA ug
Ġà¸ĸà¸Ļà¸Ļ à¹ĥà¸«à¸į
Ġà¸Ľà¸¥ à¸Ńà¸ļ
ĠTable t
ĠAc adem
à¹ģà¸Ŀ à¸Ķ
à¸§à¸Ļ à¸³
à¸§à¸Ļ à¸£à¸§à¸¡
Ġà¸Ńà¸³ à¸¥à¸²
Ġà¸Ī à¸Ńà¸ģ
Ġà¸¥à¸³ à¹Ģà¸¥
Ġà¸ªà¸²à¸¢ à¸Ł
Ġv esn
ĠSou th
à¸¢ à¹Ģà¸ª
ĠMal yshev
Ġà¹Ħà¸ŀ à¸¨à¸²à¸¥
v a
Ġà¸ªà¸¡ à¸Ĺà¸ļ
ĠM ix
Ġà¹Ĥà¸£à¸ĩ à¸¥à¸°à¸Ħà¸£
Ġi b
à¹Ģà¸Ľ à¹Ģà¸Ľà¸Ńà¸£
Ġà¸Ħà¸ĵà¸° à¸ªà¸ĩà¸Ĩ
ĠF I
ail y
Ġà¸Ĥà¸Ńà¸Ħà¸§à¸²à¸¡ à¸Ĭ
ĠC ount
Ġà¸ĵ à¸ĳ
Ġà¸¨à¸²à¸ª à¸Ķà¸²
à¸Ńà¸ĩ à¹ģà¸ªà¸ĩ
Ġà¸ģà¸²à¸£à¸¥à¸Ķ à¸Ļ
à¸ģ à¸ĩ
Ġà¸Ħà¸Ļ à¸ªà¸§à¸¢
ay s
Ġ555 55
Ġà¸Ľà¸¥ à¸²à¸¢à¸Ļ
Ġà¸¥à¸ĩ à¸Ĭ
ĠF ast
à¸²à¸¢ à¸ģ
Ġà¸Ĭà¸³à¸£à¸° à¸«à¸Ļ
à¹ģà¸Ĺà¸Ļ à¸£à¸²à¸©à¸İà¸£
Ġà¸¨à¸²à¸¥ à¸²à¸ģà¸¥
Ġà¸Ł à¸Ĺ
ĠB E
à¸Ĺà¸£à¸ĩ à¸Ħ
ïľ İ
Ġà¸ļ à¸²à¸«à¸¥
à¸¤ à¸Ķ
à¸ģà¸¥ à¸Ńà¸ļ
ĠF irst
Ġp df
ow der
Ġà¸ģà¸²à¸£ à¹Ģà¸ª
ĠP ublic
Ġà¹ģà¸ŀ à¸¥à¸Ļ
OC K
ĠCont ent
ĠW all
Ġà¸ľà¸¥ à¸ģà¸²à¸£à¸¨
à¸Ļà¸Ĺà¸³ à¸ģà¸²à¸£
ĠF M
Ġà¸Īà¸³ à¹ģà¸Ļà¸ģ
ĠA ud
Ġà¸Ĺà¸Ķà¸¥à¸Ńà¸ĩ à¹ĥà¸Ĭ
à¸ģà¸£à¸£à¸¡ à¸²à¸ĺ
Ġ200 3
Ġres p
à¸¡ à¸¥à¸Ńà¸ĩ
ĠS le
à¸ĵ à¸Ľ
Ġ ïľĬ
Ġà¸ĭ à¸Ńà¸¡à¸ļ
Ġà¸ģà¸£à¸°à¸Ĺà¸£à¸§à¸ĩà¹Ģà¸ģà¸©à¸ķà¸£ à¹ģà¸¥à¸°à¸ªà¸«à¸ģà¸£à¸ĵ
Ġà¹Ĵà¹ķà¹ķ à¹Ļ
à¸²à¸ĩà¹ĥà¸Ķ à¸Ńà¸¢
à¸¡ à¸Īà¸³à¸Ļà¸§à¸Ļ
Ġà¸£à¸Ńà¸ļ à¸Ķ
Ġà¸ļà¸° à¸«à¸¡
ĠD ev
à¸Ħ à¸Ńà¸¥
ĠEd ucation
k in
m on
Ġà¸ľà¸¥ à¹Ħà¸Ķ
à¸ªà¸ĩ à¹Ģà¸Ħà¸£à¸²à¸°à¸«
Ġà¸Ĺà¸²à¸ĩ à¸Ļ
Ġs ystem
à¸¢ à¸ģà¸Ĭ
Ø§Ù Ħ
à¸Ļ à¸¥à¸°
à¸Ńà¸ĩà¸Ļ à¸Ńà¸ģ
à¸Ķ à¸¡à¸²à¸ģ
Ġà¸Ń à¸Ńà¸ĩ
ĠC y
Ġs al
Ġà¸ģà¸£à¸°à¸ĸ à¸²à¸ĩ
S I
Ġà¸ķà¸²à¸¡ à¸Ń
à¸Ļà¸Ļ à¸²à¸Ļ
Ġ15 00
Ġà¸łà¸²à¸§à¸° à¹ģà¸Ĺà¸£à¸ģà¸ĭ
à¸ķà¸£ à¸ģà¸£à¸£à¸¡
ed es
Ġà¹Ĥà¸Ķà¸¢ à¸ĩ
Ġà¹Ģà¸ĸ à¸£
à¸ļ à¸ŀà¸¥
Ġà¸ķ à¸ĸ
à¸Ńà¸ĩà¸Ĺà¸³ à¸Ļ
ĠAut om
ĠE con
Ġà¹Ģà¸§ à¸£
ĠY outube
br and
à¹Ħà¸® à¹Ģà¸Ķ
Ġà¹Ħà¸ĭ à¹Ģà¸ļà¸Ńà¸£
Ġà¸¡à¸²à¸¥ à¸²
à¹Ĥà¸ļ à¹Ħà¸®à¹Ģà¸Ķ
Ġà¸ªà¸° à¸ļ
Ġà¸¥ à¹Ģà¸¥
Ġl ove
Ġ08 5
à¸ģà¸£à¸°à¸Ĺ à¸ĩ
ĠPl an
à¸ģà¸£à¸°à¸Ī à¸ģ
à¸ĩà¸Ĺ à¸°à¹Ģà¸¥
ĠS W
l i
à¸Ķà¹Ģà¸ Ħ
Ġà¹ģà¸ļà¸ļ à¸ªà¸Ńà¸ļà¸ĸà¸²à¸¡
ĠON E
Ġà¸¥ à¸²à¸ĩ
al y
ĠB all
Ġp os
ĠSn ap
Ġà¸Ļ à¸ĺ
ĠK im
ĠEx per
ĠB ed
ĠZ one
Ġ08 7
l in
Ġ25 35
Ġà¹ģà¸Ļà¸§ à¸Ħà¸§à¸²à¸¡à¸Ħ
Ġà¸ª à¸£à¸ĩ
à¸Ńà¸Ļ à¹Ĥà¸ķ
ac he
ĠB N
Ġs am
Ð¾ ÑĢ
à¸¡ à¹ģà¸ŀ
Ñ ħ
Ġc um
ĠA u
Ġ10 4
à¸Ķà¸¥ à¸Ńà¸ģ
ĠJ our
à¸Ńà¸ĩà¸«à¸¡à¸²à¸¢ à¸ģà¸²à¸£à¸Ħ
Ġk m
Ġà¹Ĥà¸Ĭ à¸Ħà¸£
Ġà¸ĩ à¸Ĥ
ĠI R
Ġab out
ĠVar ices
Ġà¹Ħà¸Ł à¸īà¸²à¸¢
Ġà¸¨ à¸ĺ
à¸£à¸° à¸«à¸Ļ
ĠC ool
EL L
à¸Ļà¸Ń à¸Ńà¸ģà¸ģà¸¥
Ġà¸Ĺà¸£à¸ĩ à¸Ħ
à¸Ļà¸Ńà¸Ńà¸ģà¸ģà¸¥ à¸²à¸ĩ
ag a
ag ue
ĠÃ ¶
à¸łà¸²à¸ŀ à¸ļ
à¸Ħ à¸ª
Ġà¸¢ à¸Ķ
à¸²à¸ĭ à¸²
à¸ļà¸£à¸¡ à¸£à¸²à¸Ĭà¸ģ
Ġà¸ªà¸¢à¸²à¸¡ à¸ļà¸£à¸¡à¸£à¸²à¸Ĭà¸ģ
ĠOPP O
ĠNov ember
Ġ08 0
ĠIs land
Ġh ammer
f in
å ¥
à¸ª à¹Ģà¸ļ
Ġà¸ģà¸§ à¸Ķà¸§
ĠO K
iv ity
Ġà¸£à¸²à¸Ĭ à¸ģ
ĠT s
Ġà¹Ģà¸ Ĵ
Ġà¹Ħà¸Ļ à¸¥
ĠP at
à¸²à¸¢ à¸ļà¸£
Ġ er
ĠP E
Ġin tern
à¸Ńà¸Ļ à¸Īà¸³
Ġà¹ģà¸Ļà¸§ à¸ķ
à¸Ķ à¸ģà¸¥
Ġà¹ĳ à¹ĺ
Â ¹
Ġà¸ªà¸¡ à¸«à¸§
ut a
ĠâĹ ı
à¸ŀ à¸ļà¸ģ
Ġà¸Ńà¸²à¸«à¸²à¸£ à¸ģà¸²à¸£à¸ģ
Ġà¸£à¸Ńà¸¢ à¸Ĥ
Ġ ass
Ġà¹Ģ à¹Ģà¸Ļ
à¸²à¸ĩ à¹ĥà¸«à¸į
Ġà¸£ à¸³à¸Ħà¸²à¸į
à¸ķà¸ĭ à¸Ńà¸¥
v al
Ġà¸ķ à¸ķ
b rid
à¸ľ à¸²
ĠS O
g in
à¸Ķ à¸¨
Ġà¹ģà¸¡à¸Ļà¸¯ à¸¢
ĠL et
Ġ10 7
à¸ļà¸£à¸£ à¸¢à¸²à¸¢
ĠL o
ĠM id
Ġà¹ģà¸Ńà¸Ļà¸Ķà¸£ à¸Ńà¸¢à¸Ķ
Ġà¸ĺ à¸²à¸£à¸²
Ġà¸Ħà¸³ à¸ģà¸¥
à¸§à¸Ļ à¸Ńà¸Ļ
Ġà¸¥à¸Ńà¸¢ à¸ģà¸£à¸°à¸Ĺà¸ĩ
à¸ĩ à¹Ĥà¸¥à¸ģ
ik a
Ġà¹Ħà¸ŀ à¹Ģà¸£à¸²à¸°
à¸£à¸²à¸¨ à¸²à¸ªà¸ķà¸£
ann er
à¸Ńà¸ģ à¹Ħà¸¡
99 9
Ġà¸Ķà¸§à¸ĩ à¸Ķà¸²à¸§
ĠAn im
à¸³ à¸£à¸ĩ
è µ
à¸² à¹Ģà¸ģ
P C
à¸²à¸¢ à¸ģà¸£
Ġà¸² à¸Ĺ
à¹Ħà¸ķà¸£ à¸Ľ
ĠðŁ Ķ
Ġà¸¢ à¸¥
à¸ĩà¸Ī à¸Ńà¸ģ
Ġà¹Ĥ à¸¨
à¸§à¸¢ à¸Ĭ
à¸Ļà¸ģà¸£ à¸Ķ
Ġp yat
Ġà¸ªà¸§ à¸²à¸Ĺ
à¸ģ à¹Ħà¸Ĺà¸¢
à¸ª à¸Ĺ
Ġà¸ķà¸Ńà¸Ļ à¹Ģà¸«à¸Ļ
Ġà¹Ģà¸Ĺ à¸Ńà¸¡
Ġà¸Ĺ à¸£à¸£
Ġà¹Ģà¸¡ à¸£
Ġ Î
à¸³à¸ķà¸²à¸¥ à¸Ĺà¸£à¸²à¸¢
à¸Ľ à¸«à¸¥
ĠSol ution
ic o
ĠE uro
Ġ es
Ġg oo
ash i
Ġà¸µ à¹Ī
ĠHD MI
Ġà¹Ĥà¸ª à¸ł
à¸Ńà¸ķ à¸²
Ġà¸Ľà¸¥ à¸²à¸Ķ
à¹ģà¸ĸ à¸¥à¸ĩ
Ġà¸ģà¸²à¸£ à¸Ńà¸Ńà¸ģ
Ġà¸® à¸Ńà¸ģ
Ġà¸ģà¸²à¸£à¸Ķà¸³à¸£à¸ĩ à¸Ĭ
ĠF our
ĠG arden
à¹Ĥà¸ķà¸£ à¹Ģà¸Īà¸Ļ
Ġà¸Ħà¸§à¸²à¸¡ à¹Ģà¸Ĺ
Ġà¹Ģà¸Ń à¸ģà¸¡
à¸ĸ à¸ĩ
T O
à¸£à¸²à¸Ĭ à¸į
Ø ª
ĠW at
Ġà¸£à¸ĸà¹Ħà¸Ł à¹ĥà¸ķ
Ġà¸ªà¸Ļà¸²à¸¡à¸ģ à¸Ńà¸¥
à¸ļ à¹ģà¸Ħ
Ġà¹Ĥà¸¢ à¸ĺà¸²
à¸Ħà¸Ħà¸¥ à¸łà¸²à¸¢à¸Ļà¸Ńà¸ģ
r en
Ġ) "
ĠSuz uki
AT E
ĠX peria
à¸Ļà¸Ń à¸²à¸«à¸²à¸£
r act
à¸¢ à¸Ķà¸ª
Ġà¹Ģà¸Ľà¸² à¹Ĥà¸¥
Ġà¸Ħà¸ĩ à¹Ģà¸«à¸¥
ĠSt ick
à¹Ģà¸ģà¸ķ à¸ļà¸Ńà¸¥
h um
Ġ8 50
Ġà¸¢ à¸Ļà¸£
à¹Ĥà¸ļà¹Ħà¸®à¹Ģà¸Ķ à¸£à¸ķ
ĠB rown
m s
esta ur
Ġà¸¢ à¸ģà¸Ĥ
0 2
Ġà¹Ģà¸® à¸¥
à¸ģà¸Ļ à¸²à¸¢à¸ģà¸£
à¸ķà¸£ à¸Ĭà¸²à¸¢
Ġà¸ļà¸²à¸ª à¹Ģà¸ģà¸ķà¸ļà¸Ńà¸¥
Ġà¸ķà¸²à¸¡à¸Ħà¸³ à¸ª
ir c
ĠPro tect
Ġjp g
à¸²à¸¢ à¹Ĥà¸Ńà¸Ļ
Ġà¸Ħà¸Ļ à¹Ģà¸¡
Ġà¸Ĺà¸²à¸ĩ à¸ľ
Ġre c
Ġà¸ķ à¸²à¸Ĭ
à¸Ļà¸Ĥ à¸Ńà¸ĩ
T hai
Ġà¸ķà¸£à¸ĩ à¹Ģà¸§à¸¥à¸²
ĠN izh
à¸¡à¹Ħà¸Ľ à¸«à¸¡à¸Ķ
à¸ªà¸Ļ à¸²à¸¡
Ġà¸ļà¸£à¸£ à¹Ģà¸¥à¸ĩ
ĠM E
Ġà¹Ĥà¸« à¸£à¸²à¸¨à¸²à¸ªà¸ķà¸£
à¸Ńà¸ĩ à¹ĥà¸Ī
à¸ĩà¸¢à¸²à¸ĩ à¸Ńà¸Ļà¸²à¸¡
Ġà¸ĩà¸²à¸Ļ à¸Ŀ
ĠCh ina
Ġf ood
Ġà¸Ĭà¸ĩ à¸ģà¸²à¹ģà¸Ł
ĠÐ º
à¸£à¸²à¸¢ à¸¥à¸°à¹Ģà¸Ń
à¸ģ à¹ģà¸ķ
à¸§à¸Ļ à¹ģà¸ķ
ĠJ e
Ġà¸ģà¸° à¸«à¸¥
à¸¢à¸¡ à¹Ģà¸¢
ay er
Ġà¹Ĥà¸ī à¸Ļà¸Ķ
Ġà¸ª à¹ģà¸Ľ
ĠFor um
Ġs ur
Ġà¸ŀà¸¤ à¸ģà¸©à¸²
ĠL en
Ġà¸¥ à¸ķ
ĠÂ Ķ
I Z
Ġà¹Ĥà¸Ń à¹Ģà¸ŀ
Ġà¹Ģà¸ģà¸²à¸° à¸ķ
Ġoff ice
Ġpro tect
ĠSt ory
à¸ģà¸Ĺ à¸²à¸ĩ
Ġà¸Ľ à¸Ĭ
à¸²à¹ģà¸Ľà¸¥à¸ģ à¹ĥà¸Ī
ĠA tt
Ġà¸¡à¸° à¸¥à¸°
Ġà¸ķà¸²à¸¡ à¹ģà¸ķ
ĠC oun
ĠM ount
ĠD ark
Ġà¸Ħà¸Ń à¹Ģà¸¥à¸ªà¹Ģà¸ķà¸Ńà¸£à¸Ńà¸¥
ĠCh rome
Ġà¸Ħà¸§à¸²à¸¡ à¸Ħà¸¥
um n
à¹Ĥà¸Ļ à¹Ģà¸ªà¸²à¸£
Ġà¸ĭ à¸²à¸¡
à¸¡à¸¢ à¸³
ĠA f
Ġà¸Ĭà¸²à¸§ à¸ŀ
Ġà¸Ľà¸¥à¸Ķ à¸Ľà¸¥
ĠTok yo
Ġst ore
s et
Ġà¸ŀà¸²à¸« à¸°
ĠC over
ec k
Ġà¹Ĥà¸£ à¹Ģà¸ļ
Ġà¸ĺ à¸²
ch ange
Ġ26 0
Ġà¹Ħà¸Ķ à¹Ĥà¸Ļà¹Ģà¸ªà¸²à¸£
ĠD ream
ĠF ut
à¸Ķ à¹Ħà¸Ķ
Ġà¸ģà¸£à¸° à¸ĭ
Ġà¸Ħà¸ĩ à¸Ĺà¸Ļ
ĠSec urity
Ġà¸ģà¸£à¸° à¸ªà¸Ńà¸ļ
on n
à¸²à¸¢ à¸ª
à¸Ńà¸ĸ à¸Ńà¸Ļ
ĠDr agon
ĠC offee
ĠEnter tain
pe ed
à¸¢ à¸«à¸¥
ot ton
Ġà¹Ģà¸ª à¸Ļà¸²
Ġi f
Ġà¸£à¸ĸ à¹ģà¸Ĺ
à¸ģà¸¡ à¸§à¸¢
Ġà¸ķ à¸ģà¸£à¸Ńà¸ļ
c i
ĠEn d
à¸© à¸°
Ġà¸£à¸§à¸¡ à¸ģà¸¥
à¸¡à¸ª à¸§à¸¢
ama ha
ĠE st
à¸Ķ à¸Ĺà¸²à¸ĩ
Ġà¹Ģà¸£ à¸ķà¸ķ
à¹Ģà¸Ń à¸²à¹ĥà¸Ī
à¹Ħ à¸Ļ
Ġà¹Ģà¸ģà¸ª à¸£
à¹Ī à¸¸
Ġà¸£à¸°à¸¢à¸° à¹ģà¸£à¸ģ
à¸³ à¹Ģà¸Ľà¸¥
Ġà¸Ļà¸¡ à¸ªà¸Ķ
Ġà¹Ĥ à¸ģà¸¨
à¸ĵ à¸«à¸²
à¸ŀà¸¢ à¸²à¸ĺ
ĠMod ern
ĠM el
Ġà¸ªà¸ĸà¸²à¸Ļ à¸łà¸²à¸ŀ
Ġ- ----
Ġà¹ģà¸Ł à¸Ļà¸ķ
Ġà¸ŀà¸§à¸ĩ à¸ģ
à¸¡à¸Ľ à¸Ĺà¸²à¸Ļ
Ġà¸Ħà¸Ńà¸Ļà¹Ĥà¸Ĺà¸£ à¸¥
Ġà¸Ńà¸²à¸«à¸²à¸£ à¹Ģà¸¢
à¸ĩà¸ľà¸¥ à¹ĥà¸«
a id
Ġà¹Ģà¸ª à¸²à¸°
à¸§à¸¢à¸ĩà¸²à¸Ļ à¸£à¸²à¸Ĭà¸ģà¸²à¸£
Ġà¸ĸà¸§à¸²à¸¢à¸ŀà¸£à¸° à¸ŀà¸£
ĠT B
ĠShop ping
Ġa ut
b ack
ĠL ow
ĠT S
Ġà¹Ĵ à¹ĵ
y th
Ù Ĭ
à¹Ģà¸£ à¸ķà¸ª
Ġà¸ģà¸£ à¸²à¸¢
Ġà¹Ĥà¸Ľà¸£ à¹Ħà¸Łà¸¥
I X
à¸Ħà¸§à¸²à¸¡ à¸Ķ
Ġà¸Ħà¸§à¸²à¸¡à¸ª à¸²à¸¡
Ġà¸ģ à¸Ļà¸ģ
ĠN on
Ġà¹Ģà¸Ļ à¸Ľ
à¹Ĥà¸Ļ à¹Ĥà¸¥à¸¢
ĠCateg ory
à¸©à¸¢ à¸¨à¸²à¸ªà¸ķà¸£
w ood
à¸¢à¸§ à¹ģà¸«
Ġà¸¡ à¸²à¸¨
ĠCE O
Ġ< /
Ġac c
ĠGl ass
Ġà¸§ à¸§à¸§
Ġ254 4
ang er
Ġà¹Ģà¸Ī à¸ķ
ĠTOY OTA
ĠCon c
ĠF amily
Ġd ata
à¸ģà¸²à¸£ à¸¡à¸«à¸²à¸Ĭà¸Ļ
Ġà¸ķà¸Ńà¸ļ à¹Ĥà¸ķ
à¸ģà¸Ķ à¸Ļà¸ķà¸£
ĠN av
à¸Ļà¸§ à¸²à¸ĩ
Ġà¸Ĥà¸Ńà¸ĩ à¸Ľà¸¥à¸Ńà¸¡
aj or
Ġà¸ģà¸²à¸£à¸£à¸° à¸Ħà¸²à¸¢à¹Ģà¸Ħ
à¸Ļ à¹Ģà¸ľà¸²
à¸¡à¸ķ à¸³
à¸Ĺà¸ĺ à¸Ńà¸ĩà¸Ħ
Ġà¹Ģà¸ģ à¸Ļ
à¸Ļ à¸¥à¸ĩ
ĠK om
Ġà¹ģà¸§ à¸Ļ
Ġ10 6
ound ation
Ġà¸Ľà¸§à¸Ķ à¸«à¸¥
à¹Ħ à¸ĸ
ĠAS D
à¸ĩ à¹Ħà¸Ĥ
ĠMaz da
ĠP ermalink
Ġy ears
Ġà¸¡ à¸Ļà¸ķà¸£
Ġà¸ķà¸£à¸§à¸Ī à¸Ķ
Ġà¸ ¤à¸©
Ġà¹ĥà¸ļ à¸ŀ
à¸ļ à¸²à¸ª
ĠSe a
à¸²à¸Ľ à¸£
worm s
à¸²à¸Ħ à¸£à¸Ńà¸ļ
Ġà¹Ħà¸® à¸ļà¸£
Ġs ch
ĠN ine
Ġà¹Ģà¸§à¸Ĺ à¸Ļà¸²
Ġà¹ģà¸Łà¸Ļ à¸ĭ
Ġà¸«à¸§ à¸²à¸¢
Ġà¹ĵ à¹Ĳ
ĠMag ic
Ġà¸Ĭ à¸¢
å Ī
Ġà¸Ĭà¸° à¸ķà¸²
ĠM att
ĠD i
à¸Ńà¸¢ à¹Ħà¸Ľ
à¸¢ à¸ģà¸¢
) ,
Ġ25 00
Ġà¸£ à¸²à¸ķà¸£
Ġà¸ģà¸İ à¸ģà¸£à¸°à¸Ĺà¸£à¸§à¸ĩ
à¸²à¸Ń à¸ļ
ĠU r
à¸ľà¸¥ à¸ļ
ĠâĢ¦ âĢĿ
Ġà¸¥à¸²à¸¢ à¹Ģà¸ª
ell ow
à¸Ńà¸¡à¸ª à¸łà¸²à¸ŀ
d y
Ġà¸ª à¸²à¸Ľ
Ġt s
pt ember
Ġà¸Ķà¸²à¸Ķ à¸Ł
Ġm ed
Ġf ont
ip p
ry pt
à¸Ļ à¸ŀà¸¥
à¸³ à¹ģà¸«à¸Ļ
à¸¢à¸¡ à¸ģ
ĠSt eel
or o
Ġà¸ļà¸Ļ à¸ª
Ġà¸Ħà¸ĵà¸° à¸ģà¸£à¸£à¸¡à¸²à¸ĺ
Ġà¸© à¸Ĳ
à¸ªà¸ķ à¸Ī
ĠM ah
Ġà¸¥ à¸Ļ
Ġre d
ĠL AN
Ġ254 3
à¸ĩ à¸£à¸ĸ
et y
à¸Ļ à¹Ĥ
à¹Į .
à¹Ħ à¸Ħà¸¥
Ġà¸ģà¸ ŀ
à¸ļ à¸Ħà¸§à¸²à¸¡
ĠG el
iam ond
à¸£ à¸Ĭ
à¸²à¸¢ à¹Ģà¸Ĺ
Ġà¸¨ à¸¨
==== ====
ĠR om
à¸ļà¸Ī à¸Ńà¸ĩ
ĠChr ist
à¸Ľ à¸Ń
à¸Ńà¸¡ à¹ĥà¸ª
EC H
Ġà¸ķ à¹Ģà¸¥
us ic
Ġ over
ĠC ur
ir on
Ġà¸ŀà¸£à¸° à¸ľ
Ġà¸Ń à¸Ńà¸Ķ
à¸²à¸Ļ à¸«
AS S
à¸ĭ à¸Ńà¸Łà¸Ĺ
Ġà¹Ģà¸ķ à¸²à¸Ńà¸ļ
Ġ... ........
Ġà¸ĩà¸ļ à¸ģà¸²à¸£à¹Ģà¸ĩ
à¸Ļ à¸Īà¸²
à¸ļ à¸łà¸²à¸ŀ
à¸Ń à¸Ħà¸¥
Ġà¹Ģà¸Ĥ à¸²à¸Ĺ
Ġà¸¢à¸Ńà¸¡ à¹ģà¸ŀ
Ġà¹Ģà¸® à¸²à¸ª
à¸Ĺà¸£à¸£ à¸¨à¸Ļ
Ġà¸Ħà¸§à¸²à¸¡ à¹ĥà¸ª
v d
Ġà¹Ĥà¸ļà¸£à¸²à¸ĵ à¸ªà¸ĸà¸²à¸Ļ
ang u
IC E
Ġà¹Ħà¸ĭ à¸Ļ
Ġà¹ģà¸Ļà¸° à¹ģà¸Ļà¸§
Ġà¸ĩ à¸Ĺ
ĠM ess
Ġà¸ģà¸ Ĭ
à¸ŀ à¹Ĥà¸«à¸¥à¸Ķ
n al
Ġà¸ªà¸§à¸¢ à¸«à¸£
Ġc ond
Ġà¸Ńà¸²à¸Ħà¸²à¸£ à¸ªà¸³à¸Ļ
Ġà¹Ģà¸ĭà¸Ļ à¹Ģà¸ĭà¸Ńà¸£
Ġop tion
Ġà¸ģà¸²à¸įà¸Īà¸Ļ à¸²à¸ł
Ġà¸Ńà¸Ńà¸ģà¸ «
Ġà¹ģà¸£à¸ģ à¹Ģà¸ģ
Ġà¸¥à¸° à¹Ģà¸¥à¸ĩ
à¸Ńà¸Ħ à¸§à¸£
ĠK ore
à¸ĩà¸ŀà¸¥ à¸²à¸ªà¸ķ
ĠHe art
Ġ13 5
à¸Ī à¸Īà¸°
Ġà¹Ģà¸ĭ à¸¥à¸Ł
ĠN atural
Ġà¹Ģà¸¥ à¸Ħ
Ġà¸§à¸Ń à¹Ģà¸ķà¸Ńà¸£
Ġm obile
à¸ĩ à¸Ħà¸£à¸²à¸§
à¹Ģà¸§ à¸¨à¸Ļ
Ġà¸Ĥà¸Ń à¹ģà¸ª
ĠSe p
ĠT alk
à¸¡ à¸²à¸Ĺ
Ġà¹Ģà¸ŀ à¸£à¸ª
ĠG enting
ĠH erb
Ġà¸ĩà¸²à¸Ļ à¹ģà¸ªà¸Ķà¸ĩ
ĠY ear
à¸²à¸¢ à¹ģà¸ļà¸ļ
Ġà¸Ĺà¸²à¸ĩ à¸Ńà¸²à¸ģà¸²à¸¨
à¹Ĥà¸ī à¸¡
ĠS and
Ġà¸ģà¸£à¸¡ à¸ĺà¸£à¸£à¸¡
Ð ¿
Ġà¸Ńà¸²à¸Ħà¸²à¸£ à¹Ģà¸£
Ġ28 0
op le
Ġà¹ģà¸« à¸¢
à¸ģà¹Ģà¸ª à¸ģ
äº º
Ġà¸«à¸¡ à¸²à¸Ľ
ir i
Ġà¸«à¸¢ à¸²à¸ĩ
à¸ģ à¹ģà¸£
Ġà¸ª à¸²à¸ļ
Ġf e
Ġh ere
à¸²à¸ľ à¸¡
ĠOT OP
Ġà¸Ķà¸²à¸§ à¹Ģà¸Ħà¸£à¸²à¸°à¸«
Ġà¸ļà¸²à¸ĩ à¸Ľà¸°
Ġà¸¥ à¹Ģà¸ĩ
Ġà¸ªà¸³ à¹Ĥà¸£à¸ĩ
Ġà¸ģà¸¥à¸²à¸ĩ à¹Ģà¸Ķ
ĠO per
à¸Ļà¸Ħà¸§à¸²à¸¡ à¸ĸ
à¸²à¸ŀ à¸ļ
ĠMem ory
ock et
Ġp H
Ġk n
Ġà¸ĩà¸²à¸Ļ à¸ļà¸£
Ġ end
Ġà¸ģà¸²à¸£ à¸ģà¸¥
ĠR ub
Ġà¸Ħ à¸²à¸§
Ġà¸Ĺ à¸§à¸Ļ
Ġà¸Ĺà¸²à¸Ļ à¸Ĥ
ER S
A F
ush ki
à¸§ à¹Ģà¸Ļ
ĠPh il
ĠB attery
à¹Ģà¸ĭ à¸Ł
à¸Į à¸²à¸Ľà¸Ļà¸ģ
Ġà¸ľà¸¥à¸ģà¸²à¸£ à¸§
à¸£à¸°à¸ļà¸²à¸¢ à¸Ļ
ch ain
P E
à¸Ĭ à¸³à¸Ļà¸²à¸į
ter s
ĠðŁ Į
Ġà¸Ń à¸Ħ
à¸Ļà¸£ à¸³
à¸ģà¸§ à¸²à¸Ķ
Ġà¸«à¸¥à¸²à¸Ļ à¸ªà¸²à¸§
int age
à¸²à¸ĩ à¹Ģà¸Ķ
Ġà¹ĳ à¹Ĺ
Ġà¹Ĥ à¸«à¸¥
à¸Ļà¸ķà¸£ à¸²
urr ency
u ang
ĠS ex
Ġà¸Ľà¸£à¸° à¸«à¸²à¸£
à¸Īà¸Ī à¸²à¸Ļ
à¸Ńà¸Ľ à¹Ģà¸ķà¸Ńà¸£
ĠC AR
ost ov
à¸ªà¸²à¸Ĥ à¸²
Ġw r
ĠNizh ny
Ġà¹Ĥà¸ŀ à¸Ļ
H C
à¸²à¸§ à¹Ħà¸Ĺà¸¢
Ġà¹Ĥà¸Łà¸¥ à¹Ģà¸Ķà¸Ńà¸£
Ġà¹Ĥà¸Ľà¸£à¹Ģà¸Īà¸Ħ à¹Ģà¸ķà¸Ńà¸£
Ġà¸Ľ à¸Ńà¸ģ
Ġà¹Ģà¸¡ à¸ĺ
Ġà¸¢à¸²à¸¡ à¹Ģà¸Ĭ
Ġà¹Ĥà¸® à¸ªà¸ķ
ĠÐ ´
à¸³ à¸Ľà¸¥à¸²
ig er
à¸¢à¸ĩ à¸Ĭ
à¸²à¸« à¸¥à¸ĩ
Ġà¸ģà¸²à¸¢à¸łà¸²à¸ŀ à¸ļà¸³à¸ļ
ĠSing le
à¸ĩ à¸ķà¸²
Ðµ ÑĤ
ĠAS EAN
Ġà¸ģà¸ «
our s
Ġb est
Ġà¸Ħ à¸¤à¸«
Ġà¸ģà¸²à¸£ à¸Ńà¸¢
Ġà¸£à¸²à¸¢ à¸¢
all ery
à¸Ķà¹Ģà¸« à¸Ļ
Ġà¸Ļà¹Ĥ à¸į
Ġà¸«à¸Ļà¸Ńà¸Ļ à¸ŀà¸¢à¸²à¸ĺ
yc le
ĠWeb site
ĠO b
Ġà¸ŀà¸£à¸°à¸ļà¸£à¸¡ à¸¨à¸ŀ
oll ow
à¸¢à¸Ļ à¸Ĭ
ĠL ux
à¸¥à¸° à¸ļ
ĠW est
Ġst yle
ĠX iaomi
à¸¡ à¸Ńà¸ĩ
Ġà¸¢à¸Ńà¸Ķ à¹Ģà¸ĩ
Ġc ode
ru ct
Ġà¸Ńà¸Ńà¸ģà¸ ķ
à¸ŀ à¸Īà¸Ļ
Ġà¸Īà¸£ à¸§à¸Ķ
Ġà¸Ĥà¸Ļà¸¡ à¸Ī
à¹Ħà¸ģ à¹Ĥà¸Ķ
ĠSp ring
Ġle d
à¸Ļà¸Ĺà¸²à¸ĩ à¸Ľ
Ġà¸ŀ à¸ª
Ġà¸¡ à¸ª
Ġb ut
Ġre g
à¸²à¸ĩ à¸¡
U K
ĠDe ad
à¸ģà¸ĺ à¸£à¸£à¸¡
à¸§ à¸ŀ
à¸¢ à¸Ľà¸£à¸°à¸ģ
à¹Ħà¸Ľ à¸ķà¸£à¸ĩ
à¹Ħà¸Ľà¸ķà¸£à¸ĩ à¸¡à¸²
Ġà¸Ļà¸²à¸ı à¸¨
à¸į à¸Ĭà¸Ļ
Ġâľ Ķ
ĠEntertain ment
ĠColle ge
P osted
Ġà¸Ĥ à¸§à¸²à¸¡
Ġà¸®à¸Ńà¸ģ à¹Ħà¸ģà¹Ĥà¸Ķ
Ġà¸Ķà¸³à¸£à¸ĩ à¸Ńà¸¢
à¸Ľ à¸ª
Ġà¸ģà¸²à¸£à¸Ħ à¸²à¸Ķ
ĠC afe
u j
ist a
à¸Ļ à¸Ĭà¸Ļ
Ġà¸¡à¸° à¸¥
D S
à¸²à¸ĩ à¹Ģà¸Ľà¸¥
Ġà¹Ģà¸¡ à¸Ħà¸Ń
B L
ç ½
Ġà¹Ĥ à¸ľ
ĠR C
à¸ģà¸Ĥ à¸²
ĠSc reen
0 1
Ġà¹ģà¸ļà¸ļ à¸īà¸ļ
ĠInn ov
Ĥ ¬
Ġà¹ģà¸Ħà¸£ à¸Ńà¸Ĺ
à¹Ģà¸Ń à¸Ńà¸£
Ġà¸ªà¸²à¸¡ à¸ª
ĠM art
à¸Ķ à¸Īà¸³à¸ģ
Ġw ifi
à¸Ķ à¸ĩà¸Ħ
k y
m aster
Ġà¸Ħà¸¥ à¸²à¸§à¸Ķ
ĠDI Y
Ġà¸Ĥà¸Ļà¸²à¸Ķ à¸¢
Ġà¹ģà¸Łà¸Ļà¸ķ à¸²à¸ĭ
à¸¢à¸ĩ à¸£à¸ļà¸ģà¸§à¸Ļ
Ġweb site
Ġ200 2
à¹Ĩà¹Ĩ à¹Ĩà¹Ĩ
Ġ--- -
f ort
................ ................
p ha
P N
ĠR am
ĠIn formation
à¸Ĥ à¸¥
Ġ) ;
as ed
A X
ĠV er
du ction
à¸Ħ à¸Ńà¸¡à¸ŀ
à¸ĩ à¹ģà¸¢à¸ģ
Ġà¸Ħà¸§à¸²à¸¡ à¸ŀà¸Ńà¹ĥà¸Ī
à¸ģà¸« à¸Ļà¸²
Ġt oy
ĠB oy
ĠE M
à¸²à¸ĩà¸Ħ à¸²à¸§
à¸Ń à¹ģà¸£
à¸Ń à¸²à¸ģà¸£
Ġà¸Ħà¸§à¸²à¸¡à¸ª à¸Ķà¸Ĭ
à¸ļà¸ģà¸²à¸£ à¸¢à¸ģà¸¢
à¸Ī à¸¨à¸ŀ
Ġà¸ĩà¸²à¸Ļ à¸Įà¸²à¸Ľà¸Ļà¸ģ
Ġà¹Ĥ à¸¢à¸¡
Ġ20 20
ĠiP od
ik i
à¹Ĥà¸ĭ à¸¥
à¹Ĥà¸ķà¸£ à¹Ģà¸¥
p an
Ġà¸ªà¹Ģà¸ķ à¸Ļà¹Ģà¸¥à¸ª
T hailand
Ġà¸ª à¹ģà¸ģ
à¸Ńà¸Ļ à¹Ģà¸§à¸¥à¸²
à¸§à¸Ń à¸²à¸Ħà¸²à¸£
à¸Ļ à¹ģà¸£à¸ģ
à¸Ħ à¸ĩ
iss ion
IS S
Ġ ot
ĠA re
ĠJY K
Ġà¸¢ à¸¢
ON G
à¸ĩ à¸ģà¸£à¸°à¸Ļ
S D
ĠW ifi
à¸¡ à¸«à¸Ļ
Ġà¸¥à¸²à¸¢ à¹Ģà¸ĭ
Ġà¸ģà¸²à¸£ à¸Ľà¸¥
à¹Ģà¸Ĺà¸Ħ à¹Ĥà¸Ļà¹Ĥà¸¥à¸¢
Ġ ext
à¸¢ à¹ģà¸ķ
Ġà¸ªà¸³ à¸¥
on der
Ġm il
pl oy
ron ic
ĠR ostov
à¸Ľà¸£à¸° à¸Ľà¸²
à¸Ĭ à¸Ļà¸²
Ġà¹Ħà¸¡à¹Ĥà¸Ħà¸£ à¸ĭà¸Ńà¸Łà¸Ĺ
um ent
ĠTr ade
ĠClass ic
ĠV DO
V ER
Ġà¸² à¸ª
d en
ĠRes erv
ĠOff icial
ĠB ay
ĠMach ine
Ġst r
Ġà¹Ĥà¸Ķ à¸£à¸Ļ
à¸Ļà¸ķ à¸°
Ġtit le
ĠF act
à¸ļ à¸¢à¸ģ
à¸²à¸Ļ à¸¨
Ġà¹Ħà¸Ĥ à¸§
ens ion
Ġà¸ľà¸¥ à¸Ľà¸£à¸°à¸ģà¸Ńà¸ļà¸ģà¸²à¸£
Ġà¸Ńà¸³à¸Ļà¸²à¸Ī à¸«à¸Ļ
à¸«à¸¥ à¸²à¸ģ
ĠE y
Ġp al
Ġm arket
Ġà¹ģà¸Ľ à¸¥à¸Ļ
Ġà¹Ĥ à¸ªà¸ķ
Ġf ile
Ġà¸ķà¸£à¸ĩ à¹Ħà¸Ľà¸ķà¸£à¸ĩà¸¡à¸²
Ġx nxx
iv o
per ty
à¸ł à¸²à¸§à¸Ķ
Ġ15 8
Ġ>> >
Ġà¸£ à¸Ľà¸ł
à¸Ļà¸Ļ à¸²
Ġà¹Ĥà¸Ħ à¸§à¸ķà¸²
à¸ĩà¸ģà¸§ à¸²
ĠPR O
Ġ00 1
à¸Ńà¸¢ à¸Ĥ
ĠG od
Ġà¹Ĥà¸¡ à¸Ļà¸²
Ġà¸Ĺà¸²à¸ĩà¸ģà¸²à¸¢ à¸łà¸²à¸ŀ
à¸Ńà¸Ļ à¹Ģà¸ŀà¸¥
à¸Ńà¸Ńà¸ģ à¹Ħà¸ĭà¸Ķ
g y
Ġà¸® à¸²à¸Ļ
z i
Ġà¸Ľ à¸Ńà¸ĩ
Ġà¸¨ à¸Ńà¸ģ
as c
Ġà¸Ĥà¸¢à¸²à¸¢ à¸ľà¸¥
Ġà¸Ķà¸²à¸£ à¸²à¸¨à¸²à¸ªà¸ķà¸£
à¸ĩ à¹ģà¸ªà¸ĩ
à¸¢à¸ĩ à¹Ģà¸Ķ
Ġà¹ģà¸ķ à¸ĩà¸ģà¸§à¸²
à¸£à¸°à¸ļ à¸²à¸Ķ
Ġà¸Ħà¸Ļ à¸į
à¸Ń à¸«à¸¥
à¸® à¸²
ĠPr ess
ĠI d
à¸Ńà¸ĩ à¹ģà¸ģ
Ġtr ack
å į
Ġ18 00
ĠM ak
ĠE th
ur s
à¸° à¸¥
Ġà¸« à¸°
ro ph
à¸ĩà¸ªà¸¡ à¸²à¸ĺ
Ġà¸ķ à¸ĩ
à¹ģà¸ľà¸Ļ à¹Ĥà¸ļà¸£à¸²à¸ĵ
à¸ĩà¸ļ à¸Ńà¸ģà¸ĸ
Ġà¹ģà¸¡ à¸ģ
st al
Ġl ike
Ġà¹Ĥà¸£à¸ĩ à¸«à¸Ļ
Ġà¸Ľà¸£à¸°à¸Īà¸³ à¸ķ
à¹Ĥà¸® à¸§à¸²à¸«
ĠS at
Ġà¹ĥà¸Ī à¸Ħà¸§à¸²à¸¡
Ġinf o
à¹Ħà¸ĭ à¹Ģà¸Ħ
ĠPart y
à¸Ļ à¸Ŀà¸Ļ
ĠF und
anc ed
Ġà¸ļà¸Ĺ à¸ª
à ¼
ĠD em
Ġl o
à¸ķ à¸Ī
ĠAcc ount
Ġà¸ī à¸ģ
Ġà¹Ĥà¸¢ à¸ģà¸¢
à¸Ļ à¸£à¸¡à¸¢
Ġà¸Ļ à¸§à¸Ļ
à¹ģà¸ª à¸Ķ
ĠPlay er
ĠMar ch
à¸Ń à¸Ńà¸ª
à¸Ļ à¸Ńà¸¡
Ġà¹Ģà¸¢ à¹Ĥà¸®à¸§à¸²à¸«
à¹Ĥ à¸«à¸¥
Ġà¸Ńà¸Ń à¸ģà¸¥
ĠZ en
Ġà¸Ħà¸¥ à¸²à¸Ķ
ev e
ĠF L
Ġà¸ļ à¸Ī
à¸¢ à¸ģà¸Ħ
à¸Ńà¸¡ à¹ĥà¸Ī
az ine
ĠF B
Ġà¸Ľà¸£à¸°à¸Īà¸³ à¸ģà¸²à¸£
A Z
Ġà¹Ģà¸Ńà¸² à¹Ģà¸£
ĠÑ ĸ
à¸²à¸Ļ à¸²à¸Ħ
à¸²à¸¢ à¸ķà¸£à¸ĩà¸Ĥ
Ñģ Ðº
Ġà¸Ĺà¸£à¸§à¸ĩ à¸Ńà¸ģ
Ġà¸Ħà¸§à¸²à¸¡ à¹Ĥ
Ġd irect
Ġà¸ªà¸ł à¸²à¸ģ
Ġà¹ģà¸¢ à¸ģà¸ģ
Ġà¸¥ à¸§à¸ģ
Ġà¸ªà¸łà¸²à¸ŀ à¸£
Ġà¸ªà¸¡ à¸Ń
ĠM ass
ĠKn ow
à¹Ħ à¸¢
ĠStart up
ĠCommun ity
Ġà¸Ĺà¸£à¸£ à¸¨à¸Ļà¸°
Ġà¸¨à¸²à¸¥ à¸Ľà¸ģà¸Ħà¸£à¸Ńà¸ĩ
à¸¡ à¸Ľà¸£
à¸ķ à¸Īà¸£
Ġà¸ªà¸ĩ à¸ļà¸ª
ĠInst it
ĠProf essional
Ġà¸ŀà¸į à¸²à¸Ļà¸²à¸Ħ
Ġà¸ŀ à¸²à¸¥
Ġ7 77
Ġà¸ĩà¸²à¸Ļ à¸«à¸Ļ
b ar
à¸¡ à¸¥à¸¡
à¸Ļà¸ª à¸²à¸Ķ
à¸ķ à¸«
Ġà¸Ľ à¸¥à¸ĩ
IK E
ĠM IN
à¸Ķ à¸ŀà¸£
à¸Ļà¸Ħà¸§à¸²à¸¡ à¸¥
Ġà¹Ģà¸Ĭ à¸¥à¸¥
Ġà¹Ģà¸ľ à¸²à¹Ħà¸«à¸¡
à¹Ģà¸ļ à¸¨à¸£
ĠSup port
à¸ģ à¹ĥà¸«à¸į
ĠJ R
and a
à¸Ńà¸ĩ à¹Ģà¸Ĺà¸¨
in ic
à¸Ķà¸¡ à¸ģà¸²à¸£à¸ĵ
Ġà¸ģà¸³ à¹Ħà¸¥
iv a
Ġà¹ģà¸ļà¸ļ à¸Īà¸³à¸¥à¸Ńà¸ĩ
ĠâĨ ĳ
à¸Ńà¸ļ à¸ģà¸ŀà¸£
ĠSe ptember
Ġà¸Ħà¸£à¸Ńà¸ļ à¸ĩà¸³
ĠCon nect
ĠTw o
ĠE vent
estaur ant
Ġà¸Ħà¸³ à¹Ģà¸ķ
erg y
Ġà¸Ĥà¸Ńà¸ĩ à¸ģà¸¥à¸²à¸ĩ
our ces
Ġ00 3
ĠH TC
Ġà¸¨à¸²à¸¥ à¸İ
à¹Ģà¸ĺ à¸Ń
ĠN ET
Ġà¸Ľà¸£à¸°à¸¡à¸²à¸ĵ à¸ģà¸²à¸£
à¸łà¸²à¸ŀ à¸ªà¸ķà¸£
â Ķ
Ġà¸¡à¸«à¸² à¹Ģà¸¨à¸£à¸©à¸Ĳ
à¸Ħà¸ĵà¸° à¸ģà¸£à¸£à¸¡à¸ģà¸²à¸£
Ġà¹Ħ à¸Ī
Ġà¹Ħà¸Ķ à¸Ļà¸²à¸¡
Ġc ha
å °
Ġand roid
Ġ!!! !
n am
à¸Ķ à¸Ļà¸¡
à¸¶ à¹ĭ
P ress
ĠC ross
ĠCh arg
Ġà¸ģà¸£à¸£à¸¡ à¸ª
Ġà¹ģà¸£à¸ģ à¹Ģà¸£
Ġ eng
Ġà¸ģà¸²à¸£ à¸Ħà¸¥
à¸ªà¸Ļ à¸¡
ĠSS D
à¸ģà¸ª à¸°
ĠS ong
Ġà¹Ĥà¸£à¸Ħ à¸Ī
Ġà¸£ à¸Ńà¸¡
Ġà¹Ģà¸Ĥ à¸ķà¸£
à¸ĩ à¹Ģà¸§à¸¥à¸²
F or
L D
å ¼
Ġà¹ģà¸ŀà¸£ à¸§
un e
Ġà¸Ĭà¸° à¸ķ
Ġp ort
Ġà¸§ à¹Ģà¸¥
Ġb ar
es is
ĠAir port
Ġà¸Ń à¹Ģà¸¥
à¹Ĥà¸Ī à¸¡
Ġà¹ģà¸ľà¸Ļ à¸ł
ĠK it
à¸Ń à¸Ńà¸²à¸¢
al a
à¹Ģà¸Ĺà¸¨ à¸ģ
ant h
ĠB attle
Ġà¸ĺ à¸§
Ġà¹Ĥà¸¥ à¸Ķ
ad s
à¸§à¸¢ à¸¨à¸²à¸ªà¸ķà¸£à¸²à¸Īà¸²à¸£à¸¢
à¸Ļà¸²à¸§ à¸²
à¸Ħ à¸Ńà¸Ľà¹Ģà¸ķà¸Ńà¸£
Ġà¸Ľà¸£à¸°à¸Ħ à¸Ńà¸ĩ
u an
Ġà¸² à¹Ģà¸Ļ
ĠCh annel
à¸ļ à¸Ŀà¸²à¸ģ
ĠT ab
à¸Ńà¸ĩà¹Ĥ à¸ĸà¸ĩ
Ġl ive
ĠC AS
ĠG O
Ġà¹Ĥà¸¡à¸Ļà¸² à¹Ĥà¸ģ
ĠPro cess
Ġà¸ģà¸£ à¸¡à¸Ľ
ĠAct ive
f ord
à¸Īà¸ŀà¸£à¸° à¸Ī
à¸Ĭà¸Ķ à¸²à¸ł
ĠA W
Ġà¸Ķà¸Ńà¸ģà¸ ļ
Ġà¸Ĭà¸Ļ à¸Ĭà¸²à¸ķ
at i
à¸Ńà¸ĩ à¹ĥà¸«à¸į
Ġà¸ŀà¸£à¸° à¹Ħà¸ķà¸£à¸Ľ
à¸² à¹Ģà¸«à¸Ļ
Ġà¸Ħà¸§à¸²à¸¡ à¸ĭ
à¸ķà¸£ à¸Ľà¸£à¸°à¸Īà¸³à¸ķ
à¸Ī à¸Ń
ĠK ar
Ġà¸ĺà¸Ļà¸²à¸Ħà¸²à¸£ à¸Ń
ell y
Ġà¸«à¸¢à¸²à¸ļ à¸Ħà¸²à¸¢
ĠY ek
Ġ555 5
ĠDis play
Ġà¸Ħà¸§à¸²à¸¡ à¸£à¸°à¸¡
ĠF C
à¸Ļà¸Ļ à¸Ńà¸Ļ
à¸Ħ à¸ŀ
à¸ĩ à¹Ģà¸Ĥ
à¸Ī à¸Ļà¸²
Ġà¸Ńà¸²à¸ĵà¸² à¹Ģà¸Ĥà¸ķ
Ġà¸Ĺà¸³ à¸¡
à¸¥à¸Ľ à¸ģà¸£à¸£à¸¡
ãģ Ħ
ĠYek aterinburg
Ġre t
Ġà¸ļà¸£à¸£à¸Ī à¸ĩ
à¸Ń à¸ĭ
Ġà¹Ģà¸Ī à¸ķà¸Ļ
ĠE asy
in ary
ĠPr int
à¸ģà¸ ¤à¸©
Ġà¸¥à¸²à¸Ļ à¸Īà¸Ńà¸Ķà¸£à¸ĸ
ĠQ R
Ġà¸Ħà¸Ńà¸Ļ à¹Ĥà¸ĭà¸¥
IN K
à¸ģ à¹ģà¸Ļ
à¸ģà¸Ľ à¸£
à¸Ńà¸Ħ à¹Ĥà¸ģà¹ģà¸¥à¸ķ
à¸³ à¹Ģà¸Ĭ
à¸¥à¸¢ à¸²à¸ĵ
Ġc ap
Ġà¹ģà¸Ĥ à¸¡
à¸Ĥ à¸²à¸ł
Ġà¸ķà¸£à¸° à¹Ģà¸§à¸Ļ
Ġà¸ĺà¸£à¸£à¸¡ à¸¨à¸²à¸ªà¸ķà¸£
Ġà¸Ĭà¸²à¸į à¸īà¸¥à¸²à¸Ķ
Ġà¸£à¸²à¸¢ à¸Ľ
Ġà¹Ģà¸£ à¸ķ
Ġà¸Ħà¸§à¸²à¸¡ à¸ªà¸¡
Ġà¸¥à¸³ à¸ĺà¸²à¸£
ĠSec ret
à¹ģà¸§ à¸ģ
à¸ģà¸ģà¸ °
à¸Ĭà¸¥ à¸Ľà¸£à¸°à¸Ĺà¸²à¸Ļ
ig e
Ġà¸Ķ à¸ª
Ġà¹ģà¸ªà¸ĩ à¸Ńà¸²à¸Ĺ
Ġà¸®à¸²à¸Ļ à¸Ńà¸¢
Ġà¸Ľà¸£ à¸ģà¸ķ
Ġà¸«à¸¥ à¸Ńà¸¡
P r
Ġ11 4
à¸ĩ à¹Ħà¸Ł
Ġw id
à¸¥à¸²à¸¢ à¸¡
Ðµ Ð»
ĠHost ing
à¸³ à¸Ĭà¸²
à¸²à¸ŀ à¸£
Ġà¹ģà¸Ļà¸°à¸Ļà¸³ à¸ķ
Ġà¸łà¸²à¸Ħ à¸ł
com m
Ġ254 1
Ġà¸Ĭà¸Ńà¸ļ à¹ĥà¸Ī
ĠG h
Ġà¸ŀà¸£à¸£à¸Ħ à¸Ľà¸£à¸°à¸Ĭà¸²à¸ĺ
ĠM oney
v ers
Ġà¹ģà¸Ķ à¸Ļà¸ĭ
à¸² à¹ģà¸Ļ
à¸Ļà¸ľà¸¥ à¸Ķ
em s
å ¿
Ġà¸¡à¸¥ à¸łà¸²à¸§à¸°
ĠAmer ican
ĠN orth
ir a
ĠP en
ĠC F
Ġà¹Ĵ à¹ĳ
ĠLear ning
Ġà¸ª à¸Ļà¸Ļ
Ð½ Ñĭ
Ġà¸¨ à¸Ń
Ġà¹Ģà¸¥à¸Ĥ à¸²
cl us
Ġà¹Ħà¸ª à¸¢
Ġà¸Ħà¸§à¸²à¸¡à¸«à¸Ļ à¸²à¹ģà¸Ļ
Ġ ol
Ġà¸ķà¸²à¸¡à¹ĥà¸Ī à¸Ĭà¸Ńà¸ļ
G et
Ġà¸Īà¸Ńà¸¡ à¸ŀà¸¥
ar ing
à¸Ńà¸¢ à¹ĥà¸Ī
à¸Ķ à¸¥à¸ĩ
ĠM L
Ð ±
Ġw ord
re me
x X
Ġà¸ģà¸²à¸£à¸ļà¸£à¸£ à¸Ī
à¸Ķà¹Ģà¸« à¸¥
Ġc enter
à¸Ńà¸ĩ à¸Ľ
à¸Ĺ à¸§à¸Ķ
à¹Ģà¸ļ à¸ģà¸©à¸²
b a
Ġà¸ŀà¸£à¸°à¸£à¸²à¸Ĭ à¸Ļ
Ġà¸Ńà¸Ńà¸Ł à¹Ħà¸¥à¸Ļ
à¹Ģà¸ŀ à¸£
Ġ17 5
Ġà¸ģ à¸²à¸ļ
Ġà¸ªà¸¡ à¸²à¸ŀ
.... ..
à¸§à¸ģ à¸²à¸¢
à¸ŀà¸¢à¸²à¸ģà¸£ à¸ļ
Ġà¸ĭ à¸²à¸ķ
Ġà¸ģà¸²à¹ģà¸Ł à¸ªà¸Ķ
à¸ģà¸ĸ à¸²
à¸Ń à¹Ħà¸Ĺà¸¢
Ġà¸Ħà¸Ļ à¹Ĥà¸ªà¸Ķ
Ġà¸¡ à¸Ħ
Ġà¸Ħà¸ĩ à¹Ħà¸§
Ġre l
à¸Ķ à¸Īà¸²à¸ģ
: :
Ġà¸¢ à¸²à¸ªà¸¡
Ġà¸¥ à¸Ńà¸ķà¹Ģà¸ķà¸Ńà¸£
Ġà¹Ģà¸ŀà¸¥à¸ĩ à¸¥
à¸³ à¹Ĩ
Ġb el
à¸Ńà¸£ à¸²à¸Ħà¸²
Ġà¸£à¸ĸ à¸ª
ĠA IR
Ġà¸ĸà¸ģ à¹Ģà¸ĸ
à¸ŀà¸£ à¸«à¸¡
it ive
à¸Ļà¸¡ à¸°
Ġà¸Ńà¸° à¸Ħ
Ġà¹ĥà¸ļ à¸ª
Ġn ull
ĠCon ference
Ġà¸Ľà¸£à¸°à¸ģà¸²à¸¨ à¹ĥà¸Ĭ
à¸³à¸Ļ à¸²à¸Ī
Ġà¹Ģà¸Īà¸²à¸° à¸Īà¸ĩ
Ġà¹Ģà¸Ľ à¸£à¸²à¸°
Ġà¹Ģà¸ĸ à¸²
ĠF un
à¸§à¸£ à¸Ńà¸Ķ
à¸³ à¹Ģà¸ģà¸¥
Ġà¸Ķ à¸Ķà¸Ķ
à¸²à¸ľ à¸Ļ
à¸²à¸Ľà¸£à¸° à¸Īà¸³
ĠA st
à¸Ļà¹Ħ à¸ĩ
Ð° ÑĤ
à¸Ķ à¸«à¸¥
o T
à¸¢à¸ĩ à¸ľ
ĠH a
Ġh ow
à¸¢ à¹Ĥà¸ļà¸£à¸²à¸ĵ
Ġà¸ģà¸£à¸°à¸Ĺà¸£à¸§à¸ĩà¸ģà¸²à¸£ à¸ķ
ar in
w an
Ġà¸ªà¸²à¸ĺà¸²à¸£à¸ĵ à¸ł
Ġà¸ķà¸£à¸²à¸ļ à¹Ģà¸Ĺ
Ġà¹Ģà¸§ à¸Ĺà¸¢
Ġà¹Ħà¸Ń à¹Ĥà¸Ńà¸Ķ
Ġ3 80
Ġà¸ª à¸¥à¸²
ĠL aser
p a
ĠB it
Ġà¸Ĺà¸³ à¸ĭ
Ġà¸Ķ à¸²à¸¥
led ge
Ġà¸Ħà¸§à¸²à¸¡ à¸ģà¸Ķà¸Ķ
à¸¢à¸§ à¹Ĥà¸ķ
Ġb ox
ast e
à¸Ńà¸ģ à¹Ģà¸ģà¸Ńà¸£
Ġà¸ŀà¸¢ à¸²à¸Ļà¸«à¸¥
Ġà¸Ľà¸£à¸°à¸Ĭ à¸²à¸¡à¸ķ
ĠBo ard
o ch
Ġà¹ģà¸ļ à¸Ķà¸¡
Ġà¸ģà¸²à¸£à¸Ľà¸£à¸° à¸Ķ
ac c
Ð¾Ð »
ĠD om
Ġà¹Ĥ à¸Ńà¸¢
ĠT erm
Ġà¸Ŀ à¸²à¸¢
ut s
Ġà¸Ħà¸¥à¸² à¹Ħà¸Ħà¸¥
Ġà¸ŀà¸£à¸£à¸Ħ à¹Ģà¸ŀ
ĠCas io
à¸ª à¸ŀ
E Y
Ġà¸¢ à¸ļ
Ġà¸ª à¸«à¸²à¸¢
Ġà¸Ńà¸²à¸«à¸²à¸£ à¸§
Ġf al
Ġà¸ķà¸²à¸¡à¸Ħà¸³ à¹ģà¸Ļà¸°à¸Ļà¸³
à¸²à¸ģà¸¥ à¸²à¸ĩà¸§
Ġà¸ªà¸Ļà¸²à¸¡ à¸«à¸į
Ġà¹Ģà¸ªà¸Ļà¸Ń à¹ģà¸Ļà¸°
Ġà¹Ģà¸§à¸¥ à¸²à¸ģà¸¥à¸²à¸ĩà¸§
ĠPr ice
Ġà¹ĸ à¹Ĳ
Ġà¹ģà¸Ļ à¸§à¸Ļà¸Ńà¸Ļ
à¸¢ à¸¨à¸£
ĠM itsubishi
Ġà¸¥à¸³ à¹Ħà¸¢
gus t
Ġà¹Ĥà¸Ńà¸ģà¸²à¸ª à¸Ķ
à¸Ļà¸ĺà¸£à¸£à¸¡ à¸Ķà¸²
à¸Ļà¸£ à¸Ļ
Ġà¸ŀ à¸¢à¸Ļà¸ķ
ĠS AN
à¸Ī à¸ĺ
ĠX xX
Ġà¸ŀ à¸³à¸Ļ
in ter
Ġà¸ģà¸£ à¸Ń
Ġst ud
Ġà¸Ńà¸²à¸£ à¸¢à¸ĺà¸£à¸£à¸¡
i ro
Ġà¹Ģà¸ŀà¸¥ à¸ĩà¸ª
ĠR acing
Ġà¸¥à¸° à¸«
Ġb us
et te
IGH T
Ġà¸¥ à¸Ħ
Ġà¸ª à¹Ģà¸Ĭ
Ġà¸ª à¸ªà¸ª
Ġh ard
à¹ģà¸ĭ à¸ĩ
à¸Ļà¸¥à¸° à¸Ńà¸Ńà¸ĩ
à¸Ń à¸Ħà¸£
Ġb ag
Ġà¸Ĥ à¸²à¸¡
à¸²à¸¢ à¸«à¸Ļ
Ġà¹Ħà¸ĸ à¸Ļà¸²
à¸Ļà¸Ń à¸°
ĠM G
Ġ ×
Ġà¸Ĺà¸²à¸ĩà¸Ĥ à¸§à¸²
Ġà¸ªà¹Ĥà¸ķ à¸Ļ
à¸Ńà¸ĩ à¸ªà¸§
ĠR ose
ĠC ast
ater ial
à¸Ńà¸ĩà¸ķà¸²à¸¡ à¸ģà¸İà¸«à¸¡à¸²à¸¢
ĠY ork
Ġà¹ģà¸Ī à¸ģà¸Ī
Ġ08 4
à¸²à¸ķ à¸Ńà¸ĩ
Ġpigment n
à¸Ĭ à¸į
Ġà¸ªà¹Ģà¸Ľ à¸ģ
Ġs oc
Ġà¹ģà¸ ģà¸§
Ġw ater
ĠTe ch
ĠF oot
Ġà¹Ħà¸Ńà¸¨ à¸Ħà¸£
à¸Ń à¹ģà¸Ļà¸°à¸Ļà¸³
à¸ģà¸ª à¸łà¸²
Ġà¹Ģà¸Ń à¸²à¸Ĭ
ĠJ et
// //
Ġà¸Ĥà¸Ńà¹ģà¸ª à¸Ķà¸ĩà¸Ħà¸§à¸²à¸¡à¸¢
Ġà¸«à¸²à¸¢ à¸Ĥà¸²à¸Ķ
Ġà¸ªà¸¡ à¸ĵ
ĠV ill
ĠF oundation
Ġà¸ŀà¸Ń à¹ĥà¸«
Ġà¹ģà¸ĭ à¸§
ĠIB C
à¸ŀà¸£à¸° à¸ļà¸²à¸ĩ
Ġà¸¨à¸²à¸ªà¸Ļ à¸²à¸ŀ
Ġà¸į à¸Īà¸Ļ
Q L
ç½ ĳ
Ġà¸« à¸²à¸į
ĠP owder
Ġà¸ªà¸ĸà¸²à¸Ļ à¸ŀà¸¢à¸²à¸ļà¸²à¸¥
ĠEx pl
Ġà¸Ĥ à¸£
O n
P L
Ġ att
ĠLot us
Ġà¸ªà¸²à¸ĺà¸²à¸£à¸ĵ à¸Ĭà¸Ļ
Ġsh ow
Ġà¸Ļà¸Ńà¸ģ à¸Ļ
Ġà¸Ħ à¸§à¸Ļ
ĠG ames
Ġà¸«à¸¥à¸§à¸ĩ à¸ŀà¸£à¸°à¸ļà¸²à¸ĩ
à¸¢à¸§ à¹Ģà¸Ļ
Ġà¸¥à¸°à¸Ħà¸£ à¹ĥà¸Ļ
Ġ ì
S H
Ġà¸¡ à¸§à¸¥à¸Ĭà¸Ļ
B l
Ġà¹Ģà¸Ńà¸Ł à¹Ģà¸Ń
Ġà¸¥ à¸Ńà¸£
Ġà¸Ńà¸Ń à¸Ĺ
B R
Ġà¸§ à¸²à¸¡
Ġà¸ĺ à¸ĩà¸Ĭ
à¸¥ à¹Ĥà¸§
à¹Ģà¸Ļ à¸²
Ġà¹Į )
à¸ģà¸« à¸§à¸¢
à¸Ļ à¸£à¸²à¸Ħà¸²
Ġà¸Ĥà¸Ń à¸Ħà¸§à¸²à¸¡à¸£
ĠD a
Ġser ver
ĠH ON
ĠO l
Ġ11 8
Ġb u
à¹Ģà¸§ à¸ģ
ĠCap s
ĠGr aph
Ġà¸¡à¸Ńà¸ĩ à¹Ĥà¸¥à¸ģ
eng er
à¸ķ à¸Ńà¸¡
Ġà¹Ĥà¸ªà¸ł à¸ĵ
à¸Ļ à¸¥à¸³à¸Ķ
ĠPro v
Ġà¹Ģà¸¡ à¸Ńà¸£
à¸ģ à¹ģà¸ĸà¸§
Ġà¸£à¸Ńà¸ļ à¸£
Ġent ry
Ġa f
à¸Ĺà¸ĺ à¸Ħ
à¸ª à¸ĩà¸ª
or age
Ġà¸Ķ à¸ķ
à¸Ĺà¸¢à¸²à¸Ļ à¸¯
AT A
ĠO x
Ġà¹Ģà¸ŀà¸¥à¸ĩà¸ª à¸²à¸ģà¸¥
à¸Ńà¸¢ à¸ķà¸²à¸¡
Ġà¸¡à¸²à¸£ à¸²à¸ĺà¸Ńà¸Ļ
el ine
Ġà¸² à¸²
à¹ ħ
à¸¨ à¸²à¸ªà¸Ļà¸²
Ġà¸¡à¸£ à¸ģà¸ķ
ĠIm p
Ġà¸ļà¸Ĺ à¸ªà¸£
Ġà¹Ĥà¸Ĭ à¹Ģà¸ĭ
ĠK ha
à¸ªà¸£ à¸łà¸²à¸ŀ
ĠC our
ou ld
Ġà¸ģà¸³à¸¡à¸° à¸«à¸¢
à¸Ńà¸Ļ à¸«à¸¢
Ġ3 30
ĠB ill
Ġà¸ĩà¸²à¸Ļ à¹Ģà¸Ĥ
ok s
ĠT y
à¸Ļà¸ķ à¸ģà¸£à¸£à¸¡
à¹ģà¸Ĺ à¸ĩ
ac ter
Ġà¸ķà¸£à¸§à¸Ī à¸Ħ
Ġà¸Ńà¸° à¸ķà¸Ńà¸¡
ĠB ike
Ġà¸Ľà¸£à¸°à¸ģà¸²à¸£ à¸«à¸Ļ
ĠCN C
à¸ĩà¸Ĥ à¸¢à¸°
!! !
Ġà¹Ģà¸Īà¸ķà¸Ļ à¸²à¸£à¸¡à¸ĵ
à¸Ĭ à¸ķ
à¸¢à¸¥ à¹Ħà¸Ĺà¸¡
ĠHot ell
ĠN Y
ĠMus e
Ġà¸ķ à¸§à¸²à¸Ķ
à¸¤ à¸©
T e
G E
Ġs n
Ġà¸§ à¸Ī
à¸¢à¸Ļ à¸¡
Ġà¸Ħà¸§à¸²à¸¡à¸Ľà¸£à¸° à¸ŀà¸¤à¸ķ
ĠG et
Ġà¹Ħà¸® à¹Ģà¸Ĺà¸Ħ
ĠT or
Ġà¹Ģà¸¢à¸²à¸§ à¸£à¸²à¸Ĭ
Ġà¸ģà¸£à¸° à¸«à¸²à¸¢
Ġà¸ªà¸²à¸¢ à¹Ģà¸¥
à¸Ĳ à¸¨à¸²à¸ªà¸ķà¸£
à¸ĩà¸ģ à¸²à¸¬
art h
Ġ4 80
form ance
à¸Ľ à¸ŀà¸£à¸£à¸ĵ
ĠGold en
TM L
à¸įà¸į à¸²à¸ļ
Ġ? ??
ĠDes k
ĠK aw
Ġà¹Ħ à¸ĺ
à¸§ à¹Ģà¸Īà¸Ńà¸£
ĠP ok
ĠCh ang
ä¸ Ģ
à¸Ĥ à¸¨
à¸Ńà¸Ĥ à¸§à¸²
Ġà¹Ħà¸«à¸¡ à¸ŀà¸£à¸¡
ĠHotell ook
à¸¢ à¸Ĺà¸³à¸ĩà¸²à¸Ļ
ĠS F
ĠA k
Ġà¸ĺ à¸³à¸£à¸ĩ
irt ual
à¸ģ à¸Ńà¸Ļ
à¹ĵ à¹Ĳ
Ġà¸§à¸£à¸£à¸ĵ à¸Ħà¸Ķ
Ġà¹Ĥ à¸¨à¸ģ
oc ol
Ġà¸ªà¸łà¸²à¸ģ à¸²à¸Ĭà¸²à¸Ķ
Ġà¸Ĭ à¸§
à¸²à¸ļ à¸²à¸ĩ
à¸Ļà¸ļ à¸²à¸Ĺ
Ġà¸§ à¸ĵ
Ġà¸¥ à¸§à¸ĩ
Ġà¸Ĺà¸²à¸ĩ à¸ĭ
it i
¤ ï¸ı
à¸Ńà¸¡ à¸¡
Ġà¸Ħà¸Ńà¸Ļ à¹Ģà¸Ł
Ġà¸ģà¸²à¸£à¸Ń à¸Ńà¸¡
os c
Ġà¸ģà¸²à¸£à¸ŀ à¸ļà¸ģ
il i
ĠSum mer
ang kok
Ġ11 3
à¸³ à¸Ľà¸£à¸°à¸Ľà¸²
à¸Ĩ à¸²à¸ķ
à¸Ńà¸ĩà¸ģà¸£ à¸Ńà¸ĩà¸Ļ
ĠRe p
Ġà¸ŀà¸£à¸° à¹Ĥà¸ŀà¸ĺ
à¸Ł à¸ª
Ġà¸Ī à¸Ńà¸Ļ
Ġà¸ľà¸Ļ à¸§à¸ģ
Ġà¸ŀà¸§ à¸ģà¸Ħ
à¸Ńà¸¢à¸ª à¸¥à¸²à¸¢
à¸ĩà¸Ĺ à¸Ńà¸ĩà¸«à¸¥
à¸ĩà¸Ĺà¸Ńà¸ĩà¸«à¸¥ à¸²à¸ĩ
Ġà¹ģà¸¢à¸ģ à¹ģà¸¢à¸°
Ġà¸Ł à¸ķ
Ġà¸« à¸Ķà¸ķ
Ġà¸£à¸²à¸¢ à¸¥
Ġà¸Ĥ à¸Īà¸£
à¸Ńà¸Ļ à¸ł
p p
ag o
à¸³ à¹ģà¸¢
à¸¡ à¹ģà¸Ī
\ \
Ġà¸«à¸Ń à¸ªà¸¡
Ġc le
Ġà¸Ļ à¸Ī
Ġà¸ķà¸¥à¸Ńà¸Ķ à¸§
Ġpr es
Ġà¸Ľ à¸§à¸ª
à¸²à¸Ļ à¸Ĭ
Ġà¹Ĥ à¸Ńà¸°
ĠS N
m as
à¸¬ à¸²à¸¯
ĠðŁ Ļ
ĠSn ow
ĠB an
à¸¥à¹Ģà¸Ł à¸ķ
Ġà¸Ł à¸²à¸ģ
à¸ķ à¸Ħ
op s
Ġà¹Ĥà¸¥ à¸§
Ġà¸Ļà¸³ à¸£
à¸Ńà¸ĩ à¹ģà¸£
Ġà¸Ńà¸Ńà¸ģ à¹ģà¸£à¸ĩ
Ġà¸Ľà¸²à¸ģà¸ ĭ
Ġà¸Ħà¸§à¸²à¸¡à¸¢ à¸²à¸ģà¸¥à¸³à¸ļà¸²à¸ģ
Ġà¸ļ à¸§à¸ĩ
Ġà¸ª à¸²à¸«
Ġà¸Ħà¸§à¸²à¸¡à¸ĸ à¸Ļ
os ter
ç¥ ¨
Ġh ouse
Ġà¸ķà¸²à¸£ à¸²à¸ĩà¸ģ
à¸ĩ à¹Ħà¸¡
Ġà¸ķ à¸ģà¸Ĥ
ĠP i
à¸ģà¸£à¸§ à¸£à¸£à¸Ķ
ĠO ly
à¹Ĥà¸£à¸ĩ à¹Ģà¸£
Ġà¸Ńà¸Ńà¸Ļ à¸ĭ
Ġh y
Ġà¸ģà¸²à¸£à¸ŀ à¸²
red it
Ġà¸ķ à¸²à¸Ķ
ect omy
ĠT ower
à¸ĵ à¸«à¸Ļ
Ġà¹Ĥà¸Ķ à¸°
à¸ĩ à¸Ļà¸²
à¸²à¸¢ à¸²à¸§
Ġà¸ģà¸¥ à¸²à¸ĩà¹Ĩ
à¸§à¸ĩ à¸Ńà¸²à¸¢
Ġà¹Ģà¸Ħà¸£ à¸²
à¸ģ à¹ĥà¸Ħà¸£
Ġhe alth
Ġà¸ĺ à¸ĩà¸Ĭà¸²à¸ķ
Ġà¸ķà¸¥à¸²à¸Ķ à¹Ĥà¸¥à¸ģ
ĠWh it
Ġà¸Ľà¸²à¸ģà¸ĭ à¸Ńà¸¢
à¸¢à¸Ļ à¸Ħà¸§à¸²à¸¡à¸Ħ
Ġà¸Ĥ à¸²à¸Ńà¸Ńà¸ģ
à¸²à¸¢ à¸Ĥà¸²à¸¢
ĠM ap
ãĥ¼ ãĥ
ver t
Ġà¸ģà¸£à¸¡à¸ªà¸£à¸£à¸ŀ à¸²à¸ģà¸£
ĠR h
à¸§à¸¢ à¹ĥà¸Ī
à¸Ľà¸£ à¸§à¸Ļ
a ff
à¸ļà¸ª à¸Ńà¸ĩ
ĠCor por
Ġà¸ĭ à¸²à¸ļ
ĠL ock
ĠI CT
T I
Ġà¸ªà¸Ļà¸Ļ à¸£à¸²à¸Ħà¸²
T h
Ġ12 4
à¸¢à¸ĵ à¸Ńà¸²à¸¢
Ġb ook
à¹Ħà¸Ĥ à¸¡
Ġà¹ģà¸Ľà¸£ à¸Ľà¸£à¸§à¸Ļ
ok a
Ġà¸ŀà¸Ń à¹ĥà¸Ĭ
Ġ12 1
b ag
ĠC ook
à¸¥ à¸Ľà¸£à¸°à¸Ĺà¸²à¸Ļ
à¸Ńà¸¢ à¸«
Ġs oft
à¸ĸ à¸²à¸Ļ
à¸Ļà¸§à¸²à¸ĩ à¸Ĥà¸Ńà¸ĩ
ob er
ĠTrain ing
Ġà¸ľà¸¥à¸ģà¸²à¸£ à¹Ģà¸£
ĠPlat form
ĠL ittle
ĠMerc edes
Ġà¹ģà¸¡ à¸Ĺà¸Ĭ
à¸Ļà¸ĺ à¸ĩ
Ġà¸ªà¸³ à¸£
Ġs im
Ġà¹Ĵà¹ķà¹ķ à¹ĺ
Ġà¸ģà¸ Ĳ
Ġà¸Ļà¸²à¸§ à¸²
Ġe p
erm an
ĠD og
à¸Ńà¸¡ à¸Ļ
Ġà¸ģà¸£à¸¡ à¸Ĭà¸¥à¸Ľà¸£à¸°à¸Ĺà¸²à¸Ļ
Ġà¹Ģà¸Ļà¸Ľ à¸²à¸¥
à¸Ńà¸ģ à¹Ģà¸Ĺà¸¥
Ġà¹Ĥà¸īà¸¡ à¹ĥà¸«à¸¡
Ġmic ro
à¸§à¸Ļ à¸Ĥ
à¸Ķà¹Ģà¸¥ à¸Ĥ
Ġus er
Ġ ob
ĠM ode
ett ing
Ġà¹ģà¸ļà¸ļ à¸Ĺà¸Ķà¸ªà¸Ńà¸ļ
æĹ ¶
Ġs earch
Ġm en
w a
à¸ĩ à¸¨à¸ŀ
ĠAd obe
Ġt est
Ġwh ite
Ġà¸£à¸ĸ à¸Ĺ
ĠV oice
Ġm al
Ġà¹Ĵ à¹Ĵ
ĠAn n
um a
ill s
ĠH om
Ġà¸Ħà¸³ à¸Ľà¸£
à¸²à¸ĺ à¸²à¸ķ
Ġn ame
f ore
à¸²à¸Ļ à¸Ńà¸Ļ
Ġ[ ...
Ġi T
Ġà¸Ĥà¸²à¸¢ à¸Ľà¸¥
à¸Ńà¸Ļ à¸ģà¸³à¸«à¸Ļà¸Ķ
un es
Ġà¸Ńà¸Ńà¸ª à¸ģà¸²à¸£
dr agon
Ð¾Ð ´
B C
à¸Ĺà¸ĺ à¸¡à¸ĵà¸ĳà¸¥
à¸ģà¸¤à¸© à¸İ
è ®
à¸ģ à¹Ħà¸Ł
ĠN V
à¸Ķà¸²à¸§ à¹Ģà¸Ĺ
à¸² à¹Ĥà¸Ķà¸¢à¸ªà¸²à¸£
à¸ĩ à¸«à¸²
ĠChamp ion
Ġà¹Ģà¸Ĭ à¸¢
Ġà¸ļà¸Ńà¸ļ à¸ļà¸²à¸ĩ
à¹Ģà¸Ńà¸²à¹ĥà¸Ī à¹ĥà¸ª
Ġà¸ĭ à¸Ļ
is on
ĠC V
Ġg u
ĠY OU
¹ ´
hum vit
T P
à¸Ľ à¸£à¸²à¸ļ
à¸Ń à¹Ģà¸§à¸¥à¸²
à¸¥ à¸³
à¹ģà¸ ®
ĠR y
Ġà¸ģà¸³à¹Ħà¸£ à¸ª
il ding
Ġà¹Ĥà¸Ĥ à¸ģ
à¸ĩà¸ļà¸²à¸ĩ à¸Ńà¸¢
Ġà¸ª à¸²à¸¥
Ġà¸Ĥ à¸°
Ġà¸ªà¸§à¸£à¸£à¸Ħ à¸ķ
Ġh ell
st ar
à¸¡ à¸²à¸ķ
Ġà¹Ħà¸¡ à¸ķà¸£
Ġà¹ģà¸ļ à¸Ļà¸Ķ
Ġà¸Ńà¸²à¸ģà¸²à¸¨ à¸¢à¸²à¸Ļ
ĠK y
Ð° Ð»
ĠLen ovo
Ġc lub
Ġ200 1
r ib
Ġà¸ģà¸£à¸Ķ à¹Ħà¸Ĥà¸¡
ĠAdap ter
ĠF ant
Ġà¹ģà¸ĸà¸§ à¹Ĩ
Ġan al
Ġà¹Ĥà¸¥ à¸ł
osh op
Ġà¸Ĭà¸²à¸§ à¸Ľà¸£à¸°à¸¡à¸ĩ
ĠE ast
ĠL um
im ate
Ġà¹ģà¸¡ à¸ģà¸Ļ
ail able
ĠTh ree
ĠF riend
ĠQ ue
U X
à¸²à¸¡ à¸ģ
Ġà¸Ļ à¸¨
ĠP ix
ĠR ich
à¸Ń à¹ģà¸Ĥ
à¸¢ à¸Ĥ
à¸Ľà¹Ĥà¸Ľ à¹Ĥà¸£
Ġà¹ģà¸ŀ à¸Ļà¸Ķ
å¤ §
Ġà¸ģà¸²à¸£ à¸Ĭà¸Ļà¸°
à¹ģà¸ ģà¸
à¸Ķà¹Ģà¸ Ī
à¸²à¸¥ à¸²à¸¥
Ġà¸Īà¸²à¸Ļ à¸Ķà¸²à¸§à¹Ģà¸Ĺ
Ġà¸ģà¸²à¸£ à¹Ģà¸Īà¸²à¸°
Ġà¸Ĭ à¸Ļà¸Ļ
t ac
Ġà¸Ľ à¸§à¸Ĭ
Ġà¸ģà¸²à¸£à¸Ĭ à¸¥à¸Ľà¸£à¸°à¸Ĺà¸²à¸Ļ
Ġà¸² à¸ĩà¹Ĩ
ĠY oung
Ġà¹ģà¸ī à¸°
Ġà¸® à¸²à¸¥à¸²à¸¥
or es
à¸ĸ à¸Ńà¸Ļ
Ġà¸Ĥà¸Ń à¹Ģà¸§à¸¥à¸²
Ġà¸Ĺà¸²à¸ĩ à¹ģà¸¢à¸ģ
à¸¢à¸¡ à¸¢à¸Ńà¸Ķ
æ Ī
Ġà¸ªà¸łà¸²à¸ŀ à¸ł
crip tion
c ol
ĠAM D
à¸Ļ à¹ģà¸¥à¸Ļà¸Ķ
ĠD J
Ġà¸ģà¸²à¸£à¸Ħà¸²à¸Ķ à¸ģà¸²à¸£à¸ĵ
Ġ( "
} .
à¹Ģà¸£ à¸¢
Ġà¸ŀà¸Ń à¸Ħà¸§à¸£
~ ~
Ġà¸«à¸¡ à¸²à¸Ķ
Ġà¸¨à¸²à¸¥à¸²à¸ģà¸¥ à¸²à¸ĩà¸Ī
ĠR oll
à¸ģà¸ĩà¸²à¸Ļ à¸Ħà¸ĵà¸°à¸ģà¸£à¸£à¸¡à¸ģà¸²à¸£
Ġà¸ķà¸° à¸Ĥà¸Ń
Ġà¸ľà¸¥ à¸ªà¸³à¸£à¸§à¸Ī
Ġà¸ģà¸²à¸£à¸Ħ à¸¡à¸Ļà¸²à¸Ħà¸¡
Ġà¸Ĺà¸° à¸¢à¸²à¸Ļ
ĠD yn
ĠChe ck
Ġ old
Ġà¸§ à¸¡
à¸ģà¸£à¸° à¸ķ
Ġp op
AC E
à¹ģà¸Ĺà¸£à¸ģ à¹Ģà¸ķà¸Ńà¸£
Ġm edia
Ġà¹Ĥà¸ķ à¸¡à¸²
Ġs o
Ġà¸Ħà¸§à¸²à¸¡ à¸ļà¸£
Ġà¹Ģà¸ªà¸Ļà¸Ń à¸Ĭ
Ġà¸ªà¸¡ à¸ģà¸²à¸£
ĠD rop
Ġà¹Ħ à¸Ĭà¸Ļ
P A
à¸²à¸ĩ à¹ģà¸Ķà¸Ļ
ann a
Ð¾Ð ¼
Ġà¸ªà¸§à¸Ļ à¸Ĺà¸²à¸ĩ
Ġà¹Ĥà¸£ à¸ļ
ĠSh in
Ġà¸ªà¸²à¸¢ à¸¥
à¸¡ à¹ģà¸¢
Ġà¸Ħà¸ĵà¸° à¸¨
à¸ŀ à¸Ńà¸²à¸ģà¸²à¸¨
à¸ŀà¸£à¸° à¸Ńà¸ĩà¸Ħ
Ġ27 0
Ġà¸¿à¸¿ à¸¿
ĠS elf
un a
w eb
ĠComp any
à¸¥ à¸ŀ
ĠT own
Ġà¸Ľà¸£à¸°à¸Ĭ à¸²à¸Ĭà¸²à¸ķ
row ser
Ġà¸£à¸ĸ à¹ģà¸Ĺà¸£à¸ģà¹Ģà¸ķà¸Ńà¸£
à¸¶ à¹Ĭ
ĠC ert
à¸ģà¸£ à¸²à¸Ļ
ĠM oon
à¸§à¸Ķ à¸«à¸¡
D r
Ġà¸ģà¸¥à¸²à¸ĩ à¸Ľ
ĠL A
ick s
ĠSqu are
Ġ( +
Ġà¸¨à¸²à¸¥ à¸£
est yle
à¸²à¸¢ à¹Ģà¸Ńà¸ģà¸ªà¸²à¸£
Ġà¸Ĺà¸«à¸²à¸£ à¹Ģà¸£
Ġtag ged
à¸Ľ à¸ªà¸¡
ĠOly mp
à¸²à¸ĩ à¹Ģà¸ľ
à¸Ńà¸ĺ à¸ĩ
ĠQual ity
yr ight
IT E
Ġc ase
à¸Ħà¸§à¸²à¸¡ à¹ĥà¸Ħà¸£
ĠS ant
à¸Ī à¸Ħà¸§à¸²à¸¡à¹ĥà¸Ħà¸£
Ġà¸ªà¸£ à¸ĵ
à¹Ī ,
Ġà¸Ħà¸§à¸²à¸¡à¹Ĥ à¸ģà¸£à¸ĺ
à¸Ľà¸ªà¸¡ à¸ļà¸Ĺ
à¹Ħ à¸ķ
y ch
ĠW ill
Ġà¸ªà¸²à¸£ à¸¥à¸°à¸¥à¸²à¸¢
sh ot
à¸¢à¸Ķ à¸Ń
Ġà¸Ī à¸Ī
ĠB ud
it ing
ĠÄ ģ
à¸Ļà¸«à¸¥ à¸²à¸¡
à¸ªà¹Ģà¸ķ à¸¢
Ġà¸¡à¸²à¸ģà¸ «
Ġà¸Ńà¸²à¸Ļ à¸Ļà¸Ĺ
à¸ģà¸ĸ à¸Ńà¸Ļ
al d
à¸ĩ à¸§à¸Ļ
à¸¡ à¸Ńà¸Ļ
Ġà¸Ľà¸²à¸ģà¸ Ħ
Ġnew s
Ġà¸¡à¸°à¸¥à¸° à¸ģà¸Ń
à¸£ à¸²à¸§
Â ł
à¹Ģà¸§ à¸£
à¸ģà¸© à¸²à¸ª
ĠB S
ĠT on
Ġà¹Ĥà¸®à¸¡ à¸ªà¹Ģà¸ķà¸¢
Ġb b
o es
à¸Ľ à¸¢
à¹Ģà¸ļ à¸Ļ
ĠSam ara
E I
ĠSe ven
à¹ĳà¹ĳ à¹ĳà¹ĳ
Ġc op
à¸¡à¸² à¹Ģà¸¢
ĠAc er
ĠA qu
ĠCon d
ĠM at
à¹Ģà¸¢ à¸Ńà¸£
à¸ļà¸ª à¸²à¸¢
ĠM ad
à¸Ķà¸ŀà¸£ à¸²à¸ģ
c ont
ĠJ ust
ĠWord Press
Ġà¸ļà¸£à¸£ à¸ĵà¸²à¸ĺ
ĠV ersion
Ġà¸ª à¸Ńà¸¢
UR E
æ ĺ
Ġà¸Ĩà¸²à¸ķ à¸ģà¸£à¸£à¸¡
à¸Ń à¹Ģà¸Ł
à¸ĩ à¸ģà¸¥à¸²à¸ĩ
Ġà¸ķà¸£à¸§à¸Ī à¸§
ĠSt ep
Ġc al
ĠY amaha
ĀĀĀĀĀĀĀĀ ĀĀĀĀĀĀĀĀ
erson al
à¸Ķ à¸Ħà¸§à¸²à¸¡
ĠC os
à¹Ģà¸¥à¸Ĥ à¸²à¸ĺ
Ġà¸Ĺà¸²à¸ĩ à¹ģà¸ģ
Ġà¹Ĥà¸ļ à¸ģ
ĠAss oc
à¸ķ à¸£à¸°
as at
à¸²à¸Ķ à¸²
Ġà¸«à¸¡ à¸Ńà¸Ķ
à¸²à¸Ļ à¸²à¸Ļ
Ġà¹Ģà¸§à¸¥ à¸ª
Ġà¸ªà¸¡ à¹ĥà¸Ī
Ġà¸¡à¸« à¸²à¸Ń
Ġà¸ª à¹ģà¸Ħà¸§à¸£
ĠS AM
Ġà¹Ģà¸ Į
ĠSp a
ĠRes id
Ġà¸ķà¸£à¸§à¸Ī à¸£à¸²à¸Ĭà¸ģà¸²à¸£
Ġh as
Ġd ec
hleb ectomy
à¸£à¸²à¸Ĭ à¸¢
ĠWar s
Ġà¸ķà¸°à¸ģ à¸Ńà¸Ļ
Ġà¸ľà¸¥ à¸°
Ġà¹Ħà¸§ à¹Ħà¸Ł
Ġg irl
à¸Ľ à¹Ħà¸Ĥ
Ġph ot
Ġà¸¢à¸ģ à¸Ļ
s en
Ġà¸§à¸²à¸Ķ à¸£
ĠInstit ute
ĠD av
Ġà¹Ĥà¸¡ à¸£
uck ing
Ġà¸£ à¸Ļà¸Ķ
à¸²à¸§ à¹Ĥà¸Ń
ibr ary
Ġà¸ľà¸¥ à¸ªà¸³à¹Ģà¸£
is ion
Ġà¸ģà¸£à¸²à¸ Ķ
Ġà¸ģà¸²à¸ĩà¹Ģà¸ģà¸ĩà¸Ĥ à¸²à¸¢à¸²à¸§
ĠM all
Ġà¸Ĺà¸²à¸ĩ à¹ĥà¸ķ
ag n
Ġà¸ķ à¸§
uk et
Ġà¸Ĺ à¸Ńà¸¢
à¸Ńà¸£ à¸«
à¸¢à¸ĩ à¸ķà¸£à¸ĩ
ar p
Ġp ack
à¸²à¸£ à¸Ń
à¸¢à¸Ĥ à¸Ńà¸Ļà¹ģà¸ģ
Ġà¹ģà¸ªà¸ķ à¸¡à¸Ľ
ĠA TM
à¸ģà¸ ®
à¸¢à¸ļ à¸§
à¸Ńà¸ĩà¹Ĥ à¸«à¸§
ĠV or
Ġc ell
ĠK ids
ĠB et
Ġ[... ]
Ġà¸Ķà¸²à¸§ à¹Ģà¸£
Ġà¸ĩà¸²à¸Ļ à¹ģà¸ªà¸Ķ
à¸Ļà¸ĺ à¸ģ
Ġà¹Ĥà¸Ĺà¸£ à¸ªà¸²à¸£
à¸İ à¸²
E x
Ġà¸² à¸²à¸²
Ġà¸Ń à¸ªà¸¡
Ġà¹Ģà¸¡ à¸Ħ
Ġà¸Ĺ à¸ª
Ù İ
à¸Ļà¸¢ à¸²
Ġm ake
Ġà¹Ģà¸Ńà¸²à¹ĥà¸Ī à¸Ĭ
Ġà¸Ńà¸²à¸«à¸²à¸£ à¸ª
Ġà¹Ģà¸ŀà¸²à¸° à¹Ģà¸¥
ï¿½ï¿½ï¿½ï¿½ï¿½ï¿½ï¿½ï¿½ ï¿½ï¿½ï¿½ï¿½ï¿½ï¿½ï¿½ï¿½
Ġà¹Ĥà¸ĸ à¸ĩ
P oint
ĠÐ ¼
Ġà¸Ĭà¸²à¸¢ à¸Ĺà¸°à¹Ģà¸¥
ĠC ell
Ġà¹Ħ à¸ŀà¸¥
ĠN G
à¸²à¸Ļ à¹Ģà¸Ĭ
à¸Ħ à¸²
ĠDe p
Ġà¹Ĥà¸¡ à¸Ķ
Ġà¸Ĥ à¸Ńà¸¡
Ġà¸ģà¸£à¸°à¹ģà¸ª à¸Ĥ
Ġà¹Ģà¸Ĭ à¸©à¸Ĳ
Ġà¸ªà¸Ļà¸²à¸¡ à¹Ģà¸Ķ
à¹Ģà¸£ à¹Ģà¸Ļ
Ġà¹Ģà¸ļà¸¥ à¸Ń
à¸¨à¸²à¸¥ à¸ģà¸¥
ĠPan asonic
ĠBu y
à¸«à¸¥ à¸²à¸Ļ
ĠQu ick
à¸Ķ à¸Ńà¸Ńà¸ģ
Ġà¸Ħà¸³ à¸ļà¸£à¸£à¸¢à¸²à¸¢
Ġà¸Ħà¸ļ à¸«à¸²
Ġg roup
ĠAS US
Ġà¸Ħà¸§à¸²à¸¡ à¸ł
Ġà¸ªà¸¢à¸Ńà¸ĩ à¸Ĥà¸§
Ġà¸Ľà¸§ à¸Ķà¹Ģà¸¡
h i
à¸Īà¸ŀà¸£à¸° à¹Ģà¸Ī
ĠBu ff
Ġà¸¿ .
à¸Ļà¸¡à¸° à¸ģà¸Ńà¸ģ
à¸ģà¸²à¸£ à¹Ģà¸ģà¸©à¸ķà¸£
ell er
Ġà¹Ģà¸Ĺà¸ŀ à¸Ļ
Ġà¸ŀà¸£à¸° à¸Ńà¸£à¸«
Ġà¸Ŀ à¸Ńà¸¢
Ġà¸Ķ à¸Ĺ
à¸²à¸¢ à¹Ħà¸Ł
l ook
Ġà¸ªà¸¡ à¸£à¸ł
Ġn b
A n
Ġà¸« à¸Ńà¸Ħà¸Ńà¸¢
ĠOpt ion
à¸²à¸ļ à¸£à¸£à¸ĵ
Ġà¹ĥà¸Ļà¸Ļà¸²à¸¡ à¸Ĥà¸Ńà¸ĩ
s a
ĠSl ot
Ð¸ ÑĤ
à¸£à¸£à¸¢ à¸²à¸ļà¸£à¸£à¸ĵ
ĠLe ague
à¸ķ à¹Ģà¸ªà¸£
un k
Ġà¸Ļà¸²à¸¢ à¹ģà¸ļà¸ļ
à¹Ĥà¸Ĭ à¸§
ĠH OT
à¸ķ à¸ľà¸¥
Ġà¸§à¸Ń à¸Ĭ
Ġg ood
Ġà¸ŀà¸£à¸° à¸ķà¸³à¸«à¸Ļ
à¸Ļ à¹Ģà¸¢
Ġà¸ģà¸²à¸£à¸Ľ à¸¥à¸Ķ
Ġfal se
ĠE UR
Ġà¸Ī à¸£à¸£à¸¢à¸²à¸ļà¸£à¸£à¸ĵ
à¸§à¸ĩ à¸¥
à¸ģ à¹Ģà¸ķà¸Ńà¸£
à¹Ħà¸ĭ à¹Ģà¸Ļà¸Ńà¸£
ĠD ist
os a
à¸Ĺ à¸ķ
ĠD E
Ġà¸ķà¸¥à¸Ńà¸Ķ à¸¡à¸²
f ox
Ġb o
à¸Ńà¸ĩ à¹Ģà¸Ĭ
ĠF ish
Ġà¹ģà¸ĸ à¸§à¸«à¸Ļ
à¸Ļ à¸Ľà¸£à¸°
Ġt em
à¸ģà¸« à¸£à¸Ń
Ġà¸į à¸į
Ġà¸ļà¸Ļà¸ļà¸²à¸Ļ à¸¨à¸²à¸¥à¸ģà¸¥
ĠC AT
ad ow
à¸ļ à¹ĥà¸Ļ
op ath
à¸Ķà¸Ĥ à¸²à¸¢
à¹Ĥ à¸Ńà¸£à¸ª
Ġà¸ŀà¸£à¸° à¸£
Ġà¹ģà¸ľà¸Ļ à¸łà¸²à¸ŀ
Ġà¸Ĺà¸²à¸ĩ à¸ķà¸£à¸ĩ
Ñ İ
ĠTe le
Ġt ype
Ġà¹ĥà¸ļ à¹ģà¸Ķà¸ĩ
ðŁ Ķ
à¸²à¸ĩ à¸Ħà¸§à¸²à¸¡à¸ª
à¸Ĺà¸ĺà¸¨ à¸²à¸ªà¸Ļ
s o
ĠC iv
ĠC art
Ġà¸ªà¸²à¸¢ à¸¥à¸¡
Ġà¹ĥà¸Ī à¹Ģà¸ķ
Ġà¸¥à¸Ķ à¸²
Ġà¸Ħà¸§à¸²à¸¡à¸ª à¸ĩà¸ª
à¹ģà¸« à¸¥
å º
à¹Ĥ à¸ł
m it
Ġà¸¢à¸²à¸Ļ à¸Ļà¸²à¸§à¸²
Ġà¹Ĥ à¸«à¸¢
Ġà¸£à¸ĸ à¸Ľà¸£à¸°à¸Īà¸³à¸Ĺà¸²à¸ĩ
à¸ķà¸£ à¸«à¸¥à¸²à¸Ļ
ĠTr end
Ġà¹Ĥà¸Ľà¸£à¹Ĥà¸¡ à¸ķ
à¹Ī à¹Ī
å½© ç¥¨
or al
à¸¡à¸« à¸°
Ġà¹ģà¸Ĺà¸£ à¸ģà¸ĭ
ĠHON DA
ond on
ĠM er
Ġà¹Ģà¸Ĭ à¸ĭ
Ġà¹Ģà¸ª à¸¡à¸«à¸°
Ġà¸Ĺ à¸²à¸ģ
Ġ25 39
Ġà¸ģà¸ ¢
à¸Ļ à¸«à¸§
à¸ĩ à¹ģà¸¥
à¸ľà¸¥ à¸ªà¸³à¹Ģà¸£
ĠTh amm
Ġà¹Ģà¸§à¸¥ à¸²à¸Ĺà¸³à¸ĩà¸²à¸Ļ
Ġche ck
crip t
Ġà¸Ļà¸¤ à¸¡
ĠTit le
Ġà¸¡ à¸²à¸Ļà¸ŀ
à¸ķ à¸Ńà¸ĩ
Ġà¸Ħà¸§à¸²à¸¡ à¹Ģà¸ŀ
ĠN O
Ġà¹Ĥà¸¡ à¹Ĥà¸«
in um
ĠS bobet
ĠI de
à¸Ļà¸Ĺà¸£ à¸²à¸¢
Ġà¹Ģà¸§ à¸Ł
Ġà¹Ģà¸Ĺà¸£à¸Ķ à¹Ģà¸Ķà¸Ńà¸£
Ġà¸Ķà¸Ńà¸ģà¸ ģ
à¸± ...
Ġà¸Ħà¸§à¸²à¸¡à¸ª à¸Ķ
Ġd vd
à¸ļ à¸¢à¸Ļà¸ķ
Ġà¸Ļà¸³ à¸«à¸Ļ
à¸ĺà¸Ļ à¸²à¸Ħà¸²à¸£
Ġà¹Ħ à¸ī
Ġà¸ļ à¸²à¸ķà¸£
ĠW ash
ĠR ou
Ġà¸¡à¸£ à¸ĵà¸°
Ġà¸Ń à¸²à¸¡
à¸Ńà¸ĩà¸Ħ à¸Ķ
à¸Ľ à¸«à¸Ļ
à¸²à¸¢ à¹Ĥà¸Ĩà¸©à¸ĵà¸²
Ġà¸£ à¸¡à¸¢
Ġà¹ĥà¸Ļà¸Ĺà¸²à¸ĩ à¸ģà¸¥
Ġà¸Ħà¸£à¸ļ à¸Ĭ
U P
à¸Ĥ à¸ļ
osp ital
Ġà¸Ħà¸Ļ à¸ķà¸²à¸¢
ĠI ce
Ġà¸ģà¸£à¸°à¹ģà¸ª à¹Ģà¸¥
Ġup date
à¸² à¹Ģà¸Ŀ
à¸Ń à¹ĥà¸Ĭ
ĠO P
Ġà¸Ļ à¸Ńà¸ĩ
u es
à¸Ń à¹Ģà¸ļà¸Ńà¸£
ĠS aint
à¸ģà¸ĩà¸²à¸Ļ à¸Ľà¸¥
à¸ĩà¸Ľ à¸Ńà¸ĩ
Ġà¸ŀ à¸²à¸«à¸Ļà¸°
Ġm ac
à¸Ļà¸ªà¸²à¸¢ à¸ķà¸²
ur al
à¸¢à¸Ļ à¹Ģà¸Ĭ
ĠL ee
Ġ08 3
Ġà¸£à¸°à¸ļà¸Ńà¸ļ à¸Ľà¸£à¸°à¸Ĭà¸²à¸ĺ
à¸Ļà¸ķ à¸³à¸£
ĠK B
ĠP ot
Ġà¸Ľà¸£ à¸Ńà¸Ĺ
Ġà¸ģà¸²à¸£ à¸Ľà¸£à¸°à¸ªà¸²à¸Ļà¸ĩà¸²à¸Ļ
ĠP ure
à¸³ à¸Ľà¸¥
Ġ14 5
Ġà¹ģà¸ģà¸ ¡
ĠB io
ĠV illa
ĠM oto
Ġà¸Ļà¸²à¸¢ à¸Ķ
y al
âĢ¦ .
Ġà¸ł à¸²à¸ĵ
Ġà¸ģà¸³ à¸Ĭ
ĠE ye
Ġà¸ļ à¸ľ
ĠD own
Ġà¸£à¸Ńà¸ĩ à¸¨à¸²à¸ªà¸ķà¸£à¸²à¸Īà¸²à¸£à¸¢
à¸ĩ à¸¥à¸ĩ
à¸ļ à¸Ńà¸ģ
Ġà¸ĩà¸²à¸Ļà¹ģà¸ªà¸Ķ à¸ĩà¸ª
à¸²à¸Ī à¸²à¸£
à¸Ļà¸ª à¸³à¸£
à¸ģà¸£ à¸²à¸¢
Ġà¸ķà¸£à¸ĩ à¸ķ
Ġà¹ģà¸¢ à¸ģà¸Ĺà¸²à¸ĩ
Ġà¹Ģà¸Ľà¸¥ à¸§
Ġ09 2
ĠSp e
Ġworld sb
Ġà¸ªà¸ķà¸£ à¸Ńà¹Ģà¸ļà¸Ńà¸£
ĠPin worms
Ġà¸ī à¸²à¸ĩ
Ġworldsb iz
ĠðŁĳ ī
ĠT G
ĠH TML
ĠI ll
à¸Ńà¸ĩ à¹Ģà¸Ĥ
L C
Ġà¹Į âĢĿ
ch i
à¸²à¸§ à¸ģ
Ġà¸Ħà¸§à¸²à¸¡ à¹Ħà¸Ķ
ĠApr il
Ġà¹Ģà¸¡ à¸Ī
ing ton
Ġà¹Ģà¸ ĵà¸£
Ġpr ice
ĠI EL
ĠT al
à¸Ĭ à¸ģà¸£à¸£à¸¡
ĠN a
Ġà¸Ŀ à¸²à¸Ħà¸£à¸Ńà¸ļ
Ġà¹Ģà¸īà¸ŀà¸²à¸° à¸ģ
Ġ12 2
Ġà¸Ĺà¸³à¸¡ à¸²à¸«à¸²à¸ģ
ab insk
Ġà¸ģà¸£ à¸²à¸§
à¸ķ à¸¨
ĠD M
Ġà¹ģà¸¢ à¸ģà¸¢
Ġà¸ķà¸Ńà¸Ļ à¸ķ
Ġà¸ļà¸§à¸¡ à¸Ļ
ĠVit amin
Ġà¹Ĥà¸Ń à¹Ģà¸¡
Ġà¸ģà¸£à¸²à¸ļ à¹Ħà¸«à¸§
à¸²à¸Ĭà¸²à¸¢ à¹Ģà¸¥à¸Ļ
Ġg old
ĠÂ Ń
à¸¢à¸ĩ à¸¥à¸³à¸Ķ
Ġà¸Ħà¸§à¸²à¸¡à¹Ģà¸¡ à¸ķà¸ķà¸²
Ġà¹Ĥà¸Ĺ à¸£à¸¡
ĠCh ely
ä ¼
Ġà¸¥ à¸²à¸ļ
Ġà¸¢à¸²à¸¡ à¸²à¸®
Ġl ist
à¸ªà¸²à¸£ à¸°
ĠChely abinsk
pr ise
ĠCreat ive
ĠE ffect
Ġà¸ģà¸£à¸¡ à¸§
à¸ģ à¸Ńà¸ĩ
Ġà¸¥ à¸ģà¸²à¸£
à¸ģà¸ģà¸²à¸£ à¸ķà¸¥à¸²à¸Ķ
Ġà¹Ģà¸ķ à¸²à¸£
Ġà¸Ľà¸§à¸Ķ à¸¨
g g
à¸Ĺà¸ĺ à¸ļà¸²à¸Ĺ
ĠBr id
à¸Ĭ à¸ªà¸¡
Ġà¸ģà¸Ł à¸ľ
s m
ir m
à¸²à¸ģà¸« à¸¥
Ġà¸Ĥà¸Ļà¸¡ à¹Ħà¸Ĺà¸¢
à¸§ à¸«à¸Ńà¸¡
Ġ11 6
à¸ĩà¸Ĥ à¸¥
à¸¡ à¸²à¸¨
Ġo il
Ġà¸ģà¸£à¸°à¸Ĺ à¸ĩ
Ġà¹Ĥà¸Ķà¸¢ à¹Ģà¸«à¸ķ
op ol
Ġà¸£à¸§à¸¡ à¸Ħà¸§à¸²à¸¡
u o
Ġc all
à¸ĩà¸ģà¸³ à¹Ģà¸Ļ
Ġt i
à¸Ĺ à¹Ĥà¸ĺ
à¸©à¸İ à¸²
ĠHy d
clus ive
Ġ31 0
à¸¢à¸ª à¸ĩà¸Ĥà¸¥
à¸¢à¸ªà¸ĩà¸Ĥà¸¥ à¸²à¸Ļà¸Ħà¸£
ĠP ORN
ĠP OS
Ġh i
Ġin s
D C
Ġà¸¥à¸Ķ à¸«à¸¢
an el
Ġe le
ĠInf in
à¸Ļ à¹ģà¸Ĺ
Ġ ul
ĠS ix
Ġà¸Ńà¸Ńà¸ģ à¹Ĥà¸£à¸ĩ
Ġà¹Ģà¸Ĭ à¸ª
Ġà¸ī à¸²à¸ģà¸«à¸¥
ĠII I
à¸ĩ à¹Ģà¸ĩ
à¸ļ à¹Ĩ
ĠT OP
à¸²à¸Ĺ à¸²à¸Ļ
ĠT ext
ĠF ive
angu age
ab ility
à¸Ń à¹Ĥà¸Ĩà¸©à¸ĵà¸²
à¸Ķà¸ģà¸²à¸£ à¸Ĺ
Ġà¸®à¸Ńà¸¥ à¹ģà¸¥à¸Ļà¸Ķ
ill er
à¸Ńà¸ģ à¸Ń
ĠF ocus
Ġà¸Ħà¸Ńà¸¡ à¹Ģà¸¡
Ġ11 7
ĠN i
Ġà¸² à¸ģ
Ġà¹ĥà¸« à¸Ļ
K Y
à¸ģà¸ģ à¸²à¸Ķ
Ġcont rol
Ġ! âĢĿ
à¸ļ à¸²à¸Ń
à¸ļà¸²à¸Ń à¸²à¸Īà¸²à¸£à¸¢
Ġ900 1
Ġà¹Ģà¸Ĺ à¸¨à¸Ļ
Ġà¸Ńà¸Ńà¸ģ à¸£à¸ĸ
ĠA EC
ĠW OR
ĠT ak
à¸Ħà¸Ħà¸¥ à¸ĺà¸£à¸£à¸¡à¸Ķà¸²
à¸Ķ à¹ĥà¸«à¸į
ĠProm otion
à¸ģà¸ĩà¸²à¸Ļ à¸ķà¸³à¸£à¸§à¸Ī
à¸ģà¸ĩà¸²à¸Ļà¸ķà¸³à¸£à¸§à¸Ī à¹ģà¸«
m i
Ġb ro
Ġà¹Ħà¸Ł à¹ģà¸£à¸ĩ
à¸ģà¸Ķ à¸²
ĠR F
Ġà¸« à¸§à¸Ķ
Ġà¸Ĺà¸²à¸ĩ à¹Ħà¸Ľà¸£à¸©à¸ĵ
Ġi Get
ĠT F
ĠO k
reat ment
ĠN C
ĠC OL
ĠV en
Ġà¸ļà¸£à¸£à¸Ī à¸ļ
v o
à¸²à¸§ à¸Ń
ons ter
à¸Ń à¸Ľà¸£à¸°à¹Ĥà¸¢à¸Ĭà¸Ļ
ĠT re
à¸ĩ à¹Ģà¸Ĥà¸²
ĠI Q
en ch
Ġ22 5
ĠD O
ĠIn vest
ĠR T
Ġà¸Ħà¸² à¹ģà¸£
æ ī
Ġà¹ģà¸Ń à¸Ħà¸Ĭ
Ġà¸Ħà¸£à¸ļ à¸ģà¸³à¸«à¸Ļà¸Ķ
ff ic
ĠB ad
ĠAl t
ĠInd ex
à¸ģà¸¥à¸² à¹Ĥà¸«à¸¡
ers h
Ġà¹Ħà¸Ĺ à¹Ģà¸Ľ
à¹Ģà¸ŀ à¸Ńà¸£
ĠH er
ĠL if
b el
Ġà¹Ĥ à¸īà¸ļ
Ġl ight
Ġ100 00
Ġà¹Ģà¸ªà¸¡ à¸Ńà¸¡à¸²
Ġà¸¤ à¸²à¸©
ĠW el
ĠiGet Web
à¹ĥà¸Ļ à¹Ģà¸ģà¸ĵà¸ĳ
ĠK M
Ġà¸Ĺà¸£à¸ĩ à¸ķ
Ġà¸Ĥà¸Ńà¸ļ à¸Ł
az ole
ĠIEL TS
à¸Ńà¸ģà¸ Ĺ
Ġà¸ŀà¸£à¸°à¹Ģà¸Ī à¸Ķ
ĠM ont
à¹ģ à¸Ńà¸£
way s
ĠMuse um
à¸Ńà¸Ļ à¸Ľà¸¥à¸²à¸¢
Ġs ale
Ġà¹ģà¸£à¸ĩ à¸ģà¸Ķà¸Ķ
enz a
Ġà¸Ń à¸²à¸įà¸²
ĠAu gust
ĠÃ ¨
ĠBr ight
Ġà¸ģà¸²à¸£à¸Ĺ à¸£à¸²à¸ļ
Ġà¸² à¸«à¸Ļà¸Ķ
z er
Ġà¸ĺà¸Ļà¸²à¸Ħà¸²à¸£ à¸ģà¸¥à¸²à¸ĩ
à¸Ļà¸²à¸£ à¸²à¸¢à¸ĵ
Ġà¸ĭà¸²à¸ļ à¸ĭ
Ġà¸Ļ à¸ł
à¸Ńà¸¢ à¹Ĥà¸Ńà¸ģà¸²à¸ª
ĠB IG
ĠUn der
ans om
à¸Ī à¸£à¸²à¸Īà¸£
Ġà¸Ľà¸£à¸°à¸ª à¸ģ
oc c
Ġà¸ĺà¸Ļ à¸°
ĠâĢĿ )
à¸Ĺ à¸²à¸¢
Ġà¹Ĥ à¸Ńà¸¡
ĠR estaurant
à¸Īà¸ŀà¸£à¸° à¸ª
Ġà¸Ķ à¸Ļ
à¸²à¸Ļ à¸²à¸ĩ
s l
à¹Ħ à¸Ńà¸ŀ
Ġp hlebectomy
ĠJ ava
ĠUn ited
à¸ĩ à¹Ħà¸Ķ
Ġà¸Ĭ à¸į
Ġà¸Ľà¸£à¸° à¸¥à¸Ńà¸ĩ
à¸¢à¸ĩ à¸ķ
im al
Ġà¸ªà¸§à¸Ļ à¸Ļ
eng th
Ġhell ip
Ġà¹Ģà¸¡ à¸Ķ
ĠG reat
e en
ĠP aint
à¸ªà¸¡ à¸Ńà¸ĩ
++ ++
b kk
Ġà¸£ à¸²à¸¡à¸²
à¸ļ à¸ļà¸£
Ġ4 20
ĠT ro
AC H
à¸ģà¸²à¸£ à¸ª
ĠM IT
ĠWh at
à¹Ħà¸Ķ à¸Ńà¸Ńà¸ģà¹Ħà¸ĭà¸Ķ
Ġà¸Ħà¸¥ à¸³
ĠG ift
Ġ Ø§ÙĦ
Ġà¸£à¸²à¸ģà¸ Ł
ĠK a
ĠServ ices
ĠFI FA
ĠJ azz
à¸ł à¸£à¸£à¸¢à¸²
ðŁ ĳ
Ġ ï¿½ï¿½
Ġ11 9
à¸Ķ à¹ģà¸Īà¸ĩ
à¸Ńà¸° à¸¡
Ġà¸Ħà¸Ń à¸ģà¸¥à¸¡
Ġà¸§ à¸£à¸£
Ġà¸¡à¸²à¸¢ à¸²
à¸²à¸ ī
Ġà¸łà¸²à¸ŀ à¹Ģà¸Ħà¸¥
ç İ
à¸ģà¸Ĺ à¸²à¸£à¸ģ
ĠHD D
à¸²à¸ŀ à¸£à¸£à¸©à¸²
ĠElect ric
Ġà¹Ĥà¸ł à¸Ĭà¸Ļà¸²
Ġà¸Ļà¸ģ à¹ģà¸ģ
à¸Ńà¸¡ à¹Ģà¸¢à¸²
Ġà¸¡à¸« à¸²à¸Ķ
Ġm ar
ĠE k
ĠM ate
Ġà¸ĸ à¸§
Ġ- --------------------------------
Ġà¹Ģà¸ŀà¸£à¸²à¸° à¹Ģà¸«à¸ķ
à¸ĩà¸¡ à¸§à¸¥
v sk
ĠMe et
ĠK al
Ġà¹ĳ à¹Ĳà¹Ĳ
à¸²à¸Ĥ à¸Ļà¸ª
à¸ªà¸£ à¸§à¸ĩ
Ġà¸£à¸²à¸¢ à¸ª
à¸Ĥ à¹ĥà¸Ī
Ġà¸£à¸Ńà¸¢ à¹ģà¸ķà¸ģ
ĠD T
Ġtr ue
m ai
c ar
ĠS ER
Ġà¸Ĺà¸²à¸ĩ à¹Ģà¸«à¸Ļ
è Ĥ
Ġà¹Ģà¸¥à¸Ĥà¸Ĺ à¸°à¹Ģà¸ļ
ĠSuk humvit
Ġà¹Ģà¸īà¸ŀà¸²à¸° à¹Ģà¸£
ys is
Ġà¸ģà¸£à¸Ķ à¸Ńà¸°à¸¡
ĠInnov ation
à¸Ń à¸£à¸°à¸ļà¸²à¸¢à¸Ļ
à¸²à¸Ļ à¸Ī
à¸Ĺ à¸ªà¸Ļà¸¡
od ia
à¸£ à¸²à¸ģ
Ġà¸Ł à¹ģà¸§à¸£
Ġà¸ģà¸£à¸° à¸Ļ
Ġà¸¡ à¸Ľ
Ġprotect ed
Ġà¸ª à¹Ģà¸ķà¸Ńà¸£
Ġà¹Ģà¸Ķ à¸£
ĠB C
ĠFil m
Ġà¸ģà¸£ à¸§à¸Ķ
Ġà¹Ģà¸§à¸¥à¸² à¹Ģà¸£
à¹ģà¸ ģà¸¥
Ġà¸Ļà¸²à¸ĩ à¸ĩà¸²à¸¡
Ġà¸¨à¸²à¸¥ à¸Ī
Ñ Ĩ
à¸Ńà¸¢ à¸«à¸Ļ
Ġà¹Ĥà¸Ń à¹Ĥà¸ĭà¸Ļ
Ġà¹ģà¸Ĺà¸£à¸ģ à¹ģà¸ĭà¸ĩ
U Z
Ġà¸ªà¸²à¸¢ à¸ª
ãģ Ĺ
ĠM K
Ġà¹Ĥà¸£à¸ĩ à¸Ńà¸²à¸«à¸²à¸£
Ġbr and
ori asis
Ġà¸ģà¸²à¸ķ à¸²à¸£
Ġà¸Ľ à¸²à¸ı
à¸ģà¸©à¸²à¸ķ à¸Ńà¸Ļà¸Ľà¸¥à¸²à¸¢
V A
à¸ļ à¸²à¸Ķà¹Ģà¸Ī
à¸ŀ à¹Ģà¸ŀ
ĠAs ian
one zh
a a
Ġ[ &
ĠHy brid
à¸¥ à¸Ĺà¸£à¸£à¸¨à¸Ļ
Ġ15 5
Ġà¸Ħà¸³ à¸§
Ġ" "
à ¥
Ġà¸Ĺà¸³ à¸Ļ
Ġà¸ª à¸ģà¸²
Ġà¸£ à¸²à¸«
à¹Ģà¸Ī à¸Ļà¸ĭ
Ġà¸Ńà¸²à¸£ à¸°à¹Ģà¸ļ
à¸²à¸Ľ à¸²
ĠVor onezh
Ġsp ec
à¸§à¸Ķ à¸³
ber g
Ġà¸Ńà¸Ķ à¹ĥà¸Ī
Ġà¸ķà¸£à¸°à¸ģà¸²à¸£ à¸ķà¸²
Ġà¸ŀà¸¥à¸²à¸Ķ à¹Ĥà¸Ńà¸ģà¸²à¸ª
ah oo
ĠM ade
ect ion
ĠC rown
on a
ograph y
à¸²à¹Ģà¸Ķ à¸¡
Ġà¸Ńà¸°à¸Ħ à¸²à¹Ģà¸Ķà¸¡
à¸Ħà¸Ħà¸¥ à¸Ĺ
à¸ļà¸¥ à¸¡
ĠIm age
Ġà¸ģà¸²à¸£ à¸¥à¸°
Ġà¸«à¸Ļ à¸²à¸Ļ
ĠD iamond
Ġl ife
Ġà¸Ļà¸²à¸¢ à¸ŀà¸¥
ĠJ ung
ab a
Ġà¸ķ à¸²à¸Ļ
ch an
p ire
à¸ļ à¸ī
Ġà¸§ à¸²à¸ªà¸Ļà¸²
ãĤ ¤
Ġtr ade
Ġà¹ģà¸ªà¸Ķ à¸ĩà¸Ļ
ĠS B
Ġs ol
Ġst ar
Ġà¸ķ à¸ģà¸¥
ĠEn ergy
Ġà¹Ĥ à¸£à¸°
à¸¡ à¸¥à¸°à¸¥à¸²à¸¢
à¹Ģà¸¥ à¸§
ĠL ist
Ġà¸Ĥà¸¢à¸²à¸¢ à¸ŀ
Ġà¹Ģà¸§ à¸Ń
à¸Ńà¸ŀ à¹Ģà¸ŀà¸Ńà¸£
Ġà¸ªà¸Ńà¸ļ à¸ľ
Ġh er
à¸Ńà¸Ļ à¸ģà¸£à¸°à¸Īà¸ģ
à¸Ļà¸² à¹Ģà¸¡à¸Ļà¸ķ
Ġà¸ģà¸ļ à¸ı
à¸Ńà¸ĩà¹ģà¸Ħ à¸¥
Ġà¸§ à¸§
Ġà¸ªà¸£à¸° à¸ľà¸¡
Ġà¸ŀà¸Ń à¸Ľà¸£à¸°à¸¡à¸²à¸ĵ
Ġh uman
Ġà¸ª à¹Ĥà¸¥
à¸ĩ à¹ģà¸Ħ
Ġà¹ģà¸§ à¸Ķ
ĠB eta
à¸«à¸²à¸£ à¸£à¸°à¸Ķ
ou gh
ĠL ap
Ġà¸ł à¸²à¸£
à¸Ń à¹Ģà¸Ĥ
Ġà¸Ń à¸ŀ
Ġdr iver
-------- ----
à¸Ļà¸²à¸Ļ à¸¡à¸²à¸Ļ
uck y
L INE
Ġà¸Ńà¸£ à¸«
Ġà¸«à¸²à¸¢ à¸ķ
Ġd erm
à¸Ļ à¹ĥà¸«
ĠP antip
Ġà¹Ģà¸Ń à¸²à¸Īà¸£
Ġà¹ģà¸ģà¸¥ à¹Ģà¸¥à¸Ńà¸£
Ġm ult
Ġà¸Ī à¸Ļà¸Ĺ
pro of
Ġà¸ľà¸ĩ à¸²à¸Ķ
Ġ12 6
eth er
Ġà¸Ħà¸²à¸Ķ à¹Ħà¸¡
Ġà¸ķ à¸²à¸ļà¸Ńà¸Ķ
or b
Ġà¹Ģà¸ĭ à¸Ļà¹Ģà¸ķà¸Ńà¸£
à¸į à¸Ħ
Ġà¸¡à¸Ńà¸ĩ à¸«à¸Ļ
f ield
ĠSnap dragon
à¹Ħ à¸ķà¸Ļ
Ġà¸Ŀ à¸²à¸ĩ
Ġà¹ģà¸Ļ à¸¡
Ġà¸ªà¸Ļà¸²à¸¡ à¸Ł
ĠGirl s
Ġl y
à¸²à¸Ļ à¸²à¸¡
à¸¢à¸§ à¸ŀ
Ġà¸¢à¸² à¹ģà¸ľà¸Ļà¹Ĥà¸ļà¸£à¸²à¸ĵ
à¸Ī à¸¡
******** ********
ĠP ool
à¸Ļà¸£à¸²à¸¢ à¹Ħà¸Ķ
à¸¡à¸Ļ à¸²à¸ªà¸ķ
à¸Ńà¸ĩ à¸Ĺà¸³à¸ĩà¸²à¸Ļ
à¸Ľà¸£ à¸²à¸Ļ
Ġt able
ĠIBC BET
à¸Ľà¸° à¸«à¸¥
h ib
à¸ģà¸Ĥ à¸£à¸°
uk e
Ġm eth
ĠBN K
à¸Ĺà¸¢ à¸Ĳà¸²à¸Ļà¸°
Ġà¸¥à¸° à¹ģà¸§à¸ģ
T ags
à¸²à¸Ļ à¸Ļ
Ġgener ic
Ġn ow
à¸§ à¸ģà¸²à¸£
00 1
à¸Ľà¸£à¸° à¸ŀ
Ġ our
it ure
Ġà¹ģà¸Łà¸¥ à¸ģà¸ĭ
à¸Ń à¸²à¸ĩ
à¸Ļà¸ª à¸³
à¸ĩà¸§à¸¥ à¹ĥà¸Ī
Ġà¸ĺà¸Ļà¸²à¸Ħà¸²à¸£à¸Ń à¸Ńà¸¡à¸ª
Ġà¸¥à¸Ķ à¸Ħ
ĠM ARK
ĠX P
Ġà¹Ĥà¸Ńà¹Ģà¸¡ à¸ģ
Ġà¸ĩ à¸Ńà¸Ļ
à¸ļà¸Ħ à¸³
Ġà¹Ĥà¸Ĭà¸Ħ à¸Ĭà¸°à¸ķà¸²
Ġc ons
à¸Ńà¸Ħà¸§à¸£ à¸£à¸°à¸§
Ġà¸ªà¸¡ à¸łà¸ŀ
ĠSh ort
ĠOct ober
ot ic
ĠTH B
ĠH S
Ġen l
Ġà¸Ī à¸§à¸Ļ
ĠF arm
à¸ģà¸ĺ à¸²à¸ķ
à¸Ļ à¸¡à¸²à¸ģ
Ġà¸Ħà¸³ à¸Ħà¸¡
Ġà¸Ħà¸Ļà¸£ à¸§à¸¢
Ġæ ľ
Ġà¸« à¸²à¸Ħà¸§à¸²à¸¡
Ġà¸Ĺà¸²à¸ĩ à¹Ģà¸£
ul ation
Ġà¸ŀà¸£à¸° à¸Ļà¸²à¸£à¸²à¸¢à¸ĵ
Ġà¸ģà¸²à¸£ à¸Ŀà¸²à¸ģ
à¸Ī à¸Ĥà¸Ļà¸²à¸Ķ
à¸¡ à¹Ģà¸Ń
ĠÐ¿ ÑĢ
Ġà¸ģà¸£à¸°à¸Ĺà¸£à¸§à¸ĩ à¸ģà¸¥à¸²à¹Ĥà¸«à¸¡
Ġs yn
in n
Ġà¸ªà¸²à¸¡ à¸§à¸²
Ġà¸£à¸ĸ à¸Ĥ
ĠTr i
à¸Ńà¸ļ à¸ļ
à¸ģà¸Ľ à¸²à¸ģ
Ġà¸ģà¸° à¹Ģà¸«à¸£
à¸¡à¸ŀ à¸²à¸ķ
Ġà¸ªà¸Ľ à¸Ńà¸Ļ
Ġ30 4
Ġà¹Ģà¸Ł à¸Ķ
Ġà¸«à¸¥ à¸Ńà¸Ļ
Ġà¸ķà¸²à¸¡ à¸¤à¸Ķ
à¸ķà¸£ à¸Ńà¸ĩ
ĠL ast
ain less
Ġà¸§à¸Ńà¸¥ à¸Ļ
à¸²à¸¡ à¸Ħ
ĠB ra
à¸Ń à¹Ĥà¸Ńà¸ģà¸²à¸ª
à¸ģà¸ļ à¸²à¸Ļ
Ġà¸Ńà¸²à¸ģà¸²à¸£ à¸Ľ
Ġà¸ĺà¸£à¸£à¸¡à¸Ķà¸² à¹Ĩ
ĠTh rombophlebitis
à¸± âĢĭâĢĭ
ĠF inal
Ġ25 38
à¸Ńà¸²à¸£ à¸²à¸¡
ĠM oo
âĢ ĵ
Ġà¹Ĥà¸Ľà¸£ à¸¢
ĠL evel
Ġà¹Ģà¸ģà¸£à¸ĩ à¹ĥà¸Ī
Ġà¸Ĭ à¸Ńà¸ĩ
Ġà¸Ħà¸ĵà¸° à¸Ħà¸£
Ġà¹Ĥà¸Ħà¸£à¸ĩà¸ģà¸²à¸£ à¸§
à¸² à¹Ĥà¸¡
ĠVal gus
Ġà¸ķà¸° à¹Ģà¸Ħ
Ġcl ick
ĠR en
ĠN ike
R E
à¸ķà¸Ļ à¸²à¸ĺ
ĠPass word
ĠW eek
Ġà¸Ħà¸¥à¸²à¸Ķ à¹Ģà¸Ħà¸¥
Ġà¸Ĺà¸²à¸ĩ à¸ļà¸ģ
Ġà¸Ľà¸£ à¸²à¹Ĥà¸¡
el le
ĠE A
Ġà¹ĥà¸ļ à¸Ľà¸¥
ew ay
à¸ŀà¸ŀà¸¥à¸²à¸¢ à¹Ģà¸Ńà¸Ńà¸£
Ġà¸ŀà¸£à¸° à¸Ńà¸²à¸£à¸²à¸¡
Ġ22 2
ĠâĢĿ ,
à¹Ģà¸Ī à¸¥
à¸Ńà¸Ļ à¹Ģà¸£
Ġà¸£à¸°à¸¢à¸° à¸Ļ
ĠThamm asat
Ġà¸ŀà¸£à¸°à¸£à¸²à¸Ĭ à¸ģà¸¤à¸©à¸İ
Â Ń
à¸ĩ à¸§à¸ĩ
over n
à¸Ľ à¸²à¸Ľà¸²
à¸Ļà¸ķà¸° à¸Ľà¸²à¸Ľà¸²
Ġ. âĢĿ
Ġà¹Ģà¸ļ à¸²à¸ļà¸²à¸ĩ
OM E
ĠM or
20 18
Ġà¸ģà¸£à¸°à¸Ī à¸²à¸Ļ
Ġà¹Ģà¸ªà¸¡à¸Ń à¹Ĩ
à¸Ļà¸ªà¸³ à¸Ľà¸°à¸«à¸¥
at ab
ag ement
Ġ16 5
Ġà¹Ģà¸ľà¸¢ à¹Ĥà¸īà¸¡
à¸ģà¸ŀ à¸¥
K O
Ġà¸ŀà¸Īà¸Ļ à¸²à¸Ļ
B e
Ġà¹ģà¸ªà¸Ķà¸ĩ à¸Ńà¸²à¸ģà¸²à¸£
à¸Ļ à¹Ģà¸Ĥ
à¸ģ à¹ģà¸ģ
à¸ĵà¸ĳ à¸ªà¸ĸà¸²à¸Ļ
ĠL iving
Ġà¸Ļà¸Ħà¸£ à¸«à¸¥à¸§à¸ĩ
Ġà¸ªà¸Ńà¸ļ à¹ģà¸Ĥ
Ġà¸¡à¸²à¸ª à¸ģ
ĠCS R
à¹Ħà¸¥ à¸ķ
ĠUnivers al
Ġà¸Ľà¸£à¸°à¸ªà¸ļ à¸ľà¸¥à¸ªà¸³à¹Ģà¸£
ðŁ Į
g l
t or
à¸Ļ à¸Ŀ
à¸Ńà¸¡ à¹Ģà¸ļ
Ġà ¤
Ġco ach
Ġà¸ŀà¸£à¸° à¸ŀà¸£à¸«à¸¡
ĠCry pt
à¸ĩà¸« à¸²à¸¯
Ġà¸ģà¸£à¸°à¸Īà¸²à¸¢ à¹Ģà¸ª
Ġà¸¨à¸²à¸ªà¸Ļ à¸²à¸Ń
à¹Ĥà¸£ à¸«
à¸² à¹ģà¸ľ
à¸©à¸¢ à¸Ĭà¸²à¸ķ
Ġà¸Ħà¸¥ à¸Ńà¸£
à¸²à¸¡ à¸Ĭà¸²à¸ķ
oc o
gr ade
I ES
k er
ĠÙ ħ
Ġà¸Ń à¸Ńà¸¢à¸¥
Ġà¸ļ à¸Ĭ
art s
ĠC and
w h
à¹Ģà¸Ļ à¸ķà¸£
Ġà¹Ħà¸Ł à¹Ģà¸¥
ĠOr iginal
Ġà¸ģà¸£à¸°à¸Ĺà¸£à¸§à¸ĩ à¸Ń
à¸°à¸Ļ à¸Ńà¸ĩ
à¸¡ à¸¥à¸ĩ
à¸Ļà¸Ħ à¸³
Ġ20 5
Ġà¸Ĭà¸²à¸§ à¹Ģà¸Ĥà¸²
c a
Ġac id
à¸§ à¸Ľ
ĠH A
ag er
ell ig
Ġà¹Ĥà¸Ķà¸¢ à¸Ķ
Ġd oc
Ġà¹Ģà¸Ķ à¸ļ
ĠTh ink
Ġpro ject
à¸Ń à¸Ħà¸£à¸Ńà¸ĩ
ĠP ad
ĠðŁ İ
AP AN
b oy
à¸²à¸ļ à¸²à¸§
b re
Ġà¹Ĥà¸Ń à¸§
à¸Ĥ à¸Ńà¸Ļà¸²à¸¡
Ġro yal
ĠJour nal
Ġbl ock
p al
Ġp ay
ĠCl ip
Ġà¹Ĥà¸Ķà¸¢ à¸Ľà¸£
à¸ģà¸© à¸²à¸Ļ
Ġà¸¥à¸²à¸¢ à¸¥
it o
Ġà¸ķà¸¥à¸²à¸Ķ à¸ªà¸Ķ
å Ń
à¸£à¸²à¸¢ à¸Ĭ
Ġà¹Ģà¸Ł à¸Ħ
Ġà¸£ à¸ĩ
ĠX M
Ġp rom
ĠE ar
ĠCh in
à¸ĩà¸ģà¸³ à¹Ħà¸£
Ġà¹Ģà¸ ļà¸ļ
ĠB Y
od erm
ant el
ĠV irtual
Ġà¸ĩà¸²à¸Ļ à¸Ńà¸Ķ
ĠÃ §
Ġà¸Ħà¸²à¸£ à¸²à¸ļà¸²à¸§
ĠMet al
à¸ļ à¹Ģà¸§à¸¥à¸²
à¸©à¸İ à¸²à¸ģà¸£
Ġà¸Ł à¸Ńà¸Ļà¸ķ
Ġ29 0
à ¯
Ġà¸Ń à¸²à¸Ķ
Ġà¸Ħà¸³ à¸ķ
Ð¸ Ð½
à¸Ħ à¸Ĩ
à¸ŀà¸¢ à¸²à¸Ļ
or er
Ġà¸ķà¸²à¸¡ à¸Ļ
om ic
à¸Ļà¸Ĺà¸Ļ à¸Ļà¸Ĺ
Ġà¸Ń à¸ģà¸«
à¸³ à¹Ģà¸¥
Ġà¹Ħà¸Ł à¸Ĺ
Ġà¸Ńà¸²à¸ĵ à¸²à¸Ļ
le ction
Ġà¸Ĭà¸° à¸ĩ
ĠC ine
if ul
Ġà¸ķà¸²à¸¡ à¸ª
ĠFr ont
ĠC AM
Ġde k
ĠJun e
à¸Ī à¸§
à¸ģ à¹ģà¸£à¸ģ
à¸Ħà¸£ à¹ĥà¸Ī
Ġà¸ĭà¸Ńà¸Ł à¸Ĺ
ĠD an
à¸Ħà¸¥ à¸Ńà¸ĩ
Ġà¸ķà¸²à¸¡ à¸ģà¸³à¸«à¸Ļà¸Ķ
Ġ4 000
ic tion
à¸Ļà¸Ĺà¸²à¸ĩ à¹Ħà¸ģà¸¥
are house
Ñ Ī
ĠR ights
Ġà¸§à¸ĩ à¹Ģà¸§
à¸¡à¸« à¸²à¸§
A r
Ġà¸ģ à¸£à¸£à¸ĵ
Ġà¹Ĵà¹ķ à¹ĵ
Ġà¸Ķà¸³à¸£à¸ĩ à¸Ĭ
n o
Ġà¸¢ à¸Ļà¸ķà¸£
Ġpro f
ĠS ee
ĠI g
ult ure
ĠM ajor
Ġà¸Ľà¸£à¸°à¸ģà¸Ńà¸ļ à¸Ńà¸²à¸«à¸²à¸£
ĠÄ ±
à¹Ħ à¸Ńà¸§
ĠBear ing
16 8
Ġà¸«à¸¡ à¸Ķà¹Ģà¸§à¸¥à¸²
Ġà¹Ĥà¸® à¹Ģà¸Ĺà¸¥
ĠUn c
Ġà¹ĥà¸ļ à¹Ģà¸«à¸¥
à¸¢ à¸ĸ
ric t
à¹ģà¸§ à¸§
à¸²à¸ª à¸¥
à¸Ńà¸ĩà¸Ķ à¸Ńà¸ĩ
Ġres ources
Ġà¸Ħà¸§à¸²à¸¡ à¹Ģà¸«à¸Ļ
Ġà¸Ĺà¸Ńà¸Ķ à¸Ĺ
ach i
Ġ25 37
Ġà¸« à¸²à¸¡
Ġà¹Ħ à¸Ħà¸¥
à¸¥à¸Ľ à¸«
ãģ §
ĠA K
Ġt im
Ġà¸Ħà¸£à¸ļ à¹Ģà¸Ħà¸£
Ġà¸Ħà¸Ńà¸Ļà¹Ģà¸Ĺ à¸Ļà¹Ģà¸Ļà¸Ńà¸£
Ġà¹Ģà¸§à¸Ĺ à¸¡à¸Ļà¸ķà¸£
Ġà¸¡ à¸²à¸ļ
ĠSU PER
ĠM D
ĠL ondon
Ġà¹Ĵà¹ķà¹ķ à¹Ĺ
, "
à¸¥à¸Ľ à¸¨à¸²à¸ªà¸ķà¸£
Q U
S port
ĠPr ivate
Ġà¸Ľ à¸§à¸ĩ
à¸¢à¸ĩ à¸Ħà¸§à¸²à¸¡
ĠC ash
âĢ İ
ĠC ru
Ġà¸ĺà¸£à¸£à¸¡ à¸²à¸ł
Ġà¸ĺ à¸¡
enc es
Ġà¸Ńà¸Ķ à¸Ńà¸²à¸«à¸²à¸£
Ġintern et
qu id
Ġà¸ķà¸Ńà¸Ļ à¸«à¸¥
à¸ģà¸£à¸°à¸ļ à¸Ńà¸ģ
Ġà¸ŀà¸¥à¸° à¸ģà¸³à¸¥
Ġà¸Ĳà¸²à¸Ļ à¸£à¸²à¸ģ
à¸ĩà¹Ģà¸ģà¸ķ à¸ģà¸²à¸£à¸ĵ
à¸Ħà¸§à¸²à¸¡ à¸¢
Ġdisgidrotichesk aya
Ġà¹Ĥà¸Ľà¸£à¹ģà¸ģà¸£à¸¡ à¸Ħà¸Ńà¸¡à¸ŀ
Ġn d
à¸§à¸ĩ à¹Ģà¸¥à¸¢
à¹ģà¸ª à¸Ļ
à¸£à¸Ńà¸ĩ à¸Ĭ
Ġà¹ģà¸Ń à¸Ń
Ġà¸ķ à¸²à¸ģà¸¥
à¸²à¸Ħ à¸£à¸Ńà¸ĩà¸Ĭ
Ġ19 5
ĠNik on
Ġ! ?
Ġà¹Ģà¸Ĭà¸Ł à¹Ĥà¸£
ĠMet er
Ġà¸ªà¸Ľà¸Ńà¸Ļ à¹Ģà¸ĭà¸Ńà¸£
ol der
Ġf irst
ats u
ĠJul y
à¸¢à¸ĩ à¹Ģà¸ļà¸Ļ
ĠUl t
à¸Ļ à¹ģà¸ľà¸Ļ
à¸¡à¸Ľ à¸²à¸ģ
ĠL ake
Ġ ÑĢ
Ġà¹Ģà¸Ńà¸Ĭ à¹Ħà¸Ńà¸§
ĠâĻ ¥
à¸¢à¸¡ à¸Ń
Ġ12 7
ĠH on
2 50
Ġà¹Ĥà¸Ī à¹Ĥà¸ī
ĠM ai
à¸Ĥ à¸łà¸²à¸§à¸°
à¸Ĺà¸³ à¸Ļà¸²à¸¢
à¸ĩà¸¡ à¸§à¸¥à¸Ĭà¸Ļ
Ġà¹Ĥ à¸Ńà¸ª
in ation
à¸Ľà¸£à¸°à¸ª à¸²
Ġà¹Ĥ à¸Ĩ
ĠA z
ĠH ello
Ð ³
Ġà¸Ńà¸£à¸£à¸ĸ à¸£à¸ª
à¸° à¸Ī
Ġà¸Ħà¸§ à¸Ń
Ġà¸¡à¸° à¸ģà¸£
Ġà¸Ľà¸£à¸°à¸ªà¸²à¸Ĺ à¸ķà¸²
à¸Ļà¹Ħ à¸«à¸¥
ex us
ĠB K
à¸Ń à¹ģà¸Ľà¸¥à¸ĩ
à¹Ģà¸§ à¸¥
o am
Ġà¸ķà¸° à¹Ģà¸Ĥ
Ġnet work
à¸ĵ à¸ķà¸²
à¸ģà¸²à¸£ à¸§
Ġà¹Ģà¸ģ à¸²à¸¥
Ġà¸ģà¸²à¸£ à¸ģà¸£à¸°à¹ģà¸Ĺà¸ģ
Ġà¹Ģà¸Ĺ à¸ªà¹Ĥà¸ģ
à¸Ļ à¹Ģà¸Īà¸Ńà¸£
ĠS A
à¸Ĭ à¸³
IF I
à¸Ľ à¸Ĺà¸²à¸Ļ
urn iture
ç »
ĠC otton
Ġà¸Ļà¸²à¸¢ à¸£
ĠW D
ĠSol ar
Ġà¸¡ à¸ĵà¸ĳ
Ġà¸Ļ à¸ªà¸ģ
Ġà¸Ń à¸Ĺ
ĠE co
Ġf ashion
Ġà¸£à¸Ńà¸ĩ à¸Ńà¸ĺ
Ġà¸łà¸²à¸Ħ à¸ģà¸²à¸£à¸¨
Ġà¸ģà¸Ľ à¸ł
Ġà¸Ĺà¸³ à¸¨
Ġà¸Ļ à¸²à¸Ħà¸²
Ġà¹ģà¸¢ à¸¡
Ġà¹Ĥà¸Ľà¸£à¸Ķ à¸Ľà¸£à¸²à¸Ļ
Ġà¸ģà¸£à¸° à¸ī
à¹ģà¸ģà¸ °
V iew
Ġà¸ģà¸£à¸¡ à¸«à¸¥à¸§à¸ĩ
Ġà¸¢ à¸ª
à¸ģà¸ĩà¸²à¸Ļ à¹Ģà¸Ī
Ġà¸ģà¸²à¸£ à¹ĥà¸«
ĠSt ate
à¸Ļ à¹Ģà¸Ńà¸ģ
Ġà¹ģà¸ªà¸Ķà¸ĩà¸Ļ à¸³
ĠS und
es es
IS T
ĠCle ar
Ġà¹Ĥà¸Ńà¸ģ à¸²à¸¨
ĠW ay
Ġh el
Ġâĺħ âĺħâĺħ
ĠWhit ening
ĠSt op
-- -
à¸ļ à¹Ħà¸Ľ
Ġà¹Ģà¸Ń à¸ģà¸Ń
à¸ģà¸²à¸£ à¸Ļ
Ġ] .
à¸£à¸² à¹Ģà¸£
act ion
ĠW onder
à¸Ķ à¸Ľà¸£à¸°à¸ķ
Ġà¸Ļ à¸ľ
à¸ĩà¸Ĺ à¸Ń
Ġà¸¡à¸Ńà¸Ļ à¸ªà¹Ģà¸ķà¸Ńà¸£
Ġà¹ģà¸§ à¸¡
Ġ00 00
orn ing
Ġ| |
ot or
per t
ut h
à¸³ à¸Ĥ
Ġà¹Ģà¸« à¸¥à¸²
ĠSt at
Ġac cess
ĠReserv ed
B ER
Ġop en
à¸Ĭà¸£ à¸²
Ġà¸ļà¸Ĺà¸ª à¸Ļà¸Ĺà¸Ļà¸²
Ġà¸Ľ à¸£à¸²à¸Ĭà¸į
Ġà¸Ħà¸Ńà¸Ļ à¹ģà¸Ĺà¸Ħ
Ġà¸ģà¸£à¸²à¸ļ à¸Ĺ
ĠD ar
Ġà¹Ĥà¸Ńà¸ª à¸ĸ
Ġà¸ŀ à¸Ĺ
ĠLin ux
Ġorg an
Ġà¸ĩà¸²à¸Ļ à¸£
ic y
A l
w ell
Ġà¸ªà¸Ļ à¸ĩ
ĠFire fox
Ġ8 55
à¸ģà¸ĭ à¸²à¸Ļ
Ġà¸Ļà¸²à¸¡ à¸ĺà¸£à¸£à¸¡
ĠL ou
Ġn em
Ġà¹Ħà¸ģà¸¥ à¹Ĩ
ĠM atch
ĠO h
ĠChe v
Ġà¹Ĥ à¸§à¸¢
T r
à¸¢à¸ĩ à¸«
f ree
p oint
à¹Ģà¸ŀ à¸¥à¸¢
Ġà¹Ĥà¸ģà¸¥ à¹Ģà¸Ķ
te ch
at y
à¸ļ à¸ģà¸£à¸°
Ġà¹ģà¸§ à¸ĩ
à¸ļà¸Ńà¸Ļ à¹Ħà¸Ķà¸Ńà¸Ńà¸ģà¹Ħà¸ĭà¸Ķ
anc er
aut iful
Ġà¹Ģà¸Ĭà¸Łà¹Ĥà¸£ à¹Ģà¸¥à¸ķ
Ġ) [
Ġà¹Ĥà¸ļà¸£à¸²à¸ĵ à¸Ħà¸Ķ
ĠL ens
ĠEl ena
l im
Ġà¹ĥà¸Ļ à¸ģà¸²à¸£à¸Ļ
ĠT og
c raft
Ð° ÑĢ
Ġenl arge
b i
Ġà¹Ģà¸Ł à¸ªà¸ķ
Ġ09 5
ĠSal es
l ife
à¸Ĥ à¸ł
à¹Ģà¸¥ à¸²
Ġb an
à¸ģà¸ª à¸Ķ
Ġå¤ ©
ĠG aming
Ġà¸Ħà¸§à¸²à¸¡à¸Ī à¸ĩà¸£
R Y
ĠSer um
à¸¢à¸Ļ à¸¡à¸²à¸£
Ġtop ic
Ġà¹Ĥà¸Ħà¸¥ à¸Ńà¸¡à¹Ģà¸ļ
Ġ ÑĤ
à¸Ķà¹Ģà¸ Ĥ
Âł Âł
à¸ĵ à¸Ĳà¸²à¸Ļ
ar u
.... .
ĠðŁ į
!! !!
ĠSt ock
à¸§à¸¥ à¸ķ
à¸«à¸²à¸¢ à¹ĥà¸Ī
ĠI r
Ġà¸ĸà¸Ńà¸Ķ à¸£à¸«
à¸Ńà¸Ļà¸Ĭ à¸³à¸£à¸°
Ġà¸Ħà¸Ļ à¸Ľ
ĠI oT
Ġà¸¡à¸« à¸²à¸ļ
Ġà¹Ģà¸ģà¸ §
Ġà¸Ľà¸£à¸°à¹Ģà¸Ĺà¸¨ à¸ªà¸¡à¸²à¸Ĭ
1 10
à¸¢à¸§ à¹ģà¸Ļ
Ġà¸Ĥà¸Ļ à¸ļ
Ġk h
re m
H e
Ġà¹Ģà¸§ à¹Ģà¸Ļ
ĠM om
or ation
à¸ģà¸©à¸ĵà¸° à¹Ģà¸Ķ
Ġd a
Ġà¸Ĺà¸³à¸ģà¸²à¸£ à¸ļ
Ġ12 9
Ġà¹Ĥ à¸§à¸¥à¸ķ
Ġà¹Ģà¸Ńà¹Ģà¸¢ à¸Ļà¸ķ
brand ed
re w
Ġà¸£ à¸¢
ĠEx tr
att aya
ploy ment
uk a
à¸¡ à¸ģà¸¥
Ġà¹ģà¸ķ à¸ģà¸«
Ġà¸¡ à¸¥à¸°
Ġn umber
Ġsh ared
Ġà¸Ķà¸Ńà¸ģà¸ Ĺ
Ġd igital
à¸²à¸Ļ à¸³
Ġà¹Ģà¸ŀ à¸£à¸²
Ġà¸Ļà¸²à¸¢à¸Ĺ à¸°à¹Ģà¸ļ
Ġà¸ªà¸Ńà¸Ķ à¹ģà¸Ĺà¸£à¸ģ
ĠAd vent
Ġe ver
Ġà¸ģà¸³ à¸ĸ
ĠF all
Ġà¸ī à¸§à¸¢
Ġà¸Ĭà¸²à¸§ à¹Ĥà¸¥à¸ģ
ĠTH AI
Ġsup port
ĠN S
à¸ĩà¸Ĥ à¸£
b and
j o
j apan
ux e
ĠCont act
à¸§à¹Ħà¸Ľ à¹ģà¸¥
Ġ3 90
ĠG allery
ad get
Ġà¸łà¸²à¸ŀ à¸Ļ
ĠAP I
à¸²à¸«à¸¥à¸ĩ à¹ĥà¸«à¸¥
Ġà¸Ń à¸²à¸ģà¸£
id o
Ġà¹ģà¸§ à¸§
ĠKnow ledge
F F
Ġà¸§ à¸²à¸¬
Com merce
Ġà¸Ħà¸§à¸²à¸¡ à¸¨à¸£
Ġà¸§ à¸²à¸§
p ar
à¸« à¸Ļà¸Ĺà¸²à¸ĩ
à¸ļà¸Ķ à¸Ńà¸ģ
ĠP iece
à¸ķà¸Ļ à¸°
@ @
à¸²à¸ģà¸²à¸£ à¸Ńà¸³à¹Ģà¸łà¸Ń
end o
Ġà¸ģà¸²à¸£à¸Ń à¸ĺ
à¹ģà¸ģ à¸ĩ
ut or
Ġà¸ªà¸²à¸¡ à¸ŀà¸£à¸²à¸Ļ
à¸¬ à¸²à¸£
à¸ľ à¸ĩ
à¹Ģà¸ ľà¸¢
à¸£à¸¡ à¸¡
à¸ŀà¸²à¸£ à¸²à¸ģà¸Ńà¸Ļ
ĠGu est
Ġà¸Ĭ à¸Ńà¸Ļ
Ġà¹ģà¸ģ à¸£à¸¡à¸¡
ac le
Ð¸ Ñı
ĠM U
un ter
Ġà¸ķà¸²à¸¢ à¸ķ
ĠC ab
or ia
as a
à¹Ģà¸Ļ à¸¨
AR A
à¸Ńà¸ģà¸ ¡
ĠO M
Ġ- ----------------
ou th
Ġà¸ģà¸Ńà¸ĩ à¹Ģà¸Ĭ
r es
ĠH ong
Ġà¸ķ à¸£à¸£
ĠCharg er
à¸ª à¸Ĭ
Ġre ad
Ġà¸ģà¸¤à¸© à¸ĵ
à¸³ à¸«à¸§à¸²à¸Ļ
Ġà¸Ĺà¸²à¸ĩ à¸Ĺ
Ġà¸«à¸Ńà¸ļ à¸«
à¸§à¸Ļ à¸ª
ĠSp ot
âĢĶâĢĶâĢĶâĢĶ âĢĶâĢĶâĢĶâĢĶ
C ER
Ġà¸Ħà¸Ļ à¹Ĥà¸ķ
Ġ14 4
Ġà¸ļà¸§à¸ĩ à¸ªà¸£à¸§à¸ĩ
ĠMon itor
Ġà¸Ľà¸¥ à¸Ķà¸¥
al ity
H S
ĠV ict
Ġà¹Ģà¸ŀ à¸Ńà¸£
Ġà¸ģà¸£ à¸²à¸¡
lo or
u ary
ĠRes p
ag ing
ĠTur bo
Ġn on
ĠR ay
à¹ģà¸§ à¸ĩ
n ews
iv ery
à¸ļà¸²à¸¢ à¹ĥà¸Ī
ĠVal ue
in ce
ĠE ight
Ġr ay
Ġd ev
ĠS ensor
et ic
Ġà¹Ģà¸Ń à¸²à¸¥
Ġà¸Ħà¸Ļ à¸ĺà¸£à¸£à¸¡à¸Ķà¸²
ĠAr ts
ĠCommun ication
Ġà¹Ĥà¸ļà¸£ à¸Ĭ
Ġà¸Ľ à¸Ńà¸¡
Ġà¸Ħà¸§à¸²à¸¡ à¸Ľ
Ġà¹Ħà¸ĭ à¸£
Ġà¹Ģà¸Ńà¸ª à¹Ģà¸ķà¸Ńà¸£
Ġà¸ĭà¸° à¸ĩ
ĠPs oriasis
à¸Ļ à¸©à¸²
ĠB ak
à¸¡à¸ŀ à¸§à¸²
å Ĭ
Ġà¸ŀ à¸«
à¸Ĺà¸²à¸ĩ à¸«à¸¥à¸§à¸ĩ
ĠPar is
g en
ha el
Ġpost ed
ĠC T
Ġ21 5
ĠR iver
Ġm em
Ġà¸¡à¸²à¸ªà¸Ħ à¸Ńà¸ķ
Ġà¸Ī à¸§à¸ļ
Ġà¹Ģà¸£ à¸Ķ
à¸¢à¸ĩ à¸Ī
ĠV erm
Ġem s
à¸ł à¸²à¸£à¸ģ
Ġà¹Ĥà¸Ķà¸¢ à¸ĺà¸£à¸£à¸¡à¸Ĭà¸²à¸ķ
à¸ĩ à¸Ľà¸£à¸°à¸ģà¸²à¸¢
à¸ĵ à¸Ĭà¸²à¸¢
Ġà¸ģà¸²à¸£à¸Ĺ à¸«à¸²à¸£
Ġà¹Ĥà¸« à¸Ķà¸£
Ġà¸Ľà¸£à¸° à¸ł
Ġà¹Ĥà¸£à¸Ħ à¸Ľà¸£à¸°à¸Īà¸³à¸ķ
om an
Ġà¹Ģ à¹Ģà¸¡
ĠF unction
ãģ «
Ġt ravel
à¸ģà¸©à¸ĵà¸° à¹Ģà¸īà¸ŀà¸²à¸°
I AL
ĠF i
Ġ= ==
ib a
à¸² à¹Ħà¸Łà¸Ł
à¸¡ à¸ī
Ġà¸£à¸°à¸ļà¸ļ à¹Ģà¸¨à¸£à¸©à¸Ĳà¸ģ
ansom ware
Ġà¸§ à¹Ĥ
Ġad idas
pl ace
ĠS ym
Ġà¸ķ à¸§à¸ĩ
à¸²à¸Ļ à¸ªà¸§à¸Ļ
à¸Ĺ à¸«à¸¥
à¹Ģà¸Ļ à¸ķ
ĠF ly
Ġà¹Ĥà¸ģ à¹Ĥà¸ģ
ĠR ap
ĠCry stal
à¸£ à¸¨
as aki
à¸ģà¸£à¸° à¸Ĭ
ĠJ AV
à ´
à¸¡ à¹Ģà¸¢
Ġà¹Ģà¸Ń à¹Ģà¸Īà¸Ļà¸ĭ
Ġà¹Ģà¸ĭ à¸¥à¸ª
à¸§à¹ĥà¸Ī à¸ªà¸³à¸Ħ
ĠSoc iety
Ġà¹Ĥà¸Īà¸£ à¸ªà¸¥
Ġest ate
à¸¢ à¹Ģà¸Ľà¸£
à¸© à¸ª
åĽ ¾
Ġà¸Ĥà¸Ńà¸ĩ à¸¡
ĠPl ace
c ast
Ġà¹Ĥà¸¢ à¸ĺ
Ġà¸ģà¸ ¤à¸ķ
ĠRe f
Ġres ume
Ġà¸ķà¸ģ à¹Ħà¸Ĥ
ãĤ ¹
Ġà¹Ĥà¸Ĭ à¸ģ
itt y
ĠTh eses
orm al
L R
Ġà¸ģà¸²à¸£ à¸«à¸¥
à¸Ħà¸£ à¸²à¸ĩ
Ġ16 00
ĠPres ent
à¸ŀà¸£à¸°à¸£à¸²à¸Ĭ à¸ļ
à¸²à¸ Ĳ
à¸Ńà¸ķ à¹ģà¸¥à¸Ļà¸Ķ
ect or
ĠT es
à¸²à¸§ à¸ľ
ĠV el
z en
Ġà¸ģà¸£à¸°à¹Ģà¸ŀà¸²à¸° à¸Ľ
ĠD in
Ġà¸Ĺà¸²à¸ĩ à¹Ģà¸Ĺà¸Ħà¹Ĥà¸Ļà¹Ĥà¸¥à¸¢
Ġà¹Ģà¸Ļ à¸§
ĠCh ic
ie f
Ġà¸ĭ à¸Ńà¸¥
Ġà¸ªà¸²à¸£ à¸§
l ink
à¸¢ à¸Ķà¹Ģà¸ļ
Ġà¹ģà¸ģ à¸£à¸Ļ
Ġb ed
ĠDe f
f ood
Ġà¹ ĭ
à¸¢à¸ĩ à¹ģà¸ªà¸Ļ
ĠR G
ãĥ ©
ĠFil ter
ĠN ow
ubl ish
m en
Ġà¸ŀà¸£à¸° à¹Ģà¸ģ
Ġà¸¥à¸²à¸¢ à¸¡
ĠE qu
ĠD D
ĠLeg end
id es
ĠLT D
Ġà¸¢à¸² à¹ģà¸ģ
Ġxv ideos
ĠR ain
ĠH or
Ġdirect ory
Ġà¸ģà¸²à¸£ à¹ģà¸ĸà¸¥à¸ĩ
ĠC irc
ä¹ Ĳ
Ġà¸Ĺà¸³ à¸ªà¸§à¸Ļ
ĠF X
à¹Ģà¸ Ĵ
Ġà¸² à¸Ħ
ro let
Ġà¸ł à¸²à¸ª
Ġà¸ģà¸£à¸° à¸«
ĠM ON
ĠAcadem y
R O
ĠR ate
à¸¢à¸ģ à¹Ģà¸ģ
ĠP erm
à¸Ļà¸§ à¸²
ĠL aw
Ø ¨
Ġà¹Ģà¸¥ à¸²à¸°
Ġ25 34
ĠB oo
Ġs il
Ġser ies
à¸Ķà¸¥ à¸ļ
in y
Ġà¸Ľà¸£à¸°à¸ªà¸ļ à¸Ń
ĠZ e
à¸ģà¸£à¸°à¸Ķ à¸²à¸©
ĠPack age
ĠTit an
à¸²à¸Ń à¸²à¸«à¸²à¸£
Ġà¸ģà¸£à¸°à¸Ĺà¸£à¸§à¸ĩ à¸Ħà¸¡à¸Ļà¸²à¸Ħà¸¡
Ġà¸Ļ à¹Ĩ
à¸ª à¸Ħ
Ġà¸Ħà¸Ļ à¸ĭ
ell ing
à¸ĵ à¹Ĥà¸£à¸Ħ
à¸ĵà¸ĳ à¸ļà¸²à¸ķ
ĠMac Book
n ame
à¹Ģà¸Ĺà¸¨ à¸¨à¸²à¸ªà¸ķà¸£
à¹Ģà¸ģà¸ Ķ
à¸Ļ à¸ļà¸£
Ġà¸Ĺà¸£à¸²à¸¢ à¸Ĥà¸²à¸§
à¸¢à¸ĩà¸Ħ à¸²à¸Ļ
Ġsl ot
à¸° à¸Ńà¸²à¸«à¸²à¸£
ĠP ac
Ġc v
ak s
à¹Ģà¸ĸ à¸£à¸°
ĠEL ISA
à¸ĩ à¸«à¸į
ĠMalyshev a
Ġà¸Ħà¸³ à¸£à¸²à¸¡
à¸²à¸¡ à¸ĸà¸Ļà¸Ļ
Ġà¸ľ à¸¢à¸Ńà¸ĩ
Ġà¸Ńà¸° à¸¥
ĠP AN
Ġ20 3
ĠiT unes
Ġm a
à¹ģà¸Ļ à¸ĩ
ib ir
Ġà¸Ĺà¸³ à¸Ħà¸°à¹ģà¸Ļà¸Ļ
ĠW ood
ĠS av
ĠP os
ĠK e
Ġà¸«à¸¡à¸Ķ à¸Īà¸Ķ
Ġà¸ªà¸¢à¸²à¸¡ à¸ŀà¸²à¸£à¸²à¸ģà¸Ńà¸Ļ
ĠPrin ter
ĠT otal
Ġà¸ķ à¸²à¸Ľ
Ġà¸£à¸°à¸ļà¸ļ à¸Ĥ
Ġà¸Īà¸Ķ à¸Ī
Ġà¹ģà¸ķ à¸£
k ey
Ġà¹Ģà¸£ à¸Ļà¹Ģà¸Īà¸Ńà¸£
ĠR M
ĠDesk top
Ġà¸«à¸¢à¸Ķ à¸Ļ
ĠGM M
k h
yr antel
ĠX S
Ġà¸Ĥà¸Ńà¸ĩ à¹ģà¸Ĥ
à¸Ńà¸ĩ à¹Ģà¸ģ
à¸Ńà¸¢ à¹Ģà¸Ľ
à¸Ń à¹ĥà¸Ħà¸£
re ad
à¸²à¸£ à¸¡
Ġ09 8
Ġà¹Ģà¸Į à¸Ń
Ġà¸łà¸²à¸Ħ à¸ŀ
à¸²à¸ª à¸ĩà¸ªà¸²à¸£
à¸²à¸ĭ à¸ĺà¸£à¸£à¸¡à¸Ĭà¸²à¸ķ
à¹ģà¸ŀ à¸Ķ
Ġà¸Īà¸³à¸ŀ à¸£à¸£à¸©à¸²
Ġm usic
B T
Ġà¸Ľ à¸Ľ
c er
ĠC ut
Ġ5 12
Ġà¸ªà¸²à¸¢ à¸ªà¸°
ast y
ĠC A
Ġsup er
Ġà¸§ à¸Ļà¸²
Ġà¸ģà¸²à¸£ à¹Ģà¸Ŀ
Ġ19 90
Ġà¸ĭ à¸²à¸ģà¸
à¸²à¸Ļà¸³ à¹Ģà¸Ĥ
ĠN ut
à¸ģà¸Ľ à¸¥
à¸¥ à¸Ĭ
Ġà¸«à¸¥à¸ĩ à¹Ģà¸Ĭ
Ġà¹Ĥ à¸ģà¸ª
à¸²à¸§ à¸ģà¸¥
Ġà¸¥à¸¡ à¹ģà¸£à¸ĩ
à¸²à¸Ĥ à¸Ńà¸ĩà¸ģ
Ġà¹Ģà¸Ĥà¸ķ à¹Ģà¸¡
Ġà¸Ħà¸§à¸²à¸¡à¸ķ à¸ģà¸¥à¸ĩ
à¸Łà¹Ģà¸Ł à¸ķ
Ġw indows
à¹Ħà¸£ à¸ķ
ĠEx change
Ø ³
ĠO L
à¸¡ à¸Ļà¸²
Ġà¸Ħà¸§à¸²à¸¡à¸ķ à¸£à¸°à¸«à¸Ļ
Ġback ground
ĠSaf ety
ĠV an
c ore
Ġà¹ģà¸ĭ à¸ģ
Ð¾Ð ³
à¸Ļà¸Ĺ à¸²à¸£à¸²
ĠV i
à¸ģà¸£à¸° à¹Ģà¸Ĺ
N ET
AS T
à¹Ģà¸Ĭ à¸¥
ĠT N
ĠJ APAN
ĠWork shop
og o
EN S
Ġun d
ĠH al
ĠA ust
Ġà¸Īà¸²à¸¡ à¸£
ĠO ce
à¸§ à¹Ģà¸ģ
Ġà¸ģà¸£à¸°à¹ģà¸ª à¸Ļ
à¸Ĺ à¸ļà¸Ĺ
ak u
Ġà¸ªà¸³ à¹ģà¸Ķà¸ĩ
à¸Ľà¸£à¸° à¹Ģà¸ŀà¸ĵ
Ġà¸Ĺ à¸Ĺ
ĠL ady
à¸¤ à¸Ĺ
à¸¢à¸Ļ à¹Ģà¸ª
ans k
à¸Ķ à¹Ĥà¸Ĺà¸£à¸¡
à¸ķà¸£à¸ĩ à¸ģ
à¸Ńà¸ģà¸ ģ
Ġà¸Ń à¹ĥà¸«
OL D
olog ical
Ġl ong
à¸ģ à¹Ģà¸Ĺ
è ½
Ġà¸ªà¸¡ à¸Ĺà¸ļà¸Ĺ
ĠA lex
Ġà¸ĩà¸²à¸Ļ à¹ĥà¸«à¸į
à¸Ķà¸ª à¸³à¸Ħ
Ġà¹Ģà¸Ĥà¸ķ à¹ģà¸Ķà¸Ļ
ĠW W
Ġà¸ŀà¸£à¸£à¸ĵ à¹Ħà¸¡
ĠC er
à¸¡à¸ŀ à¸¢
Ġà¹Ģà¸ĸ à¸£à¸°
ĠSC B
Ġs he
C ateg
ro ugh
ĠGu ide
à¸¡à¸ŀà¸¢ à¸²à¸ļà¸²à¸¥
Ġà¹Ģà¸ĭ à¹Ģà¸¥
Ġà¸Ī à¸ĩà¹ĥà¸Ī
Ġà¸§à¸²à¸ĩ à¸ķ
ĠH ill
Ġà¸Ńà¸Ńà¸¡ à¸ª
Ġà¸Ħ à¸«
ĠW IN
Ġà¸ªà¸Ľ à¸Ńà¸ķ
p ad
ĠD en
Ġ18 5
Ġà¸Ľà¸Ńà¸ģ à¹Ģà¸Ľà¸¥
à¸ģà¸ Ĳ
Ġf un
Ġà¹Ĥà¸¡ à¸£à¸²
ĠØ ¨
ator s
Ġà¹ĥà¸Ħà¸£ à¸ķ
Ġà¹ģà¸ľà¸Ļ à¸ľ
55 55
à¸ģà¸ĭà¸²à¸Ļ à¹Ģà¸Ķà¸Ńà¸£
sk i
ĠCon cept
Ġà¸Ļ à¸ĭ
Ġà¸«à¸² à¹Ģà¸£
AM A
Ġà¸ģà¸²à¸į à¸Īà¸Ļà¸²
Ġà¸ŀà¸£à¸¡ à¹ģà¸Ķà¸Ļ
ĠBlock chain
Ġà¸ªà¸¡ à¸£à¸²à¸Ħà¸²
Ġ08 8
Ġà¸¥à¸Ńà¸ª à¹ģ
Ġà¸ªà¸£ à¸§à¸ĩ
à¸ļ à¹Ĥà¸Ĺà¸©
Ġà¸ģà¸²à¸£ à¹ģà¸¥à¸ģ
Ġpr int
ĠB enz
Ġ20 2
Ġà¸ĩ à¸ķ
à¹Ģà¸« à¸ª
Ġà¹Ħà¸Ń à¸ķ
Ġà¹ģ à¸Ńà¸ª
à¸Ł à¹Ģà¸§
Ġà¸« à¸£à¸£à¸©à¸²
ĠPr im
Ġà¸£ à¸²à¸Ł
à¸²à¸Ļ à¸§à¸¡
Ġâľ ħ
Ġà¸£à¸²à¸Ł à¸²à¹Ģà¸Ńà¸¥
à¸Ĭ à¸²à¸£
à¹Ĥà¸Ħà¸£à¸ĩ à¸ªà¸£
Ġà¹Ħà¸£ à¸Ĺ
à¸²à¸Ļ à¸Ĭà¸²à¸¢
Ġà¸Ħà¸§à¸²à¸¡ à¹Ģà¸ŀà¸¥
Ġà¸Ĥà¸Ļà¸¡ à¸Īà¸²à¸ģ
ĠD aily
Ġà¹Ģà¸ĭ à¹Ģà¸£
Ġà¹Ģà¸§à¸Ĭ à¸¨à¸²à¸ªà¸ķà¸£
Ġà¸Ľ à¸²à¸ģà¸Ĺ
ĠT er
Ġà¸Ħà¸²à¸Ķ à¸Ŀ
Ġà¸ģà¸²à¸£ à¸ªà¸³à¸£à¸Ńà¸ĩ
ĠB A
og en
c ome
Ġà¹Ģà¸« à¸Ńà¸°
ĠDr iver
Ġà¸ª à¸Ńà¸ĩà¹Ģà¸Ĺ
à¸²à¸Ļ à¸ģà¸²à¸£à¸ļà¸£
Ġ256 3
à¸³ à¸ģ
Ġà¸ªà¸§à¸Ļ à¸ľà¸¥à¹Ħà¸¡
ĠR B
à¸ļ à¸³à¸£
à¸Ĺ à¸ľ
à¸Ļ à¹Ģà¸īà¸¥
à¸ĩ à¸¥à¸ļ
>> >>
ĠP o
ON IC
ĠN an
Ġà¸Ķ à¸Ī
à¸ŀà¸£à¸° à¹Ģà¸Ļà¸ķà¸£
IL L
à¹Ģà¸ĸ à¸Ńà¸°
Ġà¸Ļà¸Ĥ à¸²
à¸Ķà¸ª à¸Ńà¸¢à¸«
ĠW arehouse
Ġà¹Ħà¸Ļ à¹Ĥà¸ķà¸£à¹Ģà¸Īà¸Ļ
ĠL ocation
Ġà¸ģà¸²à¸£à¸ª à¸²à¸ĺà¸²à¸£
Ġà¸ŀà¸²à¸ª à¸Ľà¸Ńà¸£
Ġà¸ģà¸²à¸£à¸ªà¸²à¸ĺà¸²à¸£ à¸ĵà¸ª
à¸ļ à¸£à¸£à¸ĵ
Ġà¸ģà¸²à¸£à¸Ĺ à¸ļà¸Ĺà¸§à¸Ļ
ĠStr ateg
id ol
à¸ŀ à¸§à¸ģ
Ġà¹Ģà¸Ĭ à¸²à¸§
ibir sk
Ġv ersion
Ġà¸Ļà¸Ńà¸ģ à¹ĥà¸Ī
Ġor der
ĠNov os
ĠH uman
à¸Ńà¸ĩà¸¡ à¸Ńà¸ĩ
Ġ" >
Ġà¸£à¸²à¸Ĭ à¸ªà¸³à¸Ļ
Ġc rypt
Ġà¹ģà¸ ĺ
à¸Ńà¸ĩ à¹Ħà¸¡
à¸£à¸²à¸Ĭ à¸§
Ġne ed
Ġà¸ª à¸Ī
Ġà¸Ĭ à¸§à¸²
æ ¸
Ġ4 99
à¸²à¸§ à¸²à¸¢
à¸Ļà¸ĺ à¸ļ
Ġus e
à¸ĵ à¸Ļà¸²à¸¢
Ġà¸Ĺà¸Ńà¸Ķ à¸ŀà¸£à¸°à¹Ģà¸Ļà¸ķà¸£
à¹Ĥà¸Ľà¸£ à¸Ķ
Ġà¸ķà¸ģ à¹Ħà¸Ľ
Ġà¸Ĺ à¸Ļà¸Ĺ
Ġic on
Ġ13 8
Ġà¹ģà¸ļ à¸Ļà¹Ģà¸Ļà¸Ńà¸£
ĠK am
u u
Ġà¸Ħà¸§à¸²à¸¡à¸ªà¸²à¸¡à¸²à¸£à¸ĸ à¸ŀ
Ġà¸ªà¸²à¸¢ à¸Ķ
F l
um m
Ġà¹ģà¸ĭà¸¡ à¸ļ
à¸ĩ à¸ī
é ĩ
Ġà¸Ŀà¸² à¹ģà¸Ŀà¸Ķ
c ode
Ġm s
Ġà¸ķà¸° à¸Ľ
ĠSw eet
## ##
rol l
oz ol
ĠNovos ibirsk
ik ip
Ġ5 10
Ġà¸Ĺ à¸§à¸Ķ
ers t
Ġà¸ļ à¸ļ
Ġà¸ģà¸° à¸¥à¸²
Ġà¸¡ à¸£à¸ª
à¸Ļà¸Ĥ à¸²à¸Ķ
à¸²à¸¢à¸Ļ à¸°
esh op
Ġà¸ļà¸£à¸£à¸ĵ à¸²à¸£
ER A
à¹Ģà¸£ à¸Ļ
Ġà¸ļà¸Ĺ à¸§
Ġà¹Ģà¸Ĺ à¸ŀà¸¢
à¸Ļ à¹Ģà¸«à¸Ļ
à¸¥ à¹Ģà¸ķà¸Ńà¸£
à¸į à¸«
ow job
Ġà¹Ĥà¸£à¸Ħ à¹Ģà¸£
à¸² à¹ĥà¸ª
ob ao
Ġà¹Ģà¸ģà¸ª à¸ķ
Ġà¸® à¸²à¸§à¸²à¸¢
Ġr d
à¸²à¸ĩ à¸ŀà¸£à¸°à¸£à¸²à¸Ĭà¸ļ
ĠOr der
Ġà¸Ĭà¸°à¸¥ à¸Ńà¸ķ
à¹Ģà¸Ń à¸¢
ĠA UT
Ġà¹ģà¸Ľà¸¥ à¸ģà¸Ĺ
c c
Ġà¸¢ à¸į
G O
à¸¡ à¹Ĥà¸Ń
à¸Ķ à¹ģà¸Ĺà¸Ļ
à¸ģà¸¥ à¸²à¸ª
Ġà¸¥à¸ĩ à¹Ģà¸Ńà¸¢
à¸Ķà¹Ģà¸ª à¸£
Ġ amp
à¸Ń à¸²à¸¥
à¸¥ à¸Ŀà¸Ńà¸¢
à¸ ĥ
à¸¢ à¸ģà¸ķ
Ġà¹Ģà¸Ń à¸¢
F L
à¹ĥà¸Ļ à¹ĥà¸Ī
æ ³
à¸ª à¸²
ĠO ur
à »
ct or
Ġà¹Ĵà¹ķ à¹Ĵ
Ġà¸« à¸Ĺ
Ġà¸ģà¸²à¸£à¸ķà¸£à¸§à¸Ī à¹Ģà¸¥
Ġh om
ĠAr m
Ġà¸Ħà¸Ńà¸ª à¹Ģà¸ŀà¸¥à¸¢
à¹Ģà¸¥ à¸Ħ
ĠE U
Ġà¹Ģà¸Ńà¸ģ à¸£à¸²à¸Ĭ
Ġd og
à¸¢à¸Ļ à¹Ģà¸Ĺà¸¨à¸ļà¸²à¸¥
ĠEr ror
æ Ŀ
ge ki
Ġà¹Ĥà¸ģà¸¨ à¸¥
à¸§à¸ĩ à¸Ĭ
ĠG ear
ĠR atch
Ġà¹ģà¸¡ à¸Ĭà¸Ĭ
Ġà¸¥à¸¡ à¸«à¸Ļà¸²à¸§
à¸ģà¸Ľà¸£à¸° à¸«à¸¥à¸²à¸Ķ
à¸Ķ à¸Ħà¸£à¸Ńà¸ĩ
à¸Ńà¸ĩ à¹Ģà¸¢
it an
ĠH il
Ġà¹ģà¸Ľà¸¥ à¸ģà¸Ľà¸£à¸°à¸«à¸¥à¸²à¸Ķ
Ġà¸Ń à¸²à¸ł
Ġà¸ª à¸Ĭ
Ġf in
à¸ļ à¸ł
th orn
à¸ĩ à¸Ńà¸£
à¸Ļ à¹ģà¸Ĥ
à¸ĩ à¹Ģà¸ķ
atab ase
à¸Ńà¸ĩà¹Ģà¸Ħà¸£ à¸²
ĠEd ge
à¸§ à¹Ģà¸ĭà¸Ńà¸£
à¸ı à¸£
ĠEx p
Ġà¸§à¸Ļ à¹Ģà¸§
à¸Ńà¹Ħà¸£ à¸Ķ
ĠFr ame
R IO
à¸¥à¸ĩ à¸Ļà¸²à¸¡
Ġà¹ģà¸ī à¸ģ
Ġà¸Ńà¸Ńà¸ģà¸« à¸¡à¸²à¸¢
Ġà¸Ļà¸ģ à¹Ģà¸Ĥà¸²
à¹ģà¸ļà¸ļ à¸īà¸ļ
Ġvar ic
Ġà¸ģà¸³à¸¡à¸° à¸ĸ
Ġà¸¢ à¸²à¸Ĩ
worm ing
0 3
Ġà¸Ĥà¸² à¹Ģà¸Ĥ
Ġà¸ķà¸²à¸¡ à¹ģà¸ļà¸ļà¸īà¸ļ
Ġ4 90
à¸ģà¸ľ à¸¡
à¸Ħà¸£ à¸§à¸į
à¸Ļà¸£à¸°à¸¢à¸° à¹Ĩ
ĠPhot oshop
0 9
Ġà¸¨ à¸²
Ġà¸² à¸¡
I B
æ °
Ġ_ _
à¹ģà¸ļ à¸Ļ
à¸Ĥ à¸Ńà¸ļ
ĠD oc
ang a
ĠF O
Ġv ip
ion e
Ġ9 11
Ġ80 2
à¸Ń à¸²
Ġf uck
Ġdis play
à¹ĥ à¸Ķà¸Ĺ
Ġb ol
ĠR PG
Cl ass
ĠAdv anced
à¹Ĥà¸£à¸Ľ à¸ķà¸°à¸§
Ġà¸Ĺà¸°à¸¥ à¸§à¸ĩ
U p
Ġà¹ģà¸ļà¸ļ à¹ģà¸ľà¸Ļ
à¸£à¸²à¸¢ à¸ģà¸²à¸£
Ġà¹Ģà¸ªà¸²à¸° à¸«à¸²
Ġà¹ģà¸§à¸¡ à¹Ħà¸ŀà¸£
Ġ6 000
Ġp p
Ġà¹ģ à¸£à¸Ķ
ĠEuro pe
ĠCent re
ĠD ur
ist s
Ġà¹Ħà¸Ĥ à¸Ĥ
à¸Ħ à¸£à¸£à¸ł
ĠH U
Ġ5 20
Ġà¹ĥà¸Ļà¸Ĺà¸²à¸ĩ à¸Ľà¸ı
ĠâĢĿ .
à¸²à¸ĩ à¸ģà¸İà¸«à¸¡à¸²à¸¢
Ġà¸ķà¸£à¸²à¸ļ à¹ĥà¸Ķà¸Ĺ
Ġ ïľİ
à¸¢à¸ļ à¹Ģà¸Ħ
à¸Ńà¸Ķ à¸Ńà¸Ńà¸ģ
à¸Ļ à¹ģà¸ĸà¸§
Ġà¹Ĥà¸Ħ à¸¥à¸ĩ
um bn
ĠâĨ Ĳ
rad ar
ĠKore a
Ã ĥ
Ð½ Ð¾
Ġà¹ģà¸« à¸¥à¸ģ
AN K
Ġà¹Ģà¸¡à¸Ļ à¸ļà¸Ńà¸£
ĠAre a
à¸§ à¹Ģà¸ª
à¸¢à¸Ļ à¹ĥà¸Ī
ĠLux ury
ĠB ird
Ġà¹ģà¸ģà¸ ģ
Ġ29 9
ĠT rail
Ġà¸¥à¸ĩ à¸£
ĠQue en
Ġs ite
Ġ19 99
ĠSt orage
à¸²à¸Ľà¸£à¸° à¸ģ
à¸Ķà¸Ńà¸ģ à¹Ħà¸¡
à¸Ĺ à¹Ģà¸Ļà¸Ńà¸£
ĠD NA
Ġà¸¡ à¸¥à¸²à¸¢
Ġà¸Ľà¸£à¸°à¸¡à¸§à¸¥ à¸£
ĠN T
Ġà¸ŀà¸ª à¸ģà¸Ļ
ĠL ov
ĠF A
is a
à¸Ķ à¹Ģà¸ķ
Ġd ip
tt y
ĠF iber
à¸Ľ à¹Ģà¸Ľ
ikip edia
à¸į à¸ĺà¸£à¸£à¸¡
is c
à¸²à¸ĩ à¸ĭ
æ Ĭ
à¸«à¸ĩ à¸²à¸¢
Ġmon th
Ġà¹Ĵ à¹ĺ
ĠM ov
ĠH E
Ġà¸Ħà¸Ļ à¸«à¸Ļ
ĠP OL
Ġà¸¡à¸² à¹Ģà¸Ł
) ;
à¸Ķ à¸Ľà¸£à¸°à¸ģà¸²à¸¢
Ġà¸£à¸Ńà¸Ķ à¸ŀ
Ġv ol
Ġà¸£à¸°à¸¢à¸° à¸«à¸¥
ĠLe ather
à¸Ķà¸ŀ à¸ļ
ul f
Ġà¹Ĵà¹ķà¹ķ à¹ĸ
ĠS G
Ġh ost
à¸ģà¸ļ à¸§à¸Ĭ
Ġà¸Ĥà¸²à¸¢ à¸Ŀà¸²à¸ģ
Ġh is
Ġà¸ªà¸²à¸¡ à¹ģà¸¢à¸ģ
Ġ4 10
Ġà¸¡ à¸Ńà¸ģ
Ġà¸Ńà¸Ńà¸ģà¸ Ħ
ol es
ĠPer formance
Sh op
w in
Ġ08 2
à¸¡ à¸ĸ
ĠRe port
ĠSAN RIO
ĠS ens
as ia
Ġà¹ģà¸§à¸° à¹Ģà¸§
Ġà¸Ľà¸£à¸°à¸Īà¸³ à¸Ĭà¸²à¸ķ
ĠÃ ´
Ġå ¹´
ĠMe ga
Ġp yrantel
Ġà¸Ĺ à¸¡
Ġà¸Ļ à¸¥
Ġà¸ľà¸ªà¸¡ à¸ŀ
Ġd tac
S p
en ge
à¹Ģà¸£ à¸¥
Ġà¸ļà¸²à¸Ķ à¸²à¸¥
Ġà¸ŀà¸£à¸° à¹Ģà¸ĸà¸£à¸°
et ch
Ð¾ ÑĤ
è ¯
Ġà¸Ħà¸³ à¸Ĥà¸§
Ġ13 2
ĠPl aza
Ú ©
à¸Ńà¸ģà¸ °
h ot
Ġà¸Ķ à¸Ń
Ġà¹Ģà¸Ī à¸Ńà¸°
ott om
om eter
Ġsch ool
à¸Ķ à¹Ĥà¸¥à¸ģ
Ġà¹Ĥà¸¥ à¹Ģà¸Ħà¸Ĭ
Ġà¸¥à¸° à¸ķ
Ġà¹ģà¸¢ à¸ĩ
ĠG rey
à¸²à¸§ à¸ªà¸²à¸§
à¹Ģà¸Ķ à¸ª
Ġà¸ģà¸§ à¸Ļà¹ĥà¸Ī
Ġà¸Ħà¸§à¸²à¸¡à¸¢ à¸²à¸ģà¸Īà¸Ļ
Ġà¸Ĥà¸¢à¸²à¸¢ à¹Ģà¸§à¸¥à¸²
à¸Ĭ à¸¨à¸²à¸ªà¸ķà¸£
Ġt l
Ġf re
D ER
Ġ, ,
ĠM ill
Ġà¹Ģà¸ļà¸²à¸° à¹ģà¸ª
Ġà¸Ĭ à¸²à¸ļ
ĠWal let
à¸²à¸ģà¸Ħ à¸³
Ġà¹ģà¸ĭ à¸Ļà¸Ķ
Ġn a
à¸ĩà¸Ĺ à¸Ļ
Ġà¹Ģà¸ľà¸¢ à¹ģà¸ľ
ĠPa ul
à¸ļ à¸«à¸²
ruct ure
Ġà¸£ à¹Ģà¸¡
ĠAss ist
Ġs i
Ġg ps
à¹Į (
à¸ŀ à¸įà¸²
i ans
ĠC it
Ġpro cess
ĠB on
à¸¢à¸¡ à¸§
Ġ! )
ĠB ase
à¸Ľ à¸²à¸ģà¸Ħà¸³
à¸Ńà¸ķ à¸ķ
Ġb ab
à¸ģà¸ĭ à¹Ģà¸£à¸¢
st e
ĠCond ition
Ġà¹Ħà¸Ķà¸£ à¹Ģà¸§à¸Ńà¸£
à¸£à¸ĩ à¸ķ
Ġà¸ªà¸Ńà¸ļ à¸Ľà¸²à¸ģà¸Ħà¸³
Ġb ot
on line
Ġà¸Ĥà¸²à¸¢ à¸ķà¸£à¸ĩ
à¸ĩ à¸ĺ
ĠMo ist
à¸³ à¸Ĭ
à¸ĩ à¹Ģà¸ļ
Ġà¸Ľà¸£ à¸¡
ab et
Ġ13 4
ĠAp artment
Ġà¸Ħà¸£à¸Ńà¸ĩ à¸£à¸²à¸Ĭà¸¢
âĢ ĺ
ĠSmart phone
à¸į à¹Ĥà¸į
Ġ0 10
Ġà¸Ħà¸¤à¸« à¸²à¸ªà¸Ļ
Ġà¸Ľ à¸ģà¸²à¸£
Ġà¸ªà¸łà¸²à¸ŀ à¸Ħà¸¥
Ġà¹Ģà¸® à¸®à¸²
Ġà¸Ĺà¸³ à¸ªà¸ĩà¸Ħà¸£à¸²à¸¡
Ġà¸ģà¸° à¸«à¸£
à¸²à¸ĩ à¸Ĥ
ĠS AL
ĠT T
à¸ŀà¸¥ à¹Ģà¸£
Ġn h
à¸¢à¸§à¸Ĥ à¸Ī
ĠOce an
à¹Ħ à¸Ĺà¸£
ĠT ank
Ġà¸ªà¸Ńà¸ļ à¸ª
ĠA G
Ġb ody
ĠT amb
ĠH an
Ġà¸ĩ à¹Ģà¸Ľ
Ġsl im
Ġà¹Ĥà¸ĺ à¸¡
Ġà¸Ħà¸§à¸²à¸¡à¸Ħ à¸ĩà¸Ĺà¸Ļ
Ġst art
à¹Ģà¸ĭ à¹Ģà¸Ķà¸ª
à¸Ļ à¸Ńà¸Ķ
Ġtw itter
l av
Ġà¸Ľà¸£ à¸²à¸ĩà¸Ħ
ord s
à¸ª à¹ģà¸Ħà¸§à¸£
à¸¢ à¸Ł
Ġà¸§à¸ĩ à¹Ħà¸ŀ
ox um
à¸Ļà¸ķ à¸²à¸¢
Ġpro gram
ĠNEW S
oku geki
Ġf it
Ġà¸¡ à¸Ĥ
à¸Ķ à¸£à¸°à¸ļà¸ļ
Ġà¸Ħà¸Ń à¹ģà¸«à¸¥à¸¡
ĠPl ug
à¸¢à¸¢ à¸¢à¸¢
Ġc oll
itch en
ĠBL ACK
Ġà¸Ī à¸²à¸ķ
ĠS i
ĠS en
at in
Ġà¸§à¸ĩ à¹ĥà¸Ļ
te gr
Ġà¸ķà¸£ à¸Ńà¸ģ
Ġot bel
ĠAssoc iation
à¸¢à¸ļ à¹Ģà¸«à¸¡
Ġà¹Ģà¸¥ à¸Ķ
à¸Ń à¹ģà¸Ĺ
Ġà¸ķ à¸Ńà¸Ķ
ĠSH OP
Ġc ream
à¸Ńà¸Ļ à¸Ĭà¸²
à¸¥à¹Ģà¸¥ à¸Ī
Ġà¸«à¸¡à¸Ńà¸Ļ à¸§à¸Ķ
Ġà¸ķà¸Ńà¸Ļ à¸ģà¸¥à¸²à¸ĩà¸§
Ġà¸ªà¸²à¸£ à¹Ģà¸ªà¸ŀà¸ķ
Ġà¸£à¸²à¸¢à¸ģà¸²à¸£ à¹Ĥà¸Ĺà¸£à¸Ĺ
ĠMil k
à¸¢à¸Ļ à¸ļ
ap ore
Ġà¸ªà¹Ģà¸Ľ à¸ĭ
ĠD oll
Ġà¸ª à¹Ĥà¸¥à¸§
à¸²à¸§ à¹Ģà¸Ķ
OV E
ĠVerm oxum
à¸²à¸¢ à¸§à¸Ļ
à¸²à¸Ħ à¸Ķ
ĠE t
b s
ax i
à¹Ĥà¸¡à¸Ĺ à¸Ļà¸²
à¸· à¹Ĭ
à¸ŀ à¸ĩ
ĠDis ney
ĠIv ory
ĠK T
âĢĿ âĢĿ
ĠC e
Ġà¸¢ à¸ĺ
if a
Ġà¸Ħ à¸²à¸¢
Ġà¸ģà¸²à¸£ à¸¡
ĠAl pha
Ġpc s
â Ĥ¬
à¸ļ à¹Ĥà¸Ħà¸£à¸ĩà¸ªà¸£
Ġà¸ŀà¸£ à¸²à¸ĩ
Ġà¸¥à¸°à¸Ħà¸£ à¹Ģà¸§à¸Ĺ
ĠDet ox
Ġ... âĢĿ
Ġà¸ļà¸²à¸ĩà¸ģà¸Ńà¸ģ à¹ĥà¸«à¸į
à¸²à¸¢ à¸ķà¸²
st ick
à¸Īà¸²à¸£à¸ĵ à¸²à¸Ħà¸Ķ
0 8
he el
à¸ĩà¸Ĺà¸²à¸ĩ à¸ļà¸ģ
Ġ25 22
Ġà¸ķà¸²à¸¡ à¹Ģà¸Ķ
à¸Ļà¸ĺ à¸§à¸ĩà¸¨
à¸ŀà¸¥ à¸Ńà¸¢
Ġ. (
Ġà¸Ĺà¸²à¸ĩ à¹ĥà¸Ī
Ġà¸ģà¸£à¸£ à¹Ħà¸ģà¸£
Ġà¹ģ à¸Ļà¸Ĺ
à¸¢à¸ģ à¹Ģà¸§
Ġà¸«à¸²à¸¢ à¸«
Ġà¸ģà¸²à¸£ à¹Ģà¸ģ
ĠExpl orer
Ġà¸ĺà¸£à¸£à¸¡ à¸²
ip e
ĠEd itor
à¸³ à¸¥à¸ĩ
à¸²à¸ļ à¸Ĺ
Ġà¸ªà¸¡ à¸£à¸ª
ĠM AT
ĠLog in
à¸Ī à¹Ģà¸Ī
Ġà¸ŀ à¸²à¸ªà¸ķ
ĠN ak
ĠâĢ ¬
à¸ı à¸Ĳà¸²à¸Ļ
oc urrency
Ġà¸ĺà¸Ļà¸²à¸Ħà¸²à¸£ à¹ģà¸«
Ġà¹ģà¸Ľà¸£à¸ĩ à¸Ł
Ġà¹Ģà¸Ńà¸Łà¹Ģà¸Ń à¸Ħ
à¹ģà¸ģà¸° à¸ªà¸¥
à¸ĩ à¸ŀà¸£
Ġà¸łà¸²à¸ŀ à¹Ģà¸Ĥ
Ġk on
à¸Ħà¸ķ à¸Ńà¹Ģà¸£
Ġà¸ģà¸²à¸£à¸£ à¸Ńà¸Ħà¸Ńà¸¢
à¸ľ à¸Ļ
Ġ( (
ãģ Ļ
à¸¨ à¸²à¸ªà¸Ļ
Ġà¹Ĥà¸®à¸¡ à¹Ģà¸¡à¸Ķ
Ġà¸į à¸įà¸²
à¸² à¹Ģà¸ģà¸¥
Ġà¸ķà¸£à¸§à¸Ī à¹Ģà¸¥
âĶ ģ
Ġà¹ģà¸Ļà¸§ à¸Ľà¸ı
Ġ13 9
Ġà¹Ģà¸Ĭ à¸Ħ
ID E
à¸Ħ à¸Ńà¸ĩ
Ġ3 99
ard s
Ġà¸Ľà¸£à¸° à¸«à¸Ļ
Ġà¹Ĵ à¹ĸ
à¸¥ à¸¢à¸²
ĠR os
P I
à¸ģà¸ ī
à¸Ľ à¹Ģà¸Ńà¹Ģà¸Ĭ
Ð¾ Ð½
Ġà¸Ħà¸§à¸²à¸¡ à¹Ģà¸«à¸¥
is ing
ĠVill age
à¸ļà¸ª à¸¥à¸²à¸ģ
in ium
Ġà¸«à¸² à¹Ģà¸ª
Ġà¸¥ à¸Ķà¹Ģà¸«à¸¥
è ¿
à¸Ķ à¸£à¸²à¸Ĭà¸ģà¸²à¸£
Ġà¸ļà¸²à¸ĩ à¸Ľà¸£à¸°à¸ģà¸²à¸£
Ġà¹ģà¸Ł à¸ģà¸ĭ
Ġcan on
ĠS Y
ĠM O
Ġà¸Ĭà¸Ļ à¸¡à¸²à¸¢
Ġà¹Ħ à¸¨à¸¥
Ġà¸¥à¸ĩ à¸ŀ
à¸ĩà¸ģà¸£ à¸²à¸Ļà¸ķ
Ġà¸£à¸² à¹Ģà¸¡à¸Ļ
Ġà¸«à¸¡à¸Ķ à¹ģà¸£à¸ĩ
Ġt oday
ĠC ost
ĠT K
pl ate
å ·
Ġà¸ģà¸²à¸£ à¸Ļ
ĠY u
Ġà¸ªà¹Ĥà¸¥ à¹ģà¸ģà¸Ļ
à¸ģ à¹Ģà¸«
ĠN in
à¸£à¸²à¸¢ à¹Ħà¸Ķ
Ġà¸Ĥà¸ļà¸§à¸Ļ à¹ģà¸«
eek er
Ø§Ù Ĩ
Ġs un
à¸§à¸¢ à¸£à¸²à¸ĩà¸§
R e
Ġà¹Ĥà¸Ħ à¸§à¸ķ
Ġà¸Ľà¸¥à¸²à¸¢ à¹Ģà¸Ĺ
n w
ĠW ed
à¸Ķ à¸Ķà¸²
à¸Ķ à¸ģà¸£à¸°à¸Īà¸²à¸¢
à¸Ł à¸§
Ġà¸ģà¸£à¸°à¸ļà¸§à¸Ļà¸ģà¸²à¸£ à¸¢
ĠB ot
ĠSP ORT
ĠOut door
ĠT AG
à¸ª à¸²à¸¡à¸²à¸£à¸ĸ
à¸ĩà¹Ħ à¸«à¸¡
Ġim g
Ġå¤© å¤©
Ġà¸ķà¸¥à¸Ńà¸Ķ à¸Ĺà¸²à¸ĩ
Ġâ Ķ
Ġà¹Ģà¸Ĺà¸ŀ à¸²à¸£
l ock
ĠM ouse
Ġà¸¡à¸« à¸²à¸ģ
Ġà¸ĸà¸§à¸²à¸¢à¸ŀà¸£à¸° à¹Ģà¸ŀà¸¥
à¸Ĥà¸²à¸Ķ à¸ªà¸²à¸¢
à¸²à¸ĩ à¸Ķà¸²à¸§
M AN
à¸²à¸Ħ à¸°à¸Ļà¸Ńà¸ĩ
ĠH I
as m
ĠN P
Ġà¸ķà¸²à¸ģ à¹ģà¸Ķà¸Ķ
ĠI z
âĸ Ī
Ġw a
Ġà¸ķ à¸ģà¸§
Ġà¸Ĺà¸²à¸Ļ à¸ķà¸°à¸§
Ġà¹Ģà¸Ĺà¸¨ à¸Ļà¸²
ĠT W
ĠEngine ering
Ġà¸ŀà¸£ à¸²à¸Ļ
à¸Ļà¸Ł à¸£à¸²à¹Ģà¸£
à¸Ļà¸Łà¸£à¸²à¹Ģà¸£ à¸Ķ
Ġà¸Ļà¸²à¸ĩ à¸ŀà¸įà¸²
Ġà¹Ģà¸Ĥ à¸²à¸Ħ
à¸ģ à¹Ĥà¸Ħà¸£
Ġà¹ģà¸ļà¸ļ à¸Ŀ
o en
Ġà¹ģà¸Ħ à¹Ĥà¸£
à¸ģà¸ĸ à¸²à¸¡
Ġâĸ º
Ġà¸Ħà¸³ à¸Ĺà¸³à¸Ļà¸²à¸¢
ĠMIN I
à¸Ĺà¸³ à¸Ļà¸Ńà¸ĩ
ł ģ
Ġà¸ģà¸²à¸£à¸Ĺ à¸£à¸ĩà¸ķ
ĠFut ure
Ġà¹Ģà¸ĭà¹Ģà¸¥ à¸ļ
ĠS ter
and er
à¹Ģà¸Ł à¸Ħ
Ġà¸ķà¸ģà¸Ĥ à¸²à¸§
à¸¥ à¸ŀà¸¥
ĠP G
à¸¢à¸£ à¸Ńà¸¢à¸Ķ
ãĤ ĭ
Y ou
à¸²à¸¢ à¸§
Ġa uto
à¸ª à¸Ļà¸ĺ
rid ge
ĠSh okugeki
Ġà¸¤ à¹ħ
Ġà¹Ħ à¸§à¸¢
à¸Ľà¸ķ à¸²à¸£
à¸²à¸§à¸ª à¸²à¸¥
Ġà¹ĥà¸Ļ à¸ļà¸²à¸ĩ
Ġà¸ģà¸²à¸£ à¸¢à¸ģà¹Ģà¸§
Ġà¸Īà¸³ à¸Ľà¸²
ĠInt ellig
e o
Ġà¸ŀà¸£à¸° à¸Ľà¸£à¸°à¸ĺà¸²à¸Ļ
âĢ¢âĢ¢ âĢ¢âĢ¢
å Ŀ
Ġà¸ī à¸²à¸§
Ġà¸ģà¸²à¸£ à¹Ģà¸īà¸¥
Ġà¸¥à¸ĩ à¸¡à¸ķ
st r
à¸ģ à¹ģà¸ľ
Ġà¹Ĥà¸Ĥ à¸Ļ
Ġà¸Ĭà¸°à¸ķ à¸²à¸ģà¸£à¸£à¸¡
ĠD ol
ĠO ld
IL E
à¹ĥ à¸Ŀ
Ġà¸Ĺà¸²à¸ĩ à¸Ĺà¸«à¸²à¸£
Ġà¸Ħà¸§à¸²à¸¡à¸ªà¸ĩà¸ļ à¹Ģà¸£
à¸Ńà¸ĩ à¹Ħà¸§
Ġà¸ģà¸£à¸¡à¸ģà¸²à¸£ à¸Ĥà¸Ļà¸ª
Ġà¸Ħà¸§à¸²à¸¡à¸ª à¸ļà¸²à¸¢à¹ĥà¸Ī
Ġ3 40
re x
ĠFl ow
Ġà¸Ľà¸£à¸° à¸ªà¸¡
à¸ª à¸łà¸²à¸ŀ
à¸ļ à¹Ģà¸ŀ
Ġa is
Ġà¸¢à¸²à¸ģ à¹Ģà¸¢
à¹ģà¸Ī à¸ģ
Ġ....... .
<<<<<<<< <<<<<<<<
Ġà¹Ħà¸ĭ à¸Ķ
Ġà¸Ħà¸Ńà¸¢ à¸¥
Ġà¸Ń à¸Ľà¸Ĺ
à¸¢à¸ĩà¸Ķ à¸Ļà¸ķà¸£
à¸Ļà¸²à¸ĩ à¸£à¸¡
à¸Ńà¸ģà¸Ĺ à¸²à¸ĩ
ĠAdmin istr
à¸ģà¸ģà¸£à¸° à¸Ī
ĠD eep
Ġà¸łà¸²à¸Ħ à¸ªà¸Ļà¸²à¸¡
Ġtr ip
Ġà¸¡à¸²à¸ģà¸« à¸¥à¸²à¸¢
Ġà¸Ĭà¸²à¸§ à¸ªà¸§à¸Ļ
ãģ ª
act ive
Ġem ployment
Ġà¸£à¸ĸà¸ª à¸Ľà¸Ńà¸£
ĠX nxx
Ġà¹Ģà¸ģà¸©à¸ķà¸£ à¸¨à¸²à¸ªà¸ķà¸£
Ġà¸Īà¸° à¸Īà¸°
ac o
Ġâĺħâĺħâĺħ âĺħâĺħ
Ġbe fore
ïľ Ĵ
à¸Ħ à¸§à¸ĩ
Ġà¹Ģà¸ª à¸²à¸§
Ġ25 36
à¸Ļà¸Ļ à¸Ńà¸ģ
ä¸ ī
Ġà¹Ħà¸ļà¸£ à¸Ĺ
à¹ģà¸Ħ à¸ĩ
c s
Ġ07 00
m art
Ġk r
E AM
à¸²à¸£à¸²à¸Ĭà¸ģà¸²à¸£ à¸ŀà¸¥à¹Ģà¸£
ĠRob ot
v et
ĠHy per
ĠCo ach
Ġp ust
Ġà¸«à¸Ńà¸¢ à¸Ļà¸²à¸ĩà¸£à¸¡
Ġà¸ªà¸³ à¸Ńà¸²à¸ĩ
Ġà¸£à¸ĸ à¸Ĭà¸Ļ
à¸§à¸Ļ à¸Īà¸³à¸ģ
ĠM ail
ĠTr ading
Ġc at
iz ing
Ġà¹Ģà¸ª à¸²à¸Ńà¸²à¸ģà¸²à¸¨
Ð ·
Ġà¸Ķ à¸²à¸¡
à¸²à¸ģ à¸£à¸°
à¸ŀà¹Ģà¸ŀ à¸ª
ĠM ob
Ġc re
Ġ199 8
Ġs r
ĠW ild
w ar
if ier
à¸³ à¸Ľ
ĠY ellow
Ġà¸ķ à¸ĭ
à¸Ħà¸§à¸²à¸¡ à¸«à¸§
Ġ99 0
ĠC a
ĠE T
c el
ĠG un
Ġx n
Ġà¸ļ à¸³à¸Ļà¸²à¸į
â ķ
Ġb al
Ġà¸ģà¸²à¸£ à¸Īà¸³à¸¥à¸Ńà¸ĩ
à¸Ļà¸ľ à¸ĩ
Ġus b
ĠCR M
ĠS olid
z z
à¸²à¸Ļ à¹Ħà¸£
sp ot
AG E
Ġà¸¥ à¸¡à¸ŀ
Ġà¸£à¸ĸà¸£ à¸²à¸ĩ
Ġ ang
à¸Ńà¸¥ à¸²à¸¡à¸ģ
Ġà¸¡à¸²à¸¢ à¸²à¸ģà¸¥
Ġhome opath
Ġ19 2
Ġs peed
Ġl ocation
Ġà¸¥à¸° à¸Ĺ
Ġà¸Ĺà¸³ à¸Ľà¸£à¸°à¹Ĥà¸¢à¸Ĭà¸Ļ
Ġà¹Ģà¸Ń à¸²à¸Ńà¸¢
Ġb re
l og
å ¸
Ġà¸Ľ à¸¯
ĠS ave
Ġd u
ĠB er
à¸ļ à¹Ħà¸¡
Ġà¸ĩà¸²à¸Ļ à¸Ľ
Ġc ateg
ĠD ry
à¹Ĥà¸Ķ à¸§
à¹ģà¸Ĭ à¹Ĥà¸Ķà¸§
à¸§à¸¢ à¸ģà¸İà¸«à¸¡à¸²à¸¢
Ġe vent
ĠCh all
à¸§ à¹Ģà¸ĩ
ãģ ¦
Ġà¸Ń à¸²à¸ªà¸Ļ
Ġà¸ªà¸²à¸§ à¸ĩà¸²à¸¡
ĠEx tra
ĠJ o
Ġà¸«à¸¢ à¸²à¸Ķ
Ġs em
Ġp an
Ġà¹ģà¸£à¸ĩ à¸ľà¸¥
ĠExper ience
Ġ ok
ĠMir ror
Ġd iv
rid erm
à¸¢à¸Ķ à¸Ĭ
Ġà¸ªà¸° à¸ģ
Ġà¹Ģà¸Ħà¸¢ à¸Ĭ
à¸ļà¸Ľ à¸²à¸ģ
ĠSm all
Ġà¸¥ à¸Ł
Ġs om
ĠPh uket
Ġà¹ģà¸ģà¸Ļ à¸ģà¸¥à¸²à¸ĩ
Ġà¸¢ à¸²à¸Ĺ
ĠExc iter
Ġà¸« à¸²à¸Ħ
1 50
Ġp hone
Ġà¸ģà¸²à¸£ à¸ģà¸£à¸Ńà¸ĩ
à¸£à¸²à¸ ł
Ġà¹Ħà¸ĭ à¸ļ
Ġà¸Ńà¸²à¸£ à¸²à¸¡
w atch
Ġà¹Ĵà¹ķà¹ķ à¹ķ
l ist
Ġm ay
à¸ĩà¸ķ à¸³à¹ģà¸«à¸Ļ
à¸Ķ à¸£à¸²à¸Ħà¸²
ir th
Ġ. "
Ġà¸ģà¸£à¸¡ à¸ļ
Ġà¸Ńà¸²à¸¢ à¹ģà¸Ĭà¹Ĥà¸Ķà¸§
ĠX box
Ġbus iness
à¹Ģà¸Ł à¸Ļ
ĠMag azine
Ġà¸Ń à¸Ī
ur u
Ġà¸Ħà¸§à¸²à¸¡ à¸Ńà¸Ļ
v iron
ĠM AC
Ġà¹Ħ à¸Ŀ
Ġà¸«à¸¡à¸²à¸¢ à¸Ī
ĠOF F
à¸Ń à¹ĥà¸Ļ
ĠZ h
88 8
Ġà¹Ĥà¸łà¸Ħ à¸ł
Ġà¸Ħ à¸¡à¸Ļà¸²à¸Ħà¸¡
Ġà¹Ģà¸« à¸Ļà¸Ńà¸°
Ġà¹Ģà¸Ńà¸² à¹Ģà¸Ľà¸£
à¸Ń à¸ī
Ġà¸ĺ à¸ģà¸ª
Ġà¸į à¸Ĭ
US E
0 4
Ġà¸§à¸² à¹Ħà¸£à¸ķ
Ġà¸ĸà¸²à¸¡ à¸«à¸²
à¸²à¸¢ à¸Ĭ
Ġp ap
Ġà¸ģà¸² à¹ģà¸¥
à¸Ńà¸ģà¸ Ĥ
n is
Ġà¸ķà¸° à¹Ĥà¸ģ
ĠDirect or
Ġà¸Ĩ à¸£
ĠãĢ Ĳ
ĠSund ay
ãģ ¨
â Ĺ
Ġà¸ģà¸²à¸£à¸Ľà¸£à¸° à¸¡à¸ĩ
Ġà¸ģà¸© à¸ĵà¸°
Ġsam sung
à¸§à¸¢ à¸«à¸Ńà¸¡
Ġà¸«à¸¥à¸²à¸Ļ à¸Ĭà¸²à¸¢
OW ER
à¹Ħ à¸Ńà¸Ļ
à¸Ńà¸ģ à¸Ļ
ĠFr esh
Ġseek er
Ġà¹Ħà¸Ł à¸ķ
Ġe lect
à¸Īà¸ī à¸²à¸Ĭ
ãģ Ł
Ġm ag
Ġ13 3
ĠV intage
Ġà¹Ħà¸® à¹Ħà¸¥à¸ķ
Ġà¹Ĥà¸Ħà¸£à¸ĩà¸ģà¸²à¸£ à¸«à¸¥à¸§à¸ĩ
ul es
à¸Ļà¹Ħ à¸ģ
Ġà¹Ħà¸Ń à¹ģà¸ŀà¸Ķ
ĠL PG
Ġà¸ģà¸²à¸£à¸ª à¸²à¸ĺ
ĠAdd ress
UL L
l ot
à¸§ à¹Ģà¸ķ
Ġà¸£à¸Ńà¸ĩ à¹Ģà¸¥à¸Ĥà¸²à¸ĺ
Ġsm ear
ĠâĢ¦ )
Ġà¸Īà¸Ķ à¸ļ
ĠF ed
à¸ģà¸²à¸£ à¸Ī
ĠRad io
ľ à¸¥
ĠO EM
ĠãĢ ĳ
c am
à¹Ģà¸Ń à¸²à¸Ľà¸£à¸°à¸ģ
d le
ĠJ ewelry
Ġà¸Ħà¸Ļ à¸ģà¸¥à¸²à¸ĩ
Ġà¹ģà¸Ħ à¸£à¸°
à¸Ļà¸«à¸Ļ à¸²
Ġà¸Ļà¸Ńà¸ģ à¹Ģà¸¡
g ing
ĠAccess ories
E V
ĠM aterial
ak es
ðŁ į
è ¡
Ġ13 1
Ġà¸Ħà¸³ à¸¡
Ġà¸ģà¸¥à¸²à¸ĩ à¸Ķ
Ġà¸Ĥà¸§à¸Ķ à¸Ļà¸¡
à¸ģà¸ªà¸° à¹ĥà¸ł
ĠGener ation
à¸¥à¸¥ à¸Ńà¸¢
à¸Ń à¹Ĥà¸ģà¸ĩ
Ġsoc ial
à¸Ļà¸Ĺà¸£ à¸§
Ġip ad
à¸¢à¸Ļ à¹Ģà¸ģà¸¡à¸ª
p he
Ġjobs eeker
à¸Ńà¸¡ à¹Ģà¸ŀà¸£
Ġà¹ģà¸« à¸Ļ
Ġà¸ªà¸° à¹Ģà¸Ķà¸²
Ġadd ress
Ġà¸Ķà¸²à¸§ à¸Ń
Ġà¸ķà¸²à¸¡ à¸Ħà¸§à¸²à¸¡à¹Ģà¸Ľ
Ġpro v
Ġà¸Ħ à¸Ĭ
à¸²à¸Ļ à¹Ĩ
Ġà¸ģà¸ Ĥ
Ġà¹ģà¸ļ à¸Ķ
Ġpust ular
ĠQu ad
à¸Ķà¸ª à¸§à¸Ļ
ĠFr id
Ġà¸ģà¸²à¸£ à¹Ģà¸ŀ
à¹Ģà¸Ħ à¸Ļ
à¸Ī à¸Ķà¸«à¸¡à¸²à¸¢
à¸¥ à¸ķà¸£à¸²
OR E
à¸²à¸ĩ à¸Ŀ
ĠÄ ĳ
à¸²à¸¢ à¸Ħ
Ġà¸ªà¹ģà¸ģ à¸Ļà¹Ģà¸Ļà¸Ńà¸£
Ġà¸« à¸²à¸Ńà¸²à¸«à¸²à¸£
ĠB ul
Ġs ee
ec ut
Ġà¸Ī à¸Ńà¸¡à¸Ĺ
over y
ick et
à¹Ĥ à¸ģà¸£
à¸²à¸ĺ à¸ĩ
Ġ24 5
ush i
à¹Ĥà¸Ħà¸£à¸ĩ à¸ģà¸²à¸£
Ġ09 4
à¹Ģà¸ī à¸¢
Ġà¹Ĥà¸£à¸ĩ à¸£à¸ĸ
Categ ories
Ġà¸Ńà¸ļ à¹Ģà¸Ĭà¸¢
à¸ķà¸ķ à¸²à¸¥
ĠFu ji
Ġà¹Ģà¸ª à¸²à¸ĺà¸ĩ
Ġs ing
ru ary
ĠB oot
Ġte chn
Ġt our
ĠEss ential
ĠProtect ion
Ġà¹ģà¸£à¸ĩ à¸ģà¸¥
ĠDav id
Ġà¸ª à¸²à¸Ħà¸£
H ER
ĠChev rolet
Ġà¸Łà¸Ńà¸ª à¸Łà¸Ńà¸£
Ġl ook
ĠP ap
Ġp at
à¸ĩà¸ĺ à¸Ļà¸ļ
Ġà¸ģà¸£ à¸Ļ
Ġb angkok
Ġ13 6
UZ U
ĠP ag
ĠVis a
à¸Ļà¹Ģà¸Ĺ à¸£à¸Ļà¸Ķ
ĠSC G
Ġà¸¢ à¸²à¸«à¸¡
Ġà¸¥à¸° à¹Ģà¸§
ĠP ocket
ur ing
Ġà¸«à¸§ à¸²
ri er
Ġdr ive
Ġà¸Ľà¸£à¸²à¹Ĥà¸¡ à¸Ĺà¸¢
à¸ļà¸£ à¸¡à¸¡
à¸«à¸²à¸£à¸²à¸Ĭ à¸§
ÐµÐ ¼
à¸ļà¸£à¸¡à¸¡ à¸«à¸²à¸£à¸²à¸Ĭà¸§
AC T
à¹ģà¸ª à¸ļ
ĠN ature
Ġà¹ģà¸¡ à¸Ļà¸Ĭ
Ġà¸§à¸²à¸ĩ à¹Ħà¸Ĥ
à¸Ķà¸¡ à¸Ħà¸ķ
ĠIN TER
ĠS ource
Ġc e
Ġà¹Ģà¸ļà¸ª à¸ļà¸Ńà¸¥
à¸ļ à¸«à¸¥
Ġà¸ŀà¸£à¸° à¸ļà¸£à¸¡à¸¡à¸«à¸²à¸£à¸²à¸Ĭà¸§
Ġà¸ģà¸£ à¸¡à¸ŀà¸£à¸°
az er
à¸« à¸²à¸į
or g
Ġà¹Ĥà¸ŀ à¹ģà¸Ĺ
ĠT ar
Ġà¹Ģà¸ĩ à¸²à¸°
à¸²à¸§ à¹Ģà¸Ľà¸¥
tern al
Ġfor m
c ard
Ġà¸Ħà¸§à¸²à¸¡ à¸Ńà¸¢
à¹ģ à¸Ńà¸¥
id ent
à¹Ĥà¸£ à¸Ĵ
Ġà¹Ĥà¸Ħà¸£ à¹Ģà¸¡
Ġà¸Ĭ à¹Ģà¸§
Ġ5 90
Ġà¹ģà¸Ĥ à¸ģà¸£
es c
ĠE F
Ġà¸Ħà¸²à¸ļ à¸ªà¸¡
ĠExtr act
Ġà¸Ķ à¸Ńà¸¡
Ġg a
ĠAf ter
Ġà¸Łà¸¥ à¸Ńà¸£
à¸Ļà¸ķ à¸Ļ
ĠO re
à¹Ĥà¸ł à¸Ĭ
à¸ķà¸¢à¸ģà¸£à¸£à¸¡ à¸¨à¸²à¸ªà¸ķà¸£
ĠM ur
Ġà¹Ĥà¸¥ à¸¡à¸²
ĠT ai
Ġà¸ŀà¸£ à¸ªà¸§à¸£à¸£à¸Ħ
à¸Ĥà¸ª à¸ļà¸²à¸¢
Ġw in
ĠSup ply
à¸ĩà¸Ī à¸Ńà¸ĩ
Ġ9 50
Ġà¸¢à¸²à¸Ļ à¸Ńà¸Ļà¸«à¸¥
à¸Ļ à¸®
ĠPal mar
à¹ģà¸Ŀ à¸ĩ
à¸Ļ à¹ģà¸¥
à¸Ń à¹Ħà¸ģ
ĠMount ain
ĠM onster
èĤ ĸ
à¸² à¹ĥà¸«
à¸Ļà¸Ħà¸³ à¸Ĥà¸Ń
ol s
à¹Ĥ à¸¢à¸¡
Ġà¸Ĭà¸³à¸£à¸° à¸¥
Ġà¸Ħà¸§à¸²à¸¡à¸Ń à¸²à¸¥
Ġs u
ĠA ge
ĠD L
Ġà¹Ħà¸ŀ à¹Ĥà¸£à¸Īà¸Ļ
Ġ26 5
à¸¢ à¹Ģà¸£
à¸Ĺà¸ĺà¸¨ à¸ķà¸§à¸£à¸£à¸©
Ġà¸ªà¸²à¸¡ à¸ģ
à¸Ļ à¸ģà¸£à¸Ńà¸ĩ
à¸° à¸Ĺà¸°
Ġà¹ģà¸ª à¸Ķà¸ĩà¸Ħà¸§à¸²à¸¡
ĠN ame
Ġà¸ģà¸²à¸£à¸Ľ à¸°à¸Ĺà¸°
ors che
à¹Ĥà¸Ń à¸Ĺ
uz u
arg et
Ġnb sp
à¸Ńà¸Ľ à¸ı
à¸§ à¹Ģà¸Ńà¸ģ
à¸° à¸¢à¸²à¸Ļ
à¸ķ à¸Łà¸Ńà¸£
à¹Ĥà¸Ĺ à¸Ļ
à¹Ģà¸¡ à¸²
ĠL C
à¸ĩ à¹Ģà¸«à¸ķ
à¸²à¸ª à¸ĩà¸ª
ĠF eed
IN A
Ġst and
Dr ive
ĠFoot ball
Ġà¹ģà¸Ļ à¸§à¸£
ĠSt one
à¸§à¸Ļ à¸«
Ġà¹ģà¸ĺ à¸¡à¸Ľ
à¸¢ à¹Ħà¸Ķ
Ġà¹Ģà¸« à¸²à¸°
ĠB ANG
à¸Ńà¸Ľ à¸Ļ
Ġà¸Ħà¸§à¸£ à¸£à¸°à¸§
Ġà¸Ĥà¸²à¸Ķ à¸«à¸²à¸¢
er as
Ġà¹Ĥà¸ģà¸¥ à¸ļà¸Ńà¸¥
ĠCustom er
Ġav ailable
Ġ ãĤ
Ġà¸Ĺ à¸ĭ
Ġà¸¥à¸Ńà¸¢ à¸ķ
b uri
ĠC ath
Ġà¸ĭ à¸²à¸¥
h o
Ġà¸Ĺ à¸Ńà¸Ļ
ĠEnter prise
ĠP AT
M an
Ġ4 30
Ġc ock
ur ch
Ġà¹ģà¸Ŀ à¸ģ
Ġ enter
à¸Ńà¸¡à¹ĥà¸Ī à¸ģ
Ġà¸ŀà¸² à¹Ģà¸«
Ġà¸ª à¸¢
ĠBack pack
à¸Ńà¸¡ à¸Ľà¸£à¸²à¸ļ
à¸Ńà¸¡à¸Ľà¸£à¸²à¸ļ à¸¨
ĠH ospital
ĠFit ness
ĠC ou
ĠSt ainless
is co
ĠAutom atic
ĠIn k
Ġà¸ģà¸²à¸£ à¸Ķ
ĠB ow
à¸²à¸ķ à¸²à¸ģà¸ª
Ġà¹Ħ à¸Ļà¸Ļ
Ġà¸Ħà¸Ļ à¸Ł
ĠL ibrary
ĠO s
Ġà¸ĭ à¸Ńà¸£
ĠDS LR
Ġà¸Ĩà¸£ à¸²à¸§à¸²à¸ª
Ġà¸Ĺ à¸²à¸§
à¸§à¸¢ à¸Ł
Ġan y
Ġ15 9
N E
à¸Ĭ à¸ľà¸¥
à¸Ń à¸ģà¸¥à¸²à¸ĩ
Ġ" .
es ign
ĠM ind
Ġà¸Ĺà¸²à¸ĩ à¹Ģà¸Ĺ
Ġb ank
Ġà¹ģà¸¢ à¸ģà¸ķ
s ia
Ġà¹ģà¸¡ à¸¥
Ġà¹ģà¸«à¸¥à¸¡ à¸īà¸ļ
AN T
Ġà¸£ à¸ĵà¸²
à¸«à¸¥ à¸ĩ
ĠComp et
Ġà¸ģà¸£ à¸¡à¸Ń
Ġà¹Ĥà¸® à¸Ī
Ġà¸ľà¸¥ à¸ļ
Ġà¹ĥà¸ļ à¸ģà¸³à¸ģ
ĠSte am
Ġà¸ķà¸ĸ à¸²à¸Ħà¸ķ
Ġà¹Ĥà¸ŀà¹ģà¸Ĺ à¸ªà¹Ģà¸ĭ
Ġà¸ª à¸Ł
Ġl and
arg in
à¸¡ à¸«à¸¡
Ġà¸ĭ à¸²à¸ĩ
à¸ĩà¸Ĩ à¸Ĺà¸²à¸Ļ
Ġà¸Ĩà¸²à¸ķ à¸ģà¸£
ĠMess enger
Ġc are
Ġà¹ģà¸Ń à¸Ħà¸Ĺ
ut ter
à¸¡à¸Ħ à¸§
ĠAL L
à¸ļ à¹Ģà¸Ħ
ĠF ore
Ġà¸ļ à¸Ńà¸ģà¸ģà¸¥
Ġs bo
Ġà¸Ĥ à¸²à¸ģà¸¥
Ġà¸¡à¸²à¸Ķ à¸²à¸¡
à¸ģ à¹Ģà¸Ħà¸¥
Ġà¸ģà¸²à¸£ à¸£à¸°à¹Ģà¸ļ
Ġà¸Ħà¸Ńà¸¡ à¹Ģà¸ŀà¸¥
Ġà¸ªà¸ļà¸²à¸¢ à¸Ķ
Ġà¸Ļ à¸²à¸ĭ
viron ment
Ġà¹Ģà¸§ à¸ķ
ol ic
à¸²à¸Ļ à¸ĺ
à¸ı à¸Ī
ĠK ong
Ġà¸§ à¸²à¸ķ
Ġ? )
Ġà¸ªà¸¡ à¸Ļ
ĠL S
Ġà¸ģà¸£à¸° à¸ŀà¸£
ĠF ind
ĠâĢ ª
ĠElect ronic
ģà¸ İà¸«à¸¡à¸²à¸¢
Ġà¹Ģà¸§à¸Ĭ à¸ł
ian a
Ġà¸ģà¸²à¸£ à¸«à¸²à¸£
Ġh r
Ġphlebologist s
Ġte en
à¸¥à¸¡ à¸Ńà¸Ļà¸Ķ
P H
Ġà¸Ĺà¸³ à¹Ģà¸Ħà¸£
Ġc ent
Ġb uy
ĠHealth y
Ġc or
ur ance
r um
à¸ľà¸¥ à¸ĩà¸²à¸Ļ
itt en
âĶģ âĶģ
_ ^
m ag
ĠÙ Ī
à¸¡ à¹Ĥà¸¡
ĠAmer ica
y v
Ġs ign
Ġà¹Ģà¸ªà¸² à¹Ħà¸Łà¸Ł
ĠBre ak
ear l
Ġà¹Ģà¸§à¸¥à¸² à¹Ģà¸Ľ
ĠPL US
ĠCh at
ĠÐ½ Ð°
Ġà¸ģà¸° à¹Ĥà¸«à¸¥
Ġà¹Ģà¸£ à¸²à¸°
ĠCh arge
Ġà¸Ħà¸§à¸²à¸¡à¸Ħà¸²à¸Ķ à¸«à¸¡à¸²à¸¢
à¸° à¸ĩ
à¹Ĥà¸¥ à¸ł
ĠPL AY
Ġrem ix
Ġà¸ªà¸²à¸¡ à¸Ĭ
ĠD N
Ġà¸Ħà¸£ à¸§à¸į
à¸¡à¸¡ à¸²à¸Ļ
il m
à¸įà¸į à¸°
Ġà¸Ħà¸§à¸²à¸¡ à¹Ĥà¸¥à¸ł
un er
à¸²à¸ĸ à¸£à¸£à¸ŀ
r ast
Ġà¹Ĵ à¹Ĺ
à¸¡à¸° à¸¥
Ġà¸¢ à¸ģà¸¡
à¸ļà¸£à¸£ à¸¢à¸²à¸ģà¸²à¸¨
ĠI ron
à¸¡à¸ª à¸¥à¸²à¸¢
Ġà¸«à¸¥à¸²à¸¢ à¹Ģà¸Ĺ
ch en
ĠInd ustr
Ġà¸¡à¸² à¹Ģà¸¥à¸¢
ĠC oin
ĠI f
à¸Ķ à¹ģà¸Ī
à¸ģà¸ģ à¸£
à¸Īà¸²à¸£à¸ĵ à¸įà¸²à¸ĵ
Ġà¸«à¸¡à¸Ķà¸ª à¸ķ
à¸Ļà¸ŀà¸£à¸° à¸Ĭà¸Ļà¸¡
in der
Ġà¸ļà¸Ńà¸¥ à¸¥
ĠTool s
p ter
Ġà¸ģà¸³à¹ģà¸ŀà¸ĩ à¹Ģà¸¡
ĠIS UZU
j et
Ġà¹Ģà¸Ń à¸²à¸ľ
ĠL ocal
ãģ ¾
Ġnem ozol
Ġà¹Ĥà¸£à¸ĩ à¸ª
ersh ip
Ġ13 7
Ġà¹ģà¸Ī à¸¡
Ġà¸Ķà¸£ à¸²à¸ģ
Ġà¹Ĥà¸Ńà¸ļ à¸¥
Ġà¸¥ à¸¢
f ucking
ĠH z
Ġà¸¥à¸ĩ à¹Ģà¸£
à¸Ĺ à¹Ģà¸Ńà¸ģà¸Ĭà¸Ļ
à¸¢à¸ļ à¸ŀà¸£
Ġà¹Ĵ à¹Ļ
Ġà¸£à¸Ńà¸ļ à¸Ļà¸Ńà¸ģ
Ġà¸Ĺà¸£à¸ĩ à¸ģà¸£à¸°à¸ļà¸Ńà¸ģ
ar ning
Ġjob bkk
Ġ Æ
à¸¡ à¹Ģà¸¡
à¸łà¸²à¸© à¸²
er ies
ĠBas ic
à¸¥à¸ŀà¸¥ à¸²à¸ĭà¸²
ĠT ra
Ġà¸¡à¸« à¸²à¸Ĭ
Ġà¸£ à¸§à¸ĩ
int endo
ĠC redit
Ġc over
ĠCar bon
Ġà¸Ĺà¸²à¸ĩ à¸¥
à¹Ģà¸ļ à¸¥
à¸Ľà¸£à¸°à¸ģà¸Ńà¸ļ à¸ĺ
å ¾
Ġà¸£à¸²à¸Ĭ à¸ªà¸¡à¸ļ
Ġà¸ªà¸° à¸ŀ
ĠCh ild
à¸§à¸¡ à¸£
Ġl es
à¸¡à¸²à¸£ à¸Ķà¸²
Ġà¸ģà¸£à¸°à¸ļ à¸Ńà¸ĩ
Ġ33 3
Ġplay er
j in
ĠA ff
Ġà¸¥ à¸²à¸ª
Ġà¹Ĥà¸Ľ à¸¥
ĠCon dom
à¸ª à¸Ńà¸ĩà¹Ģà¸Ĺ
à¹Ĥà¸£ à¸ļ
ĠE s
MA X
Ġ19 1
Ġà¹ķ à¹Ĳ
Ġà¸Ħà¸Ńà¸Ļà¹Ģà¸ĭ à¸Ľà¸ķ
Ġon ly
Ġw ay
ĠJ ames
ĠGl uta
il a
Ġà¸ªà¸²à¸¢ à¸¢à¸²à¸ĩ
Ġà¸ĵ à¸ĵ
å ¨
ĠH T
ĠTe a
uck s
à¸Ħ à¸²à¸£
Ġà¸«à¸Ńà¸¡ à¸¡à¸°à¸¥
Ġà¸ķà¸²à¸¡ à¸ķà¸£à¸ĩ
Ġà¸£à¸²à¸¡ à¸²à¸ĺ
Ġà¸ĭ à¸§à¸¢
Ġtag s
Ġà¸¥ à¸ŀ
Ġim age
m ed
EF L
Ġ9 000
Ġà¸Ĭ à¸§à¸Ķ
ĠD ell
à¸įà¸įà¸² à¹Ģà¸Ĭ
à¸²à¸ĩ à¹Ģà¸Ĺà¸Ħà¸Ļ
Ġbl owjob
E n
ĠK TC
ĠLi quid
0 6
à¸Ńà¸ĩ à¹Ģà¸ķ
ĠG K
it z
à¹Ģà¸Ńà¸ģ à¸Ń
rip t
à¹Ģà¸ŀ à¸£à¸²
Ð¸ Ðº
à¸¡à¸² à¹Ģà¸Ļ
Ġà¸Ļà¸²à¸£ à¸²à¸¢à¸ĵ
Ġl ip
Ġà¸Ń à¸Ĥ
ĠF ox
ĠVis ion
Ġtrack ing
ain er
el a
à¸Ļà¸Ĺà¸²à¸ĩ à¸Ńà¸Ńà¸ģ
à¸ªà¸° à¸Ĺ
ĠÐ ¡
Ġà¹ģà¸¡à¸¥à¸ĩ à¸§
à¸Ļà¸Ħà¸§à¸²à¸¡ à¸Īà¸³à¹Ģà¸Ľ
Ġà¸Ĭ à¸²à¸Ļà¹Ģà¸¡
Ġà¹Ĥà¸£ à¸¡à¸²à¹Ģà¸Ļ
ĠAN D
âłĢâłĢ âłĢâłĢ
ĠS on
Ġh yd
à¸ĩà¹Ħ à¸«à¸¥
Į Ĺ
Ġà¹Ģà¸īà¸ŀà¸²à¸° à¸Ħà¸Ļ
ĠA sh
à¸Ń à¸²à¸Īà¸²à¸£à¸¢
Ġà¸ķ à¸¢
Ġw p
Ġà¸ģà¸£à¸°à¸Ĺà¸£à¸§à¸ĩ à¸¢
ĠAust ral
à¸ĩ à¸£à¸²à¸Ħà¸²
Ġà¸Ľà¸ģ à¹Ģà¸ģà¸¥
Ġà¸¡ à¹Ģà¸«à¸ª
à¸Ļà¸ķ à¸£à¸ĩ
Ġà¹ģà¸Ń à¹Ĥà¸£à¸ļ
Ġà¹Ĥà¸ļà¸£à¸²à¸ĵ à¸§
à¸ĩà¸ģà¸° à¹Ĥà¸¥
Ð¾Ð ¹
Ġ.. âĢĿ
Ġà¸§ à¸ĭ
Ġu f
à¸¡à¹Ģà¸ĩ à¸²
à¸ĺà¸£à¸£à¸¡ à¹Ģà¸Ļ
Ġ14 9
à¸Ķ à¹ģà¸¢à¸ģ
ĠAs us
à¸²à¸ķ à¸²à¸¢
à¸²à¸Ĺà¸³ à¸ģà¸²à¸£
Ġà¹ģà¸Ł à¸¥à¸ķ
Ġà¸¡à¸«à¸²à¸Ń à¸³à¸Ļà¸²à¸Ī
Ġ ë
à¸²à¸ļ à¸Ķ
Ġg al
St ation
à¸Ń à¸«à¸¥à¸§à¸ĩ
Ġà¸ģà¸²à¸£ à¸Ńà¸³à¸Ļà¸§à¸¢à¸Ħà¸§à¸²à¸¡à¸ªà¸°à¸Ķà¸§à¸ģ
ç Ľ
ĠChampion ship
Ġà¸ģà¸²à¸£ à¸Ĭà¸Ļ
à¸Ńà¸Ķ à¸Ńà¸ģà¹Ħà¸¡
Ġà¸ªà¸ł à¸²à¸ľ
uk u
Ġà¸Ńà¸³ à¸¡à¸²à¸ķ
IM E
Ġà¸Ńà¸³à¸¡à¸²à¸ķ à¸¢
Ġà¸¡ à¸Ńà¸¡
ĠH K
Ġà¸ķà¸ģ à¹ĥà¸Ļ
f ol
Ġl ow
T ime
Ġà¸£à¸°à¸ļ à¸³
à¸£à¸Ļ à¸²à¸£
Pl us
ĠMIT S
Ġà¸² à¸Ļà¸§à¸Ļ
Ġà¸Ī à¸¢à¸¢
Ġà¸¢à¸²à¸¡ à¸°
Ġ05 3
ĠB U
Ġun branded
ĠW IFI
ĠM X
Ġb a
Ġà¸ķà¸° à¸Ħà¸£
az ing
Ġà¸§à¸£à¸£ à¸ĵà¸°
v ed
Ġà¸ģà¸²à¸£ à¸Ħà¸Ļ
à¸Ķà¸¥ à¸§à¸Ķ
Ġdis c
Ġvesn ushki
ess ion
h ome
akh on
Ġà¸Ĥà¸Ļà¸ļ à¸ĺà¸£à¸£à¸¡à¹Ģà¸Ļ
ak in
ĠB ug
Ġà¸Ŀ à¸²à¸ľà¸Ļ
ï»¿ ï»¿
ĠSU V
Ġà¸Ĥ à¸Ķà¸¥à¸§à¸Ķ
z ar
Ġà¸¢ à¸²à¸ķ
Ġà¹Ģà¸§à¸¥ à¸²à¸Ĺà¸³à¸ģà¸²à¸£
ĠBu ilding
Ġup load
ĠJapan ese
ĠSe lect
ĠOut look
g irl
Ġ14 1
Ġà¹Ģà¸¡ à¸²à¸¡
Ġà¸ģà¸²à¸£ à¸¥à¸ĩà¸Ļà¸²à¸¡
ï¿½ï¿½ ï¿½
Ġà¸Ńà¸²à¸Ĭà¸į à¸²à¸ģà¸£
à¸¡ à¸§à¸¥à¸Ĭà¸Ļ
Ġ18 3
äº ¬
à¸Ļ à¸ģà¸§
ĠEx clusive
Ġà¸Ħà¸Ńà¸¡ à¹Ģà¸¡à¸Ļà¸ķ
Ġà¸ª à¸ĺ
ĠStud ent
Ġà¸ªà¹ģà¸Ľ à¸¡
ĠN umber
à¸¥ à¸Ńà¸Ļ
Ġb i
Ġà¸¨à¸²à¸¥ à¸Ĭ
Ġà¸Ńà¸²à¸«à¸²à¸£à¸Ħ à¸²à¸§
à¹Ģà¸Ļ à¸ģ
à¸²à¸¢ à¸²à¸ĩ
à¸¢à¸Ļ à¸ģà¸²à¸£
Ġd evelop
es tern
ĠFR EE
ĠS V
Ġà¸ªà¸ĸà¸²à¸Ļ à¸ļ
p aper
ec oin
à¸£à¸²à¸¢ à¸ĩà¸²à¸Ļ
Ġà¹Ĥà¸Ķà¸¢ à¸¥à¸°à¹Ģà¸Ń
Ġà¹Ħà¸§à¸¢ à¸²à¸ģà¸£à¸ĵ
à¸ļ à¸«à¸²à¸¢
Ġà¹Ģà¸ļ à¸Ħà¸Ńà¸Ļ
ĠM Y
us ion
à¸ģ à¹Ħà¸ģ
à¸Ħ à¸ĵ
à¸įà¸į à¸²à¸Ĺ
áŁ Ĵ
à¸¡ à¹Ħà¸¡
à¸Ńà¸ª à¸³à¸Ħ
ĠO w
à¸²à¸§à¸Ķ à¸²à¸£
Ġà¹Ģà¸Ķ à¸Ĭà¸²
ĠCiv ic
Ġr un
é Ģ
Ġsk in
Ġà¸¢ à¸²à¸Ī
IC K
ĠSAM S
Ġà¹Ģà¸§ à¸Ķà¸Ķ
Ġà¸Ħà¸° à¸Ļ
ere um
J et
Ġst re
à¸Ńà¸ªà¸²à¸£ à¸¡à¸§à¸¥à¸Ĭà¸Ļ
ĠFeb ruary
à¸¢ à¸ªà¸ķ
Ġà¹ģà¸¡ à¸ª
ĠI V
utt ing
Ġkn ow
ust ain
Ġà¸ĩà¸²à¸Ļ à¸«à¸¥
Ġ00 2
Ġà¸ªà¹ģà¸ķ à¸¡
Ġà¸ªà¸²à¸¢à¸ªà¸° à¸ŀà¸²à¸¢
Ġà¹ĥà¸ļ à¸Ĥ
Ġà¸£à¸°à¸ļà¸ļ à¸Ķ
à¸Ļà¸ª à¸Ńà¸ĩ
he k
Ġb uck
ON Y
ĠAnim ation
Ġw ikipedia
Ġà¸«à¸¡à¸Ķ à¸Ľ
ĠPro perty
Ġà¹Ģà¸Ħà¸²à¸£à¸ŀ à¸Ļ
à¸Ļà¸ªà¸¡ à¸Ħà¸§à¸£
ern ame
à¸ĩ à¸Ľà¸£à¸°
Ġà¸Ļà¸Ńà¸Ļ à¸«à¸ĩà¸²à¸¢
Ð° Ðº
à¸¡à¹Ģà¸Ľ à¸Ńà¸£
ER O
Ġà¹Ĥ à¸Ńà¸Ķ
à¸Ļà¸Ń à¸Ńà¸¡
Ġãĥ »
Ġotbel iv
v es
à¸ģà¸© à¸²à¸«à¸²à¸£
Ġà¹Ĥ à¸¥à¸ĩ
ĠH ist
Ġà¸Ħà¸²à¹ģà¸£ à¸Ħà¹Ģà¸ķà¸Ńà¸£
ĠAdvent ure
Ġ6 90
ĠUn it
Ġà¸łà¸²à¸§à¸° à¹Ģà¸¨à¸£à¸©à¸Ĳà¸ģ
ĠS om
à¸§à¸²à¸Ļ à¸Ļà¸Ĺ
à¸ĩà¸ª à¸²à¸ļ
ĠIn sp
ĠSur face
à¸§à¸Ĥ à¸Ńà¸ĩà¸ķ
OW N
Ġà¸¡ à¸Ńà¸Ķ
à¸Ńà¸Ļ à¸ģà¸£
åĽ ½
Ġà¸® à¸§à¸Ļ
ĠK L
IS HI
ĠFre em
Ġà¸ĭ à¸³
Ġà¸Ĺà¸²à¸ĩ à¹Ĥà¸¥à¸ģ
Ġm om
Ġ que
AS H
à¸Ļà¸Ħ à¸³à¸£
Ġ15 7
Ġ18 8
ID AS
ĠWin ning
ĠP enza
et hailand
à¸Ńà¸¢ à¸§à¸²à¸ĩ
oo se
ĠJan uary
ĠBrid ge
à¸¥à¸° à¹Ģà¸¡
re f
Ġà¸Ĺà¸ĺ à¸²
à¸ł à¸²à¸ľ
cl er
ĠM OB
ĠGP U
à¸ĺà¸¢à¸¡ à¸Ľà¸¥à¸²à¸¢
à¸Ķà¸ľ à¸Ļ
ĠS ite
ab les
Ġà¹Ĥà¸Ľà¸£ à¹Ĥà¸ķ
ĠP ersonal
Ġ? "
al er
Ġà¸«à¸¥à¸§à¸ĩ à¸ķà¸²
Ġà¸Ľà¸£à¸°à¸Ħ à¸ļ
j e
Ġà¹Ĵà¹ķ à¹ĳ
ĠBuff et
à¸«à¸Ļ à¸°
Ġà¸®à¸² à¹Ĥà¸¥à¸§
ĠF rom
ĠBro ther
à¸«à¸¡ à¸§à¸Ķà¸«à¸¡
à §
à¸²à¸¢ à¸Ńà¸Ńà¸ģ
ĠUl tr
à¸ģà¸© à¸²à¸¨à¸²à¸ªà¸ķà¸£
ite ct
Ġà¸Ľà¸£à¸°à¸ª à¸ŀ
à¸¢ à¹Ħà¸Ĥ
er al
S S
Ġà¸£à¸²à¸Ĭ à¸Ļà¸²à¸§
ps on
ĠSu ite
ĠD ate
ĠD DR
Ġà¸Ħà¸§à¸²à¸¡à¸¥ à¸³à¸ļà¸²à¸ģ
Ġbol ero
ĠV I
Ġ----- -
Ġà¸¥ à¸Ńà¸Ł
à¹Ĥà¸ķ à¸°
d own
Ġ23 5
uz z
Ġp ng
Ġà¹ģà¸Ľà¸£à¸ĩ à¸ª
ust ry
ĠMatt e
Ġ16 9
sc ape
Ġà¹Ĥà¸Ķà¸¢ à¸ªà¸£
ĠEn t
à¸Ļà¸ª à¸ĸà¸²à¸Ļ
Ġà¸Ĭà¸²à¸§ à¸¡
ĠSaf ari
Ġà¸£ à¸ĭ
Ġd ou
Ġà¸ļà¸Ń à¸ģà¸¥à¸²
Ġ other
Ġà¸Ī à¸¡à¸Ļ
ĠPix el
à¸Ńà¸¢ à¸ģ
Ġm ade
C C
à¸Ńà¸Ļ à¸«à¸§à¸²à¸Ļ
h an
Ġd om
ĠMic hael
ĠCop yright
à¸Ńà¸£ à¸ļ
à¹Ģà¸¥ à¸Ļà¸ª
à¸¢ à¹Ĥà¸£à¸Ħ
Ġà¸Ń à¸ļà¸²à¸¢
à¸Ńà¸Ļ à¸¥
Ġà¸ĩ à¸Ħà¸¡
Ġà¸ķà¸ģ à¹Ģà¸ļ
Ġà¸ģà¸£à¸° à¹Ĥ
ĠIn verter
ĠSing apore
ig ation
Ġà¸Ľà¸¥à¸² à¹Ħà¸«à¸¥
Ġà¸Ľà¸Ĳ à¸¡à¸Ļ
Ġà¸ķà¸²à¸¡ à¸Ľà¸£à¸°à¸ªà¸²
Ġà¸² à¸«à¸Ļ
à¸Ķà¸Ĺ à¸Ńà¸ĩ
à¸Ħà¸° à¹Ģà¸Ļ
Ġb order
Ġà¹Ħà¸Ĭ à¸¢à¸²
Ġback pack
à¸ģ à¹Ĥà¸Ĥ
ĠâĿ ¤ï¸ı
à¸ķ à¸Ļà¸ķà¸£
ĠDay s
Ġà¸Ĭ à¸²à¸ķà¸£
Ġ" ]
à¸Ĥ à¸Ļà¸²à¸Ļ
à¸Ķà¸Ĺ à¸£à¸²à¸ļ
à¸įà¸Ĭà¸²à¸ķ à¸įà¸²à¸ĵ
ĠRem ote
æ Ģ
à¸£à¸²à¸ Ł
ĠM F
Ġà¸Ļà¸° à¹Ģà¸Ļ
Ġcateg ory
ĠR est
à¸§à¸Ķ à¸¡à¸Ļà¸ķ
ĠTh erm
Ġà¹ģà¸¡à¸¥ à¸ĩà¸ªà¸²à¸ļ
od ium
ĠT as
Ġà¹ģà¸Ł à¸¡
Ġà¸ģà¸ª à¸Ĺ
à¸¢à¸Ļ à¸ªà¸¡à¸£à¸ª
s ex
Ġà¸Ļ à¸²à¸ģ
ĠH O
Ġ) ...
Ġà¸ªà¸ĸà¸²à¸Ļ à¹Ģà¸Ńà¸ģà¸Ń
à¸ģà¸ĩà¸²à¸Ļ à¸Ľà¸£à¸°à¸Īà¸³
Ġhe ad
f ig
ĠD A
S c
à¸ļ à¸ķà¸£à¸²
Ġà¹Ħà¸¡ à¹Ģà¸ģ
ĠPort able
à¸ģà¸Ľà¸¥ à¸Ńà¸¡
Ġà¸Ħà¸Ļ à¸ªà¸Ļ
å¼ Ģ
Ġà¸£ à¸ĺà¸Ļ
urr ent
à¸ĩà¸Ĺ à¸¥à¸²à¸¢
ãģ Į
Ġà¸Ľà¸¥ à¸²à¸ªà¸¥
à¸£à¸²à¸ģà¸ Ĳà¸²à¸Ļ
ian ce
ĠAnal yt
Ġà¸ŀà¸£ à¸²à¸§
ĠBu ilt
Ġà¸ļà¸£à¸£à¸ŀ à¸Ĭà¸²
ĠSle ep
Ġà¸Ľà¸£ à¸ļà¸¡
à¸Ńà¸¡ à¹Ĥà¸Ĺà¸£à¸¡
Ġà¸Ħà¸¥à¸Ń à¹Ĥà¸£
Ġ18 6
ul ator
Ġ199 7
à¸²à¸§ à¸²à¸Ļ
Ġà¸Ĺà¸³à¸ģà¸²à¸£ à¹Ģà¸ģà¸©à¸ķà¸£
Ġà¸ģà¸§ à¸²à¸ĩà¸ķ
Ġà¹Ĥà¸Ħ à¸Ļà¸¡
âŀĸâŀĸ âŀĸâŀĸ
ĠGT X
en on
ĠER P
ĠDyn amic
ĠD iv
Ġre f
à¹Ģà¸¨à¸£à¸©à¸Ĳ à¸¨à¸²à¸ªà¸ķà¸£
ðŁ ĩ
à¸ĩà¸Ħà¸¡ à¸ªà¸ĩà¹Ģà¸Ħà¸£à¸²à¸°à¸«
Ġà¸ªà¹ģà¸ķà¸¡ à¸Łà¸Ńà¸£
à¸¥ à¸§
Ġà¸ģà¸£à¸¡ à¸Ĺà¸²à¸ĩà¸«à¸¥à¸§à¸ĩ
ĠRead y
ĠP K
à¸¡ à¸ģà¸²à¸£à¹Ģà¸ģà¸©à¸ķà¸£
Ġà¸ķà¸° à¸ļ
à¹Ĥà¸¢à¸ĺ à¸²
Ġà¸ģ à¸²à¸Ķ
P ad
à¸ģà¸© à¸²à¸¨
P O
Ġ) /
à¸ģ à¹ģà¸Ĺ
Ġ25 30
à¸ª à¸ªà¸£
à¸Ļà¸Ĺ à¸Ńà¸Ļ
à¸²à¸ģà¸ ļ
à¸Ńà¸ĩ à¹Ģà¸Ľ
ĠM eth
ĠZ oom
ĠH ub
Ġ** **
à¹Ĥà¸£ à¸Ļ
Ġà¹ģà¸Ķ à¸£
Ġà¸Ń à¸²à¸ĸà¸£à¸£à¸ŀ
Ġl im
s ize
à¸³ à¸«à¸¡
Ġn av
ĠT ree
ĠB TC
Ġà¸Ĥà¸Ļ à¸¥
à¸ģà¸©à¸ĵà¸° à¸ŀ
Ġà¸Ħà¸²à¸£ à¸²à¸§à¸²à¸Ļ
Ġ14 7
ĠCount ry
ĠHerb s
Ġwid th
Ġà¹Ģà¸«à¸Ļà¸Ńà¸° à¸«à¸Ļà¸°
g ress
à¸Ĺà¸£ à¸²
à¸²à¸Ľà¸£à¸° à¹Ĥà¸¢à¸Ĭà¸Ļ
ob by
à¸Ħà¸£ à¹Ģà¸£
Ġà¸Ħà¸³ à¸Ĭà¸¡
Ġà¸£à¸²à¸¢à¸ģà¸²à¸£ à¸Ńà¸²à¸«à¸²à¸£
ĠSil ic
Ġà¸«à¸¥ à¸Ń
à¸Ļà¸ªà¸¡ à¸Ńà¸ĩ
row th
Ġà¹ĥà¸Ļà¸ļà¸²à¸ĩ à¸ģà¸£à¸ĵ
à¸Ńà¸Ķ à¸Ńà¸ģ
Ġà¸ŀà¸£à¸° à¸Ľà¸£
ĠW ave
m o
Ġp ark
Ġà¸Ľà¸£à¸°à¸Īà¸³ à¸ª
ian o
Ġà¸Ľà¸° à¸Ĺ
ĠL D
à¸Ļà¸ĺ à¸°
à¸§ à¸ļà¸ģ
ov en
h at
à¹Ģà¸Ī à¸ķà¸Ļà¸²
Ġà¹Ĥà¸¡ à¹Ģà¸ª
ĠGu ard
ĠG olf
Ġb aby
Cl oud
Ġà¹ģà¸¢ à¸ģà¸ª
à¸²à¸Ļà¸£ à¸§à¸ĩ
Ġ ide
ĠOm sk
à¸Ļ à¸¡à¸Ļ
Ġà¸Ħà¸²à¸Ķ à¸Ħà¸°à¹Ģà¸Ļ
r and
à¸ķà¸²à¸¡ à¸Ĺ
à¸ģà¸©à¸²à¸ķ à¸Ńà¸Ļà¸ķ
Ġà¸¨à¸²à¸¥ à¸Ń
Ġà¸ªà¹ģà¸Ľ à¸Ļ
à¸¡ à¸ģà¸Ķ
ĠAc id
i ed
à¸¢à¸Ļ à¹Ģà¸£à¸¨à¸§à¸£
Ġà¸Ľà¸£à¸°à¸ŀ à¸²à¸ª
Ġà¸ģà¸²à¸£ à¹Ģà¸ķ
Ġà¸Ħà¸¥à¸Ńà¸Ķ à¸¥
ĠInfin ity
ĠTO EFL
al let
à¸£à¸ģ à¸²à¸ª
Ġw alk
Ġà¸Ĭ à¸Ĭ
Ġà¹Ģà¸ŀà¸¥ à¸Ĺ
Ġà¸«à¸¡à¸Ń à¸Ĭ
Ġà¸ĺà¸Ļà¸²à¸Ħà¸²à¸£ à¸ŀà¸²à¸ĵ
Ġap plication
ale ks
Ġà¹Ģà¸Łà¸£ à¸Ļà¸Ĭ
aly us
Ġæľ Ī
ĠÐ ·
Ġà¸£ à¸Ĭ
Ġà¸Ħà¸Ńà¸¡ à¸¯
Ġà¸ŀà¸£à¸°à¸ļà¸£à¸¡ à¸ĺà¸²à¸ķ
1 20
à¸Ħà¸Ļ à¸«à¸Ļ
à¸Ķ à¹ģà¸ļ
ĠGr ab
ĠPs ych
à¸Ķà¹Ģà¸Ī à¸²à¸°
Ġà¸ŀà¸£à¸°à¸£à¸²à¸Ĭ à¸ģà¸£à¸ĵ
à¸¢ à¸²à¸ļ
à¸²à¸Ļ à¸ķà¸°à¸§
ĠF ar
ĠHe av
anc y
Ġà¹Ģà¸Ń à¹Ģà¸¥
Ġg ay
Ġà¸Ļ à¸ĩ
Ġ11 00
Ġà¹Ħà¸¡à¹Ģà¸ģ à¸£à¸Ļ
Ġà¸«à¸ĩ à¸²à¸¢
Ġ00 7
à¸¢à¸Ļà¸ª à¸²à¸ĺ
ĠE arth
ecut ive
Ġp ad
Ġc ook
ite ch
ĠW E
ut y
as p
Ġà¸ģà¸²à¸£à¸Ń à¸²à¸ļà¸Ļ
Ġà¸ĺà¸£à¸£à¸¡ à¸§
ĠB or
ĠB rowser
à¹Ģà¸ł à¸ª
hib ition
Ġà¹Ĥà¸Ķà¸¢ à¹ģà¸Ĺ
Ġà¹Ģà¸§ à¸Ļà¹Ģà¸Ķà¸Ńà¸£
à¹Ģà¸Ĭ à¸©à¸Ĳ
ann on
Ġà¸ªà¸²à¸¡ à¹Ģà¸ªà¸Ļ
Ġl l
Ġà¸ªà¸° à¹Ģà¸Ķ
Ġà¸Ķà¸Ńà¸ģà¸Ĺ à¸²à¸Ļà¸ķà¸°à¸§
v as
ĠR ing
Ġ( '
ĠP orsche
Ġà¹ģà¸ĭ à¸ļ
à¸ĵ à¸ĵ
Ġà¸Ń à¸²à¸Ħ
à¸Ľ à¸§à¸Ķ
ĠD W
à¸įà¸į à¸²à¸Ľà¸£à¸°
à¸įà¸įà¸²à¸Ľà¸£à¸° à¸Ķ
à¸Ńà¸Ķ à¸³à¸Ļ
r ix
à¸²à¸£ à¸³à¸Ħà¸²à¸į
Ġà¸ļà¸³ à¹Ģà¸«à¸Ļ
à¸¡ à¸Ńà¸£
ĠG overn
à¸£à¸£à¸ĵ à¸²à¸ĺ
ĠSou l
à¸²à¸ª à¸ĩà¸§à¸Ļ
Ġà¸ģà¸²à¸£ à¸ĺà¸Ļà¸²à¸Ħà¸²à¸£
ĠEk aterinburg
A DA
b ank
Ġ15 6
Ġsp an
ateg or
press ion
Ġ09 1
Ġà¸¢à¸ģà¸Ĺ à¸£à¸ĩ
Ġà¸ģà¸£à¸° à¹Ģà¸ķ
à¸Ļà¸ķ à¸Ļà¸²
Q u
à¸ģà¸²à¸£ à¸ľà¸¥
à¸¨à¸§ à¸°
ĠY ar
ons ive
à¸ļ à¸Ńà¸²à¸¢
Ġy ear
ãĤ Ĵ
Ġà¹Ĥà¸Ľà¸£ à¸Ķà¸Ĺà¸£à¸²à¸ļ
Ġlog in
à¹ģà¸¥ à¸Ļà¸ĭ
ĠC G
à¸²à¸§à¸ļ à¸Ńà¸¢
Ġà¸Ħ à¸²à¸§à¸ļà¸Ńà¸¢
à¸ŀ à¸Īà¸£
Ġs ap
Ġà¸Ńà¸²à¸Ħà¸²à¸£ à¸Ĭ
ĠCh ange
Ġ37 0
à¸Ļ à¹Ģà¸Ĺà¸¨
ĠO d
Ġà¸ļ à¸ĩ
Ġà¸¢ à¸§à¸Ĥ
Ġà¹ģà¸Ľà¸¥à¸ĩ à¸£
Ġà¹Ģà¸ļà¸ķ à¸ĩ
ĠM OU
à¹ī à¸¹
Ġà¹Ħà¸® à¸Ķà¸£
Ġd own
âĻ ¥
Ġà¸Ĺ à¸Ńà¸ľ
Ġà¹ĥà¸Ī à¸ª
m ic
ĠL anguage
Ġà¸ľà¸¡ à¸ļà¸²à¸ĩ
ew ork
Ġt ouch
ĠK on
à¸²à¸Ŀ à¸²à¸ģ
à¸² à¹Ĥà¸Ħà¸£à¸ĩ
Ġà¸ģ à¸²à¸Ŀà¸²à¸ģ
Ġà¸ķà¸ģà¸¥ à¸ĩà¹ĥà¸Ī
Ġ21 2
à¸ģ à¸Ńà¸¡
Ġà¸ľ à¸§à¸Ī
à¸ĭ à¸Ń
ĠH unter
Ġà¹Ģà¸ī à¸Ķ
à¸¢ à¸ģà¸£à¸£à¸¡
à¸ģà¹Ģà¸¥ à¸ĩ
Ġà¸Ķ à¸Ĥ
j an
à¸ģà¸ª à¸³à¸Ħ
el d
Ġm ov
ĠM AR
à¸§à¸¥ à¸²à¸¥
Ġ22 3
Ġà¸Ľ à¸²à¸Ĳ
à¸²à¸£ à¸ł
Ġ30 1
à¸Ń à¹Ħà¸Ł
à¸Ĥ à¸£à¸°
ĠS I
ĠL TE
à¹Ģà¸¢ à¸Ńà¸Ĺ
à¹Ģà¸¢à¸Ńà¸Ĺ à¸°à¸¢à¸²à¸Ļ
Ġà¹Ģà¸ķ à¸²à¹ģà¸ģ
ĠL ad
Ġà¸¢à¸Ńà¸Ķ à¸Īà¸³à¸«à¸Ļ
ĠP ath
ĠP attaya
Ġà¸Ľà¸° à¸Ľà¸Ļ
à¸¢à¸§ à¹Ģà¸ļ
in er
ĠN intendo
Ġà¸ķà¸²à¸Ľ à¸¥à¸²
à¸§à¸Ļ à¹Ģà¸ª
ĠW ell
à¸ļà¹Ģà¸ŀ à¸Ī
è §
Ġà¹ĥà¸ļ à¸Ľà¸£à¸°à¸ģà¸²à¸¨
Ġà¸Ĥà¸Ļà¸²à¸Ļ à¸Ļà¸²à¸¡
CL UB
ĠPro t
yl on
ĠAm ph
à¸²à¸¡ à¸Ľà¸£à¸²à¸¡
O ne
Ġà¸ģà¸£à¸£à¸¡à¸ģà¸²à¸£ à¸ķ
à¸Ļ à¹Ģà¸ĭ
Ġ9 60
Ġà¸Ħà¸§à¸²à¸¡ à¸¡à¸«
à¸© à¸£
ĠT an
Ġà¸Ħà¸²à¹Ģà¸Ł à¸Ń
Ġà¸Ħà¸²à¸Ĺ à¸Ńà¸¥
Ġà¸«à¸¡à¸²à¸Ķ à¹Ĩ
Ġus ed
å ĩ
ĠTO E
Ġà¹Ĥà¸Ķà¸¢ à¸ķà¸¥à¸Ńà¸Ķ
Ġà¸ļà¸Ĺ à¸ģà¸§
ãģ ¯
Ġo z
à¹Ĥ à¸Ńà¸ĩà¸ģà¸²à¸£
Ġas p
al t
ĠP lease
Ġ=== >
Ġà¸£à¸Ńà¸Ķ à¸Ĭ
Ġol ym
Ġà¹Ģà¸Ń à¸£à¸²à¸§
ĠB I
ĠN am
Ġà¸ŀà¸²à¹Ģà¸« à¸£à¸Ķ
Ġà¸Ĭà¸Ńà¸ļ à¸ĺà¸£à¸£à¸¡
ĠT iger
g u
ĠKey word
Ġà¸« à¸Īà¸ģ
ific ate
Ġt otal
Ġà¸ªà¸° à¹ĥà¸ł
Ġà¹ģ à¸Ńà¸ķ
Ġà¹ģà¸«à¸§à¸ģ à¹ģà¸Ļà¸§
à¸ĭ à¸²à¹Ģà¸¥
ĠF ix
Ġap ple
ĠDist rict
± ä¹Ĳ
Ġpyat na
m ore
Ġà¹Ģà¸¢ à¸£
Ġà¸ģà¸²à¸£ à¹Ģà¸ĭ
Ġà¹Ģà¸ª à¸ļ
Ġà¸ŀà¸£à¸° à¸Ľà¸£à¸°
Ġà¸¥à¸³ à¸Ħà¸¥à¸Ńà¸ĩ
Ġm ail
ĠPac ific
Ġ ra
à¸ļ à¸Ħà¸§à¸²à¸¡à¸ª
ĠV ir
ĠSp l
ĠHD R
fl ix
M C
Ġd er
Ġà¸¥à¸²à¸Ķ à¸Ĭ
å Ĩ
à¸Ļ à¹ģà¸ģà¸¥
ĠTa obao
ĠP V
ĠN exus
anc ial
Ġà¹ģà¸Ńà¸ķ à¹ģà¸¥
ÐµÐ ´
c os
Ġà¸ŀà¸£ à¸²à¸¢
ĠD ia
Ġà¸ĭ à¸ĩ
ĠSp ir
ĠA E
Ġ14 2
à¸ļà¸ª à¸²à¸«
ar ia
Ġà¸Ľà¸¥ à¸²à¸£
Ġà¹Ĥà¸ª à¸łà¸²
Ġà¸ļ à¸ª
ĠC ra
Ġm ess
Ġ199 6
ĠWin ter
g as
ro d
ĠSt ream
K OK
O ff
ãĤ ¯
istr ib
é Ļ
h ub
Ġà¸Ļ à¸²à¸£à¸²
Ġ Ï
Ġà¸ªà¸ķ à¸²à¸Ł
à¹Ģà¸Ńà¸ª à¹Ħà¸Ń
à¹ģà¸ļ à¸£
Ġà¸£à¸²à¸¢à¸ĩà¸²à¸Ļ à¸ģà¸²à¸£à¸Ľà¸£à¸°à¸Ĭ
à¸ļà¸ŀ à¸¥à¸²
Ġc ity
ĠD un
Ġà¸ģà¸£à¸°à¸Ĺà¸ļ à¸ģà¸£à¸°à¹Ģà¸Ĺ
Ġà¸ªà¸²à¸£ à¸Ĺ
Ġsc reen
ol y
ĠNe urodermatitis
iz a
Ġà¸ªà¸§à¸Ļ à¸«à¸¢
Ġà¹Ģà¸Ļ à¸£
ãĥ ĥ
Ġà¹ģà¸Ńà¸ª à¹Ħà¸ŀà¸£
ĠS arat
à¹Ģà¸Ĥ à¸¢
ot on
à¸¢à¸Ļà¸ª à¸ķà¸£
ent a
à¸§à¸ĩ à¸ŀ
Ġà¸¡à¸§à¸¥ à¸ªà¸²à¸£
Ġà¸£ à¸Ł
à¸¥à¸¢à¸²à¸ĵ à¸¡
à¸ªà¸Ķ à¸²à¸£
Â »
à¸Ļ à¹Ģà¸ļ
Ġà¸£à¸ª à¹Ģà¸Ľà¸£
Ġà¸¨à¸²à¸¥ à¸¢
we et
Ġà¸§ à¸Īà¸Ļ
à¸Ńà¸¢ à¸²
Ġ6 40
Ġà¸£à¸²à¸Ĭ à¸ĺà¸²à¸Ļ
à¸Ļà¸Ľ à¸¥à¸²
Ġà¸¥à¸Ńà¸¢ à¸Ł
Ġ158 200
O H
Ġà¹ģà¸¥ à¹Ģà¸«
Ġà¹ĥà¸Ļ à¹Ħà¸¡
Ġ16 1
à¸¥à¸ķ à¸£à¸²à¸ĭ
à¹Ī à¸µ
ĠR uss
umbn ails
ĠK ir
Ġâ ķ
Ġà¸ģà¸¥à¸² à¹Ĥà¸«à¸¡
ĠL ed
Ġà¹ĥà¸ļ à¸Ĭà¸²
OR D
Ġà¹Ħà¸¡ à¸Ħà¸£
ĠF lex
ĠW R
Ġg e
ĠS ak
à¸²à¸ĭ à¸²à¸ģ
ĠPe ople
ĠT urn
ĠGraph ic
ĠP od
ch a
ĠÐ ±
AN CE
k en
à¹Ĥà¸¥ à¸ģà¸Ħà¸£
Ġà¸«à¸¥à¸Ńà¸Ķ à¸¥à¸¡
av er
à¹Ģà¸ĩ à¸²
à¸£ à¹Ģà¸§à¸Ĺ
Ġà¸ķà¸²à¸¡ à¸Ńà¸¢
Ġà¸Ľà¸£à¸²à¸ģà¸İ à¸ģà¸²à¸£à¸ĵ
à¸Ńà¸ģà¸Ħ à¸Ń
à¸Ł à¸Ńà¸ĩ
Ġs a
r im
st yle
Ġà¸ŀà¸£à¸°à¸Ńà¸²à¸£à¸²à¸¡ à¸«à¸¥à¸§à¸ĩ
Ġà¸ķà¸° à¹Ģà¸łà¸²
à¸¢à¸ĩà¸Ķ à¸²à¸§
Ġacc ount
ĠM AS
à¸² à¹ģà¸Ķà¸ĩ
Ġà¸Ļà¸£ à¸Ĭà¸Ļ
à¸Ńà¸¡ à¸Ľà¸£à¸²à¸ģà¸²à¸£
ip er
Ð°Ð ·
Ġà¹Ĥ à¸ģà¸¢
ĠCle ans
Ġà¸Ļà¸²à¸¢à¸ģ à¸Ńà¸ĩà¸Ħ
Ġà¹Ĩà¹Ĩà¹Ĩ à¹Ĩ
Ġ eb
Ġà¹Ħà¸Ł à¸Ľ
Ġà¹Ħà¸Ĥ à¸Ħà¸§à¸ĩ
Ġà¸ªà¸ĩà¸Ħà¸£à¸²à¸¡ à¹Ĥà¸¥à¸ģà¸Ħà¸£
Ġà¸ªà¸¡ à¹Ĥà¸łà¸Ĭ
ĠC K
ĠD am
ĠR OM
IG N
à¸ļ à¹Ħà¸§
Ġà¸Ĥ à¸²à¸ģ
à¸²à¸¡ à¸Ńà¸ĩ
à¸²à¸«à¸¡à¸²à¸¢ à¸«à¸¥
Ġcomp uter
Ġà¹Ħà¸¡à¸Ħà¸£ à¸Ńà¸Ļ
ocol ate
à¸ģà¹ģà¸ķ à¸Ļ
c are
Ġ' ,
Ġà¸Ľà¸£ à¸²à¸ĩ
Ġà¸§à¸²à¸ĩ à¸£à¸°à¹Ģà¸ļ
à¸ģà¸Ľà¸£à¸° à¹Ģà¸łà¸Ĺ
55 5
Ġà¸ķà¸²à¸£à¸²à¸ĩ à¹Ģà¸§à¸¥à¸²
à¸¢ à¹Ĥà¸¥à¸ģ
à¸ģà¸²à¸£ à¸Ńà¸Ļà¸²à¸¡
à¸ªà¸¡ à¸²à¸Ħà¸¡
ĠK id
à¸Ķà¹Ģà¸ ĭ
Ġ25 18
Ġà¸Ĭà¸²à¸§ à¹Ħà¸£
Ġà¸Ńà¸²à¸ģà¸²à¸£ à¸Ĺ
p es
um i
vis ion
à¹ĥà¸Ļ à¹ģà¸ĩ
à¸²à¸ª à¹Ģà¸ĭ
Ġm ovie
Ġ14 6
à¸Ī à¸ĺà¸£à¸£à¸¡
Ġ25 33
ir am
à¸Ĭ à¸§
à¸§à¸Ħ à¸²à¸ªà¹Ģà¸ĭ
ĠD ance
Ġà¸ģà¸° à¹Ģà¸Ĺ
Ġà¸Ħà¸£à¸Ńà¸ĩ à¹ĥà¸Ī
ĠHard ware
Ġà¹Ģà¸¡ à¸²à¸°
Ġà¹ģà¸Ľà¸£ à¸ľ
Ġh alyus
ĠStud y
ĠSarat ov
m ade
Ġà¸ª à¸²à¸ģ
Ġà¹Ģà¸¡ à¸²à¸Ĺ
Ġà¸Ħà¸Ńà¸Ļà¹ģà¸Ĺà¸Ħ à¹Ģà¸¥à¸Ļà¸ª
Ġà¸£à¸§à¸¡ à¸ŀà¸¥
ul g
à¸§à¸Ļ à¸Ļ
Ġc ur
ĠThe me
l ines
Ġ... "
ĠS in
à¸Ļà¸ª à¸ĩà¸ģà¸£à¸²à¸Ļà¸ķ
ĠBed room
à¸¢ à¸ĺà¸£à¸£à¸¡à¸Ĭà¸²à¸ķ
ver age
Ġà¸ŀà¸¥ à¸²à¸¢
à¸¢ à¹Ģà¸ģ
Ġà¸Ķ à¸Ńà¸¥
Ġ ig
Ġà¹Ĥà¸£à¸Ħ à¸£à¸°à¸ļà¸²à¸Ķ
ĠDec ember
Ġà¸Ľà¸£à¸°à¸«à¸²à¸£ à¸Ĭ
ist ic
Ġ][ /
à¸ģà¹ģà¸£à¸ģ à¹Ģà¸ģ
ĠL an
al in
ĠG EN
Ġà¸ªà¸²à¸¢ à¸Ŀà¸Ļ
ĠE EC
ĠJ u
H R
à¸¢à¸¡ à¸ľ
à¸Ńà¸ģà¸ İà¸«à¸¡à¸²à¸¢
it ar
Ġà¹Ģà¸ĭà¸Ł à¸ķ
Ġ15 3
um en
Ġà¸ªà¸łà¸²à¸ŀ à¹Ģà¸Ķ
w orld
à¸¢à¸§ à¹ģà¸£à¸ĩ
ĠS ar
à¹Ĥà¸£ à¸ĺ
AR E
Ġ5 60
à¸ĩà¸ª à¸ķ
ox ic
ograph ic
Ġ ï¿½ï¿½ï¿½ï¿½
à¸« à¸ģ
aw an
ru ction
à¸Ńà¸Ļ à¸ľ
???? ????
à¸Ķ à¹Ĥà¸ķ
Ġw ire
S e
à¸ĩà¸ª à¸Ķ
Ġà¸Ľà¸¥ à¸Ńà¸ģà¸Ħà¸Ń
ĠGD P
Ġcum shot
Ġwh o
ĠM AN
Ġà¸¡à¸²à¸ªà¸Ħ à¸²à¸£
ĠT ake
L e
Ġà¹Ģà¸ª à¸¡à¸²
ĠP D
um er
ĠDel uxe
G R
Ġc d
à¸²à¸Ļ à¸ª
à¸ļà¸ł à¸²à¸£à¸°
à ½
Ġà¹Ģà¸ĭ à¸²à¸Ĺ
Ġ19 20
ĠG OT
Ġà¸ªà¸§à¸Ļ à¸ŀà¸¤à¸ģà¸©
Ġ15 2
Ġv i
Ġà¸ģà¸²à¸£à¸Ńà¸Ńà¸ģ à¹Ħà¸Ľ
Ġà¸£ à¸¡à¸Ħà¸§
ĠMot ion
Ġw eek
ut es
Ġà¸ª à¹Ģà¸ļ
ĠFor ce
Ġak riderm
ĠFu j
ĠF ri
ent igo
ðŁ İ
Ġà¸Ħà¸Ńà¸¥à¹Ģà¸¥ à¸ģà¸Ĭ
Ġà¸ģà¸ ¤
à¸Ńà¸¢ à¸ģà¸²à¸¢
Ġà¹Ħà¸Ļ à¸Ī
Ġve ins
à¸ĩ à¸ģà¸£à¸°à¸Ĺ
Ġdip ros
Ġà¸ģà¸£à¸°à¸ļ à¸Ńà¸ģà¸ª
ai re
à¸ģ à¹ģà¸£à¸¡
ĠW edding
ĠPrin ce
à¸Ļ à¹ĥà¸ķ
Ġà¸Ħà¸£ à¸²à¸§à¸«à¸Ļ
Ġà¹Ģà¸ŀà¸£à¸²à¸° à¹Ģà¸Ĭ
Ġh a
Ġà¸ªà¸§ à¸²
ĠTOE IC
C R
Ġà¹Ĵà¹ķà¹ķ à¹Ķ
à¸ļ à¸ļà¸¥
à¸²à¸§ à¹Ģà¸ĭà¸Ńà¸£
Ġm ach
ãĥ «
Ġsoft ware
ategor ized
ĠI PS
Ġà¹Ħà¸Ń à¸Ńà¸Ńà¸Ļ
ĠLou is
à¸²à¸ĩ à¸£à¸ĸ
Ġà¸ļ à¸Ľà¸£
à¸¢ à¸Ľà¸²à¸ģ
à¸Ķ à¸Ńà¸£
ĠCl inic
ĠFant asy
S L
ĠPT T
à¸ĩà¸Ĥ à¸£à¸ĵ
à¸¨ à¸ķà¸§à¸£à¸£à¸©
Ġà¸ķà¸Ńà¸Ļ à¸Ľà¸¥à¸²à¸¢
Ġà¸ªà¸²à¸£ à¸ļ
Ġà¸«à¸§à¸²à¸Ļ à¹ĥà¸Ī
à¸ļ à¹Ħà¸Ł
Ð°Ð ²
ĠSpe aker
0 7
i ant
à¹Ĥà¸Ń à¹Ģà¸¥à¸ķ
Ġà¹Ĥà¸Ī à¸Ļà¸ª
Ġ09 9
Ġà¸ļà¸£ à¸²à¸§à¹Ģà¸ĭà¸Ńà¸£
ĠG ang
Ġr ad
F R
Ġà¸Ħà¸§à¸²à¸¡ à¹Ģà¸ķ
Ġf oot
ĠProduct s
ram a
à¸Ļà¹Ģà¸§ à¸¢
à¸¡ à¹Ģà¸ģà¸¥
ĠV CD
r ate
à¸£ à¸Ńà¸ģ
Ġà¸Ĺà¸³ à¸ªà¸³à¹Ģà¸£
Ġin c
Ġà¸§à¹Ĥ à¸£à¸ģà¸²à¸ª
D on
å ±
ĠR an
à¸¢à¸§à¸° à¸łà¸²à¸¢à¹ĥà¸Ļ
On line
à¸²à¸Ħ à¸ĵ
Ġn one
Ġà¸¥à¸³ à¸«
ĠA h
Ġà¸«à¸£ à¸²
Ġà¸ªà¸Ńà¸ļ à¹Ģà¸Ĺ
tt e
ab bit
à¸Ķà¸ĸ à¸Ńà¸¢
Ġà¸ª à¹Ģà¸ģà¸¥
osh i
Ġm argin
Ġà¸Ńà¸²à¸ģà¸²à¸£ à¹Ħà¸Ń
ĠPr act
à¸Ńà¸ĩ à¹Ħà¸Ł
Ø ©
Ġà¹Ģà¸ļ à¸°
Ð°Ð ¼
Ġà¸£ à¸¥
F r
ĠN ano
Ġth an
à¹Ģà¸Ĥ à¸Ļ
Ġà¸¢à¸² à¹Ģà¸¡
P Y
Ġà¸¡ à¸²à¸Ĺ
Ġà¸Ħà¸Ļ à¸Ĭà¸£à¸²
ow ski
ĠÐ Ł
à¸²à¸ĩ à¸«à¸²à¸¢
Ġà¸ŀ à¸Ļà¸²
Ġ0 20
à¸¥ à¹Ħà¸ĭ
à¸¥à¹Ħà¸ĭ à¹Ģà¸¡à¸Ńà¸£
Ġà¸ļ à¸Ńà¸ģà¸
á »
Ġà¸Ħà¸¥à¸Ńà¹Ĥà¸£ à¸Ł
Ġà¸ŀà¸Ń à¹Ĩ
à¸§ à¸Ľà¸£à¸°à¸Ĭà¸²à¸Ĭà¸Ļ
ĠH it
Ġà¸ķà¸£à¸£ à¸ģà¸°
or ge
ĠI OS
à¸³à¸£à¸° à¸«à¸Ļ
ĠM p
Ġà¸Ħà¸§à¸²à¸¡ à¸Ľà¸£
à¸ı à¸²à¸Ļ
ĠAD IDAS
à¸³à¸ķà¸² à¹Ħà¸«à¸¥
Ġà¸ģà¸²à¸£à¸Ĭ à¸³à¸£à¸°à¸«à¸Ļ
Ġà¹Ĥà¸ŀà¸ª à¸Ĺ
ĠT reatment
onn ik
à¸¢à¸ĩ à¸Ļ
Ġà¹Ģà¸Ī à¸©à¸İà¸²
Ġ5 40
Ġà¸ĩà¸²à¸Ļ à¸Ń
à¸¥à¸³ à¹Ģà¸Ļà¸²
à¸¢à¸§ à¸«à¸§à¸²à¸Ļ
11 4
Ġà¹ģà¸Ĭ à¸Ļà¹ģà¸Ļà¸¥
Ġà¹ģà¸ŀ à¸£à¸ģ
à¹ģà¸¡ à¸§
ab el
Ġà¸ģà¸£à¸°à¸ļà¸§à¸Ļà¸ģà¸²à¸£ à¹Ģà¸£
Ġà¸² à¸ķ
Ġg ames
Ġst reet
Ġà¸¥à¸ĩà¸Ħà¸°à¹ģà¸Ļà¸Ļ à¹Ģà¸ª
Ġà¸ģà¸²à¸£à¹ģà¸ĸà¸¥à¸ĩ à¸Ĥ
ģà¸ ģà¸
Ġà¹Ĥà¸¡ à¸ģ
Ġn ote
Ġà¸¡à¸Ńà¸ļ à¸Ńà¸³à¸Ļà¸²à¸Ī
ĠWeb board
Ġà¹Ģà¸ģà¸ Ĺ
Ġ7 90
ĠD im
Ġà¸Łà¸Ńà¸ģ à¹Ģà¸ĩ
à¸§à¸Ħ à¸§à¸ļà¸Ħ
à¸ģ à¹Ĥà¸¥à¸ģ
à¸²à¸¢ à¹ĥà¸Ĭ
à¸ĩà¸Ļ à¸ģ
à¸²à¹Ģà¸Ľ à¸²
Ġ19 80
à¸Ķ à¹Ħà¸Łà¸Ł
à¸Ńà¸ĩ à¸ģà¸³à¹Ģà¸Ļ
Ġà¸ģà¸£à¸°à¹ģà¸ª à¹Ħà¸Ł
Ġà¸§à¸ĩà¸¨ à¸²
ĠOrgan ic
Ġet c
w ear
à¸ģà¸ĩà¸²à¸Ļ à¸£
ç º
à¸ĩ à¸Ħà¸£à¸²à¸¡
D e
à¸ĩ à¸§à¸£
à¸¡ à¸ģà¸³à¸¥
Ġà¸Ħà¸Ļà¸ķ à¸²à¸ļà¸Ńà¸Ķ
Ġà¸Ħà¸§ à¸²à¸Ļ
Ġ\ "
Ġmod el
à¸¥à¸° à¸Ļ
Ġ09 0
ĠL at
à¸²à¸Ĥ à¸²
ĠC U
Ġ om
ĠC X
10 1
Ġà¸Ĺ à¸Ńà¸¥
Ð¸ Ðµ
Ġ17 1
Ġbl ue
Ġr ent
b ed
à¸Ļà¸Ħ à¸²à¸Ķ
à¸§ à¹Ģà¸Ĭ
à¸ģà¸£ à¸²
à¸§ à¸Ħà¸£
× Ļ
à¸Ļà¹Ģà¸Ĺ à¸¥
à¸ªà¸²à¸¢ à¸ķà¸²
ĠT D
Ġà¸Ľà¸£ à¸²à¸£à¸ł
ĠH am
Ġm ap
æĺ ¯
Ġ5 80
à¸Ļà¹Ħ à¸«à¸¡
Ġà¸® à¸ĩ
AM E
ĠLif estyle
à¸ķà¸£ à¸ª
IS H
Ġà¹Ģà¸ŀà¸²à¸° à¸ŀ
ĠD u
à¸Ńà¸¢à¸ģ à¹Ģà¸§
Ġà¸¡à¸²à¸ķà¸£ à¸§
Ġ+ ,
à¸ļà¸Ħà¸§à¸²à¸¡ à¹Ģà¸Ķ
à¸§ à¸«à¸¥à¸§à¸ĩ
ĠC EN
à¸Ľ à¸ģ
Ġf riend
ãĥ Ī
Ġà¸¡à¸Ńà¸ļ à¸ķ
Ġà¸ŀà¸¥ à¸ķà¸³à¸£à¸§à¸Ī
à¸²à¸ŀ à¸£à¸£à¸Ħ
Ġà¸ļà¸²à¸Ļ à¸Ľà¸£à¸°à¸ķ
ĠH Y
ĠChin ese
Ġà¹ģà¸Ħà¹Ĥà¸£ à¸Ĺ
à¸¢ à¸²à¸Ķ
ĠPar ad
Ġà¸Ńà¸Ńà¸ģà¸Īà¸²à¸ģ à¸ĩà¸²à¸Ļ
Ġp ublic
Ġà¸Ľà¸£à¸²à¸ Ķ
ĠL ic
ĠP ER
ĠY O
Ġà¸ŀà¸£à¸°à¸£à¸²à¸Ĭ à¹Ĥà¸Ńà¸£à¸ª
Ġà¹Ĥà¸Ķà¸¢ à¸ļ
ĠG utt
à¸Ń à¸ŀà¸¢à¸ŀ
à¸§à¸¢ à¹ĥà¸Ļ
at eway
ĠH oney
Ġà¸ģà¸²à¸£ à¸ģà¸£à¸Ńà¸ģ
Ġà¹Ĥà¸Ľà¸£ à¹Ģà¸ĭ
Ġà¸Ħà¸²à¸Ķ à¸«à¸¡à¸²à¸¢
Ġà¸Ľ à¸ĩ
P M
à¸¡ à¸ªà¹Ģà¸ķà¸Ńà¸£
à¸Ļ à¸ĸà¸Ļà¸Ļ
ç łģ
Ġà¹Ģà¸ļ à¸Ī
Ġà¸ªà¸§à¸Ļ à¸Ľ
ĠSc r
Ġà¹Ħ à¸Ħà¸£
à¸Ī à¸¨
ĠG ig
Ġst at
ĠAl umin
Ġà¸Ł à¸ģà¸Ĭ
Ġà¹ģà¸Ļ à¸¥
à¹Ĥà¸£ à¸Ĭ
à¸Ńà¸ĩ à¹Ģà¸Ħ
ĠU I
pr int
ðŁ Ļ
in ar
Ġà¸Ĥà¸²à¸Ķ à¸¥à¸Ńà¸¢
ĠControl ler
I UM
à¸¢ à¸Ľ
à¸§ à¹ģà¸Ļ
ĠPro p
ic ator
à¸Ľà¸° à¸ģà¸²à¸£
Ġà¸¡ à¸²à¸¡
ĠX X
Ġ31 6
à¹Ģà¸Ń à¸Ļà¸Ķ
Ġ17 9
ĠDet ails
ist ics
Ġà¹Ħà¸® à¹Ģà¸Ńà¸Ļà¸Ķ
à¸ªà¸²à¸¢ à¸«à¸¥
ĠBook mark
à¸Ĭà¸Į à¸²à¸¢
Ġd on
Ġp oint
n es
Ġà¹Ĥà¸ļ à¸ģà¸¡
ä¸ Ĭ
Ġ14 8
à¸° à¸§à¸²à¸Ķ
ĠP ent
Ġà¸Ħà¸¥à¸²à¸¢ à¹Ģà¸Ħà¸£
am ine
Ġà¸Ńà¸²à¸¥ à¸°à¸§à¸²à¸Ķ
à¸Ħà¸³ à¸ª
à¸Ļ à¸£à¸²à¸Ĭ
Ġà¹Ĥà¸£à¸ĩ à¸ģà¸¥
ĠStick er
Ġ uk
Ñ ī
Ġà¸¨à¸²à¸¥ à¸Ńà¸²à¸įà¸²
Ġà¸ĭà¸²à¸¥ à¸²à¹Ģà¸Ľà¸²
å¨ ±ä¹Ĳ
Ġà¸Ĺà¸£à¸ĩ à¹Ħà¸§
à¸Ļà¸ªà¸³à¸£ à¸Ńà¸ĩ
ĠU b
he m
Ġk ore
à¸Ķ à¸Ľà¸£à¸°à¸ģà¸²à¸¨
Ġà¸ĺ à¸Ľà¸Ĺ
Ġ25 19
ĠÑ ĥ
à¸ĩ à¸²
Ġc a
Ġ199 4
à¸© à¸¢à¸²
Ġpass word
Ġro v
Ġbe auty
65 4
Ġà¸Īà¸§à¸ļ à¸Īà¸Ļ
Ġà¹Ģà¸Ļ à¸°
Ġà¸ģà¸²à¸£ à¸«
Ġà¸£à¸ĸ à¸ªà¸Ńà¸ĩ
ĠR ama
ĠG U
Ġh u
ĠBal ance
à¸Ĺà¸ĺ à¸§
oo per
Ġà¸£ à¸Ħ
à¸ªà¸° à¸Ķà¸§à¸ģ
ĠRou ter
ic er
ĠF T
Ġtl pro
Ġ( âĢľ
B B
Ġà¹ģà¸Ļà¸§ à¸Ľà¸°à¸ģà¸²à¸£
ĠFl ower
Ġcont act
ĠCom plex
ĠâĢ ħ
à¸Ļà¸ķ à¸Ń
à¸ĩ à¸¥à¸¡
ĠT am
ĠH o
Ġ21 3
Ġà¹ĵ à¹ĳ
Ġà¸¡à¸° à¸ģà¸Ńà¸ģ
Ġ\ /
ĠVal ley
à¸¢à¸²à¸ļ à¸ĸ
ĠL O
os ph
Ġex p
à¸²à¸§ à¸¢
Ġà¹ģà¸¢ à¸°
à¸Ńà¸Ħ à¹Ģà¸ģà¸Ńà¸£
å ¹
Ġà¸Ĺà¸£ à¸²à¸Ļà¸ª
à¸²à¸¢ à¸Ľà¸ģà¸Ħà¸£à¸Ńà¸ĩ
Ġ15 4
Ġà¸ķà¸ģ à¸Ļ
à¸Ľà¸£ à¸ģà¸ķ
à¸¡à¸ŀ à¸²à¸Ļà¸ķ
Ġà¹Ģà¸ļà¸¥ à¸²à¸£
ĠP O
à¸Ļà¸Ķ à¸²à¸Ļ
à¸ļ à¹Ģà¸Ńà¸¡
à¸£à¸° à¸«à¸§
Ġà¸ŀà¸¥à¸²à¸Ķ à¸Ĺ
à¸Ĳà¸Ń à¸²à¸«à¸£
¦ Ļ
Ġà¸Ħ à¸Ĺ
ĠNE X
Ġà¸ģà¸²à¸£ à¸Ľà¸£à¸°à¸ģ
à¹Ĥà¸£à¸Ľ à¸²
Ġà¸« à¸²à¸¢à¸Ļà¸°
Ġà¸ģà¸²à¸£ à¹Ĥà¸ķ
Ġà¸Ń à¸²à¸Ħà¸¡
Ġs cler
ĠÃ ¥
Ġà¸Ĺà¸³à¸ģà¸²à¸£ à¸Ħ
à¸Ļ à¸ī
à¸¡ à¸§à¸¢
à¸ļ à¹Ģà¸Ļ
1 90
à¸Ĺà¸ĺ à¸°
oom la
Te ch
Ġà¸ĸà¸Ļà¸Ļ à¸«à¸Ļà¸Ĺà¸²à¸ĩ
à¸ĩà¸Ħà¸¡ à¸Ļ
à¸Ļà¸³ à¸Ĺà¸²à¸ĩ
og ue
ĠW ind
Ġbuck thorn
ĠD AY
Ġ+ %
à¹Ĥà¸Ħ à¸ª
Ġinst agram
ĠGutt ate
ĠU L
Ġà¹Ĥà¸Ĥ à¸Ķà¸«
à¹Ģà¸¥à¸ª à¹Ħà¸ķà¸Ļ
à¸Ĺà¸ĺ à¸ģà¸²à¸£
Ġw all
à¸ģà¸²à¸£ à¹ģà¸ŀà¸Ĺà¸¢
ĠOr ange
Ġà¸Ł à¸¥à¸Ń
Ġ256 4
à¸¡à¸ĭ à¸²à¸ļ
à¸Ļ à¹Ĥà¸¥à¸ģ
Ġd B
Ġà¸Ľà¸² à¹Ģà¸¥à¸ªà¹Ħà¸ķà¸Ļ
UB ISHI
à¸Ĺ à¸ª
ĠâĢ į
Ġà¸¥à¸Ńà¸¢ à¸Ļ
Ġà¸ģà¸²à¸£à¸¥à¸° à¹Ģà¸¥
Ġ5 30
Ġ= =
Ġà¹Ģà¸Ľà¸¥à¸§ à¹Ħà¸Ł
Ġm es
Ð° Ñı
Ġà¸¡à¸²à¸ķà¸£à¸ģà¸²à¸£ à¸Ľ
Ġà¹Ĥà¸Ńà¸ļ à¸²à¸¡à¸²
à¸ķ à¹Ģà¸§à¸Ĭ
Ġà¹Ģà¸ª à¸ŀà¸ķ
à¸ģà¹Ĥà¸Ħà¸£ à¸ģ
à¸ģà¸£à¸£à¸¡ à¸ª
ĠK an
ĠAp ps
Ġà¸« à¸Ńà¸Ļ
ĠR ider
ĠSw iss
ĠB ath
Ġà¹ģà¸¥à¸ģ à¹Ģà¸ĩ
à¸ªà¸ĸ à¸²à¸Ľ
OS S
Ġ199 5
ĠAut umn
Ġshop ping
à¸ķà¸Ī à¸²à¸ĩ
à¸Ļà¸Ħà¸£ à¸ļà¸²à¸¥
Ġk a
Ġà¹Ĥà¸ĭà¸¥ à¸²à¸£
Ġà¹ĥà¸Ļà¸Ĺà¸²à¸ĩ à¸ķà¸£à¸ĩà¸ģ
Ġà¸Ń à¸Ĭ
Ġà¹ĥà¸ļ à¸ķà¸Ńà¸ĩ
Ġà¹Ĥà¸Ľà¸£à¹Ģà¸Ī à¸ģà¸ķ
Ġà¸ĩ à¸«à¸§
Ġ20 4
Ġà¸Ĺà¸³à¸¥à¸²à¸¢ à¸ªà¸ĸ
at ory
ĠÐ ļ
ĠLap top
Ġthe ir
Ġfl ash
à¸²à¸§ à¸ªà¸§à¸¢
Ġà¹ģà¸£à¸ĩ à¹ĥà¸Ī
à¹ģà¸¥ à¸ĩ
Ġà¸Ħà¸Ļ à¸ļ
ĠW estern
Ġà¸«à¸¥à¸ĩ à¸Ĺà¸²à¸ĩ
ĠMag net
Ġ09 6
Ġà¸ªà¸²à¸ļ à¸²à¸Ļ
Ġà¸ªà¸Ļà¸²à¸¡ à¸«à¸¥à¸§à¸ĩ
Ġà¸Ĥà¸¢à¸²à¸¢ à¸ªà¸²à¸Ĥà¸²
Ġà¸Ļà¸£ à¸Ĭà¸²à¸ķ
à¹Ģà¸¡ à¸¥à¸¥
ĠUnc ategorized
ĠÐ ³
à¸Ļà¸Ħ à¸§à¸£
att i
ãĢ Ģ
Ġse o
à¸Ļ à¸¨
Ġà¸Ĺà¸²à¸ĩ à¸ķà¸°à¸§
et r
ĠMARK S
Ġà¹Ģà¸¡ à¸ĺà¸²
ĠWinning FT
Ġà ¼
Ġà¸ ¶
à¸²à¸Ļ à¹Ģà¸¥
Ġà¸ªà¸ł à¸²à¸§
Ġà¸ŀà¸£à¸° à¸¨à¸²à¸ªà¸Ļà¸²
ĠP aper
ark ov
Ġà¸ģà¸ ĸ
Ġà¸Ł à¸Ńà¸¢à¸¥
Ġ14 3
Ġà¸Ħà¸Ļ à¹ģà¸Ľà¸¥
ĠS IM
à¸Ńà¸ĩà¸Ĥ à¸¢à¸²à¸¢
Ġà¹Ĥà¸£à¸Ħ à¸Ħà¸§à¸²à¸¡à¸Ķ
à¸¢ à¹Ģà¸Ħà¸¡
Ġà¸Ľà¸£ à¸Ńà¸ĩà¸Ķà¸Ńà¸ĩ
Ġ; }.
ĠW a
Ġ18 2
ĠKey board
Ġà¸Ħà¸Ļ à¹Ģà¸Ī
ĠÃ º
à¸§à¸§ à¸§à¸§
Ġà¸¥à¸¡ à¸£
Ġà¸ķà¸°à¸¥ à¸Ńà¸Ļ
Ġà¸ľà¸¥ à¸ªà¸Ńà¸ļ
ĠD ie
à¸ĸ à¹Ħà¸Ł
ĠM OD
Ġin formation
ĠCondom inium
Ġà¹ĥ à¸§
ĠP N
Ġà¹Ħà¸Ł à¹ģà¸Ķà¸ĩ
Ġà¸«à¸§à¸²à¸Ķ à¸ģà¸¥
Ġà¸Į à¸²à¸Ľà¸Ļà¸ģ
Ġà¸¢ à¸Ĺ
Ġ], [
ĠL ite
ug ar
Ġs um
Ġ21 00
S cript
à¸²à¸Ĭ à¸²
à¸ķà¸£à¸§à¸Ī à¸ªà¸Ńà¸ļ
y cl
om as
à¸ŀà¸£ à¸²à¸ĩ
Ġà¸Ĥà¸²à¸§ à¸ªà¸°à¸Ńà¸²à¸Ķ
Ġwh at
ĠS ustain
Ġà¸ĺà¸£à¸£à¸¡ à¸ģà¸²à¸£
Ġà¸Ńà¸³ à¸ŀà¸£à¸²à¸ĩ
Ġe v
Ġà¸«à¸Ńà¸¡ à¹ģà¸Ķà¸ĩ
37 4
Ġà¹Ģà¸Łà¸£ à¸Ĭ
ag ra
Ġà¹ģà¸§ à¸§à¸ķà¸²
Ġá ŀ
Ġ25 25
ot er
Ġh oliday
Ġh air
AN A
l ant
r an
à¸Ķ à¸Ńà¸³à¸Ļà¸²à¸Ī
Ġà¸² à¸«à¸£
ĠK en
Ġà¸£à¸Ńà¸ļ à¹Ģà¸Ķ
ĠProgram ming
Ġr ing
Ġà¸Ħà¸§à¸²à¸¡à¹Ģà¸ª à¸ĸ
å ¯
Ġà¸ģà¸²à¸£à¸ª à¸ģ
ĠSem en
Ġdek aris
ĠBl ood
f it
k ov
Ġà¸Ĭ à¸¢à¸²
à¸³à¸¡ à¸Ļà¸ķ
Ġà¸Ħà¸Ļà¹ģà¸Ľà¸¥ à¸ģà¸«à¸Ļ
ĠF D
ĠIn tegr
ĠCha in
Ġà¸¡à¸Ńà¸ĩ à¸Ńà¸Ńà¸ģ
Ġà¹ģà¸® à¸°
Ġ32 3
ĠT OT
ĠR oo
à¸Ļ à¹ģà¸Ĥà¸Ļ
ĠL otion
ĠTas ang
Ġà¸ģà¸£à¸° à¸ŀ
à¹ģà¸¡ à¸Ļ
ĠBr ush
Ġà¸ªà¸Ľ à¸²à¸¢
à¸ŀà¸£à¸¡ à¹ģà¸Ķà¸Ļ
Ġà¸ŀà¸§ à¸ģà¸ľà¸¡
Ġà¹Ģà¸Ļ à¸Ħ
ĠV ivo
ĠCour se
Ġà¸ģà¸²à¸£ à¹Ĥà¸ģà¸ĩ
as n
Ġà¹Ħà¸£ à¹Ģà¸Ķà¸Ńà¸£
à¹Ģà¸ļ à¸ģ
å Ł
à¹ĥ à¸Ļà¸Ħ
ul s
à¹ĥà¸Ļà¸Ħ à¸£à¸£à¸ł
à¸Ķ à¸Ĳà¸²à¸Ļ
Ġà¸ŀà¸£à¸£à¸Ħ à¸ŀà¸§à¸ģ
Ġà¸² à¹Ģà¸Ľ
Ġà¸ªà¹Ģà¸ķ à¸Ĭ
ĠView s
Ġ200 00
à¸ļà¸ģà¸¥ à¸²à¸¢
ĠR ansomware
Ġt a
ãĥ »
Ġà¸Ńà¸Ńà¸ģà¸«à¸¡à¸²à¸¢ à¸Ī
Ġà¹Ģà¸Ħà¸£ à¸Ľ
ĠâĢ ²
b um
Ġà¸Ĥà¸¢ à¸³
Ġà¸Ĺà¸²à¸£à¸ģ à¹ĥà¸Ļà¸Ħà¸£à¸£à¸ł
å¥ ĸ
à¸² à¹Ĥà¸£à¸ĩ
Ġà¹Ĥ à¸ģà¸£
à¸Ńà¸¡ à¸«à¸Ļ
ĠEx ecutive
u is
ĠÂ ł
ovsk y
oul der
à¸Ļà¹ĥà¸Ķ à¸Ļ
Ġà¸Ĺà¸Ńà¸ĩà¸Ħà¸³ à¸Ĥà¸²à¸§
à¸ģà¸ª à¸łà¸²à¸ľ
Ġ15 1
vent ion
ĠMB A
à¸Ļ à¸§à¸¡
à¸§à¸ĩ à¸¥à¸°à¹Ģà¸¡
ĠB ell
Ġc ustom
à¸Ķà¸ª à¸Ļ
. /
à¸įà¸į à¸²à¸ĭ
Ġà¸ķà¸³à¸£à¸§à¸Ī à¸Ļà¸Ħà¸£à¸ļà¸²à¸¥
ĠYou th
à¸ģà¸£à¸°à¸Īà¸²à¸¢ à¹Ģà¸ª
ID IA
t i
Ġà¸£à¸ª à¸Ī
à¸į à¸Ĭà¸Ļà¸°
à¸Ĺ à¹Ħà¸Ĺà¸¡
Ġà¸ģà¸²à¸ĩà¹Ģà¸ģ à¸ĩà¸Ĭ
ĠConc ert
Ġà¸Ľà¸§à¸ĩ à¸Ĭà¸Ļ
Ġà¸Ĥ à¸Ńà¸Ļ
Ġà¸Ĥà¸¢à¸° à¸¡
ĠBu ild
à¸¥à¸ĩ à¹Ĥà¸Ĺà¸©
Ġà¸¨à¸²à¸ªà¸Ļ à¸²à¸Ħà¸£
« ĺ
à¸įà¸Ĭ à¸£
Ġbl u
ĠSur v
âĺ º
Ġn m
Ġà¸£à¸ĸà¸Ĥ à¸Ļà¸Ĥà¸Ńà¸ĩ
ĠL AS
Ġv er
Ġ18 9
ist ry
Ġà¸Ńà¸Ńà¸ģà¸Ħ à¸³à¸ª
ç ľ
ĠD raw
à¸²à¸ļ à¸²à¸Ļ
Ġà¸ļà¸Ĺ à¸¥à¸ĩà¹Ĥà¸Ĺà¸©
Ġà¸Ľà¸²à¸ģà¸Ħ à¸¥à¸Ńà¸ĩ
Ġà¹Ħà¸ļ à¹Ģà¸Ĺà¸Ħ
t he
Ġà¸¡à¸«à¸²à¸Ķ à¹Ħà¸Ĺà¸¢
Ġc n
Ġà¸£à¸ĸà¸ªà¸Ńà¸ĩ à¹ģà¸ĸà¸§
7 50
à¸° à¹Ģà¸Ĥ
à¸ĩ à¹Ħà¸Łà¸Ł
Ġà¹Ģà¸§ à¸ļà¹Ħà¸ĭà¸ķ
Ġà¸¡à¸§à¸¢ à¸Ľà¸¥
à¸Ńà¸ĩ à¹ĥà¸ª
Ġà¸Ħà¸Ļ à¸Ļà¸Ńà¸ģ
à¸Ńà¸¥ à¸³
om o
p ace
à¸Ķ à¹Ħà¸Ĺà¸¢
Ġà¸Ĺà¸³ à¸ķà¸²
Ġ12 34
[...]
